#version: 0.2
É ª
É ¹
É Ļ
Ë Ĳ
Ġ Ã
É Ľ
Ê Į
Ê Ĭ
i ËĲ
ÉĻ É¹
a Éª
ĠÃ ¦
s t
o ÊĬ
É¹ Éª
ĠÃ °
Ġ w
Ã ¦
e Éª
u ËĲ
É Ķ
s k
Ġ ÊĮ
Ġ k
st ÉĻÉ¹
Ġ t
É ĳ
É¹Éª sk
stÉĻÉ¹ É¹Éªsk
ĠÃ¦ stÉĻÉ¹É¹Éªsk
Ġ h
Ġ Éª
n d
Ġ s
Ġ d
Ġ ÉĽ
Ġ b
Ê ĥ
Ġ m
Ġ j
É ¡
Å ĭ
Ì ł
ÉĻ n
Ġ f
Ġ n
ÉĻ l
t iËĲ
Ġ p
Éª Åĭ
Ġ l
ĠÃ° ÉĻ
ĠÉĽ m
Ġ aÉª
Ã °
Ġj uËĲ
Ġ É¡
ÉĶ É¹
a ÊĬ
É ľ
Éľ ËĲ
oÊĬ tiËĲ
ĠÉĽm oÊĬtiËĲ
Ġw ÊĮ
ĠÃ¦ nd
n t
Ġk aÉª
Ê Ĵ
Ġt ÉĻ
Î ¸
Éĳ É¹
Ã¦ t
ĠÉª t
ĠÉª n
ĠÊĮ v
Ġ ÉĶ
ÉĽ É¹
Ġ É¹
k s
ĠÃ° Ã¦t
ÊĮ m
ÉĽ n
Ġ iËĲ
Éĳ t
Éª t
Éª d
Ã° ÉĻ
Ġ Î¸
Éª s
Ġh Ã¦
Ġ oÊĬ
Ġ Êĥ
Ġh Éª
ĠÉª z
ÉĽ l
ÉĻÉ¹ É¹
Ġw Éª
ÉĻl z
Ġn oÊĬ
eÉª t
Ġh iËĲ
k w
ĠwÊĮ z
l i
Ġ st
ÉĻn t
Ã¦ n
ĠiËĲ kw
ĠiËĲkw ÉĻlz
Ġf ÉĶÉ¹
Éª k
ÉĽ t
Éª n
aÉª t
ÊĮ t
ĠÉĶ n
ÊĬ É¹
ÊĬ d
ĠwÊĮ t
ÉĽ m
ĠÃ° ÉĽÉ¹
ĠwÊĮ n
Êĥ ÉĻn
Ġd uËĲ
aÊĬ t
Ġw iËĲ
Ġt uËĲ
Ġs ÉĽ
l d
Éª z
ĠwÉª Ã°
Ġj ÉĽ
k t
Ġb iËĲ
Ġm iËĲ
ÊĮ n
ĠÉĶ l
Ġ ÉĳÉ¹
ĠÃ° Éªs
j uËĲ
ĠÉ¡ oÊĬ
Ġj ÊĬÉ¹
Ġf É¹
Ġ É¹Éª
ÉĽ ks
Ġm aÉª
ĠÊĥ iËĲ
Éª l
ĠÃ° eÉª
Ġl aÉª
Ġ v
Ġs iËĲ
ÉĽ nt
ĠhÃ¦ v
Ġw ÉľËĲ
ĠÃ¦ t
Ġb ÊĮt
É¹ iËĲ
Ġh ÉľËĲ
v ÉĻÉ¹
Ã° ÉĻÉ¹
ÉĻ nd
Ġw ÉĶ
ÉĻ s
eÉª k
ÊĮ z
ĠÃ¦ z
aÉª n
ĠÊĮ p
Ġn Éĳt
Ġs oÊĬ
Ġp l
É¹Éª d
Éª É¹
ĠhÉª z
ĠÉªt s
oÊĬ nt
ÊĮ nd
ÉĽ d
Ġs ÊĮm
eÉª d
ÉĻ m
ĠÃ° Éª
Éª v
Ġp É¹
ÊĮ st
ÉĻÉ¹ z
ĠjÉĽ h
ĠÎ¸ ÉªÅĭ
ĠÉªn Ã°ÉĻ
Ġd oÊĬnt
t i
eÉª m
Éª f
ĠÊĮv Ã°ÉĻ
ÊĬ k
Ġk Ã¦n
ĠÊĮ n
Ã¦ k
ĠlaÉª k
aÉª d
ÉĽ s
ÊĮnd É¹Éªd
ĠÉĽ ks
Ġk Ã¦
Ġt É¹
b ÉĻl
ĠhÉª É¹
Ġd Éªd
h ÊĮndÉ¹Éªd
ĠÉ¡ ÉĽt
Éĳ n
ĠÉĽ n
Ġb aÉª
Ġp iËĲ
Ġ aÊĬt
tiËĲ n
ĠhÉª m
ĠhÃ¦ d
ÉĽÉ¹ i
Éĳ m
Åĭ k
ĠfÉ¹ ÊĮm
Ġk ÊĮm
Éª st
É¹ i
ÉĶ l
Ġ ÉĶÉ¹
Ġh aÊĬ
ĠÉ¡ É¹
ĠÉª f
ĠÉĽ f
ĠÉ¹ aÉªt
iËĲ d
iËĲ z
ÊĴ ÊĮst
ĠÃ°Ã¦t s
Ġw ÉĽl
Ġn aÉªn
Ġb É¹
aÉª m
oÊĬ z
eÉª s
Ġl Ã¦
ÉĳÉ¹ t
aÊĬ n
ÉĽ st
Ġm Éĳt
ĠaÉª m
f t
ĠÊĮ b
Éĳ p
Ġs p
v ÉĻn
Éª É¡
Ġn aÊĬ
Ã¦ d
Ġk l
Ġ ÉľËĲ
Ġw aÉª
aÊĬ nd
aÊĬ z
Ġw ÊĬd
ÉĻÉ¹ d
Ġf aÉª
ÊĬ t
Ġ eÉªt
Ġh uËĲ
ĠÃ° ÉĽm
eÉª ÊĥÉĻn
ĠÉ¡ Éĳt
ĠÃ° ÉĽn
Éĳ l
ÉĻl i
ĠÊĮb aÊĬt
aÊĬz ÉĻnd
ĠÎ¸ aÊĬzÉĻnd
Ġw ÉĽn
ĠwÉĶ nt
Ġt ÊĬ
ÉĻn s
ĠÎ¸ÉªÅĭ k
ĠÉª nt
ÉĻ t
b i
eÉª tiËĲ
Ġ sk
k eÉª
Ġl ÊĬk
Ġh oÊĬ
v iËĲ
Ã¦ nd
Ġs eÉª
Î¸ ÉªÅĭ
Ġw ÉĽÉ¹
eÉª n
ĠÉĽf eÉªtiËĲ
Éĳ d
ÉĶ Éª
ÉĽ k
ĠsÉĽ d
Ġt w
ĠÉ¡ ÊĬd
Éª m
ĠwÉª l
ÊĮ v
Ġ ÉĻ
Ã¦ m
ĠjÉĽ s
Ġm ÉĶÉ¹
iËĲ n
ĠoÊĬ keÉª
ĠaÉª ÉĽn
ÉĽ kt
ĠaÉªÉĽn viËĲ
ÉĽks ÉĽks
ĠÉĽks ÉĽksÉĽks
Éª Êĥ
ÉĽ nd
Éªt ÉĻl
p t
Ġt aÉªm
ĠnaÉªn tiËĲn
Ġk É¹
Ġp ÊĬt
ÉĶÉ¹ t
aÉª z
ÉĶ Åĭ
É¹Éª Åĭ
Ġ Éĳ
Ġl ÉĽt
eÉª z
ÉĳÉ¹ d
Éª p
oÊĬ n
ĠÉĶn Ã°ÉĻ
Ã° Éª
ĠÎ¸ É¹iËĲ
i z
Ġv ÉĽÉ¹i
Ġs l
Éª ks
Ġl ÉªtÉĻl
ĠÊĮ m
Ġd aÊĬn
Ġb l
Ġt iËĲ
p ÉĻl
Ġk w
m ÉĻnt
Ġk ÊĬd
Ġb Ã¦k
ĠÉ¡oÊĬ ÉªÅĭ
Ġd É¹
Ġm eÉª
Ġw Éªt
ÉĽnt i
ÊĮ Ã°ÉĻÉ¹
ĠnaÉªntiËĲn hÊĮndÉ¹Éªd
Ġt eÉªk
Ġk ÉĶ
ĠÊĮ É¡
Ġtw ÉĽnti
Ã¦ l
Ġm eÉªk
ÉĶÉ¹ d
ĠÉĶ f
b ÉĻÉ¹
É¹ oÊĬ
Ġ eÉª
Ġb Éªk
ÊĬ l
ĠoÊĬ n
Ġn uËĲ
Éªt i
Ġf l
iËĲ t
ÊĮ d
Ġp ÉĻÉ¹
m ÉĻn
ĠoÊĬ vÉĻÉ¹
Ġm Ã¦n
É¹ uËĲ
ÉľËĲ n
ÊĮ k
Ġt ÉĽl
l z
ÉĶ t
Ġs ÉľËĲ
Ġf ÉĻÉ¹
w ÊĮn
ĠÊĮ s
Åĭ É¡
Ġw eÉª
iËĲ v
Ġf ÉľËĲ
Ġ aÊĬ
ĠÊĮ Ã°ÉĻÉ¹
Ġd ÊĮz
Ã¦ s
Ġk ÊĮ
ÊĮ bÉĻl
Éĳ k
ĠfaÉª v
oÊĬ t
Ġn aÉª
p s
oÊĬ k
ĠÉĽ s
Ġd eÉª
Ġb ÉªÉ¡
p iËĲ
oÊĬ st
Ġpl eÉª
ĠÃ¦ n
ĠaÉª l
ÊĴ iËĲ
Ġh ÊĮz
ĠÉĽ v
Éĳ b
ÉĻ z
ĠÉ¡ ÉĻn
ĠÃ¦ ft
Ġh ÉĽl
i ÉĻÉ¹
p l
ĠÊĮÉ¡ ÉĽn
Ġm ÉĽn
ÉĻn z
ÉĽ vÉĻÉ¹
ĠÉ¡ÉĻn ÉĻ
ĠÉĽ l
ĠsÉĽ vÉĻn
Ã¦ Åĭk
iËĲ p
ĠÉªnt ÊĬ
s iËĲ
ÉĻ d
w eÉª
ĠwÊĮt s
ÊĴ uËĲ
Éĳ s
ĠtÉĻ bi
ÉĽl f
Ã¦ Êĥ
Ġp É¹Éª
ĠÉ¡ Éªv
Ġm Ã¦
ĠfÉľËĲ st
ÉĶÉ¹ s
Ġt ÉĶ
ĠpiËĲ pÉĻl
ĠÉ¹ oÊĬ
Éª stÉĻÉ¹
ĠiËĲ ÉĽks
ÉĻ v
ĠiËĲÉĽks piËĲ
ĠbÉªk ÊĮz
ÊĮbÉĻl juËĲ
uËĲ v
nd ÉĻÉ¹
ĠÉĽn i
ĠkÃ¦ nt
ĠmiËĲ n
nt i
Ġs Éªks
eÉª ÉĳÉ¹
ĠhiËĲ z
Ġd Éªs
ĠÃ¦ d
Ġk ÉĻm
Ġst É¹
Ġn iËĲd
ÊĮ b
Ġ z
ĠhÃ¦ nd
Ġb Éªt
n ÉĻ
l ÉªÅĭ
ĠÎ¸ ÉľËĲ
ĠiËĲ t
ĠÃ° iËĲz
Ġb Ã¦
ĠÊĮ l
É¹Éª k
eÉª nd
Ã¦n s
ĠÉª m
ÉĻ p
Ã¦ kt
Ġm eÉªd
É¡ z
ĠÉª l
Ġm Éªs
i ÉĻli
ĠÉ¹ iÉĻli
ĠoÊĬn li
ĠaÊĬ ÉĻÉ¹
p ÉĻn
Éª ld
Êĥ uËĲ
ÊĮ f
Ġb eÉª
Ġm ÊĮt
ĠÃ¦ft ÉĻÉ¹
ĠÉĽn Éª
Éªf ÉĶÉ¹
oÊĬ ld
Ġs Éªk
ĠlÃ¦ f
ĠÃ°ÉĽÉ¹ z
ĠfÉĻÉ¹ Ã°ÉĻ
ĠÊĥ ÊĬd
ĠdÉªd nt
uËĲ d
Ġs m
Ġb Éªn
ĠpiËĲ eÉªÉĳÉ¹
Ġm uËĲv
ĠsÊĮm Î¸ÉªÅĭ
ÊĮ l
ĠpÉĻÉ¹ s
ÉľËĲ s
i ÉĻ
Éĳ ks
uËĲ l
Ġj ÉªÉ¹
ÉĶ Éªz
Êĥ ÉĽm
ÊĮ s
Ġd iËĲ
Ġd Éĳ
ĠtÉ¹ aÉª
ĠjuËĲ z
Ġl ÉĽ
f ÉĻl
ĠwÉľËĲ k
Ġl ÊĮv
Ġh aÉª
ÊĴ ÉĻn
Ġf iËĲ
Ġ ÉĻÉ¹É¹
Ġf Éªf
ĠsÉĽ k
ĠÉ¡ ÉľËĲ
Ġm Éĳm
uËĲ n
Ġb ÉªfÉĶÉ¹
Ġt eÉª
aÉª ld
Éª ÊĥÉĻn
Éª li
Ġs w
ÉĻÉ¹É¹ i
Ġl ÊĬ
Ġn eÉªm
É¹ ÉĻ
ÉĶÉ¹ n
ĠÉĽ nd
É¹Éª t
eÉªt Éªd
Ġs Éªt
s oÊĬ
Ġk ÉĳÉ¹
ĠÉ¹Éª m
ĠÉ¹ uËĲ
ĠÉ¡É¹ eÉªt
ĠÃ¦ kt
Êĥ ÉĻÉ¹
ÊĮn i
ĠÃ° oÊĬz
ĠhoÊĬ m
siËĲ eÉªt
ĠÉª nd
ĠpÉĻÉ¹s ÉĽnt
Êĥ aÉªld
d eÉª
Ġl ÉĶÅĭ
ÊĮ Åĭ
Ġb Éªl
Ġp eÉª
Ġh eÉª
Ġd Ã¦d
ĠÃ° ÊĮn
ĠwÉĶ nÉĻ
ĠÊĮ weÉª
ÉĽ z
ĠlÉĽt s
ĠÊĮ ndÉĻÉ¹
ÉĻÉ¹É¹ ÉĻ
Ġw ÉĽnt
ÉľËĲ t
Ġm ÉªstÉĻÉ¹
Ġd Éªf
ĠwÊĮz ÊĮ
ĠÉ¹ ÉĽd
ĠoÊĬ ld
ĠwÉªÃ° Ã°ÉĻ
ÉĳÉ¹ k
ĠÊĮ t
j ÊĬl
eÉª v
ĠÉĶl soÊĬ
Ġk aÊĬ
Ġd ÉªÉ¹
ĠduËĲ ÉªÅĭ
Éªt s
Ġn aÉªt
ĠÃ¦ sk
Ġk Éĳm
ĠbeÉª bi
ĠtÉĶ k
ĠÉĻ v
Ġs ÉªÅĭ
ĠsÉªk st
Ã° ÉĻÉ¹É¹
m z
Ġn ÉĽvÉĻÉ¹
ÉĽ f
ĠÎ¸ ÉĶt
ĠÎ¸ É¹uËĲ
ĠwÉª É¹
Ġh ÊĮ
n ÉĻs
Ġh ÉĽd
t ÉĻÉ¹
ÉĽm bÉĻÉ¹
ĠaÉª d
Ġd ÊĮn
b iËĲ
s ÉĽlf
Ġk eÉªm
ĠfÉ¹ÊĮm Ã°ÉĻ
ĠÎ¸ÉªÅĭ z
ĠhÃ¦ p
ĠÉ¹Éª t
ĠhaÊĬ s
ĠÉľËĲ m
ĠaÉª v
ĠjuËĲ n
Ã¦ st
ĠÃ¦ l
ĠÊĮ d
ÉĻ b
ĠÎ¸ Ã¦Åĭk
ĠÉ¹ iËĲ
ĠfaÉª nd
p ÉĻÉ¹
p É¹
b Éªn
Ġpl iËĲz
juËĲ z
Éĳd i
ÉĶ n
ÉľËĲ d
Ġs ÉĶ
Ã¦ nt
Ġst ÉĳÉ¹t
Ġst Éªl
ÉĽn s
Ġm ÊĮm
Éªk ÉĻl
ĠsÉĽ v
ĠiËĲ vÉĻn
n Éĳt
ĠlÃ¦ st
ĠhÉľËĲ É¹
i ÉĻn
Ġp ÉĳÉ¹t
ĠnaÉª nti
oÊĬ s
ĠÉĽv É¹Éª
Ġm ÊĮst
Ġb ÉĽt
ĠlÃ¦f s
uËĲ t
Ġp Éªk
aÉª v
ĠÊĮn ÊĮÃ°ÉĻÉ¹
Ġpl eÉªs
ÉĶÉª nt
ĠÎ¸ÉľËĲ ti
d ÊĮbÉĻljuËĲ
ĠÉ¡ l
Êĥ t
ĠÉĽm ÉĽm
ĠfÉ¹ ÉĽnd
Ġst eÉªt
ĠaÊĬt ÉĻv
Ġm Éªn
Ġsl Ã¦Êĥ
Ġk eÉª
Ġb ÉĶÉª
ĠmÉĽn i
Ġm oÊĬst
ĠÉĽ k
ĠhÉĽl p
Ġl Éĳt
oÊĬ d
Ġd Éªst
ĠÉ¹ iËĲd
Ġn ÉĶÉ¹
Ġf ÉĻÉ¹É¹ÉĻ
ĠÉĻv ÉĻ
Ġm aÉªt
Ġm ÊĮÃ°ÉĻÉ¹
ĠÊĥ ÊĬÉ¹
ÊĴiËĲ ÉĽm
ĠÉĶl É¹
ĠÃ°ÉĽÉ¹ w
n ÉªÅĭ
Ġf Éĳ
ÊĴiËĲÉĽm eÉª
ĠÉªn v
ĠsÉĽ nt
Ġf aÊĬnd
Ġp ÉĳÉ¹
Ġt ÉľËĲn
ĠÉ¡ÉľËĲ l
ĠÉĽ É¡z
Ġn ÉĽk
Ġt ÉĽn
Ġw eÉªt
É¹ ÉĻnt
ĠÊĥiËĲ z
Ġw Éĳt
iÉĻÉ¹ oÊĬ
Ã¦ p
aÉª l
É¹ ÉĻn
Ġst Éĳp
Ġ uËĲ
Ġl iËĲv
ĠÉ¹Éª s
Ġf ÉĽl
Ġl Éªv
ĠlaÉª f
Ġs ÊĮt
ĠÉĽ É¹
ĠfÉªf ti
ÉĳÉ¹ É¹
ĠÊĮv Ã°Éª
ĠkaÉª nd
ĠÉĽks p
ĠnaÉª s
ĠwÉľËĲ É¹
Ġl eÉªt
Ġl iËĲ
Ġk Éĳn
ĠÉªz ÉĻnt
ĠlÊĬ ks
É¡ É¹
ĠwaÉª l
Ġb oÊĬ
ĠeÉªt i
ĠkÉĶ ld
ĠkÉĶ z
eÉª l
Ġd ÉĶÉ¹
Ġm Ã¦t
ÉĽ v
Ġf juËĲ
Ġb ÊĬk
ĠÉĻÉ¹É¹ aÊĬnd
Éªn s
Ġk iËĲp
ĠbiËĲ ÉªÅĭ
Ġf ÉĳÉ¹
p ÉĶÉ¹t
ĠjÉªÉ¹ z
ĠjuËĲz d
ĠÉĽnÉª Î¸ÉªÅĭ
ÉĶÉ¹ i
Ġs ÉĳÉ¹
ÊĮ nt
Êĥ Éªz
Ġk ÉĻn
Ġk ÉĽÉ¹
ÊĴ ÉĻÉ¹
m d
t s
ĠpÉ¹ Éĳb
ĠsÉªkst i
Ġf eÉªs
s aÉªd
ĠaÉª ÊĮm
Ġk ÉĻnt
Ġs eÉªm
ÉĻnt i
ĠÉĽ d
ÉĽl v
Ġp ÉĶÉªnt
Ġk ÉĶl
Ġw ÉĶÉ¹
ĠÉ¹Éª l
ĠÉĽm eÉªt
ÊĴ d
ĠwiËĲ l
Ġl ÉĶ
Ġn ÉĶÉªz
ĠhoÊĬ ld
É¹ ÉĻl
ĠsÉĽv ÉĻnti
ÉĽ É¹Éªk
t ÉĻn
Ã¦ Åĭ
ĠbÉĽt ÉĻÉ¹
ĠbiËĲ ÉĳÉ¹
ĠnÉĽk st
b Éĳdi
ĠÉĽm siËĲeÉªt
ĠÉ¹ ÊĮn
w eÉªz
aÉª nd
Êĥ ÉĻl
ÉĽ Ã°ÉĻÉ¹
ĠdÊĮz ÉĻnt
Ã¦ b
ĠsÉĳÉ¹ i
ĠfÉĶÉ¹ ti
ĠÉª Åĭk
Éª sk
ĠÊĥ oÊĬ
ÉĽ pt
Ġt ÉľËĲ
ĠÉªn Ã°Éª
ÉĽ p
st É¹
Ġt aÉª
Ġsk uËĲl
aÊĬ d
ĠÃ°eÉª ÉĻÉ¹
ĠÉĽn eÉª
Ġn ÊĮ
Ã¦ É¡
Ġs n
ĠÉ¹uËĲ m
Éªn z
ÉĻ bÉĻl
Ġs ÉĽt
Ġm oÊĬ
ĠbiËĲÉĳÉ¹ É¹oÊĬ
ĠjuËĲ v
Ġb Éĳks
É¹Éª s
Ġl uËĲ
Ġk Ã¦t
Ġk Éĳ
ÉĻnt s
p Éĳn
Êĥ ÉĻÉ¹É¹
ÊĴ ÉĽn
Ġt oÊĬld
Êĥ ÉªÅĭ
Ġh ÉĳÉ¹d
ĠÉĽl s
Ġf aÉªn
Ġf ÉĶl
ĠsiËĲ n
ÊĴ Éĳn
Ġb ÉĶl
ĠÃ°Ã¦t Ã°ÉĻ
Ġf ÊĬt
ÊĥÉĻn ÉĻl
ĠwÉľËĲ d
ÉĻl d
ĠÉĶl weÉªz
Ġk ÉĻns
ĠlÉĽ ft
ÊĥÉĻn z
Ġ eÉªd
Ġs ÊĮn
ĠwÉľËĲ ld
ĠwÉĽÉ¹ z
b ÉĻÉ¹É¹
juËĲ n
ĠnÊĮ Î¸ÉªÅĭ
uËĲ p
ĠÊĮ nt
oÊĬ l
ĠmÊĮm i
ĠÉ¡ eÉªm
ĠwÊĮz Ã°ÉĻ
iËĲ k
Ġs aÉªd
aÉªt Éªd
ĠwÉĶ tÉĻÉ¹
Ġb ÉľËĲ
ĠtÉĻ deÉª
ĠÊĮm ÉĽÉ¹Éªk
ĠoÊĬ pÉĻn
aÊĬ Î¸
Ġst Ã¦nd
ĠfÉĳ Ã°ÉĻÉ¹
Éĳ É¡
ĠpÉ¹ ÉĽz
Ġw oÊĬnt
j ÊĬÉ¹
ĠÃ°ÉĽÉ¹w ÊĮz
ĠÉĽv É¹i
w ÉĽÉ¹
Ġb ÉĶÉ¹n
eÉªÊĥÉĻn z
ÊĴ Éªn
ĠmeÉª biËĲ
ĠÉ¡ Éĳd
ÊĮ É¡
Ġkw aÉªt
ĠÉ¡ ÉĶn
ÉĽ Î¸
ĠÊĮ k
Ġb Éª
Ġm ÊĮni
Ġk ÉĶÉ¹s
ÊĴ Éªz
Êĥ eÉªnd
Ġt ÊĬk
É¹iËĲ t
l ÉĻnd
ĠÃ° oÊĬ
Ġb ÉĽd
Ġp ÉľËĲ
ĠÉ¡oÊĬ z
Ġd aÉª
Ġl eÉªd
Ġf Ã¦t
Ġp Éĳp
ĠmÉªs Éªz
ĠdÃ¦d i
ĠÉĽneÉª ÉĽn
ÉĻ f
iËĲ s
Êĥ ÉĽÉ¹
ÉĶ Éªs
ĠkÊĮ l
ÉĽd i
ĠÊĮnt Éªl
ĠÉªn ÊĮf
aÉª ÉĽs
Ġn ÉªÉ¹
ÉĻ k
ĠkÊĮm ÉªÅĭ
ĠsÉĽk ÉĻnd
É¹Éª kt
Ġl aÉªt
ĠÉĽs aÉªÉĽs
w ÉĶÉ¹d
Ġb ÉĽst
É¹iËĲ m
ĠsÉĽ z
Ġp ÉľËĲs
Ġs ÉĻp
Ġst eÉª
Ġf Éªl
Ġn ÊĮm
ÊĮ vÉĻÉ¹
ĠhuËĲ z
ĠmiËĲ t
ÉĽkt Éªd
É¡ ÉĻÉ¹
h ÊĮ
ÊĮ p
É¹iËĲ n
ÉĽ É¹Éª
Ġh ÊĮd
ÊĥuËĲ ÉĻli
Êĥ Éªld
aÉª s
Ġs Éªti
Ġd Éªv
Ġj ÉĽt
ĠaÉª z
ĠÉľËĲ É¹
t ÉĻ
ÉĽ É¡
ĠmÉĶÉ¹ nÉªÅĭ
ÊĮ Åĭk
ĠnoÊĬ n
Ġs aÊĬnd
Éª nd
ĠhÊĮd bÉªn
aÊĬ nt
ĠboÊĬ Î¸
ĠÉĽ vÉĻÉ¹
iËĲ eÉª
ĠtÉ¹ uËĲ
ĠÊĥ Ã¦l
ĠÉ¹iËĲ ÉĻl
ĠpÉªk t
Ġd Éªsk
Ġd Éĳl
ĠlÊĬk ÉªÅĭ
ĠwÉª nd
ĠÉĽ nt
Éª b
Ġj ÉĶÉ¹
É¹ ÉĽst
ĠfÉĶÉ¹ m
ÉªÅĭ z
ĠwÊĮn hÊĮndÉ¹Éªd
ĠÉ¹ aÊĬnd
ĠkÃ¦ m
ĠhoÊĬ l
ĠÃ¦sk t
f ÉĶÉ¹
ĠfiËĲ l
ĠmaÉª nd
ĠÉ¡É¹ Ã¦nd
ĠpiËĲ s
ĠÉĻ pÉĳn
ÉĽ vÉĻn
ÉĻl oÊĬ
ĠÉ¹ Ã¦
ÊĥÉªld É¹ÉĻn
ÉªÊĥ t
ĠmÉĳm i
s ÉĻl
ĠsÉľËĲ v
ÉĽÉ¹ z
ĠeÉªt hÊĮndÉ¹Éªd
ĠdÉªf É¹ÉĻnt
Ġh Éĳ
Ġn Ã¦
ĠhÃ¦ ft
Ġt Éĳp
Êĥ Éªp
Ġb Ã¦d
ĠÉ¡ÉĽt ÉªÅĭ
Ġf eÉª
ĠtÉĻ É¡
É¹Éª st
ĠÊĮ f
Ġsm ÉĶl
Ġt Éĳm
ĠdÉĳ É¡
ĠbÉªl iËĲv
Ġbl uËĲ
Ġbl Ã¦k
ĠÉĶlÉ¹ aÉªt
ĠmeÉª ks
ĠkÉĻm p
ÉĽk ÊĥÉĻn
ĠÉ¹ÉĽd i
ĠmeÉªk ÉªÅĭ
Ġm juËĲz
Ġf Éĳl
h ÊĮv
Ġj ÊĮÅĭ
ĠhÃ¦ z
Ġf Ã¦m
ĠtiËĲ iËĲeÉª
Ġb ÉĶÉªz
ĠhÃ¦ft ÉĻ
ĠwÉªÃ° aÊĬt
Ġs Éªns
ĠbÉªt w
ĠÃ¦n Éªm
ĠÉĽvÉ¹Éª Î¸ÉªÅĭ
ĠÉ¹ ÉĽk
ÊĮm p
Ġd Éªp
Ġz iÉĻÉ¹oÊĬ
ĠbÉªtw iËĲn
Ġfl ÉĶÉ¹
ĠhÉľËĲ d
f Éªs
ĠkaÊĬ nti
Ġb É¹ÉªÅĭ
ĠfÃ¦m Éªli
aÊĬ ÉĻÉ¹
ĠdÉªd nÉĳt
ĠmÃ¦ É¡
ĠhÃ¦v ÉªÅĭ
Ġh ÉĳÉ¹t
ĠhÃ¦ f
w ÉĻÉ¹d
Ġs Éªl
i ÉĻs
dÊĮbÉĻljuËĲ dÊĮbÉĻljuËĲ
ÉľËĲ v
ĠpÉ¹Éª ti
ÊĴ eÉª
ĠÉĶÉ¹ d
ĠhÉªm sÉĽlf
ĠhÃ¦nd z
Ġf Éªn
Ġs Éªm
ĠwÊĮn z
ĠwiËĲ v
ĠÉ¹Éªm ÉĽmbÉĻÉ¹
Éª bÉĻl
t aÉªm
Ġd É¹Éª
Ġm Éªl
ÉĻb li
ĠmaÉª k
m Éªn
Ġp Ã¦
ĠÃ°Ã¦t wÊĮn
s ÉĻn
Éª oÊĬ
Ġd eÉªz
Ġm ÉĳÉ¹
Ġs uËĲn
Ġsl iËĲp
Ġs ÉªÉ¹
ÉĽ b
ĠÊĮmÉĽÉ¹Éªk ÉĻn
ÊĴ ÉĽkt
Ġb eÉªs
aÉª ÉĻÉ¹
Ġh ÉĶÉ¹s
Éªd ÉĻnt
ÉĻm z
aÉªz d
ĠpÉľËĲs ÉĻn
ĠÊĮÉ¡ÉĽn st
Ġh ÉĻloÊĬ
ĠÉĽf siËĲeÉªt
ĠÃ¦n s
Ġd Éªz
Ġ Éĳp
Ġb ÉĳÉ¹
Ġt aÊĬn
Ã¦ ks
Ġs ÉĶÉ¹t
Ġl Éªs
juËĲ t
Ġb Éªz
uËĲ z
ÉªÅĭ k
Ġd aÉªd
ÊĬÉ¹ É¹ÉªÅĭ
Ã¦ ps
ÉĻÉ¹ t
Ġw Éĳ
ĠteÉª bÉĻl
ĠjuËĲ l
ĠtÉĶk ÉªÅĭ
Ġm Ã¦d
Ġm ÉĽm
Ã¦ f
ĠwiËĲ k
É¹i d
aÉª k
ĠÃ¦ m
Ġf iËĲt
ĠwÉĶ k
m oÊĬst
Êĥ ÉĻÉ¹z
v ÉĻÉ¹É¹
Ġd ÉĳÉ¹
ĠhÃ¦v ÉĻnt
ĠmaÉª n
ÉĶ s
ĠlÊĬ kt
ĠwÉĶnt Éªd
ĠÃ°Éªs wÊĮn
ĠhÃ¦p ÉĻnd
Ġt É¹iËĲ
ÊĴ Ã¦k
ĠfÉĻÉ¹ É¡
ĠÊĮndÉĻÉ¹ st
Ġw aÉªt
ĠnoÊĬ z
ĠÉĻ k
ĠnÉĶÉ¹ Î¸
Ġv ÉĶÉªs
ĠÉĳÉ¹ m
ĠmoÊĬ mÉĻnt
b ÉĶl
Ġp ÊĬ
ĠbÉ¹ ÊĮÃ°ÉĻÉ¹
ĠdÉĳ kt
Ġk ÊĮt
oÊĬz d
ÉĻÉ¹ n
ĠsteÉªt s
ĠjuËĲn aÉªtÉªd
Ġk Éªd
Ġkw ÉĽst
ĠwÊĮn s
Ġd ÊĬÉ¹É¹ÉªÅĭ
Ġtw ÉĽlv
Ġf uËĲd
oÊĬk ÉĻl
ĠÉĳ b
ĠtÉĻÉ¡ ÉĽÃ°ÉĻÉ¹
v ÉĻl
ĠbÉª h
ĠkÊĮ nt
ĠpÉĳÉ¹ ti
ĠÉĽk sk
ĠlaÉª n
ĠkaÊĬ nt
ÊĮb l
Éª ÊĴÉĻn
Ġp ÉĻl
Ġs Ã¦t
Ġst ÉĶÉ¹i
ÊĴ i
Ġkl oÊĬs
ĠÉ¹ ÉĽst
ĠÉª ÅĭÉ¡
Ġsp iËĲk
ĠÉªnt É¹ÉĽst
ÉĽÉ¹ d
Ġl eÉª
Ġpl ÊĮs
p ÉĻÉ¹É¹
juËĲ d
ĠÉªn st
Ġl ÉĳÉ¹d
ÊĴÉĽn ÉĻÉ¹É¹
ÉĻ st
Éªk li
Ġs ÉĽl
ĠÉ¡ eÉªv
ĠÉ¹Éª f
Ġk É¹iËĲ
ĠÉĻ b
ĠjuËĲ s
Ġst iËĲ
ĠtÉ¹aÉª ÉªÅĭ
Ġk Éĳl
ĠÉĶl moÊĬst
ĠhoÊĬ p
eÉªn z
Ġb ÊĬ
l uËĲd
ĠleÉªt ÉĻÉ¹
ĠÉĽ É¹i
Ġd Éªl
ĠlÃ¦ nd
ÉĽ Êĥ
ĠÊĮl ÉĶÅĭ
Ġp Ã¦st
l ÉĻs
ĠpleÉª ÉªÅĭ
Ã¦m p
ĠpÉ¹Éĳb ÉĻbli
ÊĬ mÉĻn
Ġl oÊĬ
ĠÊĮ Åĭk
ÊĴ Éĳb
Ġf Ã¦kt
ĠÉ¹oÊĬ mÉĻn
Ġk ÉľËĲ
ĠiËĲ z
Ġb Éªld
ĠeÉª tiËĲn
ĠÉ¹ iËĲt
Ġb Éĳm
ĠwÊĮz ÉĻnt
uËĲ s
ĠfaÉª ÉĻÉ¹
juËĲ ti
ĠÃ¦ nt
ĠÉĳ fÉªs
ĠkÃ¦ pt
ĠÉªl ÉĽvÉĻn
ĠÉ¡ É¹iËĲn
Ġ Éĳn
ĠlÉªs ÉĻn
Ġw uËĲ
Ġm ÊĮn
Ġd ÉĻ
ĠÉ¹oÊĬ d
Ġj ÉĽl
ĠÊĮndÉĻÉ¹st Ã¦nd
Ġp Éĳl
Ġp ÊĬÉ¹
ÉĻnt li
oÊĬn z
Ġw ÊĬmÉĻn
Ġf ÉªÊĥ
eÉªt ÉªÅĭ
ÊĮ kt
ĠtaÉªm z
ÊĴ ÉĻÉ¹É¹
ĠnoÊĬ t
ĠÉĶlÉ¹ ÉĽdi
ĠdÉĳÉ¹ lÉªÅĭ
Éĳ v
ÉĻt li
Ġk ÉªÅĭ
ĠÃ°ÉĽÉ¹ ÉĳÉ¹
Ġb ÉĽn
ĠÉĶn Ã°Éª
ĠkÊĮm z
ĠkÊĮnt É¹i
Ġh ÉĽÉ¹
ĠÉ¡ ÊĮvÉĻÉ¹
Éªk t
eÉªt s
ÊĮ Êĥ
ĠÉĳÉ¹ t
f i
Ġf ÊĬl
ĠfÉªf tiËĲn
Ġk eÉªs
ĠsÊĮm wÊĮn
ĠseÉª ÉªÅĭ
ĠwÊĮ ndÉĻÉ¹
ĠhÃ¦p i
Ġp eÉªd
ÊĴiËĲ ÉĳÉ¹É¹
ĠkÉ¹ aÉª
ÉĻ Î¸
É¹ ÉĻns
ĠÉ¹Éª z
ĠwÊĬd ÉĻnt
ĠÉ¡ÉľËĲ lz
oÊĬ ÉªÅĭ
ĠÉªn f
ĠsÊĮm taÉªm
jÊĬl ÉĻÉ¹
ĠstÉĳÉ¹t Éªd
ĠÉ¡ÊĮvÉĻÉ¹ n
b ÉĻ
Ġp Éĳs
ÉĻÉ¹ É¹ÉªÅĭ
ĠleÉªd i
Ġs uËĲ
ĠÉ¹Éª p
Ġp Ã¦s
ĠdÉ¹ ÉĶ
Ġd ÉĽÎ¸
Ġpl eÉªd
ĠdeÉª v
ÊĮ Ã°ÉĻÉ¹É¹
ĠbÉ¹ oÊĬk
ĠÎ¸ É¹oÊĬ
ĠÉ¡ ÉĽs
v ÉĽnt
Ġpl Ã¦n
Ġj ÊĮ
ÉĻt Éªv
Ġh ÊĮv
ĠÉ¡ Ã¦s
Ġw Éªs
Ġst ÉĶÉ¹
b ÉĻÉ¹z
ÉªÅĭ É¡
ĠnÉĳt ÉĻ
Ġsk w
ĠdÉ¹Éª Åĭk
Ġs ÉĽns
ĠÉ¹ ÉĶÅĭ
É¹ ÉĻs
Ġm ÉĳÉ¹t
ĠtiËĲ m
ĠmjuËĲz Éªk
ĠiËĲ v
ĠkÉĳ nt
Ġkl ÉªÉ¹
ĠÊĥ ÉĶÉ¹t
ÊĴiËĲÉĳÉ¹É¹ eÉª
s i
Ġs ÊĮb
ĠÉĽk st
ĠÉªÅĭk luËĲd
z ÉĻn
ĠsÊĮmtaÉªm z
ĠmiËĲn z
ĠÉªm p
ĠmÉªn Éªt
ĠtÉ¹ eÉªn
ĠpÉ¹Éĳb l
Ġj ÉĶÉ¹s
Ġb ÉĽÉ¹
ĠtÉĻ m
Ġs aÊĬÎ¸
Ġl iËĲd
ĠÉ¹Éª k
Ġs Éªs
l aÉª
ĠmÊĮn Î¸
Ġl ÉĽs
ÊĴ eÉªd
ĠlÉĶ st
Ġd Éªn
ĠpeÉª pÉĻÉ¹
Ġk Éªl
Ġd ÉĽd
ĠÎ¸ É¹
ĠsÉľËĲ tÉĻn
ĠÉªn s
Ã¦Åĭ ks
ĠfÉ¹ÉĽnd z
Ġt ÊĮt
Êĥ ÉĻÉ¹d
Ġst ÉĳÉ¹
Ġp Ã¦t
ÉĽnt ÉĻl
mÉĻnt s
Ġw ÉĽ
ĠmuËĲv i
b É¹
Ġst Éªk
Ġb Éĳ
Ġb juËĲti
ĠÉĽks pl
Ġb Ã¦t
iÉĻÉ¹ Éª
Ġh Éĳt
Êĥ iËĲ
ĠnÃ¦ ÊĥÉĻnÉĻl
eÉª p
ĠtiËĲ t
w Éªt
Ġm Éªd
Ġm Éªst
É¹Éª ti
ĠÉĳÉ¹ nt
Ġb Éĳt
Ġs ÉĻÉ¹
Ġst ÊĮf
Ġh ÉĳÉ¹
ĠkeÉª ÉĽf
ĠbÉ¹ ÉĶt
ĠkÊĮ p
juËĲ s
ÉľËĲ nd
ĠtÉĻ wÉĶÉ¹d
ĠaÉªd iÉĻ
Ġs ÉĶÅĭ
ĠÉ¡Éĳt ÉĻ
ĠÉª É¹
Ġb ÉĶÉ¹d
ĠÉ¡ ÉĳÉ¹d
ĠÃ° ÊĮt
ĠsÉªÅĭ ÉªÅĭ
Ġt Éªl
ĠÃ¦ft ÉĻÉ¹É¹
h Ã¦ps
Ġm ÉĽt
ĠdÉ¹ Éĳp
ĠpÉĻÉ¹ hÃ¦ps
ĠÉ¡ aÉªz
ĠbÉªk eÉªm
ĠsÉªkst iËĲn
ĠdÉªst É¹Éªkt
Ġh ÊĮndÉ¹Éªd
Ġm ÉĳÉ¹k
ĠfÉ¹ ÊĮnt
oÊĬ m
ĠkÉĻnt Éªn
ĠjÉĶÉ¹s ÉĽlf
Ġb ÉĽl
Ġh juËĲ
ĠsiËĲ md
ÊĮl t
b iËĲn
Ġp aÉª
ĠdÉĳkt ÉĻÉ¹
Ġb oÊĬt
É¹Éª n
ĠtuËĲ hÊĮndÉ¹Éªd
ĠÉĽÉ¹i ÉĻ
ĠoÊĬ vÉĻÉ¹É¹
Ġp ÊĬl
ĠbÉ¹ eÉªk
ĠaÊĬt saÉªd
aÉªz Éªz
ĠÉ¹Éª d
ĠtÉľËĲ nd
ĠwÉľËĲd z
ÊĴ ÉĶÉª
É¡ ÉĻl
Ġf aÉªt
ĠbÉľËĲ Î¸
ĠÉ¡ aÉª
Ġs ÉĻ
ĠsÉľËĲ k
ÉĽv ÉĻÉ¹É¹
ĠwÊĬd hÊĮv
ĠsÉĽvÉĻn tiËĲn
Êĥ ÉĳÉ¹
ĠbÉªÉ¡ Ã¦n
ÊĥaÉªld ÉĻz
ĠseÉª v
uËĲ m
Éªt Éªd
b ÉĻlz
ÉĶ d
ĠteÉªk ÉªÅĭ
Ġb ÉľËĲd
ÉªÉ¹ d
ĠbÉªh aÉªnd
eÉªd iËĲ
ĠteÉªk ÉĻn
Êĥ Ã¦
ĠeÉª nt
ĠwÉĶnt s
ĠÉ¹Éª pl
ĠeÉª bÉĻl
Ġf ÊĮni
ĠkÊĮm pÉĻn
ĠmaÉª sÉĽlf
ĠÉ¹ iËĲz
ÊĮd i
ÊĴ ÉĻÉ¹z
ĠbÉªz nÉĻs
ĠhÃ¦d tÉĻ
ÉĶ z
ĠkÃ¦ l
ĠhÃ¦z biËĲn
ÉĽs i
ĠjÉĶÉ¹ k
Ġf ÉĽb
Ġs ÉªstÉĻÉ¹
ĠÉ¹Éª vÉĻÉ¹
ĠÉ¡ Ã¦
Ġk É¹Éªs
Ġh aÉªd
ÉĽlv z
Ġm aÊĬÎ¸
ĠhÃ¦ pÉĻn
ĠÉ¹ aÉªd
Ġd ÊĮbÉĻljuËĲ
ĠÉªm pÉĶÉ¹t
ÊĴ Ã¦n
ĠiËĲz i
ĠÉĶf ÉĻn
ĠjuËĲ ÊĴuËĲ
Ġ eÉªm
ĠmÃ¦t ÉĻÉ¹
ĠhÉªÉ¹ z
ĠfÉĶÉ¹ tiËĲn
ĠhÊĮv bÉªn
ĠÉľËĲ li
ÉĶ Éªd
ĠhÉľËĲ t
É¡ n
Éªli ÉĻn
ÊĴ ÉľËĲ
Ġp ÊĮbl
É¹uËĲ ÉĽÉ¹i
Ġh Éªt
ĠtÉĶ Éªz
ĠÃ¦nÉªm ÉĻlz
ĠfÉĽb É¹uËĲÉĽÉ¹i
Ġs aÉª
Ġm ÉĽd
Éªv ÉľËĲs
Ġk Éªs
ĠÎ¸ÉľËĲ tiËĲn
ĠÃ°ÊĮt Éªt
ĠbÉªk ÊĮm
ĠÎ¸ Ã¦Åĭks
ĠfÉ¹ iËĲ
ĠkÉĻm pl
ÊĴ oÊĬ
ĠsÉªl vÉĻÉ¹
ĠÉĶ t
Ġv oÊĬkÉĻl
aÊĬ s
ĠÉ¡Éªv ÉĻn
ĠdÉ¹ aÉªv
Ġf ÊĮk
ĠfÉĽl t
ĠtÉĻm ÉĳÉ¹
ĠmÉªn Éªts
ĠjÉĽl oÊĬ
Ġk oÊĬld
ĠpÉ¹ ÉĻd
ĠÊĮÃ°ÉĻÉ¹ z
Ġm eÉªn
Ġm Éĳ
Ġw aÊĬ
É¹ ÉĻt
ĠkÊĬd ÉĻnt
ĠfÉĳÉ¹ m
Éªs Éªp
p ÉªtÉĻl
Ġd ÊĮk
ĠtÉĻmÉĳÉ¹ oÊĬ
ĠfÊĬt bÉĶl
Ġb ÉĳÉ¹t
ĠwÉª n
ÉĽnd Éªd
ĠfÉ¹ eÉªs
ĠÉ¹Éª Åĭ
ÅĭÉ¡ w
Ġv Éªz
ĠÉ¡ ÊĮn
Éªf t
l ÉªÊĥ
p ÉĽkt
ĠbjuËĲti fÉĻl
É¹ eÉªd
ĠjuËĲn ÉªvÉľËĲs
ĠliËĲ st
Ġp ÉĽÉ¹
Ġk oÊĬ
ĠÉ¹Ã¦ Ã°ÉĻÉ¹
Ġf ÉĽÉ¹
Ġf ÉªÉ¡
Ġk ÊĬk
Êĥ Ã¦ns
ĠfÉ¹ Ã¦ns
Ġf ÊĮn
aÉªd Éªd
ĠdÉªp ÉĳÉ¹t
É¹Éª z
Êĥ ÉĽk
Ġm ÉĽs
Êĥ ÉĻs
Ġn iËĲ
ÉªÉ¡ n
ĠstÉ¹ ÉĶÅĭ
ĠÉ¹ Éĳk
ÉªÉ¹ z
ĠÃ¦ b
ĠaÉªl ÉĻnd
ÉĽn ÊĥÉĻn
Ġf oÊĬn
Ġkl Ã¦s
Ġsw iËĲt
ĠÉªn saÉªd
ĠtÉ¹ Ã¦ns
ÊĴuËĲ n
Ġd ÉĳÉ¹k
ĠkÉĻn f
h ÉĽd
w ÉľËĲ
ĠbÊĬ ks
ĠlaÉª v
ĠpÉ¹ Éĳm
ĠpÉĻl iËĲs
ĠdeÉªv Éªd
ĠÊĮ hÊĮ
s ÉĽlvz
Ġn eÉª
Ġk ÉĻl
ÊĴeÉªd ÊĮbÉĻljuËĲ
ĠÉ¡ÉĽt s
ĠÊĮl oÊĬn
ĠwÉª Êĥ
ĠnuËĲ z
ĠÊĮm ÊĮÅĭ
ĠwaÉª f
b aÉª
Ġp É¹iËĲ
Ġb Éĳdi
ĠduËĲ nÉĳt
Ġs aÉªl
Ġb É¹iËĲ
Ġt ÉĶÉª
Éª nt
ĠkÊĮ vÉĻÉ¹
Ġd Ã¦ns
Ġv Éªl
ĠkÃ¦ É¹i
Ġt É¹Éª
ĠÉĳb d
Ġw ÉĽst
ĠjuËĲ d
iÉĻÉ¹ oÊĬz
Ġs Ã¦nd
Ġv iËĲ
Ġd Éªk
É¹uËĲ m
Ġs aÉªt
Ã¦ v
ĠnÊĮm bÉĻÉ¹
f ÉĻli
ĠÊĮÉ¡ oÊĬ
ĠÉ¡É¹ aÊĬnd
ÉĽ ÊĥÉĻn
ĠmÃ¦n Éªd
ÊĴ ÉĶÉ¹d
juËĲ ÉĽÉ¹i
ĠÉ¡l Ã¦d
ĠwÉľËĲk ÉªÅĭ
ĠÉ¹oÊĬ l
Ġd Éªt
ĠhÉľËĲ sÉĽlf
Ã¦l Éªti
ĠkÊĮmpÉĻn i
iËĲ st
ĠkÃ¦pt Éªn
ĠÃ°Ã¦ts Éªt
Ġk É¹Éªst
aÉªn z
ĠwÉĶ l
ĠÊĥ ÉĳÉ¹
ÉĻÉ¹ É¹Éª
ĠÉªmpÉĶÉ¹t ÉĻnt
Ġp ÉĻz
ĠbÉĳm bÉĻ
ĠÊĮd v
ĠsÉľËĲv Éªs
stÉĻÉ¹ É¹i
ĠpÉĶÉªnt s
ĠfÉ¹eÉªs ÉĻÉ¹
ĠsÉªÉ¹ iz
eÉªm d
ĠÉ¹ Éĳ
ĠteÉª ks
i ÉĻnz
Ġk oÊĬt
ĠsÉĶ ft
ĠÉª s
stÉĻÉ¹ n
Ġm Ã¦m
ĠaÊĬ ÉĻÉ¹z
pÉ¹ ÉĻl
ĠÉ¹iËĲz ÉĻn
ĠÉ¡oÊĬ ld
Ġkl oÊĬ
Ġb ÉĽsi
ĠbÃ¦ Î¸
ĠÃ°ÉĽÉ¹w ÉľËĲ
Éªf Éªk
f ÉĽkt
Éĳl ÉĻd
ĠÉªl iËĲn
ĠfÉªn ÉªÊĥt
ÉĶ nt
ÊĴÃ¦n juËĲÉĽÉ¹i
ĠdiËĲ eÉªdiËĲ
Éªst s
ĠÉ¹ eÉªd
ĠsiËĲ t
ĠÊĥ Éªp
Ġd Ã¦t
É¹ Éĳs
ĠsÉĽv É¹ÉĻl
Ġh Ã¦t
Ġh ÉĶl
Ġm ÉĻ
Ġk Éĳs
ÊĴ Éªm
ĠfÉĶÉ¹ t
ĠÉ¡É¹ uËĲp
ĠdiËĲ l
ĠfiËĲ lÉªÅĭ
ĠtÉ¹ aÉªd
ÊĴ ÉªÅĭ
Êĥ Éªk
ĠaÊĬ ÉĻÉ¹É¹
ĠkÉ¹ eÉª
ĠstÉ¹ eÉªnd
ĠdÉªÉ¹ ÉĽkt
ĠfÉĶÉ¹ s
ĠsÉªt ÉªÅĭ
Ġsl oÊĬ
ĠstiËĲ vÉĻn
Ġk iËĲ
ĠsiËĲ mz
ĠsiËĲ m
ĠsÉĽ nd
Ġkw aÉª
ĠÉĻk É¹Éĳs
ĠsÉĻ ks
Ġp ÉĶÉ¹t
Éªt iz
ĠkÉĻns Éªd
Ġd Éĳn
Ġn Éĳ
ĠfeÉª vÉĻÉ¹
ÉĽÉ¹ ÉĻ
ĠbiËĲ t
Ġm Éĳd
ĠÉ¹Éª pÉĶÉ¹t
ÅĭÉ¡ É¹i
ĠÉªÅĭÉ¡ lÉªÊĥ
Ã¦ ft
ĠnoÊĬ v
ĠseÉª f
ĠÃ¦t ÉĻ
ĠsÊĮm bÉĳdi
ĠtÉ¹ ÊĮbÉĻl
ĠbÉ¹ oÊĬ
ĠmÉªl k
ĠpÉ¹Éĳbl ÉĻm
ĠhÉª stÉĻÉ¹É¹i
ĠeÉª pÉ¹ÉĻl
ÊĴÉĽnÉĻÉ¹É¹ ÉĻl
Ġd ÉĶt
Ġp oÊĬst
n s
Ġkl iËĲn
ĠiËĲ Ã°ÉĻÉ¹
v d
ĠÉ¹ eÉªn
Ġb É¹Éªt
ĠlÉªv d
ĠfÉªÉ¡ j
ÉĻn aÉªt
ĠaÉª s
É¹ aÉª
ĠÃ¦ k
bÉĻÉ¹ t
Ġb Ã¦nd
Ã° z
ĠsiËĲ k
Éª Î¸
Ġb Éĳb
ĠfiËĲ ld
ĠhaÊĬ ÉĽvÉĻÉ¹
Ġw ÉĽÃ°ÉĻÉ¹
Ġl ÉĽd
ÊĴ iËĲn
ĠÉĶÉ¹d ÉĻÉ¹
ĠmÉĳm ÊĮ
ÊĴ ÉĻ
Ġt ÉĻnaÉªt
ÉĻm i
Ġk Éªt
oÊĬn i
ĠÉĽÉ¡z Ã¦m
ĠÉĳ kt
ĠlÊĮv li
ĠjÉĶÉ¹ z
Ġs ÊĮd
ĠpÉ¹ÉĽz ÉªdÉĻnt
ĠdÉªn ÉĻÉ¹
ÊĴ ÉĽst
ĠpÉ¹Éª t
eÉªz i
ĠkÃ¦m p
b ÉľËĲ
Êĥ ÉľËĲt
Ġst É¹iËĲt
ĠÊĥ ÊĮt
ĠÊĮ wÉĶÉ¹d
Ġk Éªld
Ġt ÉĽm
ĠlÃ¦f ÉªÅĭ
h oÊĬ
ĠÎ¸ÉªÅĭk ÉªÅĭ
ĠdÉĳl ÉĻÉ¹
Ġp Éĳ
ÅĭÉ¡w Éªd
Ġk ÉĶÉ¹n
Ġp oÊĬ
ĠpÉĳp jÊĬl
ĠsÊĮd ÉĻn
ĠlÉªv ÉªÅĭ
h Éĳ
Ġl Éªst
ĠkÉ¹eÉª Éĳn
Ġk aÊĬn
ĠjuËĲÊĴuËĲ ÉĻli
ĠÊĮÅĭk ÉĻl
ÉĽ ÊĥÉĻl
ĠstÉ¹ eÉªt
Éĳl Éªd
ÊĴÉľËĲ mÉĻn
ĠhÉĽl d
ĠÉ¡eÉªm z
Ġn Ã¦t
ĠpÉ¹ Éĳp
ĠÊĮÉ¡ É¹iËĲ
ĠsÉĻp oÊĬz
ĠmaÉªk ÉĻl
Ġp ÉĽn
ĠsÉĻÉ¹ pÉ¹
ĠmÃ¦ stÉĻÉ¹
ĠÊĮ Ã°ÉĻÉ¹É¹
Êĥ ÉĻ
Ã¦ li
ĠÉ¹ Ã¦n
ĠÉĽÉ¡z Ã¦kt
ÉĶ st
ĠpÉ¹ oÊĬ
Éªs aÉªd
ÉĽl ÉĻ
ĠpÉ¹Éª ns
fÉĶÉ¹ m
É¹ Ã¦t
f ÉĻÉ¹d
i ÉĻm
ĠdÉªpÉĳÉ¹t mÉĻnt
l ÉĻÉ¹
Êĥ ÉĳÉ¹d
ĠpÉ¹ ÉĻf
ÊĴ ÉĶ
Ġt ÉĽk
ĠÎ¸É¹iËĲ hÊĮndÉ¹Éªd
aÉª ÉĻÉ¹d
ĠhÃ¦ Åĭ
ĠlÃ¦ ÅĭÉ¡wÉªd
ĠÃ¦ ks
Åĭ Î¸
ĠlÉĳt s
ĠÉ¹Éªs iËĲv
ÉĻÉ¹É¹ eÉªÊĥÉĻn
ĠÉ¹ eÉªz
eÉªt ÉĻÉ¹
ÉĻ ti
ĠlÃ¦ d
ÉľËĲn ÉĻl
Ġst eÉªd
Ġp aÊĬÉĻÉ¹
m ÉĻs
Ġsp ÉĽÊĥÉĻl
ĠsaÊĬnd z
iÉĻÉ¹oÊĬz iÉĻÉ¹oÊĬ
Ġk ÉĻÉ¹É¹
Ġp ÉĶl
Ġh ÉĽv
ĠpÊĬt s
ĠsÉĽvÉĻn hÊĮndÉ¹Éªd
ĠdÉ¹ aÉª
ĠhÃ¦ m
ĠsoÊĬ ld
ĠdÉ¹ ÉĽs
ĠÊĮf É¹eÉªd
Êĥ ÊĮl
Ġst eÉªÊĥÉĻn
l ÉĻ
ĠsÉĽ pt
ÉªÉ¡ z
ĠoÊĬ p
ĠwÉªÃ° Éªn
ÉĳÉ¹É¹ ÉĽs
ĠÉ¹ÊĮn ÉªÅĭ
Ġd Ã¦Êĥ
Ġv Ã¦l
ĠÉ¹Éªt ÉľËĲn
ĠÉĽksk juËĲs
Ġm aÊĬnt
Ġn eÉªt
ĠÉªliËĲn ÉĻÉ¹
ÉĽ É¹ÉªÅĭ
Ġf Éªt
ÊĴuËĲ laÉª
v iÉĻs
ĠfaÉªv hÊĮndÉ¹Éªd
ĠÉĽvÉ¹Éª bÉĳdi
Ã¦n ÉĻ
Ġl ÊĮk
Ġk ÉĽpt
ĠkÃ¦ É¹Éªkt
ĠbÉľËĲÎ¸ deÉª
ĠbÉªÉ¡ Éªn
ÊĥiËĲ f
ĠpÉ¹Éªt ÉĽnd
ĠÉĶÉ¹ É¡
ĠhaÊĬ z
Ġs ÉĻs
ĠfÉĶÉ¹ wÉĻÉ¹d
ÉĽ sk
ĠÊĥ Éĳp
ĠfÉ¹ Ã¦Åĭk
ĠtÉĽl Éªv
ĠiËĲt ÉªÅĭ
Ġb ÉľËĲn
Ġkl aÉªm
ĠvoÊĬkÉĻl aÉªzÉªz
ĠÉĽnÉª weÉª
ĠÉ¹ ÉĽp
Ġfl aÉª
Ġp ÉĳÉ¹k
ĠÃ°Ã¦t ÉĻ
ĠvÉªl Éªd
ĠÊĮ nd
ĠÉ¡ÊĮvÉĻÉ¹n mÉĻnt
Ġk ÉĶÉ¹
ĠnoÊĬv ÉĽmbÉĻÉ¹
ÊĴ eÉªn
ĠkÉªd z
k ÊĮm
ĠlÉĽt ÉĻÉ¹
ĠbÃ¦ É¡
Êĥ i
Ġm ÊĮÅĭk
Ġs Éªst
ĠiËĲ st
ĠwÉªÃ° Ã°Éª
ĠmÃ¦É¡ i
n i
ĠÉ¹ aÉª
ĠjuËĲ ÉĳÉ¹É¹ÉĽs
ĠuËĲ hÊĮ
ĠkÉĽÉ¹ fÉĻl
ĠpÉ¹ÉĽz ÉĻnt
Ã° oÊĬ
ĠÉĶl Ã°oÊĬ
ĠnoÊĬ wÊĮn
ĠbeÉªbi z
Ġd ÉªÉ¡
Ġf Ã¦st
Éªz ÉĻm
ĠÉ¹ ÊĮ
ĠtÉĽlÉªv ÉªÊĴÉĻn
ĠmÊĮnÎ¸ s
Ġm ÉĻÉ¹É¹
ĠÉ¡É¹ eÉª
ĠÉªnt ÉĻÉ¹
ĠjuËĲnÉªvÉľËĲs Éªti
Ġk ÉĳÉ¹d
ĠkÉ¹ ÉĶs
ĠÎ¸ÉľËĲ d
k l
ĠkÉĳm juËĲn
ĠsÉĻp ÉĶÉ¹t
ĠÉ¹ oÊĬz
Ġsp oÊĬk
ĠkÉĻmpl iËĲt
ÊĴ Éªst
ĠbÃ¦ Åĭ
ĠdeÉª nd
ĠpÊĬt ÉªÅĭ
ĠhiËĲ l
Ġl ÉľËĲn
ĠkÃ¦n Éĳt
Ġd Ã¦m
eÉªm z
ĠmÃ¦ É¹id
ĠfÉĻÉ¹É¡ ÉĽt
Ġf ÉªÉ¹
ĠwÉľËĲ kt
ĠÉĳkt oÊĬ
Ġs aÉªz
Ġl Éĳ
t Éªk
ĠhÉĽv i
ĠÉĶ É¡
ĠneÉªm d
Ġst ÊĬd
ÊĴ ÉĽntÉĻl
ĠtaÉª ÉĻÉ¹d
ĠÉ¡Ã¦s ps
ĠÊĥ aÊĬt
Ġt aÉªt
ĠvÉªz Éªt
Ã¦ z
Ġp aÊĬnd
ĠÃ°eÉª ÉĻÉ¹É¹
Êĥ Éĳ
Ġz iÉĻÉ¹oÊĬziÉĻÉ¹oÊĬ
ĠkloÊĬ Ã°z
ĠÉĽÉ¡zÃ¦kt li
b z
m ÉĶÉ¹
Ġk uËĲl
Ġd Éªm
É¡É¹ Ã¦m
ĠkÉ¹ aÉªd
ÉĻ É¡n
Ġm ÉľËĲd
ĠpÉ¹ ÉĻt
aÊĬ ÉĻÉ¹z
ÊĴ Éªt
ĠhÃ¦ Êĥ
ĠÃ°ÉĽm sÉĽlvz
ĠmÉªd ÉĻl
ĠÉĻb ÊĮv
ĠdÉªst É¹
ĠnÊĮm bÉĻÉ¹É¹
Ġk Éĳp
ĠÊĮn l
ĠfÉªn ÉªÊĥ
ĠÊĥ Éĳt
Êĥ Ã¦mp
ĠÃ¦ns ÉĻÉ¹d
ÊĴ ÉĻnz
ĠkÉĻm juËĲn
Ġd eÉªt
ĠÉĶ É¹Éª
Ġm ÊĮÃ°ÉĻÉ¹É¹
ĠÉ¹Éª v
ĠbÉ¹ aÊĬn
ĠbÉ¹oÊĬk ÉĻn
É¹ ÉĻp
uËĲ ÊĥÉĻn
ĠÉĽ sk
Ġm Ã¦s
ĠkÊĮ pÉĻl
ĠsÉªÅĭ z
ĠÃ¦ s
ĠÊĥ uËĲt
ÉĻns Éªz
ÊĮk ÊĥÉĻn
ĠÉ¡É¹Ã¦nd m
ĠpÉĳs ÉªbÉĻl
eÉª ks
ÉľËĲ m
ĠÃ¦kt Éªv
Ġd iËĲp
ĠkÊĮl ÉĻÉ¹
n ÉĻÉ¹
ĠfÉ¹ ÉĽnt
ĠÉĳktoÊĬ bÉĻÉ¹
Ġm juËĲn
ĠwÊĮ É¹i
ĠstÃ¦nd ÉªÅĭ
ÊĮ ks
ĠpÉ¹ Éĳv
ĠmaÉª lz
ĠpÉ¹Éĳp ÉĻÉ¹
Ġl ÊĮnd
ÉĻn i
ĠluËĲ z
Ġh ÉĶ
ĠwÉª mÉªn
É¹oÊĬ l
ĠÉĳÉ¹ mz
Ġkw Éªk
ÉĻp Ã¦n
Ġk ÉĶÉ¹t
ĠÉĻÉ¹É¹ aÉªv
ĠÉª vÉĽnt
Ġv aÉª
ĠÉ¡É¹ uËĲ
Êĥ aÉªn
ĠmÉĽm bÉĻÉ¹É¹
Ġp Ã¦k
ĠÉªnst ÉĽd
ÊĴ ÉĻpÃ¦n
ĠpÉ¹ ÉĻv
ĠÉ¹Éª É¡
Ġkl ÊĮb
ÊĴ ÉĻnt
Ġsp Éĳt
ĠpeÉª nt
É¹ eÉª
Ġm ÉªliÉĻn
ĠeÉªm i
ĠfÉĶÉ¹ Î¸
ĠÉĽks pÉ¹
ĠÉĽvÉ¹Éª wÊĮn
Ġp ÉĶz
w ÉĻ
aÉªz ÉªÅĭ
ÊĥÃ¦ pt
uËĲ st
Êĥ ÊĮk
ĠkaÊĬn sÉĻl
Ġh Éĳs
l ÉĻt
st ÉĽÉ¹z
iËĲn z
ĠweÉªt ÉªÅĭ
ÊĴ ÊĮmp
ĠsiËĲ zÉĻn
Êĥ Éª
ĠÉ¹ eÉªs
ĠnÉĶÉªz Éªz
ĠpÊĬ Êĥ
ĠÉĶÉ¡ ÉĻst
Ġt ÉĽst
ĠfÉ¹ ÉĳÉ¡
ĠlÊĮnd ÉĻn
Ġd Éĳd
ĠkÉĻm Ã¦nd
ĠpÉľËĲ fÉĽkt
Ġb ÊĬl
ĠÉªnd iËĲd
Ġk ÉĻnd
Ġs Ã¦d
ĠniËĲd z
f s
f l
ĠpÉĻÉ¹ tÉªk
ĠlaÉª ks
ĠhÊĮ nt
Ġp ÉĳÉ¹d
ÉĻÉ¹É¹ iz
É¹ ÉĻd
ĠwÉĶ t
Ġd Ã¦n
ĠpÉ¹ Éĳd
ĠmÃ¦É¡ n
Ġk ÉĻ
Ġsp l
Ã¦nt s
ÅĭÉ¡ ÉĻl
ĠÉĻ f
ĠkÉĳn s
ĠkwaÉª ÉĻt
ĠÊĮ z
Ġb É¹Éªd
ĠkÉĻn v
ĠiËĲv nÉªÅĭ
Ġn ÉľËĲs
ĠÉ¹Éªl iËĲst
l Éª
bÉľËĲ É¡
Ġd aÊĬt
ĠbÃ¦ bÉĻlz
ĠsÉĽpt ÉĽmbÉĻÉ¹
w ÉĽl
ĠhuËĲ m
ĠpleÉªs Éªz
Ġh ÊĮs
ĠsaÉªl ÉĻns
ĠmjuËĲn ÉªsÉªp
Ġd aÉªn
ĠdÉªs p
ĠÉªnt ÉĻÉ¹n
ĠwÉªnd oÊĬ
Ġv Éªkt
Êĥ ÉĻnt
Ġv Éªd
ĠmuËĲv d
ĠÉ¹ oÊĬt
É¹Éªz ÉĽnt
ĠÉ¡ É¹iËĲ
ÊĴ oÊĬs
ÉªÊĥÉĻn z
ĠÉĽksk l
ÉĶÉ¹d ÉªÅĭ
ĠfÉĻÉ¹ Ã°Éª
ĠnÉªÉ¹ li
ĠÉ¹ÉĽk ÉĻÉ¹d
Ġsn oÊĬ
n uËĲn
Ġp ÉªÉ¡
Ġkw Éªkli
Ġw oÊĬ
ĠbÉªld ÉªÅĭ
ĠÉ¹ÉĽp É¹ÉªzÉĽnt
Éªd ÉĻns
ĠkÉĳm ÉĻn
ĠtÉ¹ ÊĮst
ĠtÉĻwÉĶÉ¹d z
Ã¦ sk
ĠtÉĽl ÉªÅĭ
ĠÉĽnÉª wÊĮn
ÉĻÉ¹É¹Éª É¹
ĠpÉ¹oÊĬ É¡É¹Ã¦m
p ÉĻÉ¹z
ĠsÉľËĲtÉĻn li
ĠfÉĳl oÊĬÉªÅĭ
ĠÃ¦l b
Éĳn ÉĻ
ĠÉªf ÉĽkt
ĠwaÉª ld
Ġd ÉĽm
ĠÉ¹ÉĽk ÉĻÉ¡n
ĠsÉªÉ¹ iÉĻs
b ÉĻnd
ĠwÊĮt ÉĽvÉĻÉ¹
ĠkÉĶ st
ĠfÉĻÉ¹É¡ Éĳt
ĠÉľËĲ Î¸
ĠtÉľËĲn z
ĠkÃ¦ Î¸
ĠkÉĶ t
ĠÉ¹ ÉĶÉª
Ġl Éª
ĠÉ¹Éªt ÉĻn
Ġpl eÉªn
Ġs Ã¦m
ĠpÉĳpjÊĬl eÉªÊĥÉĻn
ĠÃ¦ É¡
k i
ĠÃ¦ftÉĻÉ¹ nuËĲn
ĠÉĽd nÉĻ
Ġbl ÊĮd
ĠpÉ¹Éĳv Éªns
Ġst ÊĮdi
ÊĮnd eÉª
l oÊĬ
Ġn ÊĮn
ĠpÉ¹ Ã¦kt
ÉĻÉ¹ É¹Éªd
ĠhjuËĲ mÉĻn
ĠÉ¹Éª kw
ĠdÉªs ÊĮp
Ġb ÉªsaÉªd
Ġf ÉĻÉ¹É¹
ĠÉ¹Éªf ÉľËĲ
b ÉĽÉ¹i
Ġb uËĲ
ĠÊĮ ks
ĠÊĥ uËĲz
ĠpÉĳÉ¹d ÉĻn
l Éªn
ÉĳÉ¹ É¹ÉĻ
ĠmÊĮst ÊĮv
Ġk ÉĻÉ¹É¹ÉªÉ¹
Ġt oÊĬt
ÉĻÉ¹ m
Ġh ÊĮni
Ġl Éªm
ĠÃ¦ns ÉĻÉ¹
ĠhÊĮs bÉĻnd
Ġl oÊĬk
ĠjÉĽ stÉĻÉ¹
ÊĥÉĻÉ¹É¹ ÉĻl
Ġm Éªk
ĠkÉ¹aÉª ÉªÅĭ
Ġp Ã¦n
ĠÉ¹Éªt ÉľËĲnd
ĠkÉľËĲ É¹ÉĻnt
Ġl aÊĬd
Ġl ÉĶÉ¹d
ĠjÉĽ p
Ġl ÉĶÉ¹
ĠsuËĲ pÉĻÉ¹
É¡ oÊĬ
Ġb É¹Éª
ĠsÉªst ÉĻm
d iËĲ
pÉĳn s
É¡É¹ aÊĬnd
ĠÉĽm p
Éªl Éªti
Ġst uËĲd
ĠsÉĻks ÉĽs
ĠbÉ¹Éªt ÉªÊĥ
Ġk eÉªk
Ġt ÉĽÉ¹Éª
ĠfÉĶÉ¹ hÊĮndÉ¹Éªd
ĠsiËĲ z
Ã¦É¡ ÉĻn
ĠÃ°eÉª v
ĠkaÊĬnt ÉĻÉ¹
Ġp ÉªÅĭk
ĠkÉĳm p
ĠteÉª p
ĠhoÊĬld z
Ġl ÉĽm
ĠjÉĽstÉĻÉ¹ deÉª
Ġp Éªl
ĠÊĮt Ã¦k
ĠfeÉªvÉĻÉ¹ É¹Éªt
Ġm ÉĽnt
ĠÊĮ hÉĽd
ĠtÉĳm ÉĻs
Êĥ eÉªt
É¹Éª b
Ġsp É¹
ĠÉ¹Éªm ÉĽm
Ġs ÉĻd
ÉĻl ÉªÅĭ
ĠsiËĲ oÊĬ
ĠkÃ¦ nd
Ġm ÉĽÉ¹i
ÉĽm pt
ĠfÉ¹ÊĮm Ã°Éª
ĠkÉĳl Éªd
Ġm Ã¦l
ĠÉªnd iÉĻn
Ġ ÉĻÉ¹É¹Éªd
Ġv juËĲ
ÉĻs i
ĠkÉĶ fi
ĠÉ¹Éªs pÉĳns
ĠÉ¡ Ã¦l
ÉĻÉ¹É¹ ÉĻl
ĠdÉªs ÉĽmbÉĻÉ¹
ĠsÉªks hÊĮndÉ¹Éªd
iËĲ ld
Éĳ nd
Ġn ÉĽt
ÊĴuËĲ k
Ġb ÉĶ
Éªp s
ĠsÊĮdÉĻn li
Ġm ÉĻk
ĠÉ¹ Éĳb
Ġw aÉªd
Ġb Ã¦Åĭk
ÉĶÉ¹ z
ĠbÉ¹ Ã¦d
ĠÊĮp É¹oÊĬ
ĠÉĶÉ¹Éª nd
ĠÉªÅĭÉ¡ lÉĻnd
Ġl ÊĮnt
Ġsp ÉĽnd
li ÉĻ
ĠÉ¡É¹ oÊĬ
ĠwÉĶÉ¹ m
ĠpÉĻz ÉªÊĥÉĻn
ÉĻns i
ÊĴuËĲ s
ĠnÉĶÉ¹ m
ÉªÉ¡z Ã¦nd
ĠÃ¦l ÉªÉ¡zÃ¦nd
p ÉĻlz
ĠfÉĶÉ¹m ÉĻÉ¹
Ġs Éªli
ÅĭÉ¡ ÉĻÉ¹
ĠÉ¡Éªv ÉªÅĭ
ÊĥuËĲ z
ĠjuËĲz ÉªÅĭ
ĠfÉĽl oÊĬ
ĠÉĳÉ¹m i
Ġp Éªks
ÊĥÃ¦pt ÉĻÉ¹
Ġp Éĳk
ĠsÊĮm wÉĽÉ¹
ĠliËĲ É¡
ĠsÉªÅĭ É¡ÉĻl
Ġh ÉĶÉ¹
ĠÉ¹Éªpl aÉªd
ĠpÊĮbl Éªk
k É¹
ĠmÊĮÅĭk i
ĠmÉĽm bÉĻÉ¹z
ĠmiËĲt ÉªÅĭ
ĠhÃ¦p ÉĻnz
ĠwÉľËĲ ks
ĠsÊĮb d
Ġh ÉĽn
Êĥ ÊĬÉ¹
ĠaÉª ÊĥÊĮl
ĠdÉªs aÉªdÉªd
Ġsw Éªm
Ġst ÊĮk
ĠÊĮl aÊĬd
ĠlÉĽt ÉĻÉ¹z
ĠmuËĲv ÉªÅĭ
ĠhÉĳ hÉĳ
ĠkÉ¹Éªs mÉĻs
ĠpÉĳl Éªt
ĠÉ¡É¹ Ã¦s
ĠbÉªl t
ĠneÉªm z
ĠpiËĲs Éªz
ĠsiËĲk É¹Éªt
Ġf ÉªÅĭÉ¡
ĠtÉ¹ ÊĮk
ĠpÉ¹ Éĳs
Ġbl oÊĬ
ÊĴ Éª
ĠbÉ¹ ÉĽk
ĠtiËĲ viËĲ
ĠteÉª l
Ġt aÊĬ
Ġm ÉªÉ¹
ĠwiËĲ ks
Ġl Éªt
Ġd É¹iËĲm
Ġp ÉĽns
Ġk Éªti
ĠÉ¹ eÉªt
ĠpÉĻÉ¹tÉªk jÊĬlÉĻÉ¹
É¹ ÉĽs
ÉĽl ÉĻp
ĠÉªntÉ¹ÉĽst Éªd
ÊĴoÊĬs ÉĻf
Ġk juËĲ
ĠÉªt ÉĻl
Éĳm Éªn
ÊĥÃ¦mp iÉĻn
li z
ÉĻm ÉĻnt
Êĥ ÉĻÉ¹É¹i
ÉĽt s
ĠkÉ¹ uËĲ
f ÉĻst
ÊĮ pt
Ġs uËĲp
Ġp oÊĬl
ĠdÉĶt ÉĻÉ¹
ĠÉªl ÉĽkt
ĠkÉĳn st
Ġp eÉªn
ĠhÉĽl Î¸
ĠfÉĳl oÊĬd
ĠnaÉªt s
ÊĴuËĲ ÉĻl
ĠbÉ¹ÉĽk fÉĻst
É¹ Ã¦kt
v z
Ġst iËĲv
ĠfÉĳl oÊĬ
ÉĽÊĥ ÉĻli
Ġs Éªv
ÊĴ Ã¦
ĠÉĽÉ¹ pÉĶÉ¹t
Ġsl eÉªv
ĠliËĲv ÉªÅĭ
ĠkÉ¹ aÉªz
ĠÉ¹ Éĳd
ĠjÊĬÉ¹ É¹ÉĻp
Ġp ÉĻt
ĠlÉĽ É¡z
Ġp Ã¦l
Ġk jÊĬÉ¹
ĠkÉĳn f
ĠsÉĻp oÊĬzd
ĠstÉĳp t
ĠbÉªz i
Ġf Éªks
Ġv ÉľËĲ
ĠbÉ¹ aÉªt
Éªm ÉĶÉ¹
ĠpÉ¹Éª z
ĠÃ¦d ÉĻm
ĠÃ¦nÉªm ÉĻl
ĠbÉªl ÉĶÅĭ
ĠoÊĬp ÉĻnd
ĠÉªntÉĻÉ¹n Ã¦
l uËĲ
Ġf Ã¦
ÉĽ Åĭk
ĠkÃ¦ pÉªtÉĻl
Ġm oÊĬt
ĠpÉ¹ ÉĻp
ĠtaÉª p
ĠpÉĳl Éªs
ĠÉ¡ÉĳÉ¹d ÉĻn
k ÉĻn
Ġb ÉĶt
ĠÊĥ Éªt
ĠdÉªv ÉĽlÉĻp
n oÊĬt
Éĳ f
Ġsp É¹ÉªÅĭ
Ġd ÉĽf
Ġf eÉªm
ĠnoÊĬ bÉĳdi
ĠÊĮk aÊĬnt
ĠÃ¦ f
Ġs ÉĻnt
Ġs ÉªÉ¡n
ÉĽl t
ĠkÉ¹ eÉªzi
ĠÊĥÊĬd ÉĻv
ĠÊĮp ÉĳÉ¹t
ĠÉĽksp ÉĽkt
Ġl oÊĬkÉĻl
ĠwÉªl j
m ÉĽn
ĠÉªÅĭkluËĲd ÉªÅĭ
m Éªt
ĠliËĲv z
ĠhÉĳs pÉªtÉĻl
ÊĴ iËĲz
ĠpÉ¹ ÉĻs
Ġp iÉĻÉ¹Éª
ĠiËĲ ÉĽl
Éªl ÉĻÉ¹
ĠÉĽks ÉĽpt
Ġs ÊĮf
Ġd ÉĽk
ĠhÉľËĲ É¹i
stÉ¹ eÉª
ĠnoÊĬ mÉĶÉ¹
ĠbÊĮt ÉĻÉ¹
ĠbÉ¹ ÉĽd
ĠÉĽnÉª bÉĳdi
n iÉĻ
Ġt Éªk
Éĳ z
Ġsp eÉªs
Ġm Ã¦k
Ġn Éªk
ĠwÉĽl kÊĮm
ĠÉĽÉ¡zÃ¦m pÉĻl
ĠmjuËĲnÉªsÉªp Ã¦lÉªti
Ġv oÊĬt
ĠkÃ¦m É¹ÉĻ
ĠsiËĲoÊĬ ÉĽl
aÉª ÉĻti
ĠÉ¹ ÊĮÊĥ
iËĲt Éªd
ĠÉ¹ÉªsiËĲv d
ĠÊĥ eÉªk
Ġv Éĳl
ĠÉ¹oÊĬ m
Ġl Ã¦t
Ġsl aÉªt
ÊĴ eÉªmz
ÊĴ ÊĮm
Ġst oÊĬn
Ġs ÉĽlf
ÉĽ ÊĴÉĻÉ¹
Éªf aÉªd
ĠpÉ¹Éª zÉĻn
ĠÉ¡l Ã¦s
Ġb ÊĮs
Ġsk wÉĽÉ¹
iËĲn ÉĻ
ĠtÉ¹uËĲ Î¸
Éª É¹Éªt
Ġp Éĳt
ĠÊĮks ÉĽpt
ĠpÉ¹ aÉªm
ĠkÊĬd ÊĮv
ÊĮm i
ĠwÉĳ Êĥ
ĠÊĥÉĳÉ¹ p
ĠhÉª l
Ġst ÉĽp
ĠwÉĶ nd
ÊĴÉĽntÉĻl mÉĻn
ĠÉªntÉĻÉ¹nÃ¦ ÊĥÉĻnÉĻl
ÊĮ h
Ġt aÉªd
ĠÉªm Ã¦d
ĠfÊĬt noÊĬt
ĠÊĮp ÉªÉ¹
Ġsk Éĳt
Ġb Ã¦l
Ġn Éĳk
eÉªn ÉªÅĭ
juËĲz d
ĠhoÊĬld ÉªÅĭ
ĠÊĮ w
Ġt É¹iËĲt
Êĥ iËĲz
ÊĴeÉªdÊĮbÉĻljuËĲ dÊĮbÉĻljuËĲdÊĮbÉĻljuËĲ
oÊĬ v
ÊĴ ÉĻl
ĠflÉĶÉ¹ ÉĻns
ĠbÉĳt ÉĻm
Ġsm ÉĽl
Ġt ÉĽdi
ĠÉĳÉ¹ k
Éªm p
l Éĳk
ÉĽ É¹Éªt
ĠsÉªm p
ĠtÉ¹iËĲ z
ĠÉĽ ld
ĠpÉĳlÉªt ÉªÊĥÉĻn
ĠpiÉĻÉ¹Éª ÉĻd
ĠÃ¦b sÉĻl
Ġt ÊĬÉ¹
ĠhÊĮ ÅĭÉ¡É¹i
ĠÉªs p
Åĭ kw
ÊĮm z
ĠpÉ¹Éĳm Éªs
ĠÃ¦bsÉĻl uËĲt
ÉĽnt Éªd
ÉĻd i
b oÊĬ
ÊĴ ÊĮd
ĠÉªn wÉªt
ÊĥuËĲ ÉĻl
p ÉªÅĭ
ÉĽ stÉĻÉ¹
Éĳm ÉĻ
ĠÉ¹aÉªt ÉªÅĭ
Ġd ÉľËĲ
ĠpÉ¹ ÉĽs
ÉĻ stÉ¹
Éĳl vd
ÉĽnd ÉĻÉ¹
Ġfl Ã¦t
wÊĮn s
ĠwÉľËĲ Î¸
Éĳd iz
ÉĽt Éªk
Ġs uËĲt
Ġn Éĳn
ÉĻl uËĲÊĥÉĻn
jÊĬl ÉĻ
ĠÊĥ oÊĬld
Ġs aÉªn
ĠfÉªl m
Ġh eÉªt
ĠkÉĳÉ¹ z
ĠÊĮt ÉĽmpt
ĠÊĮp ÉªÉ¹d
ĠÉª d
Ġsp ÉªÉ¹Éªt
ĠÉªnt ÉĻÉ¹É¹
ĠteÉª st
eÉª st
ĠkÃ¦ É¹id
ĠhÃ¦z ÉĻnt
É¹iËĲ mz
ĠÉªÅĭk É¹iËĲ
ĠwÉª nt
ĠsÊĮm ÉĻÉ¹
ĠÉªl ÉĻstÉ¹
ĠwÉĶk ÉªÅĭ
ĠkÃ¦l ÉªfÉĶÉ¹
Ġbl Éĳk
ĠfÊĮk ÉªÅĭ
Ġw eÉªk
ĠpÉ¹Éª p
ĠdÉªk l
Ġk Éªk
Ġf ÉĽd
i ÉĻl
ĠÉ¹ ÊĮf
ĠÉ¹ ÉĽÉ¡
ĠbeÉª st
ĠÊĥÊĬd ÉĻnt
Ġw ÉĽt
ĠkÉĻnt É¹oÊĬl
ĠÉĽn ÉªmÉĶÉ¹
ĠÉĻ vÉĻn
ĠsÉľËĲ t
p Éªt
Ġk ÉĳÉ¹t
Êĥ ÉĻnd
ĠÉ¹ eÉªnd
ĠÊĮt ÉĽnÊĥÉĻn
ĠÊĮt wÊĮns
ĠbÉ¹ ÉĶd
ĠmÃ¦ Î¸
ÉĽ ps
ÉĶ É¹Éªti
ĠbÉ¹ ÉĽÎ¸
ĠweÉª st
ÉĻÉ¹m eÉªÊĥÉĻn
Ġf iËĲd
Ġz iËĲ
ĠbÉªÉ¡Éªn ÉªÅĭ
w ÉĳÉ¹
ÉĶ nd
ĠÊĥ ÉĽÉ¹
ĠwÉĶt ÉĻÉ¹É¹
ĠÉ¡ ÉĳÉ¹
ĠÉĻ p
ÉĻÉ¹ s
ÊĴ Éªk
ĠwiËĲ d
ĠleÉªd iz
ĠpÉĽÉ¹ ÉĻnts
Éª É¹ÉªÅĭ
ĠÉªsp ÉĽÊĥÉĻli
ĠsÉªk jÊĬÉ¹
É¡É¹ Ã¦f
Ġn ÉĶ
Ġn ÉĽs
ĠÊĥ oÊĬz
ĠÉ¹aÉªt s
ÉĳÉ¡ É¹ÉĻ
ĠpiËĲ tÉĻÉ¹
ĠÃ¦d Éªd
ĠÉ¹Éª b
Ġkw ÉĶÉ¹t
ÊĥÉªk Éªn
ĠjuËĲ hoÊĬ
Ġbl Éĳks
ĠtiËĲ eÉªt
wÉľËĲ k
ĠlÃ¦ ft
Ġsp ÉĶÉ¹t
Ġkw ÉĶl
ĠÉ¡ Éªl
ĠÉ¹ Ã¦b
ĠkÃ¦lÉªfÉĶÉ¹ niÉĻ
ĠÉª st
ÊĥuËĲ eÉªÊĥÉĻn
ĠsloÊĬ li
Ġw ÊĬl
ĠÉĽ Åĭk
ĠÉ¹ ÉĽz
ĠÃ°eÉª l
k ÉĻm
Ġm Éĳn
ĠÉ¹ eÉª
ĠdÃ¦d iz
Ġk É¹iËĲm
ĠsiËĲ ÉªÅĭ
ĠbÃ¦t ÉĻl
ÉªÅĭ É¡ÉĻÉ¹
ĠtÉ¹ Ã¦
bÉĻl d
ĠÉĻf ÉªÊĥ
ĠfaÉªn ÉĻli
ĠÉ¹ÉªÉ¡ ÉĳÉ¹d
ĠdÉªst ÉĻns
ĠmeÉª l
ĠdÊĮz nÉĳt
Ġp ÉĽÉ¡
ĠÉĶ stÉ¹eÉª
ĠsÉĽns ÉĻs
ĠiËĲÉĽl ÉĽs
ÉĻs li
ĠÉªts ÉĽlf
ĠÊĮmÉĽÉ¹Éªk ÉĻ
ĠÊĮk ÉĶÉ¹dÉªÅĭ
Ġv Ã¦n
ĠÉĽl ÉĽl
ĠÉĽkskl eÉªmd
Ġm ÉĶn
ĠÉ¹ Ã¦t
ĠvÉªd ÉªoÊĬ
Éĳ Êĥ
Ġl ÉĶÉª
ĠfjuËĲ t
ĠdÉ¹Éĳp t
ĠlaÉªv z
ĠÃ¦ É¹
ĠbÃ¦ sk
ĠÉ¹iËĲd ÉªÅĭ
Ġs aÉªk
ĠÉĽ p
Ġp Éªt
Ġp ÊĮz
ĠÊĥ oÊĬd
ĠÉĳ ks
ĠhÉĶÉ¹s Éªz
h aÊĬs
ĠlÊĮv d
k ÉĻ
Ġl Éªft
ÊĴÉĶ Éªn
Ġj oÊĬ
Ġn ÉĽvÉĻÉ¹É¹
Ġsk aÉª
ĠspiËĲk ÉªÅĭ
eÉª lz
ĠÉªnv ÉĽst
Éªz eÉªÊĥÉĻn
ĠÉ¡Éªv z
ĠwÊĮndÉĻÉ¹ fÉĻl
Ġkl oÊĬz
Ġfl aÊĬÉĻÉ¹z
ĠlÉĽ É¡
h Ã¦d
Ġm uËĲn
ĠlaÉª kt
ti z
ĠvaÉª ÉĻl
aÊĬn s
ĠÉĳ k
ĠstÉĳÉ¹t s
ĠmÉªn ÉªstÉĻÉ¹
ĠbÉĳt ÉĻl
Ġk ÉľËĲnÉĻl
ĠdÉªf ÉªkÉĻl
ĠfÉĳ Ã°ÉĻÉ¹É¹
ĠdÉªfÉªkÉĻl t
Ġs Éªn
ĠwÉľËĲ nt
ÊĥÉªp s
ĠÉªnf ÉĻÉ¹meÉªÊĥÉĻn
Ġw ÉĶÉ¹n
v i
Éª eÉªÊĥÉĻn
Ġd ÉĽl
ĠhiËĲ d
ĠfÉ¹ ÉĽÊĥ
Ġsp uËĲn
ĠkÉĻntÉªn juËĲd
ĠtÉĽk n
Ġs ÉĽÉ¹ÉĻ
ĠsoÊĬ l
ĠÉ¹iËĲ s
ĠÉªntÉ¹ÉĽst ÉªÅĭ
ĠdÉªf É¹ÉĻns
ĠÉĽksp iÉĻÉ¹Éª
Ġp uËĲ
Ġs Ã¦n
ĠÉ¹ Ã¦p
h ÊĬd
Ġkw iËĲn
Ã¦t Éªk
Ġkl ÉĽvÉĻÉ¹
j ÉĻ
ÉĻÉ¹ lÉĻnd
ĠÃ¦ Åĭ
ĠpiËĲ k
b lÉªÅĭ
Ġsm oÊĬk
Ã¦nt Éªd
dÊĮbÉĻljuËĲdÊĮbÉĻljuËĲ dÊĮbÉĻljuËĲ
Ġs ÊĮ
ĠfeÉª Î¸
ÊĥÉĳÉ¹ li
d ÉĻm
ĠÉĳ nt
iËĲ m
ĠsiËĲ d
ĠdÉĳÉ¡ i
w ÉĽst
ĠÃ¦ pÉĻl
É¹Éª p
Ġsk ÉĽÉ¹
Ġsm aÉª
Ġk ÊĮd
Ġb aÉªt
Ġpl eÉªz
ĠfÉªÅĭÉ¡ ÉĻÉ¹z
Ġs Éªd
Ġn Ã¦n
ÉĽn ÊĥÉĻl
ĠÉ¹Éªm uËĲv
ĠhÃ¦ É¹i
É¹ eÉªt
ĠbÃ¦k É¡É¹aÊĬnd
É¹aÉª b
viÉĻs li
aÉªn i
ĠÉ¹eÉªd ÉªoÊĬ
s ÉĽt
ÉĽnd ÉªÅĭ
f ÉĻ
Ġl eÉªk
ĠlÉĽ ÅĭÎ¸
ĠpÉ¹Éĳbl ÉĻmz
Ġf Ã¦n
Ã¦ns i
ĠkÉĻntÉªn juËĲ
ĠpÉ¹ÉĻs iËĲd
ĠseÉª l
ĠsÉľËĲk ÉĻl
Ġn Ã¦p
ĠÉ¡ eÉªt
ĠpÉ¹ÉĻd uËĲs
Ġt ÉĽks
Ġd Éĳk
Ġm ÉľËĲ
ÊĴ aÉª
ĠlaÉª ÉªÅĭ
ĠdÉĽf Éªn
ĠÊĮn f
ĠtiËĲ Î¸
ĠpÉĻÉ¹ fÉĶÉ¹m
ÉĻÎ¸ i
ÉĽ ÊĥÉĻnÉĻl
ĠÉĳp ÉĻÉ¹É¹
ĠÊĮpÉ¹oÊĬ t
p ÉĻs
ÉĶl t
Ã¦st Éªk
ĠmÊĮÃ°ÉĻÉ¹ z
ĠÉ¹ ÉĽl
ĠtÉ¹ eÉªd
ĠlÃ¦ m
ĠmÃ¦ É¹i
Ġd ÉĽn
ĠlaÉª ÉĻn
Ġf ÉĶ
ĠtÉľËĲ m
ĠdÉ¹ÉĶ ÉªÅĭ
Ġs Ã¦l
Ġst uËĲp
ĠlÉĽ vÉĻl
ĠpaÉª É¹ÉĻt
Êĥ Ã¦t
ĠhÃ¦nd ÉĻl
ĠdÉĳl ÉĻÉ¹z
ĠwÉªnd oÊĬz
ĠwÉĽ stÉĻÉ¹n
ĠÉĽks aÉªt
wÉĻÉ¹d z
ÊĴÉĽkt s
p ÉĻÉ¹d
Ġ ÉĻl
Ġj iËĲ
ĠÉĽs ÉĽs
ĠsÉĽnt ÉĻÉ¹
ĠÃ¦f É¹Éªk
Ġt ÉĶl
ĠaÉª tiËĲ
Éªk ÉĻn
ĠleÉªt ÉĻÉ¹É¹
ĠÊĮnl ÉĽs
juËĲ m
ÉĻb ÉªlÉªti
v Éªl
Ġs ÉĻÉ¹É¹
ĠpÉĳlÉªs i
ÉªÅĭ kt
ĠmuËĲv Éªz
ĠdÉªÉ¹ ÉĽktÉªd
ĠtÉĽÉ¹Éª bÉĻl
ĠpÉ¹ aÉªs
ĠkÉ¹ Ã¦Êĥ
ĠÉĽl Éªf
ĠmÉªst eÉªk
Ġn ÊĮt
ĠÉ¡oÊĬ Éªn
Éªld ÉĻ
ĠÉ¹Éªp ÊĮbl
ÊĴ mÉĻnt
Éªst Éªd
aÊĬn st
ĠkÉ¹ aÊĬd
ĠmaÉªt hÊĮv
j ÉĶnd
ĠbÉª jÉĶnd
ÊĴÉĶÉª nd
ÉĽÅĭk eÉª
ĠjuËĲ ÉĽÅĭkeÉª
ĠwÉĶ kt
ÊĴÉªn ÉĻl
ĠpÉľËĲ pÉĻl
ĠnoÊĬt Éªs
ÊĴiËĲz ÉĻs
ĠnÉĽs Éªs
ĠkÉ¹iËĲ k
oÊĬt ÉĻ
ĠtÉľËĲn ÉªÅĭ
ĠÉ¹ ÉĽs
ĠmÃ¦d ÉĻm
ĠkÃ¦É¹Éªkt ÉĻÉ¹
Ġm ÉĽks
ĠkÉĳÉ¹ l
ĠheÉª st
ĠdÉªÉ¹ ÉĽkÊĥÉĻn
ĠÃ¦lb ÉĻm
ĠtaÊĬ ÉĻl
w ÊĬd
Éªs f
ĠÉĻ keÉª
Ġp ÉĶÉ¹
ĠjuËĲ Î¸
ĠÉ¹ ÉĽf
Ġsp ÉĽl
Ġsp iËĲs
ĠjuËĲn iÉĻn
ĠstÉĳÉ¹ z
Ġs ÊĮl
Ġb ÉĽk
ĠÊĥiËĲ l
ÊĴÉĽn i
ĠspiËĲs iËĲz
ĠÉªm Éªt
ĠdÉĳn ÉĻld
ĠdÉªÉ¡ É¹iËĲ
ĠdÉľËĲ ti
ĠniËĲd Éªd
ĠÉĻl Éªmp
ĠkÃ¦ st
ĠpleÉª ÉĻÉ¹
ĠÉ¡É¹Ã¦ndm Éĳ
ĠÉ¹Éªs pÉĽkt
ĠkÊĮl ÉĻÉ¹É¹
ÊĴuËĲk eÉªÊĥÉĻn
Ġs ÉĽn
ĠkÉĻmjuËĲn Éªti
vÉĻÉ¹ s
eÉªz ÉªÅĭ
ĠdÉĳd ÉĻ
ÊĥÊĮk ÉĻlz
ĠÉ¹Éªk ÉĶÉ¹d
ĠpÉ¹Ã¦kt Éªs
ĠnÊĮm bÉĻÉ¹z
ĠsÃ¦t ÉĻÉ¹d
ĠÉªÉ¹ z
ĠbÉªl oÊĬ
b ÉĻÉ¹d
Éª ÉĻt
ĠÃ¦bsÉĻluËĲt li
ÊĴÃ¦ pÉĻn
s ÊĮm
ĠdÉ¹ uËĲ
Ġsm aÉªl
ÊĴÃ¦pÉĻn iËĲz
ĠtÉ¹ aÉªz
ĠsÉĽt ÉĻl
ĠmÉĻ Êĥ
s ÉĻ
Ġk ÉĽn
ĠkÉ¹iËĲ eÉªtÉªd
ĠsÉĻÉ¹pÉ¹ aÉªz
ĠÊĮn ÊĮÃ°ÉĻÉ¹É¹
ÉĽz ÉĻnt
ĠbÃ¦sk Éªt
Éĳ nt
ĠsoÊĬ ÊĥÉĻl
ĠkÊĮl ÉĻÉ¹z
ĠwÉĳ ÊĥÉªÅĭ
ĠÉĻk lÉĳk
l aÉªn
n z
ÉĻt ÉĽÉ¹i
Ġb ÊĮ
ĠjuËĲ ÉĽs
ÉĻÉ¹É¹ÉĻ bÉĻl
ĠwÉľËĲ s
ĠÉľËĲ lÉª
h ÉĻ
Ġb ÊĮd
ĠsÉĻs p
ÉĳÉ¡É¹ÉĻ fi
Ġb aÊĬnd
ÉĽl i
ĠpÉĳÉ¹t s
ĠtÉĽks ÉĻs
ĠÉªn stÉ¹
Ġsp iËĲd
Ġbl Ã¦Åĭk
ĠÃ¦kt ÉĻÉ¹
m ÉĻ
ĠÉ¹ Éĳs
ĠÊĮp stÉĽÉ¹z
ĠÃ¦sk ÉªÅĭ
ĠpÉĳk Éªt
ÊĴ ÉľËĲv
ĠÊĥ uËĲ
ĠÃ°ÉĽÉ¹ fÉĶÉ¹
ĠÉĻÉ¹É¹ eÉªnd
b Éªd
Ġk ÊĮz
ĠhÉª st
Ġkl oÊĬzd
ĠkÉ¹ Ã¦k
ÊĮvÉĻÉ¹ d
ĠtÉĶ kt
ĠÃ°Ã¦t Ã°Éª
ĠÊĮs oÊĬs
ĠlÊĮk i
Ġd ÉĽÉ¹
Ġf Éªz
Ġsp Ã¦n
ĠÉªnd iÉĻ
ĠsÉªm ÉªlÉĻÉ¹
ĠbÉľËĲd z
ĠÃ¦ ÅĭÉ¡É¹i
Ġf Éªk
Éªt Éªv
ĠpaÊĬnd z
Ġk É¹Éª
Ġt Éªp
Ġh ÊĮm
Ġb ÊĮn
Éĳl ÉĻ
ĠÊĮm aÊĬnt
ĠÉĽnt aÉªÉĻÉ¹
ĠneÉªt Éªv
ĠoÊĬld ÉĻÉ¹
ĠÃ¦k ÊĥÉĻn
ÉĽ ÅĭÎ¸
ĠtÉ¹Ã¦ vÉĻl
ĠpÉ¹ uËĲv
ĠÊĮl aÉªv
ĠneÉª bÉĻÉ¹
h aÊĬ
Ġsp ÉĽnt
b li
ÉĽ Ã°ÉĻÉ¹É¹
Éĳ Åĭ
Éĳ li
Ġs ÊĮndeÉª
Ġf ÉªÅĭÉ¡ÉĻÉ¹
Ġkl aÊĬn
Ġsk É¹
ĠnÉĶ ti
Ġv ÉľËĲd
ĠÉªm iËĲd
ĠbÉ¹ÊĮÃ°ÉĻÉ¹ z
ĠwÉªs pÉĻÉ¹
ĠhÉĽn É¹i
b ÉĻn
Ã¦k ÊĥÉĻn
ĠfeÉªm ÉĻs
Ġt oÊĬ
ÉĽst s
ĠstÉĶÉ¹ iz
Ġ Éĳd
Ġp aÉªl
ĠÊĮl aÊĬ
ĠkÉĶz d
É¹ eÉªÊĥÉĻn
Êĥ Ã¦n
Ġf oÊĬk
ĠÉĽs eÉªt
b ÉĶÉ¹d
Éĳn z
ĠÉ¡É¹ oÊĬn
ĠÊĮs l
ÉªÊĥ ÉĻs
ĠhaÉªd ÉªÅĭ
ÊĴÉľËĲv eÉªz
t ÉĽl
Ġb ÊĮk
ĠÉ¹ uËĲl
ĠdÉĳ É¡z
ĠÉ¹Éªz ÊĮlt
ĠÉ¹Éĳ bÉĻÉ¹t
Ġk Éĳt
ĠmÉĶn stÉĻÉ¹
m ÉĻÉ¹
ÊĴ oÊĬnz
ĠmÃ¦t ÉĻÉ¹É¹
ĠÉĽkspÉ¹ ÉĽs
Ġt oÊĬn
ĠÉ¹ Ã¦m
ĠmuËĲv z
ĠstÉĳÉ¹t ÉªÅĭ
ĠuËĲ ps
ĠtÉ¹Éª p
ĠtoÊĬt ÉĻl
ĠsÃ¦tÉĻÉ¹d eÉª
Ġt ÉªldÉĻ
Ġm ÉªÊĥÉĻn
ĠbÉ¹ eÉªv
Ġp Ã¦d
ĠpÉľËĲsÉĻn ÉĻl
ÊĮm ÊĮnd
ĠwuËĲ ps
ĠmÉĽs Éªd
ĠÊĮsl iËĲp
Ã° ÉªÅĭ
ĠfÉĳÃ°ÉĻÉ¹ z
ĠÉ¹Éĳs ÊĮmÊĮnd
ĠfÉľËĲ Ã°ÉĻÉ¹
ĠkÊĮl t
Ġt ÉĽÉ¹
ÊĴ ÉĽÉ¹
ĠfÉ¹ ÉĽd
ĠpÉ¹ aÉªv
ĠÉªm pÉ¹
ĠÉªnd iÉĻnz
ĠÃ¦ks ÉªdÉĻnt
d i
Éªd li
ĠlaÉªk li
z deÉª
ĠbÉ¹ Ã¦nt
ĠÉ¹Éªs ÉľËĲt
ÉľËĲv d
ÊĥÉĳÉ¹ lz
ĠwÉªlj ÉĻm
Ġt oÊĬni
Ġs Éĳl
ĠwÊĮz Ã°Éª
Éªk ÉĻ
ÉĻn ÉªÅĭ
ĠkÉĶl ÉªÅĭ
h ÉĳÉ¹t
j ÊĬ
iËĲ f
Ġm ÊĮs
Ġj eÉª
Ġsw ÉªÅĭ
ĠÉ¹eÉªz d
ĠÉªntÉĻÉ¹É¹ ÊĮpt
ĠseÉª nt
Ġw eÉªz
Ġk É¹Éªt
Ġb ÉĻl
Ġm eÉªt
ĠwuËĲ nd
ĠpÉĽÉ¡ i
Ġk uËĲ
ĠÉĽm eÉª
ĠÉ¡É¹ eÉªv
ĠÉªnt É¹ÉĻd
ĠfaÉªn ÉĻl
ĠbÉ¹iËĲ f
ĠÉª ÊĥuËĲ
Ġsk ÉĽÉ¹d
ĠhÉĽl pt
Ġs ÊĮÃ°ÉĻÉ¹
ĠÉĶÉ¹É¡ ÊĮn
Ġk oÊĬst
ĠsÉĽ ks
ĠlaÉªn z
Ġm ÊĮd
Éªf aÉª
ĠmÉªs ÉªÅĭ
ĠpÉ¹ÉĻt ÉĽkt
ĠkÃ¦Î¸ É¹Éªn
ĠkÃ¦ bÉªn
Ġsk uËĲ
Éªb li
w aÉª
ĠsÉªm pÉĻl
Ã¦li ÉĻn
ĠfaÉª ÉĻÉ¹É¹
ĠÉ¡ÊĬd baÉª
ĠhÉĽl ÉĻn
ĠmÊĮm iz
ĠsliËĲp ÉªÅĭ
sk i
Ġj ÉĳÉ¹d
ĠÉ¹ ÊĮb
ĠhoÊĬ tÉĽl
ĠpÉ¹ÉĻf ÉĽs
st ÉĻn
ĠÊĥ ÉľËĲt
ĠkÊĮvÉĻÉ¹ d
aÊĬ ÉĻÉ¹É¹
Ġst ÉĽÉ¹z
ÉĽnd ÉĻnt
ĠbÉªÉ¡ ÉĻÉ¹
ĠdÉ¹aÉªv ÉªÅĭ
f iËĲld
Éª vÉĻÉ¹
É¹ aÉªt
Ġt Ã¦ks
ĠmÃ¦m ÉĻ
oÊĬd z
ĠkÉĳn vÉĻÉ¹s
Ġt Ã¦l
Êĥ ÉªÉ¹
ĠÎ¸ÉªÅĭ ks
ĠboÊĬ l
j ÉĻÉ¹
Ġl Éĳk
Ã°ÉĻÉ¹ n
ĠÉ¹oÊĬ lz
ĠstuËĲp Éªd
ĠsÊĮÃ°ÉĻÉ¹ n
Ġm ÉĻt
ÉĽnd z
ĠstÉ¹ ÉĽÅĭÎ¸
ĠÉ¹ÉĶÉª ÉĻl
É¹Éª f
ĠÊĮd vÉĽnt
ĠhÉĳÉ¹d li
ĠÃ¦lÉªÉ¡zÃ¦nd ÉĻÉ¹
b Éªt
Ġs Ã¦k
Ġsk É¹uËĲ
Ã¦l ÉĻs
ĠÉĻÉ¹É¹ ÉĽst
fÉĶÉ¹ md
ĠpÉĻl Éªt
ÉĶ É¹Éªd
ĠfÉ¹ aÉªt
Ġsk Éªn
ÉĽk ÊĥÉĻnz
ĠÉĽnÉª wÉĽÉ¹
ĠsÉĽnt É¹ÉĻl
Ã¦ ÅĭÉ¡
Ġf Éĳks
Ġst ÉĽps
ĠÉĽmp ti
ĠÉĽn ÉĻÉ¹d
ĠvÉĽÉ¹i ÉĻs
ĠsÉĻÉ¹ v
Ġp ÊĮp
ĠaÉª É¹iËĲn
Éªt uËĲd
ĠfÉ¹ aÉªd
ĠÉ¡ÊĬd nÉĻs
ĠkÉĻmp Ã¦n
s ÉĻÉ¹
s ÉĻns
ĠaÉªd ÉĽnt
ĠÉĳp ÉĻz
ĠflaÉª ÉªÅĭ
ĠÉĽ ÅĭÉ¡
ĠÉªl ÉĽkÊĥÉĻn
ĠnÉĶÉ¹ Ã°ÉĻÉ¹n
ĠpÉĳp ÉĻ
Ġb ÉĽÉ¹i
ĠwÉª m
ĠsÃ¦nd wÉªt
Ġh ÉĳlÉªd
ĠkÉ¹ aÉªm
ĠmoÊĬst li
ĠÉªntÉĻÉ¹ v
ĠsÉªmp li
Éª pt
ĠkÉĻ Åĭk
ĠÉªÅĭkÉ¹iËĲ s
Ġk ÉĽm
ÉĽns Éªv
Ġk ÊĮst
ĠÉ¹Éªm ÉĳÉ¹
ĠsÃ¦t Éªsf
ĠkÉĻntÉªn juËĲz
ĠÉĽ st
ĠÉĶ ld
ĠtÉ¹ Ã¦k
ft ÉĻbÉĻl
ĠÉĽm pl
ĠsiËĲ eÉªt
ÉľËĲn i
ÊĥÉĽÉ¹ mÉĻn
ĠÉĳn Éªst
ĠÊĮk Ã¦d
ĠmÉĳÉ¹k Éªt
ĠÉĻkeÉª ÊĴÉĻn
Ġf oÊĬ
Ġb uËĲt
ĠÉĽsk eÉªp
s li
iËĲ Î¸
Ġt ÊĮk
Ġh Éĳl
ÊĴ ÊĮ
ĠÃ¦kt É¹ÉĻs
ÉĻk É¹Ã¦t
ĠspÉ¹ ÉĽd
Ġb ÊĮni
li ÉĻn
Éªv Éªd
ÉĻÉ¹d z
ĠÉ¡É¹ Ã¦d
ĠÉ¹Éªl eÉªÊĥÉĻn
l Éªt
ĠpiËĲ t
Ġkl aÊĬd
Ġtw aÉªs
Ġp ÉĽt
ĠmÃ¦ ks
ĠlÊĮv z
ĠmÉªl ÉĻtÉĽÉ¹i
ĠkÃ¦ É¹ÉĻl
ĠkÃ¦ sÉĻl
ĠkÉĻn stÉ¹
ÊĴÉľËĲmÉĻn i
ĠdÉªvÉĽlÉĻp mÉĻnt
Ã¦ pt
ĠÊĥ ÊĬ
ĠÉĳÉ¹ É¡
Ġpl eÉªt
ĠwÉªs pÉĻÉ¹d
ĠstÉĶÉ¹ m
ĠfaÉªt ÉªÅĭ
ĠaÉª Ã¦m
ĠÊĮnd ÉĻÉ¹É¹
ĠÉĻÉ¹É¹aÉªv d
ĠÉª kw
ĠÉ¡ Ã¦b
ĠstÉ¹ ÊĮkt
ĠÊĮwÉĶÉ¹d z
Ġk ÊĮn
v ÉªÅĭ
ĠÉ¹ ÉĽv
ĠÊĥ eÉªp
ĠÉĽnd Éªd
ĠtÉľËĲ mz
Êĥ Éĳk
ĠfÉĶÉ¹ md
juËĲ l
ĠbÉ¹ aÉª
ĠÉĽl tiËĲ
ĠlaÉªt s
ĠpÉĻlÉªt ÉªkÉĻl
Ġk Éĳk
ĠniËĲd tÉĻ
Éªb aÉª
Ġ É¹Éªsk
ÉĽnt s
f ÉľËĲ
Ġfl aÉªt
ĠdÉĳ li
Ġt ÉĽd
ĠÉª v
Ġs eÉªk
ĠÊĮd É¹ÉĽs
ĠsÉľËĲv d
Éª kw
Ġw aÉªn
ĠÊĮ Î¸
ĠÊĥ É¹
ÉĽl d
ĠÉ¡É¹eÉªt ÉĻÉ¹
ĠpleÉª st
ĠfiËĲ m
ĠkÉĻmpliËĲt li
ĠdaÉªn ÉĻs
ĠÊĮkÃ¦d ÉĻmi
ĠÉĽm b
ĠÉ¡ ÉªÉ¡
Ġsl aÉªd
ĠhÃ¦pÉĻn ÉªÅĭ
ĠsÉĻÉ¹pÉ¹ aÉªzd
ĠÉĽp Éªs
ĠdÉ¹ ÉĽst
Ã¦nt Éªk
ĠÉĽnt ÉĻÉ¹d
juËĲt Éªd
ĠÉĳnt ÊĬ
w aÉªz
Ġs Ã¦nt
ĠkÉĻnsÉªd ÉĻÉ¹d
Ġt Éªm
Ġm Éªz
ĠpÉľËĲ pÉĻs
Éªn ÉĽÉ¹i
ĠfÉĽl oÊĬz
ĠdÉªsk É¹aÉªb
ĠtÉĻÉ¡ ÉĽÃ°ÉĻÉ¹É¹
ĠbÉ¹Ã¦d fÉĻÉ¹d
ĠbÉĻl uËĲn
Ġs ÉĻb
Êĥ ÉĶÉªs
ĠjuËĲ keÉª
ĠbÉĳÉ¹ n
ĠloÊĬ ÉĻÉ¹
ĠÉĽkspl eÉªn
ĠsÉĶft li
ĠmaÊĬnt Éªn
ĠÊĮÎ¸ ÉĶÉ¹Éªti
Ġd ÉĽs
Ġd ÊĮbÉĻl
Ġl Éªd
ÊĮbÉĻljuËĲ dÊĮbÉĻljuËĲdÊĮbÉĻljuËĲ
p É¹Éªt
Ã¦ stÉĻÉ¹
Ã¦ É¹ÉĻnt
ĠstÉ¹ ÊĮÉ¡
ĠluËĲ k
ĠkÊĮntÉ¹i z
Ġm ÉĽl
ĠaÉª t
Éĳk i
ĠfÉĶl ÉªÅĭ
ĠÎ¸É¹oÊĬ t
ĠbÉªsaÉªd z
ĠduËĲ ti
juËĲ tÉĻÉ¹
ĠÊĥiËĲ p
ĠkÉĻm Éªti
ĠkÉĳnvÉĻÉ¹s eÉªÊĥÉĻn
ĠÃ° ÊĮs
Ġk oÊĬl
Ġs ÉĽm
É¡ ÉĻn
ĠsaÉª ÉĻnt
Ġb ÉľËĲt
Ġsk É¹iËĲm
ĠÎ¸É¹ ÉĽt
ĠmÉĻÊĥ iËĲn
Ġb eÉªk
ĠkÉĶ fs
ĠdÉĽm ÉĻkÉ¹Ã¦t
Ġb ÉĶs
ĠÉ¡É¹ Ã¦b
ĠbÉĳ bi
Ġk eÉªt
Ġd ÉĽsk
ĠsÉľËĲ fÉªs
ĠÉªnv Éĳlvd
ĠÉĽÉ¹i ÉĻz
oÊĬm ÉĻ
ĠmÉĳd ÉĻÉ¹n
É¹Éª m
Ġn Éĳd
ĠkÃ¦ p
ÉľËĲs i
ĠÉĽlÉªf ÉĻnt
ĠÉ¡É¹ eÉªs
ĠhaÉª ÉĻÉ¹
ĠpliËĲz d
ÊĴÉĻÉ¹É¹ ÉĻs
ĠÉ¹ÉªmÉĽm bÉĻÉ¹É¹
Ġt aÉªni
Ġd ÉĶ
ĠÉ¹ eÉªl
Ġsm ÉĳÉ¹t
t Éªd
ĠÉª k
ĠdÉ¹ Ã¦É¡
ĠmiËĲn ÉªÅĭ
ĠbÉĽt ÉĻÉ¹É¹
ĠÉ¡l ÉĶÉ¹i
ĠfÉĶl ÉĻn
ĠkÉĻ ÅĭÉ¡
ĠÃ¦ v
ĠÉĶ Î¸
ĠÉ¹ Ã¦nd
ĠÃ¦Åĭ ÊĥÉĻs
p Éĳnd
ĠÉ¹Éª vÉĻÉ¹É¹
ĠÉ¡Ã¦ Ã°ÉĻÉ¹
ĠÉªnd ÊĮst
ĠdÉĽfÉªn ÉĻtli
Ġt ÉľËĲt
Ġf eÉªl
ĠÉªn h
ĠÉĽks aÉªtÉªd
ĠÉ¹Éªl Éªd
ĠvÃ¦l juËĲ
ĠfÉĶ É¹Éªst
ÊĴ ÉĽs
ĠÉ¡É¹ Ã¦n
ĠwÉªnt ÉĻÉ¹
ĠÊĮ kw
Ġb ÉĽÉ¡
ĠÉĽn v
ĠsÉªt iz
ĠdÉªl aÉªt
ÉĶ k
ÉĻl ÉĻnt
ÉªÅĭ li
Ġsl Éªp
ÉĳÉ¹É¹ aÉª
ÉĻÉ¹t uËĲn
ĠsÉĶÅĭ z
ĠÉĽ É¡
Ġl oÊĬn
Ġkl Ã¦p
ĠwÊĬd z
wÉľËĲ Î¸
ĠhaÊĬz Éªz
Ġt É¹Éªk
ĠbÉĳ Ã°ÉĻÉ¹
Ġk ÉľËĲt
Êĥ oÊĬz
ĠÉĳp ÉĻÉ¹tuËĲn
ĠÉªlÉĻstÉ¹ eÉªÊĥÉĻn
ĠpÊĮz ÉĻl
Ġh ÉĽvÉĻn
ĠÉľËĲ n
ĠtaÉª É¡ÉĻÉ¹
É¡ ÉĻ
Ã¦n st
pl eÉªn
ĠlÉĶ s
ĠpÉĽns ÉĻl
ĠÉĳÉ¹ É¹
ĠpÉ¹ ÉĻm
ĠpÉ¹Éª nt
ĠÉªnvÉĽst ÉªÉ¡
Ġt aÊĬÉĻÉ¹
Éªk oÊĬ
ĠstÃ¦nd z
ĠÉ¹Ã¦b Éªt
l aÉªt
Éª ÉĻtli
Ġsw Éªts
ĠsÉĻs aÉªÉĻti
ĠÉªmiËĲd ÉªÉĻtli
ĠswÉªts ÉĻÉ¹lÉĻnd
Éª ÉĻv
ĠÊĮn aÊĬnst
pl Éªk
ĠpÉ¹ÉĻv aÉªd
eÉª nt
ĠÊĮp Ã¦É¹ÉĻnt
ÉĽkt Éªv
ÊĮl ts
ĠiËĲzi li
ĠÉ¡É¹uËĲ ps
ÊĴ ÉĻnsi
ĠÊĮv wÉªt
ĠhoÊĬ li
ĠmeÉª hÊĮv
ĠdÃ¦ns ÉªÅĭ
n aÉªt
ÉĶ É¹Éªk
Ġb ÉĽnt
Ġl ÉĳÉ¹É¹ÉĻ
Ġh Éªd
Ġn ÉĳmÉªn
ĠmÉªstÉĻÉ¹ É¹
ĠÉªnf luËĲ
ĠwÉĽ Ã°ÉĻÉ¹É¹
Ġf Ã¦nsi
ĠmÉĽn ÉªÉĻv
Ġm ÉĶ
Ġf ÉĽÉ¹i
Ġf Éªld
ÉĶÉªnt Éªd
ĠfÉªÉ¡j ÉĻÉ¹
ĠnÉĶÉ¹m ÉĻl
Ġt ÉĶÉ¹
ĠjuËĲ hÊĮ
ĠÉ¹Éª st
ĠpÃ¦ Î¸
ĠwÉĶ ks
ÉĻt s
ĠÃ¦l bÉĻÉ¹t
ĠÉ¹ÉĽÉ¡ jÊĬlÉĻÉ¹
m ÉªÅĭ
ĠÃ° aÊĬ
Ġf uËĲl
ĠkiËĲp ÉªÅĭ
ÊĴÊĮ ÅĭÉ¡ÉĻl
Ġd ÊĮm
Ġst É¹oÊĬ
ĠkeÉª eÉªtiËĲ
ĠÊĮ Êĥ
Ġt Ã¦sk
Ġsp iËĲt
ĠÉĽkspiÉĻÉ¹Éª ÉĻns
ĠnÉĽsÉªs ÉĻÉ¹É¹i
ĠkÊĮz ÉĻn
ĠÉĽÅĭÉ¡ eÉªd
w Éªn
É¹Éª Êĥ
Ġd iËĲt
Ġl uËĲt
vÉĻÉ¹ z
ĠÉ¹Éªm eÉªnd
ĠpÉĻt eÉªt
ĠpÉ¹aÉªv ÉĻt
ĠÊĮs Éªst
ĠsÉĶ s
ĠÉĳfÉªs ÉĻÉ¹
ĠpÊĮbl ÉªÊĥt
ĠÊĥÉªp s
Ġt Ã¦p
Éĳ ÊĴ
Êĥ ÉĽl
Éªp ÉĻl
ĠdÉªkl ÉĽÉ¹d
ĠwÊĬl f
ĠÉ¡É¹ ÊĮnt
ĠÉĽf ÉĳÉ¹É¹aÉª
ĠlÃ¦ p
aÉª ÉĻÉ¹É¹
ÉĽt i
Ġpl ÉĽnti
ĠÃ¦m p
ĠstiËĲ l
ÉĻtÉªv z
kÉ¹ Ã¦ft
ĠswÉªm ÉªÅĭ
ĠÉªst Ã¦b
jÊĬ p
Ġ Éĳl
Ġt ÊĮÅĭ
Ġf ÉľËĲn
ĠÉ¡ aÉªd
ĠÉªt Ã¦liÉĻn
ĠfÉ¹ uËĲt
Ġfl Ã¦Êĥ
ĠÉĳn ÉĻÉ¹
ĠpÉ¹ÉĻd uËĲst
ĠÉª Åĭkw
Ġl Éĳs
Ġl ÉľËĲnd
ĠÉĶ Éªl
ĠnÉĳt ÊĮv
ĠpÉ¹ aÊĬd
ĠmÉĽn ÊĥÉĻnd
Ã¦ns Éªz
ĠÊĮÉ¡É¹iËĲ d
ĠÊĮn n
ĠmÃ¦n ÉĻÉ¹
ĠÉªnd Éªp
ĠpÉ¹Éĳs ÉĽs
w ÊĮt
ÊĴ ÉĽl
ÊĴ ÉĻs
ĠÊĮd mÉªn
ĠpÊĬ ld
ÊĥÃ¦mpiÉĻn ÊĥÉªp
ĠÉĶf ÉĻl
ĠsÉĽnt ÉĻÉ¹É¹
ĠnÉĶÉ¹Î¸ wÉĽst
ĠÉĳb viÉĻsli
ÊĥÉĳk lÉĻt
b Éĳdiz
Ġt ÉĳÉ¹
Ġl Éªps
ĠÊĥ ÉĽl
ĠhÉĽd z
ĠfÉªl Éªp
ÉĻl ÉĽst
ÉľËĲ b
ĠÉªnd ÉªvÉªd
ĠpÃ¦l Éªs
ÉĶ f
ÊĴ oÊĬk
ĠhÃ¦d ÉĻnt
ĠdÉªs aÉªd
ĠkÉªÅĭ dÉĻm
ĠÉĶÉ¹É¡ ÉĻn
s p
ĠÉ¹uËĲ f
ĠpÉ¹ÉĻf ÉĽÊĥÉĻnÉĻl
Éĳ É¡z
Ġj ÊĮm
Ġpl ÉĽzÉĻnt
ĠÉĽv ÉªdÉĻns
ĠlÉĶÅĭ É¡ÉĻÉ¹
Ġd ÉªÊĥ
ĠÉĳÉ¹ d
ĠÉªnd Éªk
ĠdÉªf ÉĽns
ÊĴeÉª oÊĬ
ĠtÉĽk st
ĠdÃ¦m Éªd
Ġh juËĲd
Ġd ÊĮ
ĠhoÊĬ st
ĠkÉĶÉ¹n ÉĻÉ¹
ĠspÃ¦n ÉªÊĥ
stÉĻÉ¹ d
Êĥ ÉĽstÉĻÉ¹
ĠpÉ¹ eÉª
É¹ÉĻ f
ĠÉĽksp ÉĽktÉªd
ĠmoÊĬ ÊĥÉĻn
ĠÉĻb z
ĠseÉªv d
É¹i ÉĻs
ĠÉĳfÉªs ÉĻÉ¹z
Ġf ÊĮnd
Ġn ÉľËĲv
ĠÊĥ ÉĶÉ¹
ĠÉ¹ÊĮn z
ĠdÉªv ÉªÊĴÉĻn
Ġskw iËĲ
É¹ Éĳn
ĠtÉĽl Éªf
ĠbÉªh eÉªv
ĠmÉĽd ÉĻs
É¹ ÉĽnd
ĠdaÊĬn stÉĽÉ¹z
Ġfl aÊĬÉĻÉ¹
ĠsÉĽk É¹ÉĻt
ĠÊĮd m
ĠoÊĬ k
Ġst Ã¦t
ĠÉ¹Éª n
ĠÉĽn ÉĻmi
eÉªs ÉĻn
ĠÊĮÃ°ÉĻÉ¹ waÉªz
ĠÉ¹Éªl iËĲs
ĠmÉĳÉ¹t Éªn
ĠfÉªÉ¡j ÉĻÉ¹z
ĠÉĽk stÉ¹
ĠbÉĶl z
ĠplÃ¦n z
ĠsÊĮ pÉĻÉ¹
Ġp eÉªz
ĠÉĽm juËĲ
Éªt ÉĻÉ¹
ĠstÉ¹ aÉªk
ĠsÉľËĲvÉªs Éªz
ĠbÉ¹ ÊĮÊĥ
Ġm aÊĬs
Ġst Ã¦f
ĠklÉªÉ¹ li
ĠjuËĲÊĴuËĲ ÉĻl
ĠÉª É¡n
Ġkl Éĳk
ĠpÉ¹Éĳm Éªst
Ġp ÉĽ
ĠaÉª ÉĻÉ¹n
ĠkÉĻmp juËĲtÉĻÉ¹
iËĲ ÉĻ
Ġst oÊĬl
ĠbÊĮt ÉĻn
ĠdÉªst É¹Éªb
ĠnoÊĬt Éªst
ĠmÃ¦É¡n Éªt
Ġv Éªk
oÊĬn ÉĻ
ĠfÉªÉ¡j ÉĻÉ¹É¹
ĠÃ° Ã¦nÉĻ
Ġs ÉĶÉ¹
Êĥ iËĲk
Ġst aÉªl
ĠdÉĶÉ¹ ÉĻÎ¸i
ĠfÉĶl z
ÉĽÉ¹Éª li
ÊĴÉĽnÉĻÉ¹É¹ ÉĻli
ÊĬ wÉĻ
Ġd iËĲd
Êĥ ÊĬ
Ġpl Ã¦nt
ĠtÉ¹ Ã¦kt
ĠmÃ¦n z
ĠmÃ¦É¡ ÊĮz
ĠÉ¡ÊĮn z
ĠÉĳk jÊĬp
i ÉĻz
Ġd ÊĮt
Ġn eÉªv
Ã¦n z
iËĲn i
Ġbl ÉĽs
ĠkÉĶ f
ĠaÊĬÉĻÉ¹ sÉĽlvz
ĠspÉĶÉ¹t s
Ġt ÉªÉ¹z
ĠÉĽ li
ĠÉ¡ w
ĠfÉľËĲ m
Ġz uËĲ
Ġsn eÉªk
ĠfÉĻÉ¹É¡ Éªv
ĠÎ¸É¹ oÊĬn
Ġt ÊĮn
Êĥ Éªn
ÊĴ ÉĻÉ¹É¹i
ÉĽt ÉĻ
ĠstÉ¹ ÊĮk
ĠlÉªsÉĻn ÉªÅĭ
ĠsÉĽkÉ¹ÉĻt É¹i
Ġw ÉĽd
ÊĴ ÉªÉ¡
ĠtÉ¹ ÊĮÅĭk
ĠstÉ¹ ÉĶ
Ġsm ÉªÎ¸
ĠkÉĽÉ¹ fÉĻli
ĠwÉĽ É¹ÉªÅĭ
ĠhÊĮnt ÉªÅĭ
É¹Éª pt
ĠpÉľËĲfÉĽkt li
Ġh Éĳki
ĠÉ¹ Ã¦s
ĠhÉª p
Ġbl aÉªnd
Ġbl ÊĮdi
ĠstÉ¹ ÉĽt
ĠkÉĶl z
ĠfÉĶÉ¹s Éªz
Ġp oÊĬni
ĠÉĽkst É¹ÉĻ
ĠÉªmp Éĳs
ÊĴ ÉªkÉĻl
ĠÎ¸ Éªk
ĠtÉĽl z
ĠÉĽÉ¡z Éªst
ĠpÉĳp jÊĬlÉĻÉ¹
ĠfÉĻÉ¹É¹ ÉĻn
ĠÉĽmÉĽm ÉĽm
ĠlÉªv z
ĠÉĶstÉ¹eÉª liÉĻ
b Ã¦k
ĠÊĮ st
ĠmuËĲv mÉĻnt
ĠÉ¡oÊĬld ÉĻn
ĠkÉĳÉ¹d z
h aÉª
Ġh aÉªt
ĠfÉĶl t
ĠkÉĻÉ¹É¹ ÉĽkt
ĠÉ¡ Ã¦Åĭ
ĠpÉ¹ aÉªz
ĠÉĽnv aÉª
É¹Éª ÉĻl
ÉĶ É¹ÉªÅĭ
Ġs Éĳb
Ġd ÊĮÉ¡
ĠiËĲ stÉĻÉ¹n
ĠdÉ¹ ÉĽd
ĠsÉªt s
ĠÉ¹iËĲÉĻl aÉªz
ĠniËĲ Ã°ÉĻÉ¹
h oÊĬld
Ġh ÉĶÉ¹n
ĠiËĲ É¡ÉĻÉ¹
ĠmÉĻÉ¹É¹ iËĲs
l aÉªd
Ġt oÊĬst
Éªm ÉĻnt
ĠbeÉªs bÉĶl
ĠskuËĲ lz
ĠÎ¸ iÉĻÉ¹
eÉªt ÉĻÉ¹z
juËĲ mÉĻnt
ĠdÉªz aÉªn
ĠÉ¹ÉªmÉĳÉ¹ kt
Ġt Ã¦k
Ġs ÉĳÉ¹d
ĠÃ°eÉª d
Ġp Ã¦nts
ĠÉĽv ÉªdÉĻnt
ĠmÃ¦ É¹Éª
ĠÃ¦ftÉĻÉ¹ wÉĻÉ¹dz
ĠsÉªkjÊĬÉ¹ É¹Éªti
ĠmÉĽdÉĻs ÉĻn
Ġm ÉĻl
ĠwÊĮ nd
ÉĻÉ¹É¹ ÉĻs
ĠtaÊĬn z
Ġd ÉĽÉ¹ÉĻ
ĠÊĮd ÉªÊĥÉĻn
ĠÉĽnvaÉª É¹ÉĻn
iËĲ kw
Ġst É¹iËĲm
ĠkÊĮm f
ĠbÉªÉ¡ Éªnz
ĠbÃ¦ É¹i
ĠluËĲ s
ĠspoÊĬk ÉĻn
ĠbÉ¹Éª li
ĠpleÉª ÉĻÉ¹z
ĠpeÉª pÉĻÉ¹É¹
Ġsk Éĳl
Ã¦nd ÉĻ
n Éªk
eÉª pt
Ġm ÊĮlt
ĠÊĥ Ã¦d
Ġst Éĳk
ĠÉĶl t
ĠfÉªf Î¸
ĠÉĽnt ÉĻÉ¹t
ÉĻÉ¹ ÊĥÉªp
Ġk oÊĬd
Ġd ÉĽp
ĠpÉ¹ Éĳ
Éĳl f
ÉĽp ÊĥÉĻn
ĠwuËĲ f
ĠsÉĻ pl
ĠÊĥÊĬ É¡ÉĻÉ¹
ĠÉªmp É¹uËĲ
ÉĻn st
ĠÊĮv eÉªl
juËĲ ÉĽs
ĠoÊĬpÉĻn ÉªÅĭ
ĠsÉĽkÉĻnd z
ĠpÊĬl z
Ġt ÉĶt
Ġst ÊĮm
ĠdÉªm Ã¦nd
Ġs uËĲz
ĠdÉĶÉ¹ z
ĠmÃ¦l kÉĻm
ĠÉĽlÉĽl ÉĽl
ĠfÉ¹aÉªd eÉª
ĠÉĳpÉĻz Éªt
p É¹Éª
w Éĳ
Éª ÉĻs
Ġk É¹iËĲt
Éĳn s
ĠtiËĲ mz
ĠdÉªsk ÊĮvÉĻÉ¹d
ĠpÉĳs Éªbli
ĠvÉľËĲ ÊĴÉĻn
ĠÉªmpÉĳs ÉªbÉĻl
Ġb Éªli
ĠpÃ¦ É¹ÉĻ
ĠtÉĽlÉªf oÊĬn
Ġs ÊĮÅĭ
ĠiËĲ d
ĠÉªm ÉľËĲd
ĠsÉªv ÉĻl
ĠhÉĽlp ÉªÅĭ
ĠbÉªliËĲv d
k ÉªÅĭ
Ã¦ É¹
Ġs ÉĶÉ¹s
Ġpl ÉĽÊĴÉĻÉ¹
ĠkÉĳnt Ã¦kt
ĠsaÉª ÉĻns
ĠkÉªs Éªz
ĠjÊĬÉ¹É¹ÉĻp iÉĻn
Ġd Éª
Ġl ÉĻ
ĠÉ¡ eÉª
ĠÉ¡ Éªt
ĠkwÉĶl Éªti
Ġf ÉĽn
Ġf eÉªv
ĠwÊĮ É¹id
ĠfÉĶÉ¹ st
Éªm z
ĠkÉ¹ oÊĬm
ĠfaÊĬnd Éªd
ĠfÃ¦ ÊĥÉĻn
Î¸ Éªn
ĠnaÉª f
ÉĳÉ¡ oÊĬ
ĠÉ¹ÉĽkÉĻÉ¡n aÉªz
ĠÉ¹ÉªfÉľËĲ z
ĠfÉªk st
ÉĻÉ¹ ts
Ġk eÉªd
ĠÊĥ Éªk
ĠÊĥ oÊĬn
ĠdÉ¹ Ã¦É¡ÉĻn
Ġsw Éªt
ĠkÉĳ ÅĭÉ¡
Ġst uËĲ
Ġpl Ã¦t
iÉĻÉ¹ ÉĻ
ĠpeÉª l
ĠluËĲ si
ĠsaÉªd z
ĠfÉĶÉ¹m jÊĬlÉĻ
Ġs Éĳk
ÊĴ ÉĽnt
ĠpeÉª pÉĻÉ¹z
ÊĥaÉªn iËĲz
ĠÉĶld ÉĻn
ĠÉĳpÉĻÉ¹tuËĲn Éªti
Ġt Éĳ
ĠnoÊĬ ÉªÅĭ
ÉªÉ¹ iÉĻl
Éªv li
ĠwaÉª z
ĠbÉĽd É¹uËĲm
ĠhÉĳÉ¹ m
ĠÉ¡É¹eÉª ÉĻm
Ġp uËĲl
Éªl z
ĠhaÊĬ ÉĽvÉĻÉ¹É¹
ĠbÉªt s
ĠkaÉªnd ÉĻ
ĠfeÉªs Éªz
ĠsÉľËĲk ÉĻm
ĠÊĥaÊĬt s
ÊĥaÉªn ÉĻ
ĠsÉĻÉ¹É¹ aÊĬnd
ÊĴÉĽÉ¹ ÉĻld
ĠfiËĲm eÉªl
s ÉĶ
Êĥ eÉªs
ĠÉĽks ÉĻlÉĻnt
oÊĬ p
Ġk ÉªÅĭz
Éªt ÉªÅĭ
ÉĻt ÉĻÉ¹
ĠpÉĳÉ¹ l
ĠÉľËĲlÉª ÉĻÉ¹
Éªn i
ĠpiËĲ pÉĻlz
ĠnaÉªn hÊĮndÉ¹Éªd
ĠÉ¡Éĳd z
ĠdÉĳl z
ĠmÉĻÉ¹É¹iËĲs ÉĻlÉĽst
Ġt ÉªkÉĻl
ĠÊĮn h
ĠpÉ¹ÉĳpÉĻÉ¹ li
ĠpÉĻÉ¹tÉªkjÊĬlÉĻÉ¹ li
ĠÊĮdmÉªn Éªst
Ġb Éĳn
ĠdÉªs ÉªÊĴÉĻn
ĠÊĮd É¹ÉĽst
ĠleÉª bÉĻÉ¹
Ã¦ ÅĭÉ¡ÉĻl
ĠÉĽf ÉĻÉ¹t
ĠbÉ¹ eÉªn
bi ÉĻ
Ġbl oÊĬz
ĠfaÉªnd ÉªÅĭ
ÉªfÉªk eÉªÊĥÉĻn
ĠkÉ¹eÉªÉĳn z
ĠÉĽmpl ÉĶÉª
l aÉªk
Ġw Ã¦n
Ġm ÉĽÎ¸
ĠÉ¡ ÉĶÉ¹d
ĠhÃ¦ É¹Éªs
Éªst Éªk
ĠÉ¡É¹ oÊĬÉªÅĭ
ĠmaÉªk É¹ÉĻf
ĠkeÉªs Éªz
ĠwÉªm Éªnz
p eÉª
Ġp ÊĮn
Ġl oÊĬd
ĠtÉ¹aÉª b
ĠwÉªs pÉĻÉ¹z
ĠÉ¹ÉĽkÉĻÉ¡n aÉªzd
ĠÉĻfÉªÊĥ ÉĻl
Ġf Ã¦nt
ĠwÉĶ lz
ĠÉĻ ÊĥÊĬÉ¹
eÉªz d
ĠwÉĶÉ¹ ÉĻn
ĠfeÉª nt
ĠbÉ¹Éªli ÉĻnt
f Éĳ
m Ã¦n
ÊĴ ÉľËĲni
ĠbÉ¹ÉªÅĭ ÉªÅĭ
ĠÉ¹Éªp iËĲtÉªd
ÊĴ ÉĻns
Ġst Ã¦n
ĠbaÉª ÉªbaÉª
eÉªn iÉĻ
oÊĬt oÊĬ
ÉĽlÉĻ pt
É¹ ÉĻnz
Ġh ÉĻm
Ġn iËĲt
ĠÉĶ st
ĠÊĮm eÉªzÉªÅĭ
Ġfl ÉĶÉ¹Éªd
ĠbÃ¦Î¸ É¹uËĲm
ĠtaÉªt ÉĻl
ĠÉªvÉĽnt s
ĠpÉ¹Éªp ÉĽÉ¹d
Ġk juËĲt
ĠhiËĲ t
ĠduËĲ d
ĠtÉ¹ eÉªl
ĠÉªÅĭkluËĲd Éªd
ĠÃ¦ Î¸
Ġl wÉĳÉ¹
ĠÃ¦kt ÉªÅĭ
ĠpÃ¦ É¹Éªs
ĠfÉĽÉ¹ li
Éª ÉĻl
Êĥ ÉĽs
Ġf oÊĬld
Éªk ÊĮl
ĠkeÉª p
iËĲkw ÉĻlz
Ġs Éªnd
Êĥ ÉĳÉ¹t
ĠsiËĲ eÉªÉĳÉ¹
ÉĻt ÉĶÉ¹i
ĠmÃ¦n juËĲ
ÊĴ ÉĽf
ĠÉ¹ Éĳks
ĠhÃ¦ l
ĠsÊĮm wÊĮt
ĠkÃ¦n ÉĻd
ĠÉ¹uËĲ lz
ĠtÉ¹eÉªn ÉªÅĭ
ÊĴ eÉªl
ĠkÊĮm ftÉĻbÉĻl
ĠÉĽÉ¹ kÉ¹Ã¦ft
ĠÉ¡ÊĮvÉĻÉ¹n ÉĻÉ¹É¹
ĠdÉ¹ÉªÅĭk ÉªÅĭ
ĠÉ¹ÊĮ ÊĥÉĻn
ĠÉ¹ÉªpÊĮbl Éªk
i li
ÊĮ É¡z
iËĲ ks
Ġb ÉĽnd
Ġn iËĲz
Ġst É¹iËĲ
ĠeÉª b
Ġfl uËĲ
ĠsÉľËĲ d
ĠkÃ¦nt Éĳn
ĠdÉªs pl
ĠluËĲ i
ĠÉĽkst É¹iËĲm
ĠdÉªstÉ¹ ÉĶÉª
ĠÊĮpÃ¦É¹ÉĻnt li
Ġh iÉĻÉ¹oÊĬ
ÉĳÉ¹ m
É¹i ÉĻ
ĠloÊĬk eÉªtÉªd
Ġw Ã¦É¡ÉĻn
Ġt ÉĽÉ¹Éªt
ĠÉ¹ ÉĽsk
ÊĮt s
ĠfiËĲ lz
ĠjÊĮ ÅĭÉ¡ÉĻÉ¹
ĠpÉ¹iËĲ viÉĻs
Ġs Éĳks
Ġb ÊĮÉ¡
ĠsÉĻks iËĲd
ĠlÉĶÉª ÉĻÉ¹
iËĲv d
ĠsteÉªt mÉĻnt
ĠkÃ¦t s
ĠÉ¹ÉĽkÉĻÉ¹d z
ĠÊĮpÉªÉ¹ ÉĻns
ĠÊĥoÊĬld ÉĻÉ¹
Ġm Éªks
Ġf eÉªt
ĠwÉľËĲ st
ĠtÉ¹ ÊĮd
Éĳn oÊĬ
ĠmÉĳd ÉĻl
ĠpÉ¹Éªns ÉĽs
ĠÉĽsÉĽs ÉĽs
ÊĥÃ¦n ÉĻl
ĠsÉľËĲ É¹
ÉľËĲt Éªd
ĠkÉĻns ÉľËĲnd
ĠsÉĽl ÉĻb
ĠsleÉªv z
ĠhÉªst ÉĶÉ¹Éªk
ĠkÃ¦n z
ĠÉ¹Éªm aÉªnd
É¡É¹ ÉĽs
ĠkÊĮmf ÉĻÉ¹t
É¹ eÉªtÉªd
Ġk oÊĬk
ĠjuËĲ t
ĠwÊĮt ÉĻÉ¹
ĠÊĥÉĳÉ¹ lÉĻt
ĠmaÉªkÉ¹ÉĻf oÊĬn
ÊĬÉ¹ É¹i
ĠfÉ¹ ÉĶst
ĠwÉªl ÉªÅĭ
ĠbÉĽn Éªf
ĠdaÉªnÉĻs ÉĶÉ¹
É¹Éª l
Ġh Éĳp
Ġm ÊĮndeÉª
ĠÉ¡ ÉĽst
ĠÉĶ d
ĠÉ¹ ÊĮs
ĠfÉ¹ iËĲd
Ġsk É¹iËĲn
ĠmÃ¦ É¹Éªd
ĠÉ¹aÉªd ÉªÅĭ
ĠdÉªÉ¡É¹iËĲ z
m ÉªÊĥÉĻn
ĠÉĽ ts
Ġp ÉªÉ¹
Ġv ÉĽs
ÉĽkt s
jÊĬl ÉĻs
ĠkÉĻns ÉľËĲn
ĠhÊĮv nÉĳt
ĠkÉĻnd ÉªÊĥÉĻn
Ġpl Ã¦nts
ĠÉ¡É¹eÉªt Éªst
ĠsÉĽt ÉĻld
ĠliËĲd ÉªÅĭ
ĠnÉĳ kt
ĠpÉ¹ÉĻp oÊĬz
ĠsÉľËĲkÉĻm st
iËĲ ti
ĠwÉª k
ĠslaÉªt li
ĠÉĻp Éªn
b Éĳks
ÉĶ Î¸
ĠÉĳÉ¹ juËĲÉĽs
ĠbaÉª k
ÊĮb ÉĻlz
ĠsteÉª ÉªÅĭ
Ġskw iËĲz
b ÉĶÉª
k Éªn
Êĥ oÊĬ
eÉªd z
ĠbÉ¹ Ã¦nd
ĠdaÉª ÉĻl
ĠkloÊĬs ÉĻÉ¹
Ġsk É¹Ã¦t
ĠÉĽv ÉĻÉ¹É¹
ĠÉ¡ÉªÉ¡ ÉĻlz
ÊĥÊĬ n
Ġd ÉĽz
Êĥ Éĳp
Ġl Ã¦k
Éªt eÉªÊĥÉĻn
juËĲ ÊĥÉĻn
ĠÊĮp ÉĻÉ¹
eÉªn iÉĻn
ĠÉ¹Éªm eÉªn
ĠÉĽÉ¹ pleÉªn
ĠmÉĽd ÉªkÉĻl
ĠmaÊĬnt Éªnz
ĠhÉĳlÉªd eÉª
aÉª ÉĻns
É¡ ÉĻÉ¹É¹
Ġl ÉªÅĭk
Éĳt i
ĠdÊĮz ÉĻn
ĠÉ¹Éªt aÉªÉĻÉ¹d
ĠmoÊĬt ÉĻÉ¹
ĠkÊĮst ÉĻm
ĠmiËĲ l
ĠÊĮp É¹iËĲ
ĠseÉªf ti
ĠoÊĬp ÉĻnz
ĠkÃ¦É¹ÉĻl aÉªn
ĠkÃ¦nÉĻd ÉĻ
ÊĬ li
Ġm ÉĳÉ¹d
Ġn ÉĳlÉªd
Éªv ÉĻl
ĠfaÉª l
ĠdÉªf ÉªkÊĮl
ĠÃ¦m b
ĠaÉªlÉĻnd z
iËĲ l
ĠÉĽ É¹Éªk
ĠÊĥiËĲ d
ĠÉ¹Ã¦ Ã°ÉĻÉ¹É¹
ĠpÊĬ Êĥt
ĠsaÉªl ÉĻnt
ĠmÉĽks ÉªkoÊĬ
Ġb aÊĬt
Ġb oÊĬn
Ġb aÊĬns
Ġm ÉªÊĥ
ĠwiËĲ ÊĥÊĮl
ÉĽÉ¹i z
ĠkiËĲ ps
ĠpiËĲk ÊĮb
ĠskÉĽÉ¹ sli
ĠflÉĶÉ¹Éªd ÉĻ
k oÊĬ
k Ã¦st
st s
ĠpiËĲ ts
oÊĬt Éªd
ĠkÃ¦É¹i ÉªÅĭ
Éª ÊĴÉĻnz
Ġs ÉĶÉ¹d
É¡ ÉĳÉ¹
Ġf ÉĽst
Éªv z
ĠeÉª ÊĴÉĻn
ĠÊĮs aÉªd
biËĲ siËĲ
ĠdÉªv ÉĽlÉĻpt
ĠdÉĳlÉĻÉ¹ iËĲkwÉĻlz
ĠhÃ¦Åĭ ÉªÅĭ
Ġw ÉĶÉ¹d
ĠÊĮv ÉĶÉªd
Éªt uËĲt
ĠpÉ¹Éª vÉĽnt
ĠÉ¹uËĲ Î¸
ĠstÉĳp s
ĠkÉ¹iËĲ eÉªt
ĠfÉªÊĥ ÉªÅĭ
ÊĴÉĽst Éªd
Ġs aÉªnd
ĠnoÊĬ p
ĠtuËĲ Î¸
ĠkÃ¦ Êĥ
Éĳd ÉĻ
ĠÉĽvÉ¹Éª wÉĽÉ¹
ĠÊĥoÊĬ ÉªÅĭ
ĠÉ¡É¹Ã¦nd p
ĠÎ¸É¹oÊĬ ÉªÅĭ
ĠkÃ¦mp eÉªn
ĠkÉĳnf É¹ÉĻns
Ġs Ã¦Åĭ
Ġd Ã¦lÉĻs
ÉĽn ÉĻnt
Ġkl aÉª
ĠÉĶÉ¹d ÉĻÉ¹z
ĠÉĶÉ¹d ÉĻÉ¹d
ĠmÉĳÉ¹ É¡É¹
ĠkwaÉª ÉĻtli
ĠÊĥÉªk ÉĳÉ¡oÊĬ
Ġt ÉĶÉ¹t
iËĲt ÉĻ
ĠsÉªÅĭ ÉĻÉ¹
ĠÉ¹ÉªÅĭ z
ĠÉ¡ Éªft
ÉĽn z
Éªn eÉªÊĥÉĻn
ĠÉ¡oÊĬ l
Ġsp aÉªd
ĠfÉĽd ÉĻÉ¹É¹ÉĻl
k ÉĻl
Éª h
É¹ ÉĽd
Ġd ÉĻm
Éªd ÉĽnÊĥÉĻl
ĠbÉ¹ ÊĬk
ĠtÉ¹uËĲ ps
ĠkÉĳnt É¹
ĠÊĮveÉªl ÉĻbÉĻl
ĠpiËĲkÊĮb uËĲ
Ġf ÊĮs
ĠiËĲ vÉĻl
ĠduËĲ Éªn
ĠsÉĽ pÉĻÉ¹É¹
ĠfÉ¹ ÉĳÉ¡z
ĠpiËĲ n
ĠÉĽs siËĲ
ĠÉĶÉ¹d ÉĻÉ¹É¹
ĠkÊĬk i
ĠtÉ¹Ã¦ns pÉĶÉ¹t
k eÉªs
ĠÃ¦ nti
uËĲ f
ÊĴ Éªl
ÊĮnd ÉĻÉ¹
mÉĻn z
ĠÉ¡l Ã¦ns
ĠpÃ¦s Éªnd
ÉľËĲm Éªnd
Ġl Éªn
Ġst É¹ÉªÅĭ
ĠÊĮn s
ĠkÉ¹ ÉĶl
ĠdÉ¹ ÉĳmÉĻ
ĠdÉªz iËĲz
ĠwÉĳÊĥÉªÅĭ tÉĻn
ĠsÉĻÉ¹v aÉªv
Ġk Éªm
ĠoÊĬ b
Ġv Ã¦li
ĠsÊĮm ÉĻÉ¹É¹
ĠtÉ¹ eÉªs
ĠÉ¹Éªs pÉĳnd
ĠÎ¸É¹ oÊĬz
ĠmÉĽt ÉĻl
l ÉĻÉ¹z
ĠÃ° iËĲ
Ġt oÊĬz
Ġp ÉĻÉ¹É¹
Ġp aÊĬÉĻÉ¹É¹
ĠwÉĶ É¹Éª
ĠÊĮp sÉĽt
ĠpÉ¹ ÉĽ
ĠpÉ¹ Éĳf
ĠkÃ¦ s
ĠmÉĽn ÊĥÉĻn
ĠdÊĮn oÊĬ
ĠsÉªstÉĻÉ¹ z
ĠsÉĻksÉĽs fÉĻl
ĠblÃ¦Åĭk Éªt
d ÉĻn
Ġd aÉªv
oÊĬn iÉĻ
oÊĬst ÉĻ
ĠpÉ¹Éª s
ĠÊĮk Éĳm
ĠÉ¹Éªf l
ĠbÊĬ Êĥ
ĠiËĲz iÉĻÉ¹
ĠpoÊĬ Éªt
ĠfÉĻÉ¹É¡Éĳt ÉĻn
ĠlÉĶÉ¹ ÉĻ
ĠdÉĽmÉĻkÉ¹Ã¦t Éªk
ÊĴÉĽnt li
j ÉĳÉ¹d
Ġt ÉĽnd
ÊĴ Éªnd
Éĳt s
Ġst ÉĽdi
Ġsp oÊĬstÉĻ
ĠÉľËĲ s
Ġsk É¹iËĲmz
ĠÉªl ÉĽktÉªd
ĠÉ¹Éªl eÉªtÉªd
oÊĬl ÉĻ
ĠÊĥÉĳp ÉªÅĭ
ĠÉ¹ÉĽl ÉĻtÉªv
ĠmÃ¦É¡ÊĮz iËĲn
ÉĻÉ¹ li
ĠÉĽ Î¸
Ġb ÊĮm
Ġp Éĳm
ĠÎ¸ Éªn
ĠfÉĶÉ¹ d
ĠsÊĮm haÊĬ
ĠkÉ¹ ÉĽd
ĠbÉĳÉ¹ b
ĠmÉªnÉªstÉĻÉ¹ É¹
ĠÉ¹ÉªleÉªÊĥÉĻn ÊĥÉªp
ĠkÉĻnstÉ¹ ÊĮkÊĥÉĻn
ĠÉĽpÉªs oÊĬd
Éªl ÉĻ
iËĲd iËĲ
ĠÉĶf ÉĻÉ¹
ĠfÉĳ nd
ĠmÉĽm ÉĻÉ¹É¹i
ĠbÉĽk i
ĠÉ¹ÉĽv ÉĻluËĲÊĥÉĻn
ĠÉĽks ÉĻÉ¹s
É¹ÉĻl d
ĠpÉĳ li
ĠdÉ¹aÉª vÉĻÉ¹
ĠdeÉªt ÉĻ
ĠsmaÉª lÉªÅĭ
ĠkÊĮn eÉªd
h ÉĻm
ĠÃ° aÉª
ĠÊĮ wÉĽÉ¹
Ġb ÉªÊĥ
Ġm Éª
ÊĴ ÉĻÉ¹d
ĠÊĥÊĬÉ¹ li
ĠpÉ¹ÉĽz ÉĻntli
Éªk ÉĻlz
Ġv ÉĽn
ĠwÉĶ nÉĻÉ¹
ÉªÊĥ mÉĻnt
ĠtÉĶ Éªl
ĠwÉªÉ¹ d
ĠÉĽnt ÉĻÉ¹
ĠfiËĲlÉªÅĭ z
ĠÊĮpÉ¹iËĲ ÊĥÉª
Ġw eÉªtÉªd
Ġw ÉĽb
ÉĶ ld
Éĳ kt
Ġf ÉĶt
ĠÊĮp É¹uËĲ
ĠeÉª nd
ĠdeÉª b
ĠhoÊĬm z
ĠdÉªt ÉľËĲmÉªnd
ĠkÉĻmpÃ¦n iÉĻn
ĠbÉ¹aÉª ÉĻn
Ġj ÊĮmi
Ġp Éªn
ĠwÉªt nÉĻs
ĠÉĶf ÉĻÉ¹d
ĠpÉ¹ÉĽz ÉĻns
ĠÊĮf ÉĶÉ¹d
ĠhÉĶÉ¹s i
ĠnÉĶÉ¹m ÉĻli
ĠluËĲt ÉĽnÉĻnt
Ġp jÊĬÉ¹
Ġv ÉĽd
iËĲt s
ĠÃ¦l Éªs
ĠmÃ¦t ÉĻÉ¹z
ĠÃ¦ Åĭk
Ġf ÊĬli
ĠnuËĲ kl
ĠmÃ¦ sk
ĠÊĮl f
ĠmÉĳ li
ĠnÉľËĲs ÉĻÉ¹É¹i
ĠsÉªÉ¹iÉĻs li
ĠÊĮw eÉªk
ĠÉªndÊĮst É¹i
ĠÉ¹Ã¦s bÉĽÉ¹i
ÊĮ É¹
Ġk eÉªv
ĠÎ¸ i
ĠlÉĽt ÉĻÉ¹É¹
Ġfl Ã¦É¡
ĠÉĽd m
Ã¦f Éªk
É¹ ÉĻm
Ġb uËĲm
Ġm ÉĽ
Ġm ÉĻd
Ġp juËĲ
ÊĴ eÉªk
ĠÃ°Ã¦t ÉĻl
ĠhÃ¦ É¹ÉĻld
ĠkÃ¦ É¹Éªd
Éªst Ã¦n
ĠweÉª v
ĠkÉĳp i
ĠÃ¦v É¹Éªd
n eÉªm
Ġ eÉªk
Ġb ÉĽÉ¹z
ĠoÊĬ ÊĥÉĻn
ĠÊĥ aÊĬÉĻÉ¹
Ġst Éªks
Ġkl eÉª
ĠsÉĽk ÊĥÉĻn
ĠkeÉª ÉĽm
ĠboÊĬt s
ĠdÉªt ÉĽktÉªv
É¹Éª bÉĻl
ÊĴ Éªnz
Ġpl Ã¦stÉªk
ĠtÉ¹ Ã¦v
Éĳm Éªk
iËĲn oÊĬ
ĠhÉĶÉ¹ eÉª
ĠtÊĬÉ¹ n
ÊĴaÉª ÉĻnt
ĠwÉĽd ÉªÅĭ
Ġd oÊĬ
Ġm ÉĶnt
Ġp Éªti
Ġsp eÉªn
ĠiËĲt ÉĻn
ĠÃ¦l ÉĻn
ĠdaÉª ÉªÅĭ
ĠpÃ¦s ÉªÅĭ
ĠmÉľËĲd ÉĻÉ¹
ĠÃ¦ktÉªv Éªti
ĠstuËĲd ÉĻnts
ĠÊĮnf ÉĶÉ¹t
fÉĳ Ã°ÉĻÉ¹
t oÊĬ
ĠÊĮs ÉĽm
ĠmÃ¦ nt
ĠtÉĶ ks
ĠÊĮt É¹Ã¦kt
ĠÎ¸ÉĶt s
ĠdÉĳkt ÉĻÉ¹z
ĠtÉľËĲt ÉĻl
Ġst ÉľËĲ
ĠkaÉªnd z
ĠfÃ¦mÉªli z
ĠÉĻlÉªmp Éªks
ÊĴ eÉªsÉĻn
ĠÉ¹ ÉĻm
ÊĥÉĻn ÉĻtli
ĠwaÉª p
ĠbÃ¦ ks
ĠbÉľËĲ st
ĠnÃ¦ É¹oÊĬ
ĠwÊĮndÉĻÉ¹ É¹ÉªÅĭ
ĠÃ°ÉĽÉ¹wÉľËĲ É¹
kl ÊĮh
ĠÉ¹Éĳb Éªn
ĠÊĮsoÊĬs ÉªeÉªÊĥÉĻn
l Éªk
Ġs Ã¦v
Êĥ ÉĽst
ĠÊĮp ÉĳlÉĻd
ĠÉĳÉ¹t Éªst
ĠdÉªÉ¹ÉĽkt li
ĠtoÊĬt ÉĻli
ĠÊĥoÊĬld ÉĻÉ¹z
Ġk ÊĬ
ĠoÊĬ klÊĮh
ĠÉ¹Éª Ã¦kt
ĠsÊĮn z
ÊĴÉĳb z
ĠkÉĳnt É¹Ã¦kt
ĠtÉĳÉ¹ É¡
Ġm ÊĮ
Éĳt ÉĻ
aÊĬt s
Éªm i
ĠbÉľËĲ É¡
ĠplÃ¦n ÉªÅĭ
ĠkÊĬk ÉªÅĭ
Ġk ÉĶÉ¹d
Ġkw ÉªÉ¹
ÊĴÉªn iÉĻ
ĠfÉ¹aÉªt ÉĻnd
ĠmÉĳÉ¹É¡É¹ ÉĻt
Éª aÉª
stÉĻÉ¹ É¹
Êĥ Ã¦l
Êĥ iËĲp
ÉľËĲ É¹Éªd
ĠwiËĲ lz
Éªl ÉĻti
ĠÉľËĲ d
Ġsn Éªf
ĠmeÉªn li
ĠpÉĳ z
ĠÉ¹iËĲs ÉĻntli
ĠÉĽksaÉªt mÉĻnt
ĠbÉĽÉ¹i d
ĠoÊĬklÊĮh oÊĬmÉĻ
Ġh ÊĮÅĭ
ĠiËĲ Ã°ÉĻÉ¹É¹
Ġst oÊĬnz
ĠpÉ¹ oÊĬt
ĠsÉĽnt ÉĻns
mÉªn ÉĻl
ĠpÉ¹Éĳd ÊĮkt
ĠÉ¹ÉªmÉĽm bÉĻÉ¹d
ĠpÉ¹ÉĻfÉĽs ÉĻÉ¹
Ġb oÊĬld
ÊĴ Ã¦ks
eÉªd Éªd
ÊĮk i
ĠÉªl Éªz
ĠpeÉª ÊĥÉĻnt
ĠmoÊĬ bÉĻl
Ġf ÊĮÅĭk
Ġn ÉªÉ¡
ĠÃ¦d ÉĻmz
ĠÉĻb t
b Éªl
j ÉĻl
Éª ÉĻn
Ġm ÉĽÉ¹Éª
ĠiËĲ kÉĻn
Ã¦n ÊĥÉĻl
ĠÃ¦l f
ĠsmÉĶl ÉĻÉ¹
ĠmÃ¦Î¸ juËĲ
ĠtÉ¹ÊĮd ÉªÊĥÉĻn
oÊĬ ÊĥÉĻn
ĠÉĽkspl eÉªnd
ĠÉ¹ÉªfÉľËĲ É¹ÉªÅĭ
ĠÉĳÉ¹ Î¸
Ġv iÉĻ
ĠÉ¡É¹Ã¦nd Ã¦d
ĠpaÊĬÉĻÉ¹ fÉĻl
ĠbÉ¹Ã¦d li
ĠÊĮnn oÊĬn
ĠmÃ¦É¹Éª lÉĻ
ĠkÉĳÅĭÉ¡ É¹ÉĻs
ĠÉ¹ aÉªz
ĠÊĥ eÉªm
ĠdÉĳkt ÉĻÉ¹É¹
ĠdÉªÉ¹ÉĽkt ÉĻÉ¹
ĠkÉľËĲÉ¹ÉĻnt li
ĠkÉ¹uËĲ ÉĻl
É¹Éªp ÊĥÉĻn
Ġb oÊĬnz
ĠsÉĽ pÉ¹
ĠmÉĳÉ¹ ks
ĠstÊĮdi d
ÉĻÉ¹ v
Ġd É¹iËĲmz
ÉĻm iz
Ġsk ÉĶÉ¹
pl eÉªs
ĠpÉĶÉªnt ÉªÅĭ
ĠkÉĳmp ÉĻt
ÊĴÉĻl Éªs
ĠpÉĻÉ¹fÉĶÉ¹m ÉĻns
ĠwÉªspÉĻÉ¹ É¹ÉªÅĭ
aÉª ÉĻÉ¹z
Ġs ÉĶlt
Ġp ÉľËĲt
ĠÉªt ÉĻli
ÊĴÊĮst Éªs
Ġsp Éªn
ĠÉªÅĭkluËĲd z
ĠbÉªkÊĮm ÉªÅĭ
ĠmÉªk st
ĠpÉĳz ÉªtÉªv
f laÉª
ĠÃ¦ ÅĭÉ¡
Ġf Ã¦s
ĠbiËĲ d
Ġsm uËĲ
ĠÊĮndÉĻÉ¹st ÊĬd
ĠÉªnst ÉĻnt
ĠhÉª lz
ĠsoÊĬ d
lÉĻnd z
ĠÉ¹Éªz ÊĮlts
ĠdÉ¹Éĳp s
ĠsÃ¦nt ÉĻ
ĠpiËĲts ÉĻ
ĠhÃ¦ n
ÊĥÉĻn ÉĻt
Éĳd oÊĬ
ĠpÉľËĲs ÉĻnz
ÊĴÉªm i
ĠpÉ¹ÉĳpÉĻÉ¹ ti
ĠsÉľËĲkÉĻmst Ã¦nsÉªz
ĠsÉªÅĭ É¡
ĠpÉªk ÉªÅĭ
ĠtÉĽkn ÉĳlÉĻd
ĠÃ¦fÉ¹Éªk ÉĻ
Ġh ÉĻÉ¹É¹
Ġd ÊĮst
ĠlaÉª bÉ¹
ĠÉ¹Éªpl aÉª
l iËĲn
l ÉªÊĥt
ĠpÉĳÉ¹t nÉĻÉ¹
ĠfÉ¹ÉĽnd li
ĠvÉĶÉªs Éªz
ĠÊĮdv Ã¦ns
Ġt ÊĮf
ÉĻn ÉĶÉª
ÊĴ Ã¦m
ÉªÊĥ ÉĻl
ĠdÉ¹ ÊĮÅĭk
oÊĬk i
ĠÉĽkspÉ¹ ÉĽÊĥÉĻn
ĠpÉĳÉ¹l ÉĻmÉĻnt
st Ã¦nd
Ġb Éªd
Ġb ÉĳÉ¹k
Êĥ aÉª
ĠÎ¸ iËĲ
ĠfÉĶÉ¹ mz
ĠlaÉª z
ÊĮv ÉĻÉ¹É¹
ĠtÉľËĲ k
ĠÉĻk ÉľËĲ
ĠkÉĻl ÉĽkt
ĠÊĮdv Ã¦ntÉªd
ĠÉĻpÉªn iÉĻn
h uËĲ
Ġf ÉĽns
ĠÊĥ eÉªks
ĠhÃ¦d Éªt
ÉªÉ¡ ÉĻn
ĠÉ¡l oÊĬ
ĠkÉľËĲ É¹Éªd
ĠkÊĮmpÉĻn iz
ĠÉ¹iËĲz ÉĻnz
ĠpÉ¹iËĲ fÉĽkt
ĠÉľËĲn Éªst
aÉª lz
Ġb ÊĮz
Ġl Éªk
ÉĳÉ¹ z
ÉĽt É¹ÉĻ
ĠbÉªÉ¡ Éªst
ĠÉªl ÉĻnÉĶÉª
ĠkÉĳ Åĭk
ĠkÉ¹aÉª st
ĠÉ¹ÉĻm iËĲ
l ÉĶ
Éª eÉªtÉªd
eÉª bÉĻl
ĠÊĥ ÊĬk
ĠÉ¡É¹ aÊĬ
ĠÊĮl iËĲd
ĠtÉĻm eÉªt
ĠkÃ¦É¹Éªkt ÉĻÉ¹z
ĠlÉª bÉĻÉ¹É¹
ĠkwÉĶÉ¹t ÉĻÉ¹
j ÉªÉ¹
ÊĴ ÉªÉ¹
Ã¦t s
ĠfÉĶÉ¹ ÉĻn
ĠmaÉª l
ÉĻb ÉĻÎ¸
ÉĳÉ¹É¹ ÉĳÉ¹
ĠÉªÅĭk ÊĮm
ĠpÊĬl ÉªÅĭ
ĠfÉ¹iËĲ kw
ĠswiËĲt hÉĳÉ¹t
ĠÉ¹Éªkw ÉĽst
ĠmÉªÉ¹ ÉĻÉ¹
ĠÉªlÉªz ÉĻbÉĻÎ¸
Ã¦ Î¸
Ġb Éĳdiz
ĠmeÉª ÉĽn
ĠÉĽd wÉĻÉ¹d
ĠdÉªsk ÊĮs
ĠÉªstÃ¦b lÉªÊĥt
Ġh ÊĮt
Ġb ÉªÉ¹
Ġb Éªsk
Êĥ eÉªm
Ġf ÉĽt
Ġl iËĲn
ĠhÉĽl ps
ĠdÉªs É¡
ĠÊĮdv aÉªs
ĠpÉªl t
ÊĴÉªÉ¡ sÉĶ
ĠÊĮlf É¡ÉĳÉ¹
b uËĲ
É¹ Ã¦d
Ġw eÉªd
Ġk iËĲz
Ġs aÉªm
Ġm iÉĻ
Ġl eÉªn
ĠpiËĲ z
Ġkl Ã¦
ĠÉ¹iËĲÉĻl aÉªzd
ĠhÉĳÉ¹t s
ĠÉ¹oÊĬd z
ĠÉĳÉ¹k ÉĻns
ĠÉĽntÉĻÉ¹t eÉªn
Ġb Ã¦n
ÉĻÉ¹É¹ ÉĳÊĴ
ĠÉ¹aÉªt ÉĻÉ¹
iËĲt ÉªÅĭ
ĠdÉªl ÉªÊĥÉĻs
ĠlÉĳ ÅĭÉ¡ÉĻÉ¹
ĠdÉªsÊĮp ÉªÉ¹d
ĠskÉ¹iËĲm ÉªÅĭ
Éªl ÉªÉ¹
ĠmeÉª nt
ĠfeÉª ld
ĠbÉ¹eÉªk ÉªÅĭ
ĠkÉĻmjuËĲn Éªk
ĠziËĲ lÉĻnd
ĠÉĽksaÉªt ÉªÅĭ
ĠfoÊĬ ks
ĠbuËĲt s
b l
Ġw ÉĽp
Ġh ÊĮn
Ġn ÉĽd
ĠÉĶ ÊĬwÉĻ
bi ÉĻn
ĠdÉ¹ Ã¦ft
ĠsÉªl ÉĽktÉªd
ĠtÉ¹Ã¦kt ÉĻÉ¹
ĠnuËĲkl ÉªÉ¹
ĠtÊĬÉ¹n ÉĻmÉĻnt
ÉĽl Éªd
ĠwÉª Êĥt
Ġv eÉªk
ÉĻm ÉªlÉªÉ¹
Ġkl Éªf
ĠoÊĬvÉĻÉ¹ l
ĠkÉĳm pl
ĠÉĽd i
ĠnÉĽt wÉľËĲk
ĠÉĽntaÉªÉĻÉ¹ li
Ġs ÊĮk
Ġn eÉªÊĥÉĻnz
tiËĲ k
ÉĶÉ¹ iÉĻ
Ġv ÉĽnt
Ġv ÉľËĲt
ĠdeÉª li
ĠbÉªn iËĲÎ¸
ĠÉĽnd z
ĠmjuËĲz ÉªkÉĻl
ĠjÉĳÉ¹d z
ĠdÉĽs pÉĻÉ¹É¹
ĠÉªnfluËĲ ÉĻns
ÉĽk ÉĻ
ĠÉ¹oÊĬ lÉªÅĭ
Ã¦p i
ĠÉªns pÉĽkt
ĠkÊĬk iz
ĠÊĥaÊĬt Éªd
ĠpeÉªnt ÉªÅĭ
ĠÉ¹ÉªmuËĲv d
ĠpaÉªÉ¹ÉĻt s
Ġm uËĲ
ĠÉĽm biËĲ
ÉĻm ÉĽnd
ĠmÉĽd ÉĻl
k Éªnz
ÊĮ ft
Ġs ÉĻf
ĠÉ¹ uËĲd
ĠkÉ¹ uËĲz
ÉĻb ÉĻlz
ĠmjuËĲz iÉĻm
ĠÉĶt ÉĻm
h Ã¦nd
p ÉĽktÉªd
Ġ eÉªs
Ġs ÉĻl
ÉĻl Éĳd
ĠtÉ¹ aÊĬs
ĠbÉ¹ ÊĮÃ°ÉĻÉ¹É¹
ĠkÉ¹ Éĳk
Ġkw Éªt
ĠpÉĻÉ¹ fÉĶÉ¹md
ĠÉ¡ÉĻn ÉĻÉ¹
ĠhÊĮ É¡
ĠÉ¹Éªkw aÉªÉĻÉ¹
ĠdÉªskÉ¹aÉªb d
ĠloÊĬn li
ĠÉĽts ÉĽtÉ¹ÉĻ
ĠÉĳÉ¹kÉĻns ÉĶ
ĠÉĽ t
Êĥ ÊĬl
Ġp eÉªs
ĠbaÉª bÉĻl
ÊĴuËĲ d
ĠÎ¸É¹uËĲ aÊĬt
ĠjuËĲn Éªt
ÊĥÉĽÉ¹ z
ĠdÉªl ÉªvÉĻÉ¹
ĠnuËĲz peÉª
ĠlÃ¦d z
ĠÉ¡É¹iËĲ k
ĠlÉªt ÉĻÉ¹É¹
h Ã¦m
ÊĮ É¹oÊĬ
ÉľËĲ k
Ġkl ÉĶÎ¸
ĠpÉ¹Éª fÉľËĲ
ĠsÉªks Î¸
ĠlÉĽ v
ĠÊĮd Éĳp
ĠpÉĳÉ¹t ÉªsÉªp
ĠdÉĶt ÉĻÉ¹É¹
ĠÉ¹ÊĮÊĥ ÉĻ
ĠlÃ¦t ÉĻÉ¹
ĠwÉĽp ÉĻnz
b ÊĬk
Ġm ÉĽÉ¡
ÉĶÉ¹ ÉĻ
ÊĴ ÉĻnd
ĠÉ¡É¹ Ã¦m
ĠbÉ¹ eÉªs
ĠdÉªz ÉľËĲv
ĠbÉĳÉ¹ ti
ĠkÃ¦É¹Éªkt ÉĻÉ¹É¹
ĠlÉĳ nt
ĠhÉĶ É¹ÉªbÉĻl
ĠtaÉªd i
ĠÃ¦fÉ¹Éªk ÉĻn
m ÉĽntÉĻl
aÉª ÉĽn
Ġp ÊĮmp
ÊĴ ÉĶÉªd
É¹i ÉĻn
ĠhaÉª Éªst
ÊĴÃ¦k Éªt
ĠkÉĶÉ¹n ÉĻÉ¹É¹
ĠbÉľËĲn ÉªÅĭ
ĠneÉªbÉĻÉ¹ hÊĬd
ĠpÃ¦É¹ÉĻ É¡É¹Ã¦f
ĠsmuËĲ Ã°
l ÉĻz
Ġt ÊĬt
Ġd wÉĽl
ĠÊĥ ÉĶn
Éªn ÉĻ
ÉĽk st
ÉĽk juËĲt
ĠnuËĲ m
ĠkeÉª eÉªÉĳÉ¹
ĠkÉĻnt É¹oÊĬ
ĠfÉĻÉ¹É¹ ÉĽvÉĻÉ¹
ĠsÉªÉ¡n ÉªfÉªk
ĠÉĽdm ÊĮnd
Ġh ÉĽz
ĠÉª ÊĥuËĲz
Êĥ eÉªn
Ġp ÊĮnt
ĠÉ¹ aÉªs
Éĳn i
Ġsp iËĲks
ĠpeÉª ÉªÅĭ
ĠkÉĳm ÉĻdi
ĠjuËĲs Éªz
Éª oÊĬz
ÊĴ Ã¦p
ĠhÉª É¹ÉªÅĭ
Ã¦nd ÉĻÉ¹
ĠseÉª lz
ĠÃ¦n Î¸
Ġsw iËĲti
ĠaÉªd iÉĻz
ĠkÊĮt ÉªÅĭ
ĠfoÊĬk ÉĻs
ĠtÉ¹aÊĬs ÉĻÉ¹z
Ġt Ã¦n
Ġt aÉªl
Ġh eÉªd
Ġb ÉĶst
Ġp ÉĶÉªz
ĠÊĥ aÉªn
É¹iËĲ ÉĻl
ĠtÉ¹ Ã¦fÉªk
iËĲd ÉªÅĭ
ĠsÉªÅĭ k
ĠhÉĳ li
ÉªÅĭk i
ĠmoÊĬmÉĻnt s
ĠpÉ¹ÉĻv aÉªdÉªd
ĠÉ¹ÉªspÉĳns ÉªbÉĻl
ĠbÊĮtÉĻÉ¹ flaÉª
ĠÎ¸iÉĻÉ¹ i
ĠÊĥÃ¦d oÊĬ
Ġk iËĲn
Ġm ÉĽmbÉĻÉ¹
ÉĻÉ¹É¹ ÉĻns
ĠÊĮb É¹
ĠsÉªt Éªz
ĠÉ¹Éªm ÉĳÉ¹k
jÊĬl eÉªtÉªd
ĠwiËĲk ÉĽnd
ĠpÉĳs ÉĻm
ĠsÉľËĲk ÉĻs
ĠÉ¹ÉĽsk juËĲ
Ġ Éĳt
É¹Éª oÊĬ
Ġd Éªb
Ã¦n oÊĬ
ĠpÉ¹ ÉĽst
ĠkÃ¦ É¹ÉĻt
ĠtÉ¹ eÉªnz
ÉªÉ¡ ÉĻÉ¹É¹
ĠdÉ¹ ÉĶn
Ġsm aÉªld
ĠlÉľËĲn ÉªÅĭ
Ġspl ÉĽndÉªd
ĠkÉĳns ÉĻnt
ÊĴÊĮm pt
ĠÃ¦Î¸ l
ĠlaÉªbÉ¹ ÉĽÉ¹i
ÊĮ ÊĥÉĻn
Ġt ÊĮmi
Ġd ÉĽv
Ġb ÊĮmp
Ġf Éªts
ĠÉªn ÉĻs
ĠwÊĮt ÉĽvÉĻÉ¹É¹
ÉªÉ¹ i
pl ÉĻs
ĠmÉĳm iz
ĠstÃ¦nd ÉĻÉ¹d
ĠfÉĳÉ¹m ÉĻÉ¹
ĠsÉĽn ÉĻt
ĠkÉĽm ÉªkÉĻl
w ÉĶÉ¹
ÊĮ stÉĻÉ¹É¹Éªsk
É¹Éª É¡
Ġp Ã¦nt
Ġv ÉľËĲs
Ġkw Ã¦k
ÊĮk ÊĥÉĻnz
jÊĬl ÉĻÉ¹É¹
ĠmÉªk i
ĠkjÊĬÉ¹ É¹iÉĻs
ĠÉ¡Éªl ti
ĠÉĽst Éªm
ĠkÉĻÅĭÉ¡ É¹Ã¦t
ĠmÉĽÎ¸ ÉĻd
Ġh ÊĬk
Êĥ Éªt
Ġm oÊĬs
ĠÉ¡ ÉĻÉ¹É¹ÉĳÊĴ
Ġst ÊĮd
ĠmÉªstÉĻÉ¹ É¹i
ÉªÅĭÉ¡ w
ĠtÊĮk ÉĻÉ¹
ĠstÊĮm ÉĻk
d aÊĬn
ĠÉ¡ ÉĳÊĥ
ÊĮm f
ĠÉĽn ÉĻmiz
Ġsw ÉĽt
ĠkÉĳm ÉĽnt
ĠbÉ¹ÉªÅĭ z
ĠÉĶÉ¹d ÉªnÉĽÉ¹i
ĠpÉ¹ÉĻd ÊĮkÊĥÉĻn
ĠpÉ¹Éªns ÉªpÉĻl
Êĥ Ã¦p
Éªf ts
ĠdÉªs m
ĠbÃ¦ kw
ĠwÉĽnt wÉľËĲÎ¸
ĠtaÉª ps
ĠbÉĳks Éªz
ĠÉĻk ÉľËĲd
ĠÊĥuËĲt ÉªÅĭ
ĠkÃ¦nd i
Ġb ÊĮnt
É¹oÊĬ d
ĠmÉªn Éªs
ĠdaÉª ÉĻm
ĠÉĳp ÉĻÉ¹É¹eÉªÊĥÉĻn
ĠÉ¹Éªpl eÉªst
ĠdÉªstÉ¹ ÉĶÉªd
ĠkÃ¦nz ÉĻs
Ġk ÉĽli
ĠÃ¦nd i
ĠÉ¹ ÉĽÉ¹
ĠkÉ¹ Ã¦ft
ĠnuËĲ mÉĻn
ÉĶt ÉĻÉ¹
ĠkÃ¦l k
ĠÃ¦s Éªd
ĠÉĽÅĭk ÉľËĲÉ¹Éªd
ĠfeÉªl ÉªÉ¹
É¹ Ã¦m
Ġd ÉĽst
Ġf ÉĻmÉªlÉªÉ¹
Éªd ÉĻnts
ÉĻnd Éªs
Ġpl Éĳt
ĠkÃ¦n s
ĠweÉª vz
ÊĴÉªn ÉĻli
ĠtÉĽÉ¹Éªt ÉĶÉ¹i
ĠbÉĶst ÉĻn
Ġw Éªd
Ġv ÉĶd
ĠkeÉª ÉĽn
ÊĥÉĻÉ¹d z
f aÉªv
ÊĴ ÉĻm
ĠmiËĲ diËĲ
ĠkÃ¦n ÉĻn
ÊĥaÉªld z
ĠdÉªst ÉľËĲb
ĠtÉ¹uËĲ li
ĠÉ¹Éªk ÉĶÉ¹dÉªÅĭ
ĠhjuËĲ m
ĠfiËĲld z
ĠÉ¡Ã¦Ã°ÉĻÉ¹ d
ĠdÉªstÉ¹Éªb juËĲtÉªd
ĠdaÉªÉĻm ÉĻnd
b ÉĽl
s eÉª
t É¹
Éª uËĲ
Ġs Ã¦li
Ġp aÊĬd
ĠÊĥ Ã¦
ÉĽm bÉĻÉ¹É¹
Ġsp ÉĻs
ÊĴiËĲ biËĲ
ĠÉ¹Éªs ÉĶÉ¹s
ĠkÉĳ nd
ĠwÉĽ pÉĻn
ĠÉªlÉĽkt É¹Éªk
ĠÉĶÉ¹É¡ÊĮn ÉªzeÉªÊĥÉĻn
Ġj Éĳ
Ġn ÉªkÉĻl
Ġst ÉĽpt
Ġv eÉª
ĠdÉ¹ ÊĮÉ¡z
ÊĴÉĳn ÉĻÎ¸
ĠÉ¹ÉĽk ÉĻn
ĠjuËĲs fÉĻl
ĠdeÉªv Éªs
ĠdÉĳÉ¹k nÉĻs
Ġspl Ã¦Êĥ
ĠvÉªkt ÉĻÉ¹É¹i
ĠfÃ¦ stÉĻÉ¹
ĠÉĽvÉªdÉĻnt li
ĠÉĽm dÊĮbÉĻljuËĲ
Éªn ÉĻs
ĠsoÊĬ vi
ĠfaÉª ÉĻÉ¹d
keÉª n
Ġsw iËĲd
jÊĬl eÉªÊĥÉĻn
ĠÉªnv aÉªtÉªd
ĠkÉªl ÉªÅĭ
ĠÉ¹Éªpl eÉªs
ĠneÉª bÉĻÉ¹z
ĠkÉĻl ÊĮm
ĠtÉĽm pÉĻÉ¹É¹
ĠsÊĮl tÉĻn
ÊĥoÊĬz ÉĻn
ĠkÊĮneÉªd iÉĻn
Ġs Ã¦ks
ÉľËĲ l
ÊĴ iËĲd
ÊĴ ÉľËĲnÉĻl
Éªt uËĲÊĥÉĻn
ĠhÃ¦ bÉªt
ÉªÊĥ ÉĻnt
ÉĻz ÉªÊĥÉĻn
ĠfeÉªs ÉªÅĭ
ĠÉ¡É¹Ã¦nd fÉĳÃ°ÉĻÉ¹
ĠklÉªÉ¹ z
ĠbÉ¹Éªt ÉĻn
ĠkÃ¦nd Éªd
ĠaÉªt ÉĻmz
ĠÉªndÉªp ÉĽndÉĻnt
f ÉªÊĥ
Ġ Éĳm
stÉĻÉ¹ z
Ġm ÉľËĲm
Éĳn Éªk
ÉĶÉªnt mÉĻnt
ĠpÊĬ ÊĥÉªÅĭ
ĠÃ¦É¡ nÉĻs
ĠÊĮksÉĽpt Éªd
ĠÉĻÉ¹É¹ÉĽst Éªd
ĠpÊĮp i
ĠÉªkw Éªp
ĠÉ¡Ã¦b É¹Éª
ĠkÉĳmpÉĻt ÉªÊĥÉĻn
b ÉĻz
Ġd ÊĮb
Ġb ÉĽÉ¹ÉªÅĭ
Êĥ eÉª
Ġn Éĳv
ĠÉ¡oÊĬ st
ĠÊĮp É¹
Ġz oÊĬ
lÉªÅĭ z
ĠÉªÅĭk É¹ÉĽd
ĠtÉĳm i
ĠÉ¹ÉªÅĭ ÉªÅĭ
ĠnÊĮt s
ĠbÊĮn Ã¦nÉĻ
ĠmÉĻt ÉªÉ¹iÉĻl
Ġb ÉĶÉ¹
eÉªd i
Ġsp aÉª
ÊĴiËĲ tiËĲ
ĠhaÉª li
ĠbÉ¹Éª ks
ĠlÉĽm i
ĠlÉªft Éªd
ĠÉªntÉĻÉ¹É¹ÊĮpt s
ĠÉªnh Ã¦b
f ÉĶl
Êĥ iËĲv
ÊĮm pÉĻn
Ġv eÉªn
ĠdÉ¹ oÊĬv
ĠÊĮt Ã¦t
ĠkÉªd ÉªÅĭ
ĠkloÊĬs li
ĠÉĳn ÉĻÉ¹É¹
ĠÃ¦É¹ ÉĻndÉªs
ĠÉ¹ÉªpÊĮbl ÉªkÉĻn
ĠÉ¡É¹ÊĮnt s
ÉĽ ÊĴÉĻÉ¹É¹
Ġd ÊĮks
ĠhÃ¦ nÉĻ
ÉĽÉ¹i ÉĻn
ĠweÉª lz
ÉľËĲt s
ĠÉ¡Ã¦ li
ĠÉĻbz ÉľËĲvd
ĠbÉªÊĥ ÉĻp
Ġt iËĲz
Ġf uËĲ
Ġl ÉĳÉ¹
ĠÉĽm siËĲ
ĠÉ¹ aÉªzÉªÅĭ
Ġst ÉľËĲn
ĠÊĮk ÊĮmpÉĻn
ĠÉĻlÉªmp Éªk
t eÉªk
w aÉªl
ĠÃ¦ É¹oÊĬ
Ġs aÉªnz
ĠÉ¹Éª É¹
ĠtÉ¹ ÉĽm
ÊĮv ÉĻÉ¹É¹i
ÊĮl s
ĠpÊĬ ÊĥÉªz
ĠbÉªld ÉªÅĭz
ĠpÃ¦t ÉĻÉ¹n
ĠÉ¹ÊĮ Êĥt
ĠlÉªm ÉªtÉªd
ÊĮ Êĥt
Ġk ÊĮvÉĻÉ¹É¹
Ġt oÊĬk
Ġd eÉªn
Êĥ Éªl
ĠtÉ¹ ÊĮmp
viËĲ n
ĠdÉªz aÉªÉĻÉ¹
ĠpoÊĬst mÉĻn
ĠÉ¹ÉĽf É¹ÉĻns
ĠpÉĽ ÅĭÉ¡w
Ġn eÉªÊĥÉĻn
ĠaÉª sk
ÊĴ eÉªÉĳÉ¹
ĠwÉª nÉªÅĭ
Ġpl eÉªnz
ĠpÉ¹ ÉĽp
ĠkÉĻnf ÉĽd
ĠbÃ¦l ÉĻns
ĠÉĶstÉ¹eÉª liÉĻn
Ġb ÊĮl
Ã° i
ĠjuËĲ kÉ¹
ĠÉ¹ Ã¦Åĭ
ĠoÊĬ d
Ġv aÉªs
ĠhÉľËĲ ts
Ġbl eÉªm
ĠÊĮf ÉĽÉ¹z
ĠkÉªs ÉªÅĭ
ĠkÊĮvÉĻÉ¹ z
ĠtÉĽm pÉ¹Éªt
ĠbÃ¦Åĭ ks
ĠpÃ¦k Éªd
ĠhÉªd ÉĻn
ĠfÉĽst ÉªvÉĻl
f ÉĻÉ¹
z iÉĻÉ¹oÊĬ
ĠÉ¡ eÉªnd
ĠiËĲkw ÉĻl
ĠkÃ¦ ÅĭÉ¡
Ġkl eÉªm
ĠdÉ¹ ÊĮÉ¡
ĠkÊĮ Î¸
ÊĴuËĲ ÉĻli
ĠdÉªz aÉªnd
ĠpÉĳÉ¹ti z
ĠwÉĶt ÉĻÉ¹z
Ġspl Éªt
Ġw Ã¦k
ĠÉ¡ Éªmi
ĠoÊĬ nd
Ġkl Éªp
ĠkÉ¹ ÉĶst
ĠstÉ¹ aÉª
ĠtÉ¹aÉª bz
ĠbÃ¦d li
ĠÉ¹aÉªd ÉĻÉ¹
ĠpÊĮbl ÉªÊĥ
ĠpÃ¦k ÉªstÃ¦n
ĠsmaÉª lz
ĠmÉªnÉªs oÊĬtÉĻ
ĠÊĮkÊĮmpÉĻn i
Ġd oÊĬn
Êĥ ÉĽÉ¹i
Ġp i
ÊĴ ÉĶÉªnt
ĠÊĮm juËĲz
ĠiËĲt s
juËĲd iËĲ
ĠwÉªlj ÉĻmz
ĠÉªntÉ¹ÉĻd uËĲst
t uËĲ
ÉĻÉ¹ sÉĻn
ÊĴ ÉĽÉ¹i
ĠhÉª nd
ĠÊĮb ÉªlÉĻti
ĠkÉĳns Éªkw
ĠpÉĳt i
ĠstÉ¹iËĲ ts
ÉĽkjuËĲt Éªv
l ÊĬk
É¹ Éĳnt
iËĲ ÉĻn
ĠÃ¦ Êĥ
É¡ i
Ġp Éªst
ĠÉ¹ ÉĽt
aÉªt s
ĠÊĮp saÉªd
ĠÉ¹uËĲ mz
ĠÉªnv Éĳl
ÊĴeÉª juËĲdiËĲ
ĠklaÉªm ÉªÅĭ
ĠstuËĲd ÉªoÊĬ
ĠsÉªÉ¡n ÉĻl
z i
Ġf jÊĬÉ¹
Éªk Éĳp
Éĳp ÉªkÉĻl
Ġkl ÉĽÉ¹
ĠÉªm pl
ĠÊĮd mÉªt
ĠÉ¹ÉĽst É¹Éĳnt
ĠbÉĽl t
ĠlÉĳ kt
ĠsÉªv ÉªÉ¹
ĠÊĮpÉĳÉ¹t mÉĻnt
Ġt ÉĽnt
Ġd ÊĮmp
ĠduËĲ k
Éªl Éªtiz
Ġsp ÉĽÉ¹
ĠkÉĻm b
Ġsn iËĲz
ĠnÉªÉ¹ ÉĻÉ¹
ĠÉ¹ÉªpÉĶÉ¹t Éªd
ĠlÃ¦d ÉĻÉ¹
ĠÉªk Éĳn
Ġk É¹Éªk
ĠÉ¡ eÉªn
ĠÉĳÉ¹ md
ĠkÃ¦ sÉĻn
Éĳb ÉĻ
ĠÉĽl ÉªÉĻt
ĠtÉ¹aÉª ÉĻl
ĠwÉľËĲk ÉĻÉ¹z
ĠkaÉªnd li
ĠlÉªs ÉĻnd
ÊĴÊĮmp ÉªÅĭ
ĠmÉĽks ÉªkÉĻn
ĠwuËĲnd Éªd
ĠmÉªÊĥ ÉªÉ¡ÉĻn
ĠkÉ¹ÉĽd Éªt
ÊĴÉªÉ¹ Ã¦f
ÊĴÉĳnÉĻÎ¸ ÉĻn
f ÉľËĲd
ÉĽ h
ĠÉĽm pÉĻÉ¹É¹
ĠÉ¡ Éĳ
eÉªm i
ĠÉĳ s
ĠhÉĽl ÉªkÉĳp
ĠuËĲ p
ĠÉĽksp ÉĽÉ¹Éª
ĠkÊĮnt É¹Éª
ÊĴoÊĬ i
ĠdÃ¦n jÉĻl
ĠpÉ¹Éĳ É¡É¹ÉĽs
ĠsÉĽpÉ¹ ÉĻt
ÊĴ ÉªstÉĻÉ¹
ĠnoÊĬ ts
ĠÉ¹Éª É¡É¹
ĠsoÊĬ p
ĠkÉ¹ aÊĬn
ĠkaÊĬn s
ÊĴÉĶ É¹Éªti
ĠkÉĻnd ÊĮkt
ĠdÃ¦n i
ĠÉĳks fÉĻÉ¹d
ĠsÉĽtÉĻl mÉĻnt
ĠÊĮst Éĳn
ĠdÉªfÉªkÊĮl ti
ĠÊĮpÉ¹iËĲÊĥÉª eÉªt
ĠÉªkwÉªp mÉĻnt
Ġw Ã¦É¡
Ġt ÉªÊĥ
ĠwÉª li
Ġbl oÊĬÉªÅĭ
ÉĽÉ¡ n
ĠtÉ¹Ã¦ns l
ĠpoÊĬ p
ĠspÉ¹ Ã¦Åĭ
ĠfÃ¦n ÉªÅĭ
l Ã¦nd
l aÉªnz
Ġk aÊĬt
Éªs ÉĻn
ĠÊĥ ÉĽd
ĠÊĥ Éªft
juËĲ ÉĻ
ĠhÉľËĲ z
ĠsÊĮm Î¸Éªn
ĠpÉ¹ ÉĽÊĥ
ĠÊĮn juËĲ
ĠÉĽn eÉªt
Éĳl Ã¦n
ĠÃ¦d m
ĠdiËĲ iËĲ
ĠÊĮf ÉĽÉ¹
ĠwÉĳ Êĥt
ĠsÉĽnd ÉªÅĭ
ĠkÉĳmp aÊĬnd
ĠpÉªl oÊĬ
Ã¦n Éªk
ĠÉĶl tÉĻ
Éªl ÉªÅĭ
ĠhÃ¦nd sÊĮm
Ġsw ÉĶl
ĠhoÊĬp ÉªÅĭ
ĠÊĮdv Ã¦nst
Éĳz Éªt
ĠÉ¡É¹Ã¦ndp Éĳ
ĠmiËĲdiËĲ ÉĻ
ĠsoÊĬvi ÉĻt
Ġpi Ã¦noÊĬ
Ġt Ã¦Åĭk
Êĥ ÉĽkt
Ġl Éĳd
ÉªÉ¹ iÉĻs
ĠÉ¹oÊĬ p
ĠsÉĽt s
ĠsliËĲp i
ĠliËĲd ÉĻÉ¹É¹
ĠbÉªkÊĮm z
ĠbÉ¹iËĲ Ã°ÉªÅĭ
ĠÉ¹eÉªs ÉªÅĭ
ĠpÉ¹Éªz ÉĽnt
ĠsÊĮf ÉĻÉ¹d
ĠÉªd ÉªÉĻt
l Ã¦Êĥ
ÉĻ É¡
Ġk Éªst
Êĥ m
Êĥ Éªli
ĠÊĥ Éĳk
ÉĻÉ¹É¹ eÉªÊĥÉĻnz
ĠhoÊĬ lz
Ġsl ÉĽpt
ĠhaÊĬs hoÊĬld
ĠpÃ¦t i
ĠdÃ¦t s
ĠpÉ¹oÊĬÉ¡É¹Ã¦m z
ĠÊĮpÉ¹oÊĬ pÉ¹Éª
ĠpÉ¹ÉĻp oÊĬzd
ĠdÉªÊĥ Éªz
ĠnÉľËĲv ÉĻs
ĠpÉ¹ÉĽÊĥ ÉĻs
st oÊĬn
Ġt ÊĮm
Êĥ ÉĻli
Ġp ÉªÉ¡z
ĠÉ¡ uËĲ
Ġpl Ã¦nd
ĠÉªnt ÉĽndÉªd
jÊĬÉ¹ É¹
ĠbeÉªs Éªkli
ĠpÉĻliËĲs mÉĻn
ĠsÊĮf ÉĻÉ¹É¹ÉªÅĭ
ĠÉ¹Ã¦m si
Ġb ÊĮnd
ÉªÅĭ tÉĻn
ĠÉĽm Éªli
Éªt ÉĻn
ĠpÉ¹ aÉª
ĠmÉªs ÉĻs
ĠÉ¡É¹eÉªt li
ĠÉ¹Éªl Ã¦ks
ĠdÉªv aÉªdÉªd
ĠmÃ¦stÉĻÉ¹ É¹
ĠheÉªst ÉĻ
ĠtÉĶÉªl Éªt
d eÉªz
Ġt Ã¦m
Ġp aÊĬÉĻÉ¹z
ĠÉĽf ÉĻÉ¹ts
ÊĴÉĳn sÉĻn
ĠpÉ¹ÉĽz ÉªdÉĽnÊĥÉĻl
ĠkÊĮl ÉĻÉ¹d
ĠdÉªÉ¹ÉĽkt ÉĻÉ¹É¹
ĠpÉĳ nd
ĠpÉĻteÉªt oÊĬ
ĠkÉ¹oÊĬm ÉĻÉ¹
Êĥ ÊĮmz
ĠÉ¹ ÊĮÉ¡
Éªs ÉĻ
ĠÊĥ eÉª
ĠhÉľËĲ É¹id
ĠÉ¡É¹ Ã¦nt
Ġsp ÉĽkt
ĠwaÉª ÉĻÉ¹
ĠÊĮmÉĽÉ¹Éªk ÉĻnz
ĠÉ¹ÉªkÉĶÉ¹d Éªd
ĠstÊĮd iz
ĠÉĶltÉĻ É¡
s ÉĻnt
Ġm ÉľËĲsi
ĠsiËĲ diËĲ
ĠeÉªt Î¸
ĠÎ¸aÊĬzÉĻnd z
Ġsk Éªp
ĠkÉĻm ÉªÊĥÉĻn
ĠÊĮl ÉĳÉ¹m
ĠteÉª lz
ĠliËĲ É¡ÉĻl
ĠÉ¹Ã¦ pt
ÊĴÉªst i
ĠmÉľËĲd ÉĻÉ¹É¹
ĠÉ¹Ã¦p Éªdli
ĠpaÉªl ÉĻt
ĠsaÉªÉĻnt Éªsts
ĠsÉĶs Éªd
uËĲ md
Ġl iËĲnz
ĠÊĮp ÉĶÉªntÉªd
ĠpÉ¹ ÉĽÉ¡n
ĠÉªnt ÉĽns
ĠÉĽl m
ĠkÉĻm ÉľËĲ
Ġsw Éªft
ĠhÉĳÉ¹d ÉĻÉ¹
ĠliËĲd ÉĻÉ¹
ĠpÉªÉ¡ i
ĠstuËĲd ÉĻnt
ĠbÉ¹iËĲf li
ĠÉªntÉĻÉ¹v juËĲ
ĠtÊĬt ÉĻ
É¹ ÉĽÊĥÉĻn
Ã¦ h
Ġk ÉĽv
ĠÉ¡ ÊĮl
Éªs Éªz
ĠÉĳ hÉĳ
ĠÊĮÉ¡ li
ĠsÉĽvÉĻn Î¸
ĠkÃ¦nt ÊĮv
ĠÉ¹Éªt aÉªÉĻÉ¹
Ã¦nt ÉĻn
ĠbÉľËĲ nd
ĠmÊĮÅĭk iz
ĠvÉĳl juËĲm
ĠÉĽld ÊĮbÉĻljuËĲdÊĮbÉĻljuËĲdÊĮbÉĻljuËĲ
ĠluËĲk ÉĻz
ĠaÉªsk É¹iËĲm
Ġm oÊĬnz
Ġp ÉĽnÊĥÉĻn
ĠÉªn ÉªÊĥ
Ġst ÉĽÉ¹
Ġv Éª
Éĳn ÉĻld
ĠÃ¦n z
ĠÊĮt l
ĠfaÉªnd z
ĠÉĽnt É¹ÉĻns
ĠÉĻb laÉªd
ĠtÉ¹iËĲt Éªd
ĠnÉĳmÉªn eÉªtÉªd
ĠnuËĲzpeÉª pÉĻÉ¹
h Ã¦v
Ġw aÉªnz
ĠtuËĲ n
ĠfÉľËĲ Ã°ÉĻÉ¹É¹
ĠkÉĳm É¹Ã¦d
ĠmÉĳÉ¹ ÊĥÉĻl
ĠluËĲz ÉªÅĭ
Ġn Éª
ĠÉ¹ Ã¦l
ĠmiËĲn waÉªl
ĠkÉĻmp juËĲt
ĠnÉĳ vÉĻl
ĠklaÉªm ÉĻt
ĠlÃ¦t Éªn
ĠtÉĽÉ¹ ÉĻÉ¹
ĠstÉ¹ÊĮÉ¡ ÉĻl
ĠwÊĮnd ÉĻÉ¹d
ĠÉĽksÉĻÉ¹s aÉªz
v Éªd
st i
Ġl eÉªm
ĠsÉĽnt s
ĠÉĽksp ÉĽnsÉªv
ĠpÉ¹ÉĻt ÉĽkÊĥÉĻn
ĠbÊĬl Éªt
ĠdeÉªb juËĲ
b oÊĬt
m ÉĳÉ¹
Éĳ wÉĻ
Ġm ÉĻn
Ġm ÊĮÊĥ
ĠÉªnt ÉĻf
ĠwÉĽÉ¹ d
ĠweÉª l
ĠkÊĮ ps
ÊĴuËĲ l
ĠdÉªv aÉªs
ĠÉªns p
ĠÉ¹ÉªpÉĶÉ¹t s
ĠklaÊĬd z
ĠfÉ¹iËĲd ÉĻm
ĠÉ¡ É¹iËĲt
ÊĴ Ã¦É¡
ĠpÉ¹ aÉªd
Ġsl Éªpt
ÊĴuËĲ ÉĻlz
ĠwÊĬdÉĻnt ÉĻv
ĠkÉĻl ÉĽkÊĥÉĻn
ĠsÃ¦v Éªd
Ġw ÉªÅĭz
ĠÉ¹ ÉĽkt
Éªt ÉĻÉ¹z
ĠÎ¸ ÊĮÉ¹oÊĬ
ĠsiËĲ ts
ÊĮst i
ĠÉªnt ÉľËĲ
ĠmÉªs ÉªsÉªp
ĠfuËĲd z
ĠdÉªl Éªv
lÉĻs li
ĠkÉĻnsÉªd ÉĻÉ¹
ĠÊĥaÊĬt ÉªÅĭ
ÊĴÉª ÉĳÉ¡É¹ÉĻfi
ĠkÉĳnf ÉªdÉĻns
ĠdÉĶ Åĭk
ĠpÉĻteÉªt oÊĬz
Ġm Éªt
Ġv ÉĽÉ¹Éª
ĠsiËĲ kw
ĠsoÊĬ fÉĻ
ĠdÉªf ÉĽnd
ĠÊĮt Ã¦kt
ĠaÉªv hÃ¦d
ĠnÉĶÉªz i
ĠkÉĻns ÉľËĲv
É¹aÉª siËĲ
ĠÊĮnl aÉªk
ĠÉ¡É¹Ã¦ndm ÊĮÃ°ÉĻÉ¹
ĠneÉªv i
ĠÉ¡Ã¦bÉ¹Éª ÉĽlÉĻ
ĠfÉ¹ iËĲz
ĠkÃ¦n sÉĻÉ¹
ĠmÃ¦ p
É¹ÉĻ bÉĻl
ĠoÊĬld Éªst
ĠÉ¹Éªl iËĲf
ĠlÉĶ z
ĠÃ¦ks ÉĽs
ĠÉĽsk eÉªpt
ĠsÃ¦tÉªsf aÉªd
ĠÉĳÉ¹É¡ juËĲ
ĠkeÉªt i
ĠÎ¸i ÉĻtÉĻÉ¹
ĠÉ¹Ã¦l f
m ÉªtÉªd
Ã° ÉľËĲ
ÊĴ iz
ĠÉ¹ aÊĬt
Éªd z
ĠduËĲ i
Ġfl iËĲt
ĠbÃ¦ stÉĻÉ¹d
ĠÊĮndÉĻÉ¹ n
ĠpÉĶÉªnt Éªd
ĠfÉĶl s
ĠdÉªl aÉªtÉªd
ĠbÉĶÉ¹d ÉĻÉ¹
ĠdÉĶt ÉĻÉ¹z
ĠÉªfÉĽkt s
ĠÉ¹ÉªkÉĶÉ¹d ÉĻÉ¹
Ġm ÊĬÉ¹
ĠÉ¹ ÉĳlÃ¦n
ĠsoÊĬ fi
ĠÉ¡É¹ oÊĬs
Ġsk ÉĽd
ĠÉĻ vÉĻÉ¹
Ã¦m ÉĻ
Ġz iÉĻÉ¹
ĠÉªm Éªd
ĠÉ¡l ÊĮv
Ġsn Ã¦p
ĠsÉĶÉ¹t s
ĠsaÉªt s
ĠsÉªst ÉĻmz
ĠhÉĽvi li
ĠÉ¹ÉĽpÉ¹ÉªzÉĽnt ÉĻtÉªvz
ĠÉ¡lÃ¦s Éªz
ĠÉªÅĭkÉ¹iËĲ st
ĠlÃ¦m p
ĠÉªmÉªt eÉªts
ÊĥÃ¦l Éªnd
ĠÊĮndÉĻÉ¹n iËĲÎ¸
Ġb ÊĮdi
Ġm ÉªÎ¸
ÊĴ ÊĮÅĭk
Éªt uËĲ
ĠÉĳÉ¹ ts
ĠmaÉª É¡É¹
ĠÊĮn aÊĬns
ĠtÉ¹ eÉª
Ġkl Éªk
ĠÉĽl Éªv
Ġskw Éĳd
ĠÊĮmÊĮÅĭ st
ĠÉ¹iËĲs ÉĻnt
ĠskÉĳl ÉĻÉ¹ÊĥÉªp
w ÉĽ
É¹Éª mÉĻn
Ġm Ã¦nd
Ġp Ã¦nd
ÊĴ Éªs
ÊĴ ÉªÅĭÉ¡
ÊĴ Éĳli
Ġst ÊĮt
ĠÉªnt ÉĽlÉªd
Ġsk ÊĮl
ĠmÉĶÉ¹ n
ĠÊĮt ÉĽnd
ĠfaÉªn Ã¦nÊĥÉĻl
ÊĥÉªld É¹ÉĻnz
ĠmÉĳÉ¹ vÉĻl
ĠÉĽkst ÉĽnt
ĠhÃ¦m ÉĻÉ¹
ĠÉ¹oÊĬm Ã¦ntÉªk
ĠwÉĶÉ¹n ÉªÅĭ
ĠpÉ¹uËĲv d
ĠstÉ¹ÉĶ bÉĽÉ¹i
d É¹
m ÉĳÉ¹k
Ġw ÉªÅĭ
Ġw oÊĬk
ĠÊĥ ÉĳÉ¹k
ÉĻÉ¹É¹ eÉªt
ĠÉĳÉ¹ É¹aÉªsiËĲ
ĠÉ¹Éªm eÉªnz
ĠpÉĳÉ¹t li
ĠmÉĳÉ¹ kt
ĠkaÊĬnt iz
ĠlÃ¦nd ÉªÅĭ
ĠdÉ¹ÉĶ z
ĠlÉĽs ÉĻnz
ĠÉ¹ÉªvÉĻÉ¹ z
ĠpÉ¹Éªz ÉĽntÉªd
ĠskwiËĲ lz
f É¹
f Ã¦kt
Éªn ÉĻnt
Ã¦k i
Éĳm ÉĻz
ĠfjuËĲ n
ĠluËĲ Éªs
ÊĥÉĻÉ¹É¹ ÉĻli
ĠfÉĳl oÊĬz
ĠÉ¡ÊĮvÉĻÉ¹n ÉĻÉ¹
ĠkÉĻÉ¹É¹ iËĲÉĻ
ĠÉĽmp aÉªÉĻÉ¹
ĠbÉ¹ÉĶd kÃ¦st
ĠÉĶÎ¸ ÉĻÉ¹É¹
ĠÉªÅĭkw aÉªÉĻÉ¹d
ĠspaÉªd ÉĻÉ¹
ĠÉĽntÉĻÉ¹teÉªn mÉĻnt
ÉĶ É¹ÉªÉĻl
Êĥ eÉªÉĳÉ¹
Ġm ÊĮl
ĠÉ¹ ÉĶs
ĠsÉĽ ÊĥÉĻn
ĠtÉ¹ Ã¦ks
ĠmÉĶÉ¹ t
ĠpÉĽÉ¹ ÉĻnt
ĠÉ¹Éªkw aÉªÉĻÉ¹d
ĠÊĥeÉªk ÉªÅĭ
ĠÊĮkw eÉªnt
ĠÊĮkÉĳm pl
f É¹ÉĽnd
aÉª ÉªÅĭ
ĠÃ¦ pÉĻlz
Ġk aÊĬz
Ġt iËĲn
Ġb eÉªt
ÉĻl tÉĻn
ÊĴ ÉĽÎ¸
ĠÉĶ Éª
ÉĽn ÉĻ
Ġst oÊĬv
ĠpÉ¹ ÉĻn
Éªst É¹i
Éĳp s
Ġsp aÉªt
Ġsp Éªl
Ġsk iËĲm
Éĳs ÉĻf
ĠliËĲ sÉĻ
Ã¦mp ÉĻlz
ĠpÃ¦t É¹Éªk
ĠbÉĽl i
ĠbÉ¹iËĲ Ã°
ĠÉ¹eÉªn ÉªÅĭ
Ã¦sk ÉĻ
ĠfÉªz ÉªkÉĻl
ĠÉ¡É¹Ã¦d juËĲ
ĠÉªmpÉ¹uËĲ v
Ġs Éĳ
Ġm ÉľËĲt
ĠÉĽmoÊĬtiËĲ z
ĠÉ¹Éª wÉĶÉ¹d
Éªm ÉĻnts
Éªli ÉĻnz
ĠleÉªt li
ĠpÃ¦ É¹ÉĻl
ĠmÉªst ÉªÉ¹iÉĻs
ĠÉ¹ÉĽpÉ¹ÉªzÉĽnt Éªd
ĠÉ¹ÉªÉ¡ÉĳÉ¹d Éªd
ĠÊĮliËĲd Éªn
ÉľËĲ É¹ÉªÅĭ
ĠÉ¹Éª viËĲ
ĠÉĽks Éªk
Ġsk ÉĳÉ¹
ĠfÉĻÉ¹ bÉªd
ĠbeÉª b
ĠmaÉªn z
ĠwÉªs ÉĻl
ĠÉ¹ÉªspÉĳns ÉĻbÉªlÉªti
ĠbÉªlÉĶÅĭ z
ĠdÉĽz ÉĻÉ¹t
ĠmÉªsÉªsÉªp i
Ġs ÉĳlÉªd
Ġm aÊĬ
Ġm uËĲd
Ġl ÊĮvÉĻÉ¹
ĠfÉĶÉ¹ k
ĠÊĥiËĲ t
ĠÃ¦t Éªt
ĠwÉĽl Î¸
ĠbÉ¹ aÉªd
Ġfl oÊĬ
ÊĴuËĲ lÉª
ĠpÉªk nÉªk
ĠdÉªst ÉªÅĭkt
ĠÉĽÉ¡z ÉĽkjuËĲtÉªv
ĠliËĲ f
ĠsÉĽt ÉªÅĭ
ĠkÊĮl ÉĻÉ¹É¹ÉªÅĭ
ĠlaÉªt nÉªÅĭ
Éªnd ÉĻ
ĠsÉľËĲv ÉĻnts
ĠbÃ¦t ÉĳlÉĻ
ĠkliËĲn ÉªÅĭ
ÊĴeÉªdÊĮbÉĻljuËĲdÊĮbÉĻljuËĲdÊĮbÉĻljuËĲ z
ĠkÉĻmpÃ¦n iÉĻnz
ĠklaÉª ÉĻnt
ĠtÉĳÉ¹É¡ Éªt
ĠhÉĽz Éªt
ĠÉªnÉĻs ÉĻnt
Ġn ÉĽf
ÊĴ li
ĠwÊĮt d
É¹i h
ĠwÊĬd ÉĻn
bÉĻÉ¹ n
Ġfl ÊĮd
ĠÉ¹Éªf juËĲzd
ÊĥiËĲ ks
ĠpÉ¹iËĲ viÉĻsli
ĠvÉĳl ÉĻnt
ĠstoÊĬl ÉĻn
ĠkÉ¹Éĳk ÉĻd
ĠÃ¦ vÉĻn
eÉª ÊĴÉĻn
Ġt ÉĽndÉĻÉ¹
Ġm juËĲs
Ġp É¹Éªd
ÊĴ Éªp
ÊĴ ÉĶÉªs
Éªt ÉĻÉ¹É¹
ĠÊĮp l
ĠÊĮd ÊĮlt
ĠÉ¹Éªd Éªk
ĠspÉĽnd ÉªÅĭ
ĠkÉĻÅĭk luËĲd
ĠdÉĽp juËĲti
ĠÉ¡Éªt ÉĳÉ¹
ĠÊĮnh Ã¦pi
ĠÉĳÉ¹Î¸ ÉĻÉ¹
Ġk ÉĽt
ĠÉ¹ ÉĶÉ¹
juËĲ k
ÊĮz Éªl
Ġkl ÉĶz
ĠlÉĽt ÉªÅĭ
ĠmÃ¦ ÅĭÉ¡
ĠbÃ¦ ÅĭÉ¡
ĠdÊĮbÉĻljuËĲ dÊĮbÉĻljuËĲdÊĮbÉĻljuËĲ
ĠspÉªÉ¹Éªt s
ĠÉªntÉ¹ÉĻd uËĲs
ĠÃ¦ É¹ÉĻ
Ġt Ã¦b
ĠbÊĮt ÉĻnz
ĠmÉĽn z
ĠlÊĮv ÉªÅĭ
ĠmaÉªn ÉĻÉ¹
ÉĶs Éªti
ÊĴÃ¦k i
ĠÉ¹Éªf ÉľËĲd
ĠmÉĳ nt
ĠpÉ¹Éĳm pt
ĠdÉªsp aÉªt
ĠkloÊĬz Éªz
ĠÉĽkstÉ¹iËĲm li
j oÊĬ
ÉĶ Éªl
É¡ É¹oÊĬ
Ġn ÉĽÉ¡
ĠfÉ¹ eÉªm
ĠbÉ¹ ÊĮzÉªl
ĠdÉ¹ ÊĮm
ĠpÉĻÉ¹ mÉªÊĥÉĻn
Ġsm Ã¦Êĥ
ĠfiËĲ fÉĻ
ĠkÉĶz Éªz
ÊĴÉĽn ÉĻs
ĠÉªnst ÉĻns
ĠdÉªstÉ¹Éªkt s
ĠvÉªkt Éªm
ĠkÃ¦Î¸ lÉªk
ĠnÉĳn sÉĻns
ĠÊĮtÉĽmpt s
ĠbeÉªk ÉĻÉ¹
ĠÊĮdmÉªnÉªst É¹eÉªÊĥÉĻn
wÉĽ stÉĻÉ¹n
b ÉĶÉ¹n
f eÉªs
ÊĮ ps
ÉĻÉ¹ É¹Éªk
ĠÃ¦ p
oÊĬ vÉĻÉ¹
Ġd ÊĮl
É¡ Éªst
Ġp Éªp
ĠÉ¹ Ã¦Åĭk
ĠÉĽf eÉªdiËĲ
ĠkÉĻn ÉĽkÊĥÉĻn
ĠlÉĶ É¡
uËĲz i
ĠÉ¹Éªf juËĲz
ĠpÃ¦s Éªd
ĠbÉĳ nd
ĠÉ¡Ã¦ bÉĻÉ¹
ĠpÉĶz d
ÊĥÃ¦mpiÉĻn ÊĥÉªps
ĠiËĲÉ¡ÉĻÉ¹ li
ĠsÉĻksiËĲd Éªd
ĠÉ¹ÉªsÉĶÉ¹s Éªz
s Éªz
Ġd ÉĳÉ¹t
Ġm ÉĽÊĴÉĻÉ¹
ÊĴ ÉĽktÉªd
ĠpÉ¹ ÉĻ
ĠpÉ¹ ÉĽd
ĠÉ¡Éĳt ÉĻn
Ġsk ÉĽÉ¹i
ĠÉ¡É¹eÉªt fÉĻl
ĠmaÉªt i
ĠhÉĳ st
ĠlÃ¦nd Éªd
ĠmÃ¦stÉĻÉ¹ z
ĠspÉĳt s
ĠtÉªk Éªt
ĠpÉ¹ÉĻduËĲs ÉĻÉ¹
ĠÃ¦É¹ÉĻndÉªs mÉĻnt
ĠÊĮpÉ¹oÊĬpÉ¹Éª ÉĻt
f ÉĽÉ¹
m i
Ġb ÊĮf
É¡ uËĲ
ĠÉ¹ Ã¦k
ĠpÉ¹ uËĲf
ĠeÉª ÊĴÉĻ
ĠÃ¦l Éªks
ĠpÉĳÉ¹t n
ĠdÉ¹Éª vÉĻn
ĠÉĳp ÉĻÉ¹É¹ÉĻ
ĠliËĲd z
ĠsÉªstÉĻÉ¹ É¹
ÊĴÊĮm boÊĬ
ĠaÉªt ÉĻm
ĠkÊĮÎ¸ iËĲd
ĠÉ¹ÉªÉ¡É¹ ÉĽt
ĠÃ¦ ld
sk oÊĬ
Éªd iËĲ
Ġst ÉĽf
Éªl v
Ġv Ã¦st
Ġsk É¹Éªpt
ĠhoÊĬ pt
ĠfÃ¦kt ÉĻÉ¹É¹i
ĠkÉĻnd ÉªÊĥÉĻnz
ĠÊĮsÉªst ÉĻnt
ĠÊĮnjuËĲ ÊĴuËĲÉĻl
t Éªm
eÉª ld
Ġs Éª
Ġj ÊĮp
ÊĴ ÉľËĲsi
Ã¦t ÉĻÉ¹d
ĠÎ¸ ÊĮm
ĠnoÊĬ bÉĻl
eÉªt ÉĻÉ¹É¹
Ġst ÊĮft
ÊĬÉ¹ É¹ÉĻl
ÉĽm Éªk
ÉĽnt ÉĻÉ¹É¹i
Ġkw ÉĶnt
ĠÊĮf ÉĽkÊĥÉĻn
ĠkÉĻmpliËĲt Éªd
ĠÉªnhÃ¦b Éªt
lÊĬk ÉªÅĭ
s ÉĻnz
É¹ oÊĬz
Ġh Éªts
Ġb Éªs
Êĥ ÉªÉ¹z
ÉľËĲ st
ĠwÉª z
Ã¦n ÉĻn
ĠÊĮb s
É¹oÊĬ t
ÅĭÉ¡ ÉĻÉ¹É¹
É¹Éªt s
pÉĻÉ¹É¹ eÉªÊĥÉĻn
ĠÊĥÉĶÉ¹t li
ĠsÊĮb s
ĠstÉĳÉ¹ É¹ÉªÅĭ
ĠÉĽkspl ÉĶÉ¹
ĠlÉĽm ÉĻn
ĠtÊĮn ÉĻl
p ÉªÉ¹
v Éªn
Ġt Éªn
Ġh ÉĻz
Ġf ÉĻs
Ġp ÉĽd
ĠhÉª k
ĠsÉĽ É¹ÉªmÉĻn
ÊĮs ÉªfÉªk
ĠjuËĲz ÉĽtÉĻ
ĠdÉªst ÉĻnt
ĠnaÉªs li
ĠpÉĻl aÉªt
ĠbÉĳm bÉĻz
ĠdÉªt ÉľËĲ
ĠlÉĶÉ¹ ÉĻns
ĠpÉ¹ÉªzÉĻn ÉĻÉ¹z
ĠÃ¦vÉĻn uËĲ
Ġs ÊĮs
Ġb É¹Éªk
É¡ ÉĻs
ĠaÉª É¹ÉªÊĥ
ĠÉªn ÊĥÊĬÉ¹
ĠbÉ¹ ÉĽst
ĠbÉ¹ eÉªks
ĠÊĮb Ã¦nd
Ġsk eÉªl
Ġsw iËĲp
ĠtÉľËĲ ki
ĠpÃ¦ É¹ÉĻt
ĠsÉĽl ÉªÅĭ
ĠsÊĮb st
ÊĴiËĲn ÉĻ
ĠdÉªsÊĮp ÉĶÉªntÉªd
ĠdÉ¹ÉĽd fÉĻl
s ÉªkÉĻl
w ÉĳÉ¹É¹
É¹ ÉĽÊĥÉĻnÉĻl
É¹Éª nt
É¹Éª ks
Ã¦ É¹ÉĻ
Ġk Éªn
ĠÉ¹ Éĳt
ĠÉ¹ ÉĽnt
ĠbiËĲ p
Ġpl ÊĮnd
ĠÊĮn eÉªbÉĻl
ÉĶÉ¹t Éªd
ĠhÃ¦nd Éªd
ĠkÉĻnt eÉªn
ĠwÉľËĲld z
ĠlÉĽs ÉĻn
ĠmÃ¦m i
ĠtÉ¹Ã¦vÉĻl ÉªÅĭ
ĠkÉĻÅĭÉ¡ É¹ÉĽÊĥÉĻnÉĻl
ĠplÃ¦t fÉĶÉ¹m
É¹ ÉĻz
Ġd Ã¦
Ġf eÉªk
Ġp ÊĬd
ĠÉĶ di
ĠoÊĬ haÉª
ÊĮv d
ĠkÉ¹ Ã¦b
ĠÊĮm ÉĽnd
ĠpÉĽn i
ĠÉĳÉ¹k Éªt
ĠkÊĮd ÉĽt
ĠhÉĻz nÉĳt
Ġb ÊĮbÉĻlz
Ġj ÉĶn
ĠÉ¹Éª pÉ¹
ĠÊĮp ÉªÉ¹z
ĠtÉ¹ Ã¦d
ĠwÉĽn zdeÉª
ĠkÉ¹ oÊĬ
Ã¦l Éªtiz
Ġfl oÊĬt
ÊĴÉĳn i
ĠÊĮdv aÉªz
ĠbÉĳb ÉĻ
ĠlaÊĬd li
ĠÉ¹Éªb ÉĽkÉĻ
ĠmÊĮs ÉĻnt
ĠskÉ¹uËĲ d
ĠmÉªz ÊĬÉ¹É¹i
ĠstÉ¹oÊĬ k
Ġt ÉĶÉ¹n
Ġt Ã¦É¡
Ġp ÊĮsÉªfÉªk
Ġst eÉªk
Ġst Ã¦m
Ġst Ã¦ntÉĻn
ĠfÉ¹ eÉªz
ĠÉ¹Éª Ã¦lÉªti
ĠÉĽn Î¸
ĠÉĳ hÉĻ
ĠÉªl nÉĻs
ĠhÃ¦p ÉªnÉĻs
ĠvoÊĬkÉĻl ÉªzeÉªÊĥÉĻn
ĠsÃ¦k É¹Éªf
ĠÉĳÉ¹É¹ ÉĳÉ¹É¹ÉĳÉ¹
ĠÊĮÊĥ eÉªmd
ĠdiËĲt eÉªlz
ĠÉĽnvaÉªÉ¹ÉĻn mÉĽntÉĻl
ĠmÃ¦njuËĲ fÃ¦kt
ĠvÉĽs ÉĻl
b ÊĮ
b É¹Éªd
f ÉĻn
f ÉªÉ¹
Ġs ÉĽÉ¹
Ġd ÉĶn
ĠÉ¡ ÉĽsts
ĠwÉª É¡
ĠbaÉª ÉĳÉ¡É¹ÉĻfi
ĠÉ¹oÊĬ ld
ĠÉĽnÉª haÊĬ
ĠtÉ¹aÉª Ã¦ÅĭÉ¡ÉĻl
ÊĮÅĭ ks
ĠbÉĽd z
ĠÉĻÉ¹É¹aÉªv ÉĻl
ĠpÉ¹ÉĻfÉĽs ÉĻÉ¹É¹
ÉĻÉ¹ k
Ġk oÊĬn
Ġd ÉĽ
Ġb aÊĬ
ÊĴ ÉĳÉ¹
ÊĴ Éªb
Ġst uËĲl
ĠpiËĲ d
ĠbÃ¦ b
ĠmÉĳm ÊĮz
ĠstiËĲ m
ĠÉ¹Éªd uËĲs
ÊĥÉĻs li
ĠhaÊĬz ÉªÅĭ
ĠbÉĶ Éªf
ĠpÉ¹ÉĽ ÊĥÉĻÉ¹
ĠtÉľËĲk ÉªÊĥ
ĠlÉªbÉĻÉ¹É¹ ÉĻl
h ÊĬl
Ġt s
ĠÉĽm ÉĽs
ÊĴ ÉĳÊĥ
ÉĻm ÉĻnts
ĠbÉ¹ uËĲt
oÊĬk ÉĻ
ĠÃ¦n ÉĻ
ĠkÉ¹iËĲ ks
ĠhÊĮndÉ¹Éªd z
ĠpaÉª p
ĠÉ¹Éĳ hÊĬl
ĠÉ¹aÉª fÉĻl
ĠpÉĽns Éªlv
ĠlÃ¦ft ÉĻÉ¹
ÊĴÉĽl ÉĻs
ĠkÃ¦É¹ÉĻlaÉªn ÉĻ
ĠsnÉªf s
ĠkÉĻnfÉĽd ÉĻÉ¹É¹
ĠoÊĬhaÉª oÊĬ
ĠÃ¦stÉĻÉ¹É¹Éªsk ÊĮstÉĻÉ¹É¹Éªsk
ÉĻl ÉĽs
tiËĲ tiËĲ
Ġl ÉĽn
ĠÊĥ aÉª
ĠtÉ¹ ÉĳpÉªkÉĻl
pl eÉª
ĠÉªm oÊĬ
ĠÃ¦l ÉªÉ¡
ĠkÉĻmp ÉĽÉ¹d
ĠbeÉªs Éªs
ĠkÊĮt s
ĠsiËĲz ÉĻnz
ĠfÉªÅĭÉ¡ ÉĻÉ¹É¹
ĠÉªndÉªp ÉĽnd
ĠÉĳkjÊĬp aÉªd
Ġs ÉĶl
Ġd ÉĽÉ¹Éª
Ġl ÉªliÉĻn
ĠbiËĲ st
ĠbiËĲ nz
ĠkÃ¦ b
Ġsp ÉĳÉ¹k
ÉªÉ¡ ÉĻÉ¹
ĠÉĽl iËĲeÉª
ĠkÉĻm ÉªtÉªd
ĠkÉĻnt eÉªnz
ĠdÉªsk É¹ÉªpÊĥÉĻn
ĠmaÉªnd z
ĠdÉªn ÉĻÉ¹É¹
ĠÉĽkspl ÊĮn
ĠbÃ¦nd Éªd
ĠlÉª kw
ĠÉĶlt ÉľËĲn
ÊĴÃ¦ks ÉĻn
ĠÉªnspÉĽkt ÉĻÉ¹
f Éªk
k ÉĶÉ¹n
Î¸ ÉĻ
ĠÊĥ Ã¦É¡
Ġsp ÊĮnd
Ġsp ÊĮÉ¡
ĠÎ¸ÉľËĲ zdeÉª
Ġsn eÉªks
ĠÉªnf l
ĠplÃ¦n Éªt
ĠÉªns ÉªdÉĻnt
ĠÉ¹ÉªtÉľËĲn z
ĠÉĻfÉªÊĥ ÉĻli
ĠvaÉªÉĻl ÉĻns
ĠÉ¹eÉªl weÉª
ĠwÉªk Éªd
ĠiËĲkÉĻn ÉĳmÉªk
ĠdÉĽspÉĻÉ¹É¹ ÉĻt
ĠÉ¹ÉªdÉªk jÊĬlÉĻs
b É¹ÉĻ
Ġh Éĳn
Ġd ÉĽt
Ġp aÊĬ
ÊĴ Ã¦z
Î¸ É¹iËĲ
ĠÉ¹ Ã¦É¡
ĠtÉĽl ÉªÉ¡
Éĳs ÉĻ
ĠfÉªl ÉĳsÉĻf
ĠsaÊĬnd Éªd
ĠsuËĲn ÉĻÉ¹
ĠnoÊĬt Éªd
ĠÉĳks Éªd
ÊĥiËĲk i
ĠÉĽnvaÉªÉ¹ÉĻn mÉĻnt
ÊĥÊĬl eÉªÊĥÉĻnz
ĠdÉĶÅĭk i
ĠkÊĮÎ¸iËĲd É¹ÉĻl
p oÊĬ
Ġt ÉĻÉ¹É¹
Ġp ÊĮt
ĠÉ¡ Éĳn
ÊĴ ÊĮs
ÊĴ ÉĽkÊĥÉĻn
ĠsiËĲ l
Éĳm p
ĠÊĮt Ã¦ks
ĠkeÉª ks
ĠÉĽksp ÉĻd
ĠpÉ¹ÉĽz ÉĻnts
ĠbeÉªs Éªk
ĠkÉ¹Éªst ÉĻf
ĠpÉĻz ÉĽÊĥÉĻn
ĠvÉªzÉªt ÉĻÉ¹z
ĠbÃ¦skÉªt bÉĶl
ĠÊĮÎ¸ÉĶÉ¹Éªti z
ĠpÊĮn ÉªÊĥmÉĻnt
ĠlÉªÅĭk ÉĻn
ÉĻÉ¹v eÉªÊĥÉĻn
ĠpÉ¹ÉĽÉ¡n ÉĻnt
ĠpÉĽnsÉªlv eÉªniÉĻ
Ġs ÊĮni
Ġj ÉĶl
É¡ ÉĻÉ¹z
ĠÉ¹ ÊĮm
ĠÉ¡oÊĬ t
ĠsiËĲ ÉĽl
ĠÉĽf siËĲ
ĠÊĮs uËĲm
ĠsteÉªd iÉĻm
ĠhÃ¦m ÉĻltÉĻn
ĠÉ¹ÊĮ bÉĻÉ¹
ĠloÊĬk eÉªÊĥÉĻn
ĠpÉ¹aÉªm ÉĻÉ¹É¹i
ĠskÉĳt lÉĻnd
ĠviÉĻ kÉĻl
ĠmoÊĬs li
ĠÉªÅĭkÉ¹ÉĽd ÉªbÉĻl
ĠkÊĮntÉ¹Éª saÉªd
ĠfjuËĲn ÉĻÉ¹É¹ÉĻl
h oÊĬl
ÊĬ ks
ĠÃ¦ plÉªk
Ġf oÊĬtÉĻ
ÊĮm ÉĽÉ¹Éªk
ĠÉĽn ÉĽn
ĠÉ¡É¹ Ã¦t
ĠÉ¡É¹ eÉªp
ĠeÉª liËĲn
ÊĴÉĻn ÉĻl
Ã¦p ÉªÅĭ
ĠmiËĲt ÉĻÉ¹z
ĠkÃ¦m bÉĻl
ĠÉ¡ÉĳÉ¹d z
ĠstÉ¹ÉĶÅĭ É¡ÉĻÉ¹
ĠkiËĲ Î¸
ĠvÃ¦l ÉĻnt
ĠdÉĳk juËĲmÉĻnt
ĠÉ¹ÉĽs ÉĻlÉªÅĭ
ĠkÉĳt Éªd
ĠÉªntÉĻÉ¹É¹ÊĮpt Éªd
ĠheÉªd ÉĻn
Êĥ ÉĻnts
ÉĻn stÉ¹
ÊĴ aÉªz
ÉĽn ÊĥÉĻnz
ĠnoÊĬ wÉĽÉ¹
ĠÃ¦t ÉªtuËĲd
ĠeÉª ÉĽm
Ġfl ÊĮÅĭ
ĠÉ¹oÊĬ b
ĠstÉ¹ Ã¦t
ĠbÃ¦ bÉĻl
ĠÃ¦kt Éªd
ÉĻk ÉĻl
ĠdÊĮbÉĻljuËĲ eÉªt
Ã¦z ÉĻm
ÊĴÉĽÎ¸ É¹oÊĬ
ÊĮ li
ĠÊĥ ÉĽÉ¹Éª
Éªst ÉĻns
ĠÉªnt eÉªk
uËĲn z
ÊĥaÉªld s
aÉªl aÉªt
ĠÉ¹Éªl aÉªÉĻns
ĠkÉĻmp oÊĬz
ĠÃ¦ns ÉĻÉ¹É¹
ĠkÉªd n
ĠbÊĬ ÊĥÉªz
ĠpÊĬÉ¹ li
ĠmÃ¦É¡n ÉĽtÉªk
ĠsiËĲz d
ĠlÉĶÉª ÉĻl
ĠkuËĲ pÉĻÉ¹
ĠÎ¸É¹ÉĽt ÉĻnd
ĠdÉªb eÉªt
ĠpaÊĬd ÉĻÉ¹
ĠÉªnhÃ¦bÉªt ÉĻnts
b Ã¦t
h juËĲ
k iÉĻ
Ġp Ã¦kt
ĠtuËĲ zdeÉª
ĠÊĮp laÉª
ĠÊĮn ÉĽks
ĠÉ¡É¹ ÉĽÉ¡
Ġkw oÊĬt
ĠÊĮt ÉĽndÉªd
ĠdÉªz ni
ĠwÉªn i
ĠvÉªz ÉªtÉªd
ĠkÉĻnf ÉľËĲ
ĠsiËĲt Éªd
ĠlÉªm Éªt
ĠmÉªz É¹ÉĻbÉĻl
Ġn Ã¦nsi
ĠÉ¡ Éĳs
ĠÉĶ É¹Éªd
ĠÎ¸ Éĳ
ĠwÉª ÊĥÉªz
ĠtuËĲ b
ĠkÉĳm plÉªk
ĠÉªnv aÉªt
ĠkÉĳn ÊĥÉĻs
ĠhÉĳ nd
ĠpÉĶÉ¹t ÉĻÉ¹
ĠtÉĽm pt
ĠÊĥÉĳp s
ĠbÃ¦Åĭ ÉªÅĭ
ĠmÃ¦s ÊĮt
ĠtÃ¦l ÉĻnt
ĠfÃ¦nt Ã¦stÉªk
ĠtÉªÊĥ uËĲ
ĠkÉĽv Éªn
ÊĮ ld
Ġt Éĳks
Ġd Éĳt
Ġl ÉĽkt
ĠÎ¸ ÊĮndÉĻÉ¹
ĠÉ¡oÊĬ lz
vÉĻÉ¹ É¹ÉªÅĭ
bi z
Ġtw ÉªÅĭk
ĠkÉ¹ Ã¦p
ĠÊĮm bÉ¹
ÉĻp Ã¦s
ĠkÉĻns Éªst
ÊĮÉ¡ É¹iËĲ
ĠhÉĳÉ¹ ti
ĠkoÊĬ Éĳp
ĠstÃ¦n li
stÃ¦nd ÉªÅĭ
ĠspÉĻs ÉªfÉªk
ĠhÉĽlÉªkÉĳp tÉĻÉ¹
ĠÉĽnÎ¸ uËĲzi
s Éªts
ÉĶÉ¹ st
ĠhÃ¦ Åĭk
ÉĻÉ¹É¹ ÉĻn
ĠwaÉª nd
Éĳl Éªk
ĠdÉªs ÊĮÉ¡É¹iËĲ
ĠpÉĻÉ¹s w
ÊĥÉĻÉ¹ É¹ÉªÅĭ
ĠÉĽÉ¡z ÉĶst
ĠhÉĳÉ¹ vi
ĠÉªmpÉĶÉ¹t ÉĻns
ĠkÉĻnf juËĲ
ĠtÉĽm pÉĻl
ĠmÉľËĲd ÉĻÉ¹d
ĠpÉ¹Éªp ÉĽÉ¹
ĠbÉĽnÉªf Éªt
ĠbÃ¦kw ÉĻÉ¹dz
ĠnÉª É¹Éªst
Ġd Ã¦l
Ġm juËĲt
ĠÉ¡ eÉªl
juËĲ ÉĻl
ĠaÊĬ l
ĠtÉ¹aÉª ÊĮmf
ÊĥaÉªld hÊĬd
ĠjuËĲn ÉªfÉĶÉ¹
Éªsk oÊĬ
ĠÉªmÉªt eÉªtÉªÅĭ
ĠhÉĳlÉªd eÉªz
ĠbÉľËĲt ÉĻn
ĠÉľËĲs jÊĬlÉĻ
ĠÉªkÉĳn ÉĻmi
ÊĬ Åĭ
Ġj ÊĬÅĭ
ĠtuËĲ m
ĠtwÉĽnti ÉĻÎ¸
ĠÉĽs p
ĠbÃ¦ blÉªÅĭ
ĠÉ¹Éªm eÉªnÉªÅĭ
ÉĽp ÉĻÉ¹d
ĠbÉª b
ĠnÉªÉ¹ baÉª
ĠdeÉªz i
ĠÉ¡Ã¦s p
ĠÉĽkst ÉĽndÉªd
ĠwÉĶÉ¹Éª ÉĻÉ¹z
ĠdÉªtÉľËĲ mÉªn
b eÉª
st aÉªn
Ã¦ É¡z
Ġk oÊĬm
Ġm ÉĽntÉĻl
Ġn ÉĳnÉĻ
Ġst ÉĳÉ¹d
ÊĥuËĲ sÉªts
deÉª l
ĠjuËĲn Éªts
ĠbluËĲ z
ÊĮkt Éªv
Éªkt Éªd
wÉľËĲ ks
ĠnÃ¦p i
ĠneÉªtÉªv z
ĠÉªnvÉĽstÉªÉ¡ eÉªÊĥÉĻn
ĠfeÉªv ÉĻÉ¹É¹
ĠbÉĶÉªf É¹ÉĽnd
ÊĥaÉªlds neÉªm
Ġt Ã¦t
Ġt ÉªÉ¹
Ġm ÊĬ
Ġp eÉªt
Î¸ s
ĠwÉª sk
Ġst É¹Éªkt
ĠmiËĲ d
ĠbaÉª ÉªÅĭ
ÉĻt Éªks
Ġsk ÉĶÉ¹d
ĠkÉĻn ÉĽktÉªd
Ġsn iËĲk
ĠdÉªz ÉľËĲt
aÉªk ÉĻl
Ġskw iËĲk
ĠmÉªd naÉªt
ĠkÉĻnsÉªd ÉĻÉ¹É¹ÉĻbÉĻl
ĠÉ¹ÉĽpÉ¹ÉªzÉĽnt ÉĻtÉªv
ÉĽÉ¹Éªt Éªd
ĠmÃ¦É¹i ÉĻn
ĠvÉªk tÉĻÉ¹
ĠsÉĻpl aÉª
ĠsuËĲz ÉĻn
ĠhÉªstÉĶÉ¹Éªk ÉĻl
ĠfÊĮÅĭk ÊĥÉĻn
ĠÉªntÉĻf ÉªÉ¹
ĠspÊĮÉ¡ ÉĽti
ĠfoÊĬtÉĻ É¡É¹Ã¦f
h eÉª
w aÉªd
ĠÉĽ vÉĻn
Ġm eÉªzi
ĠnoÊĬ kiÉĻ
Ġst ÉľËĲd
ĠtuËĲ lz
Ġv ÉĶÉª
ĠÉľËĲ nd
ĠwÉªl sÉĻn
ĠbÃ¦ É¡z
ĠsÉľËĲv ÉĻnt
ĠÉ¹Éªf É¹
ĠbÉľËĲÎ¸ ÉĻ
ĠdÉ¹ÉĽs ÉªÅĭ
ĠsÉĻpÉĶÉ¹t Éªd
ĠÃ¦ktÉªv Éªtiz
ÊĥÉª É¹ÉªÅĭ
ĠÉªntÉĻÉ¹n ÉĽt
ĠkÉĶst s
ĠÉĽkspÉĽkt ÉªÅĭ
ĠdÉĽl Éªk
ĠmÉľËĲ k
Ġd É¹iËĲ
Ġb ÉĽ
Êĥ Éĳt
É¡ Éªv
ÉªÅĭ Ã¦m
ĠiËĲ É¡ÉĻl
Ġst eÉªÊĥÉĻnz
ÉĻs iËĲ
eÉªk ÉĻÉ¹
ĠsoÊĬ f
Ġpl iËĲ
ĠbÉªÉ¡ ÊĮn
ĠÉ¡Éĳd ÉĻs
ĠÉĳÉ¹t Éªsts
ĠbÉĽl z
ĠkloÊĬz ÉªÅĭ
ĠÉªntÉĻÉ¹v juËĲz
ĠdÊĮÉ¡ lÉĻz
ĠÉĶdi ÉĻns
Ã¦ É¹Éªti
Ġd ÊĮÅĭk
Ġj ÊĮk
Ġn ÉĶÉ¹d
Ġl ÊĮm
Ġl Éªz
ĠÉĽm f
ĠÃ¦nd É¹uËĲ
kw ÉĶÉ¹t
Ġv ÉĽt
Éĳm i
iËĲt oÊĬ
Éĳk É¹ÉĻs
ĠÉ¡l Ã¦nst
ĠwaÉªl st
ĠkÉĻmp iËĲtÉªd
ĠkÉľËĲ li
ĠklaÉªm d
ĠtÉ¹iËĲt mÉĻnt
ĠÉ¹Ã¦b Éªts
ĠÉĳl Éªv
ĠlÉĽv ÉĻlz
ĠpÉĶÉªz ÉĻn
ĠÉĶltÉĻÉ¡ ÉĽÃ°ÉĻÉ¹
ĠÊĮnÉĽks pÉĽktÉªd
eÉª ÉĻ
Ġs Ã¦Åĭk
Ġp Éªnt
Ġl Éªli
Ã° ÉĻlÉĽs
ĠÉªn n
ĠsÉĽ s
vÉĻÉ¹ d
Ġpl ÉĽÊĴÉĻÉ¹É¹
ĠnaÉªn Î¸
ĠÉ¡ÉľËĲl fÉ¹ÉĽnd
ĠstÉĳp ÉªÅĭ
ĠÃ¦nÉªm eÉªtÉªd
ĠpÉ¹ÉĳvÉªns Éªz
ĠdÉªsÊĮp ÉªÉ¹
ĠvaÉªÉĻl ÉĻnt
ĠnÉĽsÉªs ÉĽÉ¹Éªli
ĠkÉ¹Éªt Éªs
ĠdÉªlaÉªt fÉĻl
ĠpÉĽÅĭÉ¡w Éªn
Ġs iÉĻÉ¹Éª
Ġb ÉĳÉ¹d
Êĥ Éªs
Ġn ÉĽst
Ġp Ã¦Åĭk
ĠaÉª ÉĻ
ĠaÉª ÉĻÉ¹lÉĻnd
ĠÉ¹ ÉĽn
Éªs Éªt
Ġv aÉªt
ĠÊĮm juËĲzd
Ġsw ÉĽpt
ĠpoÊĬ Éªm
ĠpÉ¹ÉªtÉĽnd ÉªÅĭ
ĠpÉªÅĭk i
ĠÉªmpÉ¹ ÉĽÊĥÉĻn
ĠbÉĳÉ¹b ÉĻÉ¹É¹ÉĻ
ĠÊĥaÉªn ÉªÅĭ
viËĲn Éª
w ÉĶk
ĠtuËĲ l
ĠÉ¡ÉĽt n
ĠwÉĶnt ÉªÅĭ
Ġtw aÉªlaÉªt
ĠkÉĳÉ¹ pÉªt
ĠsÉĳÉ¹ oÊĬ
ĠluËĲ p
ĠdÉªsk ÊĮvÉĻÉ¹É¹i
ĠkaÊĬnt ÉªÅĭ
ĠÉªlÉĽkt É¹Éĳn
ĠÉ¡ÉĳÉ¹ Î¸
ĠdÉªsÉ¡ ÊĮst
ĠkÉ¹Éªk Éªt
b Ã¦nd
p ÉĻ
Éª ÉĻ
ĠÃ¦ bi
Ġd i
Ġm juËĲ
Ġl iËĲp
ĠÉĽm piËĲ
ĠÎ¸ iËĲf
ÉĽl z
Ġst Ã¦k
Ġbl Ã¦st
ĠpÉĻÉ¹s uËĲ
ĠsÊĮn ÊĥaÉªn
ĠsteÉª bÉĻl
ĠÊĮÅĭk ÊĮm
ĠsÊĮmwÊĮn z
ĠseÉªv ÉªÅĭ
ĠtÉ¹Ã¦ns fÉľËĲ
ĠÉ¹ÉªtÉľËĲn ÉªÅĭ
ĠkÉ¹ÉĶs ÉªÅĭ
ĠfÉĻÉ¹É¹ ÉĻÉ¹
ĠkÊĮd ÉĻl
ĠÉ¡É¹Ã¦n i
ĠÊĮdm ÉªtÉªd
f ÉĶÉ¹s
Ġf oÊĬtoÊĬ
Ġp ÊĮd
ĠÉ¡ eÉªts
ÉĶÉ¹ iz
ĠkÃ¦ É¹ÉĻn
aÉªm z
eÉªs i
É¹ÉªÅĭ ks
É¹uËĲ d
ĠfÉ¹ÉĽnd ÊĥÉªp
ĠkÃ¦t ÊĮl
ĠpÉĳl ÉĻtÉªks
ĠvÉªkt Éªmz
ĠpÉĳlÉªs iz
ĠvoÊĬt s
ĠkÉĳt ÉĻn
ĠmÉªÊĥÉĻn ÉĽÉ¹i
ĠÊĮsÉĽm bli
ĠtÉ¹ÊĮdÉªÊĥÉĻn ÉĻl
ĠÉªntÉľËĲ pÉ¹Éªt
ĠkÉ¹ÉĳkÉĻd aÉªl
ÊĮmÉĽÉ¹Éªk ÉĻn
w i
ÉĶ Éªt
Ġs ÉĶt
Ġm ÉĽÉ¹
Éªn st
Ġv ÉĻÉ¹É¹
ĠtÉ¹ ÉĽÊĴÉĻÉ¹
ĠbÉ¹ uËĲ
ĠmeÉª ÉĻÉ¹
Ã¦l kÉĻn
ÊĴiËĲ aÉªÉĽn
jÊĬl eÉªt
ĠkÉĳn v
oÊĬl t
ĠfÃ¦kt s
ĠÉ¹Éªv juËĲ
ĠhjuËĲmÉĻn z
ĠkÉĳnst ÉĻnt
ĠbÉªlÉĶÅĭ d
ĠkÉĻÅĭk luËĲ
ĠÊĮdÉĳp tÉªd
ĠkÉ¹ÉªstÉĻf ÉĻÉ¹
b ÉĳÉ¹k
Ġk ÉĻpÃ¦s
Ġt oÊĬd
Ġm ÉĽlt
Ġl oÊĬlÉĻ
ĠhÃ¦ k
Ġst Éªf
ĠtÉ¹ Ã¦p
ĠhuËĲ ÉĽvÉĻÉ¹
ÉĽnd ÉĻ
ÊĴuËĲ ÉªÊĥ
ĠdÉĶÉ¹ ÉĻ
Éªns ÉĻn
ĠwÉĶÉ¹ z
ĠdÉªsk ÊĮÊĥÉĻn
ĠdÉ¹Éª ft
ĠÉ¹Éªz ÉľËĲv
ĠbÉĶÉ¹d ÉĻÉ¹z
ĠpÉ¹iËĲ st
ĠmÉĻk d
ĠhÉĽlÎ¸ i
ĠdÉĳnÉĻld z
ĠÉĳnÉªst li
ĠtaÉªl ÉĻÉ¹
ĠkÉĻlÊĮm biÉĻ
ĠÉªnÊĥÊĬÉ¹ É¹ÉĻns
ĠÉĳÉ¹kÉªt ÉĽkt
ĠlÉªkw Éªd
ĠvÉĻÉ¹É¹ aÉªÉĻti
w ÉĶtÉĻÉ¹
Ã¦ É¹oÊĬ
Ġt Éĳd
Ġs ÉªÉ¡ÉĻÉ¹É¹
Ġb ÉªÉ¹d
Ġf Éĳs
Éªk ÊĥÉĻn
Ġsl eÉª
ĠkÉĳn fl
ĠkÃ¦t ÉªÉ¡
ĠsÉªl v
ĠstÉªk ÉªÅĭ
ĠjÉĶÉ¹k ÊĥÉĻÉ¹
ĠfÉĳÉ¹m ÉĻÉ¹z
ĠtÉ¹Éª b
ĠkÉĻÉ¹É¹ iËĲÉĻn
ĠlÉªt ÉĻÉ¹
ĠpoÊĬl ÉĻnd
ĠpoÊĬl ÉªÊĥ
ĠfiËĲd ÉªÅĭ
ĠsmoÊĬk ÉªÅĭ
ĠhÊĮm ÉªÅĭ
ĠsÃ¦tÉªsf Ã¦kÊĥÉĻn
ĠÉĻkeÉªÊĴÉĻn ÉĻli
ĠstÃ¦t ÉĻs
ĠsÉªÉ¡nÉªfÉªk ÉĻnt
ĠsÉªtÉªz ÉĻnz
ĠÊĥeÉª ps
h Ã¦t
i ÉĻnt
j ÉĻÉ¹É¹
Ġk Éª
Ġd ÉľËĲt
Ġb eÉªd
Êĥ ÉĽn
ĠÉ¡ É¹Éª
ĠÉ¹Éª h
Ġpl eÉªts
Ġsk Éªl
ĠmÊĮt ÉĻÉ¹d
ĠhÉĽd Éªd
ĠwÉªs ÉĻlÉªÅĭ
ĠpeÉªnt Éªd
ĠÃ¦lÉªÉ¡zÃ¦nd ÉĻÉ¹z
ĠmÊĮlt ÉªpÉĻl
ĠkÉĻmÉľËĲ ÊĥÉĻl
ÉĳkÉ¹ÉĻs i
ĠsiÉĻÉ¹Éª ÉĻl
ÊĮ É¹uËĲ
Ġd oÊĬs
ĠÎ¸ iËĲm
ĠpiËĲ ÉĽs
ĠbÃ¦ kt
ĠdÃ¦d z
ĠaÉªd iËĲ
ĠÊĮk juËĲzd
ĠdÉªp ÉĽndz
ĠÃ¦ns ÉĻÉ¹z
ÊĮkt Éªd
ĠÉĶt ÊĮm
ĠkÉĳmÉĻn li
ĠÉ¡É¹oÊĬ Î¸
ĠkÉªk ÉªÅĭ
ĠpÉĶÉ¹ ÊĥÉĻn
ĠpiËĲt ÉĻÉ¹z
t ÊĬ
Ġj Ã¦m
ĠÉ¹ ÉĽm
Ġst aÊĬt
ĠsiËĲ ÉĽf
ÉĽÉ¹i ÉĻ
ĠdÉ¹ Ã¦Åĭk
iËĲv z
ĠkÉĻns ÊĮlt
aÉªÉĻÉ¹ É¹ÉªÅĭ
ĠÉĳn laÉªn
ĠsuËĲ ÉªsaÉªd
ĠÉªmp Ã¦kt
bÉ¹ ÊĮÊĥ
ĠfÉ¹Ã¦ns ÉªskoÊĬ
ĠkÉĳÉ¹t ÉĻÉ¹
ĠÃ¦É¹ oÊĬz
ÊĴÉĽs ÉªkÉĻ
ĠmÉĶ É¹Éªs
ĠÉªstÃ¦b lÉªÊĥ
ĠfÉľËĲn Éªt
ĠÊĮmÉĽnd mÉĻnt
l eÉª
Ġk ÉĽl
Ġt ÊĮb
Ġd É¹ÉªÅĭks
Ġf aÊĬ
Ġf ÉĽÃ°ÉĻÉ¹
ÉĻÉ¹É¹ eÉªtÉªd
ĠwÉª Î¸
ĠÃ¦n i
ĠaÉªl mÉĻÉ¹
Ġz Ã¦k
ĠÉĻÉ¹É¹ oÊĬz
ĠhÉĽd kwÉĶÉ¹t
aÉªv d
ĠdÉªst ÉªÅĭÉ¡w
ĠtÉĽn Éªs
ĠdÉªz Ã¦stÉĻÉ¹
ĠbÉĳÉ¹ z
ĠjuËĲs lÉĻs
ĠÉ¹Éªp iËĲt
ĠstÉĶÉ¹ z
ÊĥÉĽk ÉªÅĭ
ĠbÃ¦nd z
ĠkÉĻmÃ¦nd ÉĻÉ¹
ĠkÃ¦bÉªn ÉĻt
É¹aÉªt ÉĻÉ¹
ĠÉĳÉ¹É¡ juËĲmÉĻnt
ĠÉĽkstÉ¹ ÉĶÉ¹d
ĠÃ¦lf ÉĻb
ĠÊĮmbÉ¹ ÉĽlÉĻ
ĠvÉĶÉª Éªd
z aÉªÉĻti
ÉĻÉ¹ p
Ġk Éªkt
Ġd iËĲv
ÉĻn eÉªÊĥÉĻn
Ġl oÊĬdz
ÊĴ mÉĻnts
ĠoÊĬ l
ĠÊĥ É¹iËĲ
ÉĻm ÉĻs
Ġkw iËĲnz
Ġsw ÉĽÉ¹
ĠnÉĽvÉĻÉ¹ Ã°ÉĻlÉĽs
Ġsn Ã¦k
ĠsiËĲn jÉĻÉ¹
ĠkÉĻmp oÊĬzd
ĠdÉªp É¹ÉĽÊĥÉĻn
ĠpÉľËĲsÉĻn ÉĻli
ĠÃ¦k ÊĥÉĻnz
ĠdaÉªn ÉªÅĭ
ĠvÉªkt ÉĶÉ¹iÉĻ
ĠdÉĽm ÉĻnstÉ¹
ĠpÉ¹Éĳs pÉĽkt
ĠmÉªÉ¹ li
ĠÃ¦Åĭ zaÉªÉĻti
Ã¦lÉĻs Éªs
ĠÉĽpÉªs oÊĬdz
b Ã¦É¡
b ÉĽlt
s ÉĶÅĭ
Ġk eÉªtiËĲ
Ġn Ã¦st
ĠÉ¹ oÊĬst
ĠwÉª É¹i
ĠsiËĲ dÊĮbÉĻljuËĲdÊĮbÉĻljuËĲdÊĮbÉĻljuËĲ
ĠhaÊĬ d
Ġbl ÉĽst
ĠeÉª aÉª
ĠmÃ¦n ÉĻÉ¹É¹
ĠdÉªs Éªp
pÉ¹ ÉĽs
ĠÊĮf ÉĽktÉªd
ÊĮmp i
ĠÊĮlÉĶÅĭ saÉªd
ĠstÉªk i
ĠlÉªst Éªd
ÊĴÉªt ÉĻbÉĻlz
ĠkÉ¹Éª mÉªnÉĻl
ĠpoÊĬÉªt É¹i
ĠtÉĻmeÉªt oÊĬ
ÊĴÃ¦É¡ wÉĳÉ¹
ĠnÉĽÉ¡ ÉĻtÉªv
ĠÉĽkspÉĻd ÉªÊĥÉĻn
ĠkÉĻnfÉľËĲ md
ĠkÉĻnfjuËĲ ÊĴÉĻn
t aÊĬn
ĠÉ¡ É¹Éªm
ĠÉªn ÉĶÉ¹
ĠfÉ¹ Ã¦nt
ĠkÃ¦ d
Ġkl Éªnt
ĠkÊĮ b
ĠmÉĳm ÉĻ
ĠÊĮt ÉĻÉ¹É¹ÉĻns
ĠÃ¦sk s
ĠÎ¸Ã¦Åĭk fÉĻl
ĠÉ¡l ÉĽn
ĠtÉĽn ÉĻsiËĲ
ĠpÉĳp s
ĠÉªnst ÉªtuËĲt
ÊĴÉĽnÉĻÉ¹É¹ eÉªÊĥÉĻn
ĠÉĳÉ¹t ÉªkÉĻl
ĠwÉĶl t
ĠlÉª vÉĻÉ¹
ĠmÃ¦Î¸ Éªm
ĠpÉ¹ÉĻsiËĲd Éªd
ĠsÉĳl ÉĻm
ĠaÉªdÉĽnt ÉªfaÉª
ĠÉ¡É¹Ã¦b z
ĠÉĶst É¹iÉĻ
ĠÉĻbt eÉªnd
ĠjuËĲkÉ¹ eÉªn
ĠmÉĻkd ÉĳnÉĻld
Ġ iÉĻÉ¹ÉĻ
Ġt Éªz
Ġt Ã¦d
Ġl Éªp
ÉĳÉ¹ n
ĠÉ¹ eÉªnz
Éªt Éªz
ÉĻm d
ĠhaÊĬ ÉĻÉ¹d
Ġsp ÉĽs
Éªm ÉĻm
Ġz Éªp
ĠkaÊĬ bÉĶÉª
ĠpÉªk juËĲl
ĠÉĳb viÉĻs
ĠpÉĳs ÉĻbÉªlÉªti
ĠsaÊĬÎ¸ iËĲst
ĠkÉĻnf juËĲzd
ĠtÉĽst ÉªÅĭ
ĠsÊĮf ÉĻÉ¹
ĠtÉªk Éªts
ĠnÉĳk ÉªÅĭ
ĠÉªlÉĻstÉ¹ eÉªtÉªd
ĠÉ¡ÉĶÉ¹d ÉĻn
ĠtÉ¹Ã¦v ÉĻld
ĠdiËĲiËĲ biËĲ
ĠÊĮtl Ã¦ntÉªk
ÊĴÉªÅĭÉ¡ ÉĻl
ĠÊĮÅĭkÊĮm ftÉĻbÉĻl
ĠpÉªkjuËĲl ÉªÉ¹
w Éªk
Ġb Éªf
É¡ eÉªt
Ġp aÉªn
Ġp É¹iËĲt
Ġl ÊĮÉ¡
ĠÉĽm dÊĮbÉĻljuËĲdÊĮbÉĻljuËĲdÊĮbÉĻljuËĲ
ÉľËĲ É¹
ĠÉ¡É¹ oÊĬnz
ĠwÉĽn ÉĽvÉĻÉ¹
ÉªÊĥ ÉªÅĭ
ÊĴuËĲ li
ĠkaÉªnd nÉĻs
ÊĴÉªn ÉªÉ¹ÉªÅĭ
ĠwÉªnd z
ĠmÉĽm ÉĻÉ¹É¹iz
ĠleÉª bÉĻl
ĠdÊĮbÉĻljuËĲ dÊĮbÉĻljuËĲ
ĠfÉ¹Ã¦ns Éªs
ĠklÃ¦s Éªz
ĠlÉª bÉĻÉ¹
ĠÉ¡ÉĳÉ¹ bÉªd
ĠÉĶÉ¹É¡ÉĻn aÉªzd
ĠsÉĽpÉĻÉ¹É¹ eÉªtÉªd
ĠzoÊĬ i
ĠmaÉªÉ¡É¹ eÉªÊĥÉĻn
ĠkÉĻÅĭkluËĲd Éªd
Ġt Éĳl
Éĳ Î¸
Êĥ oÊĬk
Ġj ÊĮnd
Ġf Ã¦b
nt s
ÊĴ ÊĬÉ¹É¹i
ĠÎ¸ É¹Éª
ĠÊĥ ÉĽlf
ÉªÉ¹ iÉĻ
ĠkÃ¦ É¹
ĠtÉ¹ eÉªnd
ĠwÊĬd ÉĻv
eÉªÊĥÉĻn s
ÉĶÉ¹d ÉĻÉ¹
ĠÉĽvÉ¹Éª bÉĳdiz
ĠÉĽksp ÉĽns
ĠnÉĶÉ¹Î¸ iËĲst
ĠkÉĳnt ÉĽst
ĠkÉĳnst ÉªtuËĲÊĥÉĻn
ĠÉ¹ÉĽz ÉĻluËĲÊĥÉĻn
ĠnÃ¦p kÉªn
ĠÉĳpÉĻÉ¹É¹ eÉªÊĥÉĻnz
ĠmÉªsteÉªk ÉĻn
ĠpÉ¹Éĳf Éªt
ĠpÉ¹ÉĳdÊĮkt s
ĠÊĥÉĽÉ¹Éª f
z ÉĻl
ĠlaÉª ÉĻnz
ĠÃ¦z ÉªtÉªz
ĠkÃ¦ v
ĠkÉĻm iËĲd
ĠfiËĲ st
ĠÉ¡l uËĲ
ĠÉĽÉ¡z Ã¦mpÉĻlz
ÊĴÉĳn z
ĠÊĮÅĭk Éĳn
ĠkÉĳnt ÉĽnts
ĠÉ¹Éªd uËĲst
ĠhÉľËĲt ÉªÅĭ
ĠfÉ¹Ã¦Åĭk i
ĠÉ¡É¹eÉª ps
ĠkÊĮd ÉĽts
ÊĥÉªÉ¹ fÉĻl
ĠdÉªmÃ¦nd Éªd
ĠÊĮdmÉªnÉªst É¹eÉªt
ĠstÊĮt Éªst
l Éªm
l aÉªnd
ÊĮ ÊĥÉªÅĭ
Ġt Éĳt
ÉĽÉ¹ oÊĬ
ĠhÃ¦ loÊĬ
Ġv ÉªÊĴÉĻn
ĠpÉ¹ eÉªz
Éªf ÉĻli
Ġkl Ã¦ps
É¹Éªk ÊĮlt
ĠsÉĽk ÊĥuËĲÉĻl
ĠtaÉª ÉĻÉ¹
ĠtaÉª ÉĻÉ¹z
ĠÉĽnt É¹i
ĠbÉľËĲd ÉĻn
ĠÃ¦b sÉĻns
ÊĴuËĲn jÉĻÉ¹
ĠfÉªÉ¹ s
ĠÉªst eÉªt
ĠneÉªv ÉĻl
ĠsÉĻÉ¹É¹aÊĬnd Éªd
ĠliËĲn ÉªÅĭ
ĠkÃ¦É¹ÉĻt s
ĠÉĽksplÊĮn eÉªÊĥÉĻn
f ÉĻlz
p iËĲd
s iËĲz
ÉĻ É¡É¹Ã¦f
Ġd ÉĽnt
Ġd ÉĽns
Ġn ÉĽ
tiËĲ d
Ġp ÉĶÉ¹d
Ã¦n ÉĻz
Éªf Éªs
Ġfl eÉªm
ĠlÉĽ Ã°ÉĻÉ¹
ĠÊĮndÉĻÉ¹ É¡É¹aÊĬnd
ĠkÉĳ vÉªd
ĠÊĮÅĭk l
ĠfÉªÊĥ ÉĻÉ¹
ĠliËĲd ÉĻÉ¹z
ĠmÉªst É¹ÉĻs
ĠÉ¡Ã¦ É¹i
ĠÉ¹eÉªn boÊĬ
ĠÃ¦É¡ É¹ÉªkÊĮlt
ÊĴuËĲk eÉªtÉªd
ÊĴÉª pt
ĠsleÉªv ÉĻÉ¹É¹i
ĠfuËĲl ÉªÊĥ
ĠdaÉªÉĻl ÉĽkt
ĠfÉĻÉ¹bÉªd ÉĻn
ĠsÃ¦kÉ¹Éªf aÉªs
ĠÉĽnÉĽn ÉĽn
Ġh ÉĽndÉĻÉ¹
ĠÉĽ lz
ĠÉĽ Åĭkw
Ġb Ã¦m
Ġb juËĲt
ÉĻn iËĲz
ÉĻn bÉľËĲÉ¡
Éĳt Éªk
ĠÊĥ ÊĮv
Ġst eÉªtÉªd
Ġst Ã¦mp
ĠÉĽks ÉĽpÊĥÉĻn
ĠbÉ¹ Éĳk
ĠhaÉª ÊĮn
ĠkÉĳm ÉĽnts
ĠsÉªÅĭ sÉĶÅĭ
ĠlÃ¦st Éªd
Éªsk juËĲ
ĠbÉľËĲ k
ÊĮmp ÊĥÉĻn
ĠpÉ¹ÉªzÉĻn ÉĻÉ¹
ĠsÉĽtÉĻl mÉĻnts
ĠÊĮsoÊĬs ÉªeÉªtÉªd
ĠkeÉªp ÉĻbÉĻl
l ÉĻm
m eÉªd
w Éĳn
Ġb ÊĮst
Ġb ÉĽs
Ġb ÊĮks
Ġst ÉĽÉ¹d
ĠÉ¹uËĲ Éªnd
ĠkÉĻn Ã¦l
ĠkÉĳ Åĭ
ĠstÉªk ÉĻÉ¹z
ĠmÉªd st
ĠkÊĮvÉĻÉ¹ É¹ÉªÅĭ
ĠsÉĶft wÉĽÉ¹
ĠseÉªf li
ĠmÉĻÉ¹É¹ iËĲÉĻ
ĠÉ¡É¹iËĲ s
ĠsÉĳb É¹Éªn
ĠlÉªtÉĻÉ¹É¹ ÉĻli
ĠkÉĳmÉ¹Ã¦d z
ĠziÉĻÉ¹ oÊĬt
ĠsÉĽÉ¹ÉªmÉĻn i
v ÉĻloÊĬ
Ġs ÊĮnd
Ġb ÉªliÉĻn
Ġp ÉĶ
ĠÉ¡ Ã¦m
ÊĴ ÉĽsi
ÊĮm eÉªÊĥÉĻn
Éĳt oÊĬ
ĠsiËĲ tiËĲ
ĠÉĽn s
ĠÉªnt ÉĽnÊĥÉĻn
ĠeÉª v
Ġfl ÉĽÊĥ
ĠÉ¹oÊĬ lÉĻnd
ĠhaÉª ÉĻÉ¹d
ĠteÉª bÉĻlz
ĠdÉªf iËĲt
ĠkaÊĬ ÉĻÉ¹d
ĠkÉĳl iËĲ
ĠbÉªld ÉĻÉ¹
ĠÉĳfÉªs ÉĻÉ¹É¹
ĠÉĳn vÉĻloÊĬ
ÉªÉ¡n eÉªÊĥÉĻn
ĠkloÊĬ Ã°ÉªÅĭ
ĠbÊĮ É¹oÊĬ
ĠbÊĮk Éªt
ĠbÉĳn Éªt
ÊĥeÉªm bÉĻÉ¹
f Éªl
w Éªl
Ġt Éªb
Ġh Éªs
Êĥ Éªst
Ġm Éĳk
Ġp oÊĬk
ĠÉ¡ Ã¦st
Éªs Éªti
ĠÊĥ Ã¦mp
ĠbiËĲ z
ĠsÊĮm bÉĳdiz
ĠÉ¡É¹ eÉªd
ÉĽst Éªd
ĠkÉ¹ aÉªs
ĠnuËĲ n
ĠÉĻÉ¹É¹ eÉª
ĠbÉªl z
ĠkÉĳm Éªn
ĠÊĮndÉĻÉ¹stÃ¦nd ÉªÅĭ
ĠÎ¸É¹ ÊĮst
ÊĥÃ¦ h
ĠpÉĳpjÊĬl ÉĻÉ¹É¹
ĠkwÉĶÉ¹t ÉĻÉ¹z
ĠbÉĻluËĲn z
ĠÉĻbz ÉľËĲv
ĠbÉªheÉªv jÉĻÉ¹
ĠÉĽÉ¡zÉªst ÉĻns
ĠÊĮdÉªÊĥÉĻn ÉĻl
ĠsaÉªm ÉĻn
ĠnuËĲm ÉĻÉ¹É¹ÉĻs
ÊĴÉĻm Éªn
ĠÉĽmpÉĻÉ¹É¹ ÉĻÉ¹
ÉĻÉ¹ b
eÉª É¡oÊĬ
Ġk eÉªn
Ġd ÉªÅĭ
Ġp uËĲd
ÊĴ oÊĬl
ÉĳÉ¹ É¹i
ĠÊĥ ÉľËĲ
Ġst ÉĽÉ¹ÉªÅĭ
Éªk eÉªtÉªd
ĠpÉ¹ ÉĽÉ¹
ĠÉ¡É¹ Ã¦f
Ġkl iËĲ
ĠÉªnt Éªm
ĠnaÉªntiËĲn Î¸
Ġbl eÉªk
ĠdÉ¹ aÊĬn
É¹oÊĬ m
Ã¦s i
ĠstÉ¹ ÉĽs
ĠbÉªt ÉĻÉ¹
Éĳks aÉªd
ĠÉĽnd ÉĽvÉĻÉ¹
ĠkÉĳÉ¹ p
ĠdÉªÉ¹ ÉĽkÊĥÉĻnz
ĠÉ¹Éªl eÉªÊĥÉĻnz
ĠjuËĲv hÃ¦d
ĠkÃ¦t ÉĻÉ¹p
ĠsÉªm bÉĻl
ĠlÃ¦nd z
ÊĥÃ¦ É¹Éªti
ĠsuËĲp iÉĻÉ¹Éª
ĠkwÉĶÉ¹t ÉĻÉ¹É¹
ĠÉĽÅĭk aÊĬnt
ĠÉ¹Ã¦t nÉĻÉ¹
ĠÉĽlÉªf ÉĻnts
ĠÉªmpÉ¹ ÉĽs
ĠÉ¹ÉªspÉĳnd Éªd
ĠÉ¡ÊĮl f
ĠÉĽkstÉ¹ÉĶÉ¹d ÉªnÉĽÉ¹i
ĠhÉĽndÉĻÉ¹ sÉĻn
Ġd ÉĳmÉªn
Ġb uËĲd
Ã° d
ĠÉ¹ aÉªn
ĠoÊĬ t
Ã¦n sk
Ġkl ÉĳÉ¹k
ĠhÉĽl plÉĻs
ĠdiËĲ eÉª
ĠtÉ¹aÉª Éªn
ĠfiËĲ vÉĻÉ¹
ĠbÉªl ÊĮvd
ĠdÉªsk ÊĮvÉĻÉ¹
ĠwiËĲv hÃ¦d
ĠfÉªÉ¡ ÉĻÉ¹d
ĠbiËĲt ÉªÅĭ
ĠmÉĻÉ¹É¹ iËĲ
ĠdiËĲp li
ĠsuËĲp É¹iËĲm
ĠÉĻp oÊĬzd
ĠfeÉªÎ¸ fÉĻl
ĠhÉĳl oÊĬ
ĠkÃ¦ns ÉĻÉ¹É¹
ĠÉ¡lÊĮv z
ĠÊĥÃ¦É¡ bÉĳÉ¹k
ĠÃ¦lfÉĻb ÉĽt
ĠnÃ¦st i
iËĲ liÉĻ
Ġb Ã¦Êĥ
Êĥ Éªf
nt aÉªm
ÊĴ ÉĽm
ĠÉªt ÉĻd
ĠsiËĲ st
Éªv Éªti
Ã¦k juËĲ
ĠkÃ¦ f
ĠtÉ¹ ÉĻmÉĽnd
iËĲt ÉĻÉ¹z
ĠÊĮs ÉĶlt
Éĳk ÉĻ
ĠkÉĻm Éªt
ĠpÉĻÉ¹s uËĲt
ĠdiËĲ sÉĻnt
jÊĬÉ¹ i
ĠdÉªv ÉĶÉ¹st
ÊĴeÉª ÉĽf
Éĳv ÉĻ
ĠbÃ¦t ÉĻÉ¹É¹i
ÊĴÉĶÉª ÉªÅĭ
ĠÊĮÉ¡É¹iËĲ mÉĻnt
ĠÉ¹Éªv Éĳl
ĠÉĽkspÉ¹ ÉĽst
ĠpÃ¦n Î¸
ĠhÉĶÉ¹ ÉĻÉ¹
ĠskÉ¹ Ã¦m
ĠsaÉªÉĻnt ÉªfÉªk
ĠÉĶÎ¸ ÉĻÉ¹
ĠdÉĻm ÉĽst
ĠwÉĽb s
ĠlÉªtÉĻÉ¹ É¹Éªt
ÊĮ Î¸
Ġb aÊĬn
Ġn ÉĽÉ¹
ĠÊĮv ÉĻn
ĠÃ¦t mÉĻs
ĠpÉ¹ ÉĳÉ¡
ĠtÉ¹ ÉĽ
ĠlÃ¦ b
Ġkl Éªn
ĠfaÉª ÉĻÉ¹z
ÊĮd ÉĽlf
ĠbÃ¦ É¹
ĠbeÉª l
ĠkÉĻn ÉĽkt
ĠfÉªl ÊĮdÉĽlf
ĠdÉªv ÉľËĲÉ¹ÉªÅĭ
ĠnÃ¦ sk
ĠdÉĽÎ¸ s
ĠklÉªÉ¹ d
ĠÉªmp eÉª
ĠkÉªl ÉĻÉ¹
ĠoÊĬvÉĻÉ¹É¹ ÉĶl
ĠÉªs l
ĠtÉĽm pÉĻÉ¹
ĠpÉ¹ÉĻv ÉªÊĴÉĻn
ĠkÃ¦nd ÉĻl
ĠfÉĶÉ¹mÉĻÉ¹ li
ĠmeÉªt eÉª
ĠdaÉªnÉĻs ÉĶÉ¹z
ĠvÃ¦ljuËĲ ÉĻbÉĻl
ĠbÉĽÉ¡ d
h ÉĻv
l ÊĮn
v juËĲ
ÉĻ ks
ĠÃ¦ ÅĭÉ¡ÉĻl
Ġn eÉªl
tiËĲ z
Ġp uËĲp
ĠÊĥ ÉĽÉ¹d
Ġv Ã¦s
ĠtÉ¹ Ã¦m
ĠÉ¡É¹ Ã¦v
ĠwÉĽÉ¹ ÉĽvÉĻÉ¹
ĠmeÉª ÉĻÉ¹É¹
ĠÃ¦n juËĲÉĻl
ĠÉ¹Éªt É¹iËĲt
ĠÉĽmÉĽm hÉĻm
ĠÉªnst ÉĻntli
ĠÉªnst ÉªÅĭkt
ĠÉªns ÉªstÉªd
ĠaÉªs ÉĻk
ÊĥiËĲf s
ĠÃ¦ktÉªv Éªst
ĠhÊĮsbÉĻnd z
ĠnÉĳd z
ĠdÉ¹Ã¦É¡ d
ĠÉ¹uËĲÎ¸ vÉĻn
ĠkÉĳmpl ÉĽks
ĠtoÊĬk ÉªoÊĬ
Ġd ÉĽÉ¹Éªk
Êĥ Éªm
Ġm ÉĽnd
Ġp ÉĽÉ¹i
Ġp ÉĽÉ¹Éª
vÉĻÉ¹ t
ĠpiËĲ p
ĠoÊĬn ÉĻÉ¹
ĠdÉĳ liz
ĠhaÉª weÉª
ĠkÉĻnt É¹Éªb
ĠmjuËĲz ÉªÊĥÉĻn
ĠpÃ¦ É¹ÉªÊĥ
ĠbÉĳÉ¹ oÊĬ
ĠÉ¡ÉĳÉ¹d ÉĻnz
ĠbÉ¹iËĲ d
ĠkÉĳmjuËĲn Éªst
ĠkÉĻnv Éªnst
ĠÃ¦lb ÉĻmz
ĠÉĽld ÉĻÉ¹
ĠÊĥÊĬdÉĻnt hÉĻv
ĠÉªnstÉ¹ ÊĮkÊĥÉĻnz
ĠpÉ¹Éªnt Éªd
ĠiËĲd ÉªÎ¸
ĠmjuËĲs Ã¦b
ĠsoÊĬf iÉĻ
ÊĥÃ¦h tÉĻ
ĠfÉªlÊĮdÉĽlf iÉĻ
iËĲ ÊĴÉĻ
Ġs ÉĻluËĲÊĥÉĻn
Ġm ÉĻm
Ġm ÉľËĲs
É¡ ÉĳÉ¹t
Ġf ÊĮ
Ġf ÉªÉ¹d
ĠÉ¡ ÊĮm
Ã¦t Éªkli
ĠÉ¹ ÉĶ
ĠtÉ¹ ÊĮks
Éĳm ÉĻn
iËĲd Éªd
pt ÉĻn
ĠÉ¹uËĲ Éªn
ĠbÉªl bÉĶÉ¹d
ĠÉĽksp Ã¦nd
ĠkÉĻn uËĲ
ĠÉĽnt ÉĻÉ¹É¹ÉªÅĭ
ĠÉĳÉ¹m ÉªtÉªd
ĠvÉªz ÉªbÉĻl
ĠneÉª lz
ĠfÉĶÉ¹t ÉªskjuËĲ
ĠÊĮwÉĶÉ¹d Éªd
ĠkÉĳnst ÉĻntli
ÊĴÉĶÉªn ÉªÅĭ
ĠÉ¡w Éĳd
ĠpiËĲn ÊĮt
ĠbÉ¹eÉªs lÉªt
ÊĴÃ¦p eÉªzi
ĠÎ¸ÊĮÉ¹oÊĬ li
ĠmÊĬ z
ĠbaÊĬn si
f ÉĶÉ¹t
aÉª ÉĻ
É¹Éª Åĭk
Ġp oÊĬn
ÉĽÉ¹ ÉĻp
ĠÉ¹ ÉĽnd
ĠsiËĲ ÉĽm
oÊĬz ÉªÅĭ
ĠkÉĳm bÃ¦t
ĠmÉªn i
ĠsÉľËĲv ÉªÅĭ
juËĲt eÉªÊĥÉĻn
ĠdÉªl eÉª
ĠÉªns Éªst
ĠstÉ¹ÉĶÅĭ li
ĠÉ¹ÊĮ ÊĥÉªÅĭ
ĠÉªntÉĻÉ¹ s
ĠhÉªp oÊĬ
ĠvÉĽs ÉĻlz
ĠsÉĳbÉ¹Éªn iËĲni
ÉĶ fs
Ġk ÉľËĲs
Ġd iËĲz
Ġd iËĲn
ĠaÉª aÉª
ĠhiËĲ lz
Ġst eÉªz
Éªz eÉªÊĥÉĻnz
juËĲ mÉĻnts
ĠÉ¹Éª Ã¦kÊĥÉĻn
ĠlaÉª sÉĻns
eÉªm ÉĻn
ĠÊĮn pl
ĠlÃ¦ É¹i
Ã¦m i
É¹uËĲ mz
Ã¦Êĥ ÉĻ
ĠdÉªs ÉªÊĴÉĻnz
ĠÎ¸ÉľËĲ sti
Éĳks Éªm
ĠÉ¹uËĲ t
oÊĬd Éªd
ĠfÉĳÉ¹ Ã°ÉĻÉ¹
ĠtÉľËĲ mÉªnÉĻl
ĠkÉĳnt ÉĽkst
ĠsaÊĬÎ¸ wÉĽst
ĠhÃ¦t s
ÊĥÉªk Éªnz
ĠkÉĳp s
ĠbÊĬl Éªts
ĠtÉĽÉ¹Éª bli
ĠfÉ¹ÉĽd ÉĻÉ¹É¹Éªk
ĠÉªmpÉ¹ ÉĽst
ĠnÉĳd Éªd
ĠÉ¹Ã¦nd ÉĻm
ĠbÉªsk Éªt
ĠpÉªp ÉªnÉĻ
ĠhÉĽdkwÉĶÉ¹t ÉĻÉ¹z
Éª bÉĻÉ¹É¹
Ġh ÊĮmz
Ġb juËĲ
ÊĴ ÉĽt
ĠnoÊĬ l
ĠbiËĲ biËĲsiËĲ
ĠÉ¡ÊĬd z
ĠdÉ¹ ÉĶÉ¹
ĠÉĽl ÉĽf
iËĲp ÉĻÉ¹
ĠÃ¦l ÉĻb
ĠÉ¹iËĲd z
ĠfeÉªs d
ÊĴÉĽnÉĻÉ¹É¹ ÉĻs
ĠbÉĽÉ¹ li
ĠmÉĳ skoÊĬ
ĠÉ¹Éªv ÉĽnd
ĠsÃ¦m juËĲl
ĠbÉĶ É¹ÉªÅĭ
ĠkjÊĬÉ¹ É¹Éª
ĠbÉªsk Éªts
ĠdÊĮb z
ĠnÉĽf juËĲ
ĠÉªnÉĶÉ¹ mÉĻs
h iËĲ
l ÉĶÅĭ
m ÉĻÉ¹É¹
s Éªl
Ġd ÉĽÉ¹d
ĠÉĽm ÉĻ
ĠiËĲ stÉĻÉ¹
li ÉĻnz
ĠmaÉª nÉĻs
Ġkl eÉªmd
Ã¦nd ÉĻl
Ġkw ÉĶÉ¹
ĠÉªm ÉªÉ¡
ĠÊĮt ÉľËĲni
ĠpÉľËĲ ÊĴÉĻn
ĠfÉªl mz
ĠÉ¹Éªf É¹Éªd
ĠmÃ¦s Éªv
ĠÉ¹ÉªÉ¡ÉĳÉ¹d ÉªÅĭ
ĠÉ¹Ã¦t ÉĻl
ĠÉ¹Ã¦p Éªd
ĠsÉªd ni
ĠÉªÅĭkÉ¹iËĲs ÉªÅĭ
ĠÉĽltiËĲ z
ĠÉ¹Ã¦nd Éĳlf
ĠdÉªspl eÉª
ĠsÉĻf ÉªÊĥÉĻnt
ĠjuËĲnÉªfÉĶÉ¹ m
ĠdÊĮÅĭk ÉĻn
b ÉľËĲd
p i
s m
É¹ eÉªtÉªÅĭ
ÉĽ ÊĥÉĻnz
Êĥ ÊĮm
Ġm ÉĶl
Ġp Ã¦ndÉĻ
ÉĶÉ¹ pÉĻÉ¹É¹
ĠÉ¹ aÉªv
ĠsiËĲ lÉªÅĭ
ĠwÉľËĲ Ã°i
Ã¦k ÊĥÉĻnz
ĠÉ¹oÊĬ sÉĻ
ĠhÃ¦nd k
ĠÊĮl tÉªm
uËĲl uËĲ
ĠdiËĲ lÉªÅĭ
ĠÃ¦kt s
ĠfaÊĬnd eÉªÊĥÉĻn
ĠwÉĶÉ¹ ÉĻnt
Ã¦Åĭ kt
ĠpÉľËĲ mÉĻn
ĠmÉĳÉ¹ bÉĻlz
uËĲs i
ĠjÉĽl ÉªÅĭ
ĠjÉĶÉ¹s ÉĽlvz
ĠtÉ¹Ã¦ns fÉľËĲd
ĠkÉĳns ÉĽpt
ĠpÉ¹Ã¦kt Éªkli
ĠsmÉĽl z
ĠÉĳpÉĻÉ¹É¹ eÉªtÉªÅĭ
ĠkÉ¹Éªt ÉªkÉĻl
ĠfÉľËĲm li
ĠfÉ¹iËĲkw ÉĻntli
ĠpÊĬd ÉªÅĭ
ĠÉªndÉªpÉĽnd ÉĻns
k ÉĻlz
l Ã¦s
Éª ÉĽÉ¹
ÊĮ sk
Ġs uËĲd
Ġd ÉĽb
ÉĻl t
Ġl wÉĳÉ¹É¹
ÉĶÉ¹ m
ĠfÉ¹ aÉª
ĠnÉĳt ÉĻÉ¹
ĠfaÉª lz
Ġsk iËĲ
eÉªn iÉĻs
ĠhaÉª ÉĻÉ¹É¹
ĠdÉªf iËĲtÉªd
ĠÉ¹Éªs ÉĽpÊĥÉĻn
ĠÉĽd É¹Éªk
ĠÉ¹Éªl aÉª
ĠÉ¹ÉĽk ÉĻmÉĽnd
ĠÉ¡Ã¦ É¹ÉĻn
ÊĥÃ¦ns Éªz
ĠÉĽÉ¡zÃ¦m Éªn
ÊĥÃ¦pt ÉĻÉ¹É¹
ĠwÉªnt ÉĻÉ¹É¹
ĠÉ¹ÊĮb ÉªÊĥ
ĠÉ¡lÉĶÉ¹i ÉĻs
ĠmÉĳÉ¹vÉĻl ÉĻs
Ġh ÊĬd
Ġl eÉªzi
ĠÉ¹ eÉªm
ĠÊĥ eÉªd
ĠduËĲ tiz
ĠtÉ¹ oÊĬ
Ġsp ÉĶÉªl
ĠhoÊĬ ps
Ġfl Éªp
ÉĻz eÉªÊĥÉĻn
ĠÊĮndÉĻÉ¹ k
ĠfjuËĲ d
ĠkÉĳ z
ĠbÉľËĲ nt
ĠnÃ¦ É¹
ĠÉªntÉ¹ÉĽst s
ĠsÉĽl z
ĠkÉĻnsÉªd ÉĻÉ¹É¹eÉªÊĥÉĻn
ĠfÉ¹Ã¦Åĭk lÉªn
ĠmoÊĬt ÉĻÉ¹s
ĠbÊĮ É¡z
ÊĴÉľËĲnÉĻl Éªst
ĠdÉĽlÉªk ÉĻt
ĠmÉľËĲk jÊĬÉ¹i
É¡Éªv ÉªÅĭ
ĠnÃ¦sk ÊĮn
ĠÃ° ÉĽÉ¹Éª
Ã¦ É¹ÉĻs
Êĥ aÊĬ
ĠÉ¡ eÉªzd
kt ÉĻÉ¹
ĠbiËĲ siËĲ
ÊĮst ÉĻmd
ĠÊĮn iËĲz
ĠseÉª lÉĻÉ¹
ĠdeÉª laÉªt
ĠtÉĶ s
ĠÃ¦d vÉĻÉ¹t
ĠpeÉª ÊĥÉĻnts
ĠkÉĳm bÉªn
ĠsÉĶ Éªl
ĠlÉĶ nd
ĠbÉľËĲ lÉªn
ĠtÉĳp s
ĠpÃ¦ ÊĥÉĻn
ĠpÃ¦ É¹ÉĻd
ĠpÉľËĲsÉĻn Ã¦lÉªti
ĠleÉª ÉªÅĭ
ĠÉ¹Éªk ÊĮvÉĻÉ¹d
ĠdÉ¹Éĳp ÉªÅĭ
ĠstiËĲvÉĻn z
ĠÉ¡É¹iËĲ f
ĠjoÊĬ É¡ÉĻÉ¹
ĠmÊĮs ÉĻlz
ĠsÉªÅĭÉ¡ ÉĻlz
ĠwÃ¦É¡ ÉĻnz
ĠsÊĮs pÉĽkt
aÉª p
oÊĬ ÉĻ
Ġk ÉĽnt
Ġd aÉªz
Ġm ÊĮf
Ġl Éĳb
ÉĶÉ¹ iÉĻn
ÊĴ ÉĻnts
ÊĴ ÉĽli
ĠÉªn fÉĶÉ¹m
ĠbiËĲ ts
ĠwÉľËĲ m
É¹iËĲ v
ĠÊĮp ÉĶÉªntmÉĻnt
ĠtÉ¹ ÊĮbÉĻlz
ĠdÉªs ÉĽ
ĠÊĮl Ã¦skÉĻ
ĠÊĮndÉĻÉ¹ teÉªk
ĠkÉĽÉ¹ d
ĠkÉĳl ÉĻÉ¹É¹
ĠÉĳn ÉĻÉ¹z
ĠeÉªm iz
ĠsÉĻpÉĶÉ¹t ÉªÅĭ
ĠmÃ¦É¡n ÉªfÉªs
ĠkÉĻntÉ¹oÊĬ ld
ĠdÉĽÉ¹Éª ÉĻs
ĠkÉĻmiËĲd iÉĻn
s Éªk
iËĲ stÉĻÉ¹n
Ġk uËĲp
Ġb ÊĬt
ĠÉĽm bÉ¹
ÊĮt lÊĮn
ĠtÉ¹ Éĳt
tiËĲn ÉĻ
ÉĻns iz
ĠÉĶf ÉĻÉ¹É¹ÉªÅĭ
ĠÉĽl ÉĻn
ĠÉªl ÉĶÉªs
ĠheÉª l
ĠdÉĶÉ¹ weÉª
ĠlÉĶ ft
ĠhÉªt ÉªÅĭ
ĠÉ¹iËĲzÉĻn ÉĻbÉĻl
ÊĥÃ¦mp iÉĻnz
ĠsuËĲt keÉªs
ĠpÉ¹Éªp ÉĽÉ¹ÉªÅĭ
ĠwaÉªn ÉªÅĭ
ĠÊĮÊĥ ÉĶÉ¹
jÉªÉ¹ oÊĬld
ĠswiËĲd ÉĻn
ĠkÃ¦ÅĭÉ¡ ÊĮÉ¹uËĲ
ĠkÉĻÅĭkluËĲ ÊĴÉĻn
ĠÊĮÅĭkl ÉªÉ¹
Éª ÉĻÉ¹
Ġt ÉĻÉ¹É¹Éª
Ġh ÉĽm
Ġj ÊĮki
ÉĻn ÉĻns
ĠÉĶ sÊĮm
Ġv juËĲz
ĠbÉ¹ uËĲm
ĠlÃ¦ ÅĭÉ¡
ĠÉĽl ÉªmÉĻnts
Éªli z
ÉĽf siËĲ
ÉĽns ÉĻn
ĠkÉĻn st
ĠspiËĲk ÉĻÉ¹
ĠkÉĳnt ÉĽnt
ĠÉĽkspl oÊĬ
ĠbÉĽl d
ĠÃ¦s pÉĽkt
ĠhÉĶ É¹Éªd
ĠsiËĲkÉ¹Éªt s
ĠsÉªmp ÉĻÎ¸i
ĠÉªndÊĮst É¹ÉªÉĻl
ĠstuËĲ ÉĻÉ¹t
ĠtÉĻmeÉªt oÊĬz
ĠdÉªlÉªvÉĻÉ¹ d
ĠstÉ¹Ã¦t ÉĻd
ĠkÉĻpÃ¦s Éªti
ĠlÉªbÉĻÉ¹ ti
ĠtÉ¹ÉĻmÉĽnd ÉĻs
f aÉªd
Ġh ÉĽh
Ġj ÉĳÅĭ
Ġn Éĳks
Ġp ÉĻn
Ġl ÉľËĲ
ĠÊĥ ÉĽlt
ĠwÉª p
ĠtuËĲ t
ĠÊĮn ÉĶÉª
ĠtÉ¹ ÉĽnt
ĠtÉ¹ Ã¦Êĥ
iËĲz Éª
Éĳk oÊĬ
ĠhÊĮ ÅĭÉ¡
ĠaÉªd ÉĻl
ĠÃ¦l kÉĻ
ĠhÉĳ Åĭ
ĠstiËĲ lÉªÅĭ
ĠÉĽkspl eÉªnz
ĠpÉ¹ÉĻt ÉĽktÉªd
ĠdÉªstÉ¹ ÊĮkÊĥÉĻn
ĠpÉĳk Éªts
ĠziËĲ bÉ¹ÉĻ
ĠsaÉªk l
ĠsÉªn ÉĻm
ĠskÉ¹ ÊĮb
ĠaÉªdÉĽnt ÉªfaÉªd
ĠÃ¦nÎ¸ ÉĻni
ĠwÃ¦k ÉĻÉ¹
ĠÊĮkÊĮmpÉĻni d
ĠtÉ¹Éªb juËĲt
ĠÃ¦ ÅĭÉ¡ÉĻÉ¹
sk uËĲl
Ġh eÉªtÉªd
Êĥ ÊĮÉ¡
Ġm ÉªliÉĻnz
Ġj iËĲld
Ġp eÉªÊĥÉĻns
Ġl ÉĶÉ¹i
ÉĶÉ¹ f
ĠiËĲ ÉĻn
ĠÊĥ ÉĽÉ¹ÉªÅĭ
ĠÉªz É¹iËĲÉĻl
Ġst Ã¦tÉªk
Éªn eÉªtÉªd
ĠbiËĲ f
eÉªd ÉĻÉ¹
ĠbÉ¹ uËĲn
Ġkl ÉĳzÉªt
Éĳl ÉªtÉĻn
ĠdÉ¹ aÉªd
ĠkÉĶ É¹Éªs
ĠÉĽnd ÉªÅĭ
ĠaÉªd iÉĻl
ĠÉ¡l Éªm
ĠÉ¡Éĳd Ã¦m
ĠbÃ¦t ÉĻÉ¹É¹iz
ĠwÉªn ÉĻÉ¹
ĠniËĲ l
ĠÃ¦k jÊĬÉ¹
ĠhÊĮnt ÉĻÉ¹
ĠpÉĻt ÉĽnÊĥÉĻl
ĠÉªd ÉªÊĥÉĻn
ĠstÉ¹ÊĮÉ¡ lÉªÅĭ
ĠtÉľËĲt ÉĻlz
ĠÉ¡aÉªd ÉĻns
ĠfÊĮnd z
ĠfÉ¹ÉĶst i
ĠÉĽkspÉĽÉ¹Éª mÉĻnt
ĠtÉĻÉ¹É¹Éª fÉªk
f Éªt
ÊĬ kt
Ġw ÉĽnd
ÉĶ ks
Ġf Éªd
ĠkaÉª t
ĠiËĲkw ÉĻli
É¹iËĲ nÉĻ
eÉªk eÉª
ĠmÉĶÉ¹ ÉĻl
siËĲ aÉª
Ã¦Êĥ ÉĻnd
ĠlÉĶÅĭ É¡Éªst
ĠbÉªl iËĲf
biËĲ ÉĽs
ÉĻb ÉªlÉªtiz
ĠÉ¹Éªs ÉªstÉĻns
ÉĳÉ¡ n
ĠhoÊĬp fÉĻli
bÉ¹ eÉªk
ĠÉªÉ¹ eÉªs
É¹Éªn lÉĶ
ĠÉ¹eÉªz ÉªÅĭ
ĠpÃ¦n Éªk
ĠsÃ¦l ÉĻÉ¹É¹i
ĠÉªnstÉ¹ ÉĻmÉĻnt
ĠsoÊĬd ÉĻ
ĠsniËĲz Éªz
hÃ¦v tÉĻ
ĠdÉĻmÉĽst Éªk
ĠkÉĶÉ¹Éªs pÉĳnd
Ġt ÉªÉ¡ÉĻÉ¹
ĠkaÉª z
ÊĴ ÉĳmÉĻz
ĠfÉĶÉ¹ hÉĽd
ĠbiËĲ m
ĠfÉ¹ oÊĬz
ĠfÉ¹ ÉĶÉªd
ĠÉ¡É¹ Éĳ
ĠÉ¡É¹ Ã¦ntÉªd
Ġsp aÉªk
Ġtw Éªnz
ÉĶÉ¹t s
bÉĻÉ¹ ts
Ġfl ÉĽd
ĠdeÉª l
ĠÉĽl ÉªmÉĻnt
ĠÉªl iËĲ
ĠsÉªk Ã¦ndÉĻÉ¹
ĠtaÉª É¡ÉĻÉ¹z
ÉĳÉ¡ ÉĻ
ĠsÉĽns ÉªtÉªv
bÉ¹ ÊĬk
ÊĥÉĳÉ¹ mÉªÅĭ
ĠpÉ¹ÉĻf ÉĽÊĥÉĻn
ĠdÉªm ÉĳkÉ¹ÉĻsi
ĠmÃ¦É¡n Éªts
ĠstÊĮdi ÉªÅĭ
ĠÊĥÉĳÉ¹p li
ĠÉĻfÉªÊĥ ÉĻlz
ĠswÉªÅĭ ÉªÅĭ
ĠÉ¹eÉªl É¹oÊĬd
ÊĴoÊĬk ÉªÅĭ
ĠfjÊĬÉ¹ É¹i
ĠhÉĽzÉªt eÉªtÉªd
ĠklÉªnt ÉĻn
v Éªs
ÉĻ weÉª
uËĲ k
Ġk Éĳb
Ġm oÊĬd
Ġp ÉĽl
ĠjuËĲ ÉĽn
ĠmiËĲ ntaÉªm
É¹iËĲ d
Éªp ÊĬÉ¹
ĠbÉªt É¹eÉª
ĠÊĮt ÉĻÉ¹d
ĠtÉĶk Éªn
ĠkÃ¦t ÉĻl
ĠfÊĬt st
ĠÉĽnt ÉĻÉ¹z
ĠpÃ¦s Éªz
ĠdÉªÉ¡ ÉªÅĭ
ĠkÉĳmjuËĲn z
ĠkÉĻmjuËĲn Éªtiz
fl aÉªz
ĠÉ¹ÉĽÉ¡ jÊĬl
ĠÉĽmb Ã¦É¹ÉĻs
ĠfeÉªv É¹Éªt
ĠmÊĮ sk
ÉªÉ¹i ÉĻlz
ĠsÃ¦ks ÉĻni
ĠdÉĽ bi
ĠlwÉĳÉ¹É¹ ÊĮtlÊĮn
ĠlwÉĳÉ¹É¹ÊĮtlÊĮn tiËĲk
b oÊĬz
Ã¦ ld
Ġb Éĳs
Ġb É¹iËĲt
Ġm Éªnt
ĠhiËĲ p
Ġv ÊĮl
aÉªd z
ĠÊĮb ÊĮnd
ĠÊĮb ÉĶÉ¹d
ĠÉľËĲ l
ÉĶÉª ld
ĠÉĶf ÉĻli
ÊĴÉªn ÉªÉ¹
ĠdÉĽd li
ĠdÊĮk i
ĠÉĻf ÉĽns
ĠdaÉªn ÊĮsti
ĠpeÉªn fÉĻl
ĠbÉ¹ÉĶd weÉª
ĠheÉªst ili
ĠÊĮsoÊĬs Éª
ĠbÃ¦ks lÃ¦Êĥ
ĠkÉĻmb aÉªnd
ĠjoÊĬÉ¡ÉĻÉ¹ t
j ÉĶÉ¹
k juËĲ
v ÉĻ
Ġd ÉªÉ¡n
ĠÉĽ É¹Éªn
Ġb jÊĬÉ¹
Ġn iËĲs
Ġp eÉªnz
ÉĶÉ¹ ÊĥÉĻn
ÊĴ ÉªtÉĻl
ĠhÃ¦ b
ÉĽm ÉĻn
ĠjÊĬÉ¹ É¹oÊĬ
ĠmaÉª ÉĻ
Éĳn ÉĻmÉĻs
ĠeÉª ÉĽnd
Ġfl aÉªz
ĠÃ¦d ÉªÅĭ
ĠmuËĲv mÉĻnts
ĠstÉĳÉ¹t ÉĻld
ĠziÉĻÉ¹oÊĬ wÊĮn
ĠfaÉªÉĻÉ¹ É¹ÉªÅĭ
ĠsÉªs ÉĻÉ¹z
ĠbÉĶÉ¹d ÉĻn
ĠmÉĽs Éªnd
ĠlaÊĬd ÉĻÉ¹
ĠvÉľËĲ b
ĠklaÉª ÉĻnts
ĠwÉªd oÊĬ
Ã°ÉľËĲ lÉĻndz
ĠÉĶltÉľËĲn ÉĻtÉªv
ĠnÉĽ Ã°ÉľËĲlÉĻndz
k Éĳm
ÉĻ bi
Ġh ÉĶnt
Ġm ÉĽsi
ÉĳÉ¹ md
ĠÉªn fÉĶÉ¹md
ĠÉĶ kw
ĠÉ¹ ÉĽ
Éªn ÉĻt
ĠbiËĲ n
ÉĽnt ÉĻli
ÉĻs Éªs
Ġkl ÉĳÉ¹É¹ÉĻ
ĠmeÉª lz
ĠweÉª vÉªÅĭ
ĠaÉªd iËĲz
oÊĬs Éªs
ĠnÉĽk lÉĻs
ĠkÉĻnt eÉªnd
ĠnÊĮ Î¸Éªn
Ġsn Ã¦t
ĠÉĽvÉ¹ÉªÎ¸ÉªÅĭ z
ĠdeÉªv i
ĠÉ¹Éĳk Éªt
ĠbÉ¹iËĲ Ã°z
ĠtÉ¹ÊĮbÉĻl d
ĠmÃ¦s Éªd
ĠÉªfÉĽkt Éªv
ĠmÉªk Ã¦n
ĠdÉĽl ÉªÉ¡
ĠÉªmpÉ¹uËĲ vd
ĠsÉĻÉ¹É¹aÊĬnd ÉªÅĭ
ĠÉĻÊĥÊĬÉ¹ d
ĠÉ¹ÉªmÉĳÉ¹k ÉĻbÉĻl
ĠpÉĳÉ¹tn ÉĻÉ¹z
ĠÊĮbÃ¦nd ÉĻnd
ĠÉªnn Éªt
b juËĲd
t eÉª
É¹ Ã¦nt
Ġt Ã¦
Ġd eÉªtÉªÅĭ
Ġn eÉªk
Ġp ÉªkÉĻl
Ġl ÊĮÅĭ
ĠÉ¡ Éĳlf
ĠwÉľËĲ ÊĥÉªp
ĠhÉľËĲ É¹Éª
ĠlÃ¦ nt
Ġkl ÉªÉ¹ÉªÅĭ
Ġsk uËĲp
Ġtw Éªst
ĠmÃ¦n ÉĻÉ¹z
Ã¦Êĥ i
ĠbÃ¦ pt
ĠkÉĳÉ¹ n
ĠhÉĽd ÉªÅĭ
ĠÉĽd Éªn
ĠÉĳp ÊĥÉĻn
ĠdÉªl ÉªbÉĻÉ¹É¹
ĠjÉĽl z
ĠÉªÉ¹ Ã¦n
ĠpÉ¹Éªns Éªp
ĠdÉªstÉ¹ ÉĽs
ĠpÉĻÉ¹tÉªk jÊĬlÉĻÉ¹É¹
ĠdÉªsÊĮp ÉĶÉªntmÉĻnt
ĠbÊĮn Ã¦nÉĻz
ĠmÉĻt ÉªÉ¹iÉĻlz
ĠÉ¡É¹ÊĮnt ÉªÅĭ
ĠhÃ¦É¹Éªs ÉĻn
ĠpÉ¹Éªs aÉªs
ĠkÊĮb ÉĻd
ĠkÉ¹aÉªs Éªs
h Éĳl
m eÉª
w iËĲd
Éª jÉĻ
Ġt Ã¦ps
Ġd eÉªnz
Êĥ mÉĻn
Ġf oÊĬt
Ġn ÉĽl
ĠÉ¡ eÉªz
ĠÉ¡ ÉĻÉ¹É¹Éª
ÉľËĲ lz
ÉľËĲ É¹ÉĻnt
ĠÉ¹ ÉĽvÉĻÉ¹É¹
ÉĽl ÉĻÉ¹
ÉĻm Ã¦nt
ĠkÃ¦ Åĭ
Ġkl ÉĶÉ¹
aÊĬz d
Ġbl iËĲdÉªÅĭ
ĠkÉĳl ÉĻni
ĠÉ¡É¹iËĲn bÉĽlt
ĠkÉĻnf ÉĽs
ĠdÉªÉ¹ÉĽkt ÉĻÉ¹z
ĠsiËĲk ÉªÅĭ
ÊĴiËĲn z
ĠpÉĽn Éªt
ĠmÉĻÉ¹É¹ iËĲn
ĠtaÊĬ ÉĻÉ¹É¹
ĠpÉ¹Éªz ÉľËĲv
ĠÊĮkÉĶÉ¹dÉªÅĭ li
ĠÉªnvÉĽst mÉĻnt
ĠkÊĮz ÉĻnz
ĠÉ¹Ã¦nd ÉĶl
ĠÉĶst É¹iÉĻn
ĠmÉª aÊĬ
ĠvÉĽn Éªz
ĠwÉªtnÉĻs Éªz
ĠÊĮtÉ¹Ã¦kt Éªv
ĠveÉªk eÉªÊĥÉĻn
ĠkaÊĬns ÉĻlz
ĠdÉªlÉªv ÉĻÉ¹É¹i
ĠmÃ¦Î¸Éªm Ã¦t
b Ã¦s
m oÊĬ
ĠÃ¦ É¹Éªz
Ġm oÊĬn
Ġp Éªs
ÊĴ eÉªnz
ĠÉ¹ Ã¦d
ÉĽn eÉª
ĠmaÉª s
Ġv oÊĬk
Ġv Éªns
ĠÉĽks iËĲd
Ġkl Ã¦m
ĠÉľËĲ bÉĻn
ĠÉªnt ÉľËĲnÉĻl
ĠwÉĽÉ¹ Ã¦z
Ġz iÉĻÉ¹oÊĬz
É¹Éªs Éªti
ĠluËĲ w
ĠdaÉª ÉĻt
ĠÊĮf ÉĽkt
ĠeÉªtiËĲn Î¸
ĠjÊĮ ÅĭÉ¡
ĠsÉĽns ÉªbÉĻl
eÉªp ÉĻÉ¹z
ĠhÉĳÉ¹ wÊĬd
ÊĥÃ¦ pÉĻl
ĠwÉªn z
ĠsÃ¦nd i
bÉľËĲ É¡ÉĻÉ¹
ĠkÉĳp Éªz
ĠhÉĳs pÉªt
ĠÊĮw aÉªl
ĠvÃ¦n ÉªÊĥt
ĠÉĽkspiÉĻÉ¹Éª ÉĻnst
vÉªl Éªd
ĠkÉ¹aÊĬd Éªd
ĠmÉĻÊĥ iËĲnz
ĠÉĶtÉĻm ÉĻbi
ĠmÉľËĲm ÉĻÉ¹d
bÊĮ É¹ÉĻ
ĠmÉĻkdÉĳnÉĻld z
ĠÉĽdÉªn bÊĮÉ¹ÉĻ
ĠvÉĽnÉªz weÉª
b d
f ÊĬt
n Éĳm
p Éĳt
t ÊĮb
eÉª oÊĬ
Ġh eÉªz
Ġl ÉĶn
ÉĻt ÉĻÉ¹z
Ġsk Ã¦tÉĻÉ¹d
ĠÉĶf ÉĻÉ¹z
ĠfÉľËĲ t
Ġsw ÊĮÅĭ
ĠjuËĲn iËĲk
ĠÊĮk ÊĮstÉĻmd
ĠkÉĳl Éªn
ĠÉªnf ÉĻnt
ĠeÉªm ÉĽn
ĠjuËĲnÉªvÉľËĲs Éªtiz
ÊĴiËĲn aÉªn
ĠmaÊĬnt Éªd
ĠÉ¹ÉĽp juËĲteÉªÊĥÉĻn
ĠtÉĽst s
ĠdÉĳd ÉĻz
ĠdaÊĬt lÉĻs
ĠmjuËĲnÉªsÉªp Ã¦lÉªtiz
ĠsiËĲd z
ĠÉľËĲlÉª ÉĻÉ¹É¹
ĠÉĽmpl ÉĶÉªd
ĠÉ¹ÊĮs ÉĻl
ĠÊĮkÉĳm ÉĻd
ĠviÉĻ kÉĻlz
ĠÃ¦É¹ÉĻ b
ĠdÊĮbÉĻljuËĲdÊĮbÉĻljuËĲ iËĲ
ĠdiËĲeÉª ÉĽn
ĠkjÊĬÉ¹É¹Éª ÉĶsÉªti
ĠnÃ¦skÊĮn ÉĶÉ¹ÉĻ
p Ã¦k
v eÉª
ĠÃ¦ ÊĥÉªz
st Éªk
É¹Éª nd
Ġs ÊĮÅĭk
Ġb É¹Éªsk
Êĥ ÉĻlz
Ġf É¹Éªd
ĠÉ¹ ÊĬÉ¹É¹ÉĻl
ĠmiËĲ lz
juËĲ ÉĻs
Ġv ÉĻÉ¹
aÉªn mÉĻnt
ĠÊĮp laÉªd
ĠpÉ¹ aÉªzÉªz
iËĲd i
ĠbÉ¹ Ã¦s
aÊĬnd Éªd
Ġtw Éªn
ĠwÉªl ÉĻnt
ĠtiËĲ tiËĲtiËĲ
ÊĴuËĲ É¹ÉĻ
ĠÉ¹uËĲ ld
ĠÊĮd ÊĮlts
ĠkÉĻn viËĲnÉª
ĠsÊĮn sÉĽt
ĠleÉªd Éªb
ÊĮp ÊĥÉĻn
ĠsÉªl k
ĠtÉ¹iËĲ ti
ĠÃ¦nt ÉªsÉªp
ĠÉ¹Éªk ÉĶl
ĠÉ¹Éªk ÊĮvÉĻÉ¹
ĠÃ¦b d
ÊĴiËĲn ÉªÉĻs
ĠwaÉªd li
ĠkÉĳnf ÉªdÉĻnt
ĠÉ¹oÊĬm Ã¦ns
ĠÉ¹ÊĮf li
ĠtÉĽkn ÉªkÉĻl
ĠsÉĻsp ÉªÊĥÉĻn
ĠseÉªnt s
ĠÉĳÉ¹É¹ ÉĽf
ĠÊĮpÉ¹uËĲ vd
ĠiËĲkÉĻn Éĳm
hÃ¦m Éªd
ĠkÉĳnd ÊĮkt
ĠveÉª É¡
ĠbÃ¦ÅĭÉ¡ l
ĠÉĶkw ÉĻÉ¹d
l ÉĻn
Ġt oÊĬl
Éĳ ft
Ġh ÉĽÉ¹ÉªtÉªd
Ġb oÊĬz
Ġb ÊĮÅĭk
Êĥ kÉĻm
Ġj aÊĬ
Ġp oÊĬt
Ġl ÉĽnd
ĠÉ¡ Éªni
ÉĶÉ¹ É¡
ÉĽl ÉªÅĭ
Éªf É¹Ã¦nt
ĠnuËĲ t
ĠpleÉª ÉĻÉ¹É¹
ĠÊĮl aÊĬz
ĠÉĽnd ÊĬÉ¹
ĠkÉĳÉ¹ bÉĻn
ĠkÉĽÉ¹ z
ĠwÉĶÉ¹ nd
ĠmoÊĬ l
ĠdaÉª ÉĻÉ¡n
ĠsÉĽl iÉĻ
ĠnoÊĬt ÉĻbÉĻl
ĠÉĳÉ¹t ÉªkÉĻlz
ĠÎ¸Ã¦Åĭks É¡ÉªvÉªÅĭ
ĠnÃ¦t ÊĮli
ÊĥÉĻ É¡
ĠdÉ¹aÉª vÉĻÉ¹z
ĠmoÊĬt Éªv
ĠteÉªst s
ĠfÃ¦n i
ĠÉªnstÉ¹ ÉĻmÉĻnts
ĠtÉªp ÉªkÉĻl
ĠsÉĻb st
ĠkÉĶf ÉªÅĭ
Ã¦É¹ ÉĻtÉªv
ĠfoÊĬld Éªd
ĠÉľËĲnÉªst li
ĠvÉľËĲs Éªz
ĠdÉªstÉľËĲb d
ĠkÃ¦ndÉªd eÉªt
ĠkÉĻnsÉľËĲv ÉĻtÉªv
Ã¦lkÉĻn ÉĻl
ĠÉ¡wÉĳd Ã¦lkÉĻnÉĻl
ĠjÊĮÅĭÉ¡ Éªst
ÊĥkÉĻm teÉª
n ÉĳlÉªd
oÊĬ ÊĥÉª
Ġt ÉĽÉ¹i
Ġt ÉªÅĭk
Ġh iÉĻÉ¹oÊĬz
Ġf ÉªtÉªd
Ġp ÉĶÉ¹ÉªÅĭ
Ġl Éªfts
ĠÉ¡ uËĲs
ÊĴ ÊĮn
ĠÉªn ÉĻÉ¹
ĠwÉľËĲ mz
ĠÉ¹aÉªt ÉĻÉ¹z
Ġkl uËĲ
Ġkl eÉªmz
ĠÉ¡ÊĬd naÉªt
ĠÉĽl boÊĬ
ĠniËĲd ÉĻnt
ĠÊĮl ÉĽks
ĠÉªnv ÉªteÉªÊĥÉĻn
ĠboÊĬ lÉªÅĭ
ĠfjuËĲ ÉĻl
ĠÉ¹Éªl iËĲvd
É¹Éªs ÉĻn
ĠmaÉªk É¹ÉĻs
ĠmÉĳÉ¹ bÉĻl
ĠkÉĳl ÊĮm
ĠbÉĳt ÉĻlz
ĠbÉªznÉĻs mÉĻn
ĠÉ¹Éĳk i
ĠbÉ¹iËĲ z
ĠÉ¡É¹aÊĬnd z
ĠÉ¹ÉªsiËĲv ÉªÅĭ
ĠÉ¹aÉª ÉĻn
ĠtaÉªt ÉĻlz
ĠkeÉªk eÉªkeÉª
ĠpÊĮz ÉĻld
ĠdÉĳk juËĲmÉĻnts
ĠÉªÊĥuËĲ d
ĠsÉĽm Éªt
ĠslÉªp ÉĻÉ¹z
ĠbÉľËĲÉ¡ ÉĳÉ¡n
ĠÉ¡loÊĬ bÉĻl
ĠÊĮbÉ¹ ÉĶd
ĠÉ¡É¹Ã¦djuËĲ eÉªtÉªd
ĠtÉĽlÉªÉ¡ É¹Ã¦m
ĠkÉĳliËĲ É¡z
ĠpoÊĬn iz
ĠkÉĳmbÉªn eÉªÊĥÉĻn
ĠÉĽksploÊĬ ÊĴÉĻn
ĠmaÉªkÉ¹ÉĻs Éĳft
ĠbÉľËĲÉ¡ÉĳÉ¡n ÉªfÉ¹Ã¦nt
p ÊĬt
É¹ ÉĶÉª
Ġh ÊĮmp
ĠlÃ¦ bÉ¹
Ġsl Ã¦m
Ġfl oÊĬz
ĠÉĽs dÊĮbÉĻljuËĲdÊĮbÉĻljuËĲdÊĮbÉĻljuËĲ
Ã¦Êĥ t
ÉĻÉ¹É¹ÉĻ bli
jÊĬÉ¹ É¹ÉĻ
ĠkÃ¦m ÉĻl
ĠmaÉªk É¹oÊĬ
uËĲz iÉĻÉ¹oÊĬ
ĠhÉĳÉ¹ bÉĻÉ¹
ĠkÉĻnsÉªd ÉĻÉ¹É¹ÉªÅĭ
ĠkÃ¦mp ÉĻs
ĠhÉĶ kÉªnz
ĠbÃ¦l eÉª
ĠÊĮtÉĽmpt Éªd
ĠÉ¹ÉªmÉĳÉ¹ ks
ĠÊĥÉĽl tÉĻÉ¹
ĠmÉĻl ÉªsÉĻ
ÊĥeÉªs ÉªÅĭ
ĠneÉªk Éªd
ĠbÃ¦ÅĭÉ¡l ÊĮd
ÊĥÉĻÉ¡ iËĲz
m ÉĶnt
p uËĲl
Êĥ iËĲt
Ġj ÉĻÉ¹
Ġp Éªts
ĠÃ¦nd É¹
ÊĴ ÉĻbÉĻl
Î¸ ÉĻn
ĠfÉ¹ Ã¦kt
Ġpl ÊĮÉ¡
ÉªÉ¹ iÉĻÉ¹
ĠbaÉª sÉªkÉĻl
ĠbÉ¹ uËĲz
ĠseÉª lÉªÅĭ
ĠnuËĲ d
ĠdÉªs É¡É¹
Ġsw Éªs
ĠÉ¡l uËĲm
ĠhÉĽlp fÉĻl
ĠkÉĳn ÊĥÉĻn
ĠkÉĻmpl eÉªnt
ĠfÉ¹eÉªs ÉĻÉ¹z
ĠkÉ¹Éªst ÉĻl
ĠsÉĻs pÉĽkt
ÉĽstÉĻÉ¹ z
ĠÉªv Ã¦kjuËĲ
ĠpÉ¹ÉĽp ÉĻÉ¹É¹eÉªÊĥÉĻn
ĠÊĮÅĭkÉĳn ÊĥÉĻs
ĠfÊĬtst ÉĽps
ĠÃ¦ st
ĠÃ¦ pt
ĠÉĽ kw
É¡ ÉĳÉ¹d
Ġf oÊĬnz
Ġp ÊĮf
Ġl eÉªs
Ġl ÉĽst
Ġl aÉªtÉªd
ÊĴ Éĳ
ĠtÉĻ deÉªz
ĠÉ¹ eÉªts
Éªn ÉĻl
Ġpl ÊĮm
Ġtw Éªt
ĠmÉĶÉ¹ É¡
ĠÉĳ li
ĠkÊĬd ÉĻv
ĠoÊĬn ÉĻÉ¹z
ĠstÉ¹ eÉªn
ĠteÉª lÉĻÉ¹
ĠÊĮk nÉĳlÉªd
ĠwiËĲk li
ĠÉ¡Ã¦s pt
ÊĴÉľËĲ hÉĳÉ¹t
ĠkoÊĬ p
ĠÊĥÉĳÉ¹ ks
ĠnÉľËĲs ÉªÅĭ
ĠsuËĲpÉĻÉ¹ É¹Éªnt
ĠÊĮkaÊĬnt s
ĠÉ¹ÉĽf É¹ÉĻnt
ĠkÉĽn ÉĻdi
ĠklÃ¦p ÉªÅĭ
ĠÊĮsÉªst ÉĻns
ĠklÃ¦ É¹Éªs
ĠpÃ¦nt ÉªÅĭ
ĠswiËĲd ÉªÊĥ
ĠtÉ¹ÉĽm blÉªÅĭ
ĠÉ¹ÉªtaÉªÉĻÉ¹ mÉĻnt
ĠÉĽÉ¡zÉĶst Éªd
ĠsiËĲtiËĲ ÉĽks
ĠÊĮnpl ÉĽzÉĻnt
Ġw ÉĽs
Ġb ÉĽÎ¸
Ġm eÉªmi
Ġp ÉĽk
Ġl iËĲnÉĻ
ĠhÃ¦ Î¸
ĠnoÊĬ bÉĳdiz
Éªl t
Ġsp Éªt
ĠÉªnt ÉªÉ¡
Ġsk Éªlz
ĠsÊĮmÎ¸ÉªÅĭ z
ÊĮÅĭ kt
ĠpÉĳÉ¹ lÉĻÉ¹
ĠeÉªd iËĲ
ĠwÉľËĲld waÉªd
ĠfÉªl ÉªÅĭ
ĠmiËĲt ÉªÅĭz
ÉĽÉ¹Éª ti
ĠkÉĻmp Ã¦É¹ÉĻtÉªv
ĠhÉĳÉ¹ v
ĠsÉľËĲk ÉĻlz
ĠklÃ¦s Éªk
ĠpoÊĬ Éªmz
ĠsÃ¦d li
ĠkÉ¹Ã¦k ÉĻÉ¹
ĠÉªmiËĲd ÉªÉĻt
ĠfiËĲm eÉªlz
ĠfÉĶÉ¹Éªst s
ĠfÉªlÉªp iËĲnz
ĠbiËĲd z
ÉªtuËĲ ÊĥÉĻnÉĻl
m eÉªl
uËĲ ki
Ġf ÉĻt
ĠÉ¡ Ã¦n
ÉĻÉ¹É¹ ÉĽk
ĠpÉ¹ aÉªÉĻÉ¹
ĠdÉ¹ uËĲsi
ĠÉ¹Éªm oÊĬt
ĠÊĮt ÉĻÉ¹li
oÊĬd oÊĬ
ĠbÉĽd É¹ÉĻl
ĠbÉĽd taÉªm
ĠkaÊĬnt Éªd
ĠspiËĲk ÉĻÉ¹z
ÉªÅĭÉ¡ oÊĬ
ĠdÉ¹aÉªv z
ĠpÉĻz ÉĽs
ĠpÉĻz ÉĽst
ĠfÉĶÉ¹t É¹ÉĻs
ĠdÉ¹ÉĽs Éªz
ĠmÃ¦l ÉĻÉ¹É¹i
ĠskÉĳt ÉªÊĥ
ĠÊĮÊĥ Éĳti
ĠpÉ¹oÊĬt ÉĽst
ĠnÉªÉ¡ l
ĠÊĮpÉ¹ ÉĳksÉªm
ĠÉ¹ÉªviËĲ ld
ÊĴuËĲlÉª ÉĽt
ĠjÉĶn z
ĠziÉĻÉ¹oÊĬt uËĲziÉĻÉ¹oÊĬ
ĠoÊĬt m
ĠlÃ¦nt ÉĻÉ¹n
h ÊĮnt
Ġw uËĲp
ÉĶ Éªn
Ġd eÉªts
Ġb ÊĮv
É¡ ÉĻlz
Ġp ÉĽp
ĠÉĽm eÉªdiËĲ
Ã° ÉĻn
ĠÉ¡ ÊĮ
ÊĴ ÊĬÉ¹
ĠÉ¹ ÉĽpt
ĠÊĥ ÉªÉ¹
ĠÃ°ÉĽÉ¹ l
ÊĮn s
ĠÊĥiËĲ ld
ĠÊĥiËĲ ts
Ġv ÉĳÉ¹
vÉĻÉ¹ n
ĠwÉĶ ndÉĻÉ¹
ĠtÉ¹ Ã¦nsk
ĠÉĶÉ¹ z
ĠbÉ¹ Éĳnz
ĠÉªnt ÉĽnd
ĠÉªnt ÉĻneÉªÊĥÉĻn
ĠÊĮm bÃ¦s
Ġfl ÊĬÉ¹
ĠÉĽs eÉª
Ġz oÊĬn
ĠÉªm oÊĬÊĥÉĻn
ĠluËĲ iËĲzÉª
ĠsmÉĶl Éªst
ĠÉĳb z
ĠÉ¹ÉĽst ÉªÅĭ
ĠfÉĳÉ¹m ÉĶÉ¹
ĠwÉĶl tÉĻÉ¹
É¹ÉĻp ÉĳlÉªtÉĻn
ĠsÃ¦d ÉĻl
ĠkÉĳns ÉĻÉ¹t
ĠpleÉªn li
ĠdÉĽn vÉĻÉ¹
ĠfÉªk ÊĥÉĻn
Ã¦ÅĭÉ¡ ÉĻld
ĠkÉĳk É¹ÉĻn
ĠdÉª É¹Éªst
ĠsÉĽlÉĻb É¹eÉªt
ĠkÉĻmjuËĲnÉªk eÉªÊĥÉĻn
ĠÊĮmjuËĲz mÉĻnt
ĠsiËĲdiËĲ ÉĽs
ĠkliËĲ nd
ĠkÉĳlÉĻÉ¹É¹ ÉĳdoÊĬ
ĠpÉĻn Éªns
ĠluËĲw iËĲz
ĠbÉĽdÉ¹ÉĻl bjuËĲd
ĠÊĮmbÃ¦s ÉĻd
s dÉĻn
Éª ÉĳlÉĻd
ĠÃ¦ pÉªt
Ġh ÊĮl
Ġs ÊĮp
Êĥ Éªd
Ġm ÉĽk
ÉĻl ti
ĠaÉª k
ĠÉ¹Éª stÉ¹
Éªl eÉªÊĥÉĻn
ÉĻm Ã¦tÉªk
ĠÉĽf biËĲ
Ġsp ÉĽÊĥÉĻli
ÉĽnd oÊĬ
ĠkÉ¹ ÉĽpt
ĠÊĮm Éªd
ĠoÊĬvÉĻÉ¹ h
ĠpÉ¹Éª vÉªlÉªd
Ã¦kt Éªd
ĠÉªl Éªm
ĠdiËĲ k
ĠÉ¹uËĲ Éªnz
ĠbÉĽt i
ĠÉªmp ÊĮls
ĠmÉĽt É¹ÉĻpÉĳlÉªtÉĻn
ĠhaÉªd É¹
ĠjuËĲnÉªvÉľËĲs ÉĻl
ĠfÉĽÉ¹ wÉĽl
ĠlaÉªv li
ĠpÉ¹ÉªtÉĽnd z
ĠkÉĶÉ¹ pÉĻÉ¹É¹eÉªÊĥÉĻn
ĠÉ¡É¹Ã¦ndm Éĳz
ĠklÊĮb z
ĠÉ¡Ã¦l Éªz
ĠnÉĽt i
ĠslaÉªt Éªst
ĠÉĻp oÊĬn
ĠÉ¹ÉĽl ÉĻtÉªvz
ĠÉ¹ÉĽf juËĲd
ĠÉĳpÉĻz ÉªÊĥÉĻn
ĠdiËĲt eÉªl
ĠÃ¦mb jÊĬl
ĠkÉĻmpjuËĲt ÉĻÉ¹z
ĠmoÊĬtÉĻÉ¹s aÉªkÉĻl
ĠÃ¦É¹Éªz oÊĬnÉĻ
ĠbÃ¦ÅĭÉ¡lÊĮd ÉĽÊĥ
ĠoÊĬtm iÉĻl
ĠluËĲiËĲzÉª Ã¦nÉĻ
h aÉªm
l ÉĻÉ¹É¹
n oÊĬn
w uËĲ
Ġ eÉªn
Ġs Ã¦b
Ġp É¹iËĲm
Ġl uËĲn
ĠaÉª ÉªaÉª
ĠÊĥ Ã¦ft
Ġst É¹Éªp
ÉĽt ÉĻÉ¹
ĠbiËĲ tÉĻn
ĠfÉ¹ aÉªz
Éªl uËĲ
ĠÊĮp iËĲl
ĠsoÊĬ loÊĬ
ĠaÊĬt ÉĻÉ¹
ĠÉĶÉ¹ k
ĠoÊĬvÉĻÉ¹ kÊĮm
ĠÉ¹iËĲ Éªn
ĠfÉĳ É¡
ĠleÉªt Éªst
ĠtÉľËĲ b
ÊĥÉĻÉ¹É¹ iz
ĠdÉªv aÉªn
ĠdÉĳl f
ĠnÃ¦ v
ĠpÊĬ si
ĠsuËĲ ki
ĠdÉªn aÉª
ĠbÉľËĲd i
ÊĥÉĻ É¡ÉĻl
ĠvÉªzÉªt ÉĻÉ¹
ĠkÉĻnv Éªns
ĠÉªlÉĽkt É¹ÉªsÉªti
ĠkÉ¹Ã¦Êĥ t
ĠsÉĻsp ÉĽktÉªd
ĠsÉĳl v
ĠÉ¡É¹eÉªv li
ĠpÉ¹ÉĻm ÉªÉ¹
ĠpÉ¹ÉĻm oÊĬt
ĠÊĥÉĽl z
ĠÉĽÉ¡zÉªst ÉªÅĭ
ĠÊĥÃ¦d oÊĬz
ĠsÉĳk ÉĻÉ¹
ĠbÉĽnÉªf Éªts
ĠkÉ¹ÉĶl ÉªÅĭ
ĠhÉĳli wÊĬd
ĠpÉ¹aÉª ÉĶÉ¹Éªti
ĠÊĮbs ÉĶÉ¹
ĠtwÉªÅĭk ÉĻl
ĠkÉĳnÊĥÉĻn s
n oÊĬ
s l
Ġp eÉªm
Ġp Ã¦p
ĠÉ¡ Ã¦p
ÊĴ Éªd
ÉĽn st
ĠÎ¸ ÉĽÉ¹ÉĻp
Éªn Éªti
ĠÊĮn Ã¦lÉĻsÉªs
ĠÉĶÉ¹ n
Ġfl eÉªmz
ĠkÉĳm Éªk
ĠpÉĳÉ¹ ks
ĠsiËĲn z
ĠpÉĳp kÉĶÉ¹n
ĠdÉªv oÊĬtÉªd
ĠnÉĶÉ¹Î¸ wÉĽstÉĻÉ¹n
ĠkÉ¹iËĲ eÉªÊĥÉĻn
ĠmÊĮn ÉªpÊĬÉ¹
Ġskw ÉľËĲl
ĠsÉĽns eÉªÊĥÉĻn
ĠsÉªkstiËĲn Î¸
ĠkoÊĬ ÉĶÉ¹d
ĠÉĽÉ¡zÃ¦m ÉªneÉªÊĥÉĻn
ĠsÉĻÉ¹pÉ¹ aÉªzÉªÅĭ
ĠvÉªzÉªt ÉªÅĭ
ĠpÉ¹Ã¦kt ÉªkÉĻl
ĠkÉĽm ÉªstÉ¹i
ĠpÉĽ pÉĻÉ¹
ĠÉĻÊĥÊĬÉ¹ É¹ÉĻns
ĠpÉ¹ÉĻpoÊĬz ÉĻl
ĠkÊĮstÉĻm ÉĻÉ¹
ĠdÉªfÉªkÊĮl tiz
ĠpÉ¹ÉĽ ÊĥÉĻÉ¹É¹
bÉªl iËĲv
ĠkÉĳnfl Éªkt
ĠÃ¦tmÉĻs fÉªÉ¹
t ÉĻnz
Éª Ã°
Ġh ÉĳÉ¹k
Êĥ Ã¦nts
Ġp ÉĽÉ¹z
ÊĴ oÊĬn
ÉĻÉ¹É¹ ÉĻnt
ÉĽm pl
Ġv Éªn
ĠsÊĮm Éªt
ĠÊĮn b
ft aÉªm
Ġtw iËĲt
ĠdÉ¹ aÊĬnd
Ã¦s ÉĻl
ĠdÉªs ÉĽnt
ĠÊĮl aÉªÉĻns
ĠhoÊĬm wÉľËĲk
ĠÃ¦l aÉªz
É¹ÉĻnt s
ĠÉĽksp ÉľËĲt
ĠkÉĶz ÉªÅĭ
ÉĳÉ¡ i
ĠlaÉªt li
ĠfÉĶÉ¹m ÉĻÉ¹É¹
ĠkÉĻmp Ã¦
ĠsÉĽl dÉĻm
ĠsÉĽl wÉªn
ĠkÉ¹iËĲ eÉªtÉªÅĭ
ĠkÉĳl ÉĻn
ĠbÉĽl ÉĻ
ĠtÉ¹Éª ks
ĠbÉ¹Éª É¡
ĠfÉĽd ÉĻÉ¹É¹eÉªÊĥÉĻn
ĠkÉ¹Éªt Éªks
ĠloÊĬd Éªd
ĠkÊĮstÉĻm ÉĻÉ¹z
ÊĴÉªp ÊĥÉĻn
ĠsiËĲÉĽl eÉª
ĠnÉĽÉ¹ Ã¦m
ĠÉ¹eÉªm ÉĻnd
ĠkÉĻnst Éªt
ĠpÉĻnÉªns jÊĬlÉĻ
h Éªl
É¹ eÉªnd
Ġn Éªnt
Î¸ i
ĠbiËĲ k
ĠÉĽks ÉĽs
ĠwaÉª s
Éĳl z
ĠpleÉª É¡
ÊĴuËĲ z
ĠÃ¦ftÉĻÉ¹ wÉĻÉ¹d
oÊĬs ÉĻ
ĠtÉĽn Î¸
ÊĴÉĽkt Éªv
ĠfaÉªÉĻÉ¹ mÉĻn
ĠÉĳn ÉĻÉ¹d
ĠÉ¡ÊĮvÉĻÉ¹n mÉĻnts
ÊĥiËĲ mÉĻ
ÊĴÉĶÉ¹d ÉĻn
ĠpoÊĬst Éªd
ĠsÉĽlf ÉªÊĥ
ĠÉĶÉ¹É¡ÊĮn ÉªzeÉªÊĥÉĻnz
ĠkÉ¹aÉªm z
ĠflaÉªt s
ĠÉ¡Ã¦Ã°ÉĻÉ¹ É¹ÉªÅĭ
ĠbaÊĬns Éªz
ĠpjuËĲ pÉĻlz
ĠkleÉª vÉĻÉ¹É¹ÉªÅĭ
ĠnÉªÉ¡ oÊĬÊĥÉª
ĠÉĻbt eÉªn
ĠdÉĽv ÉĻl
hÃ¦t ÉĻn
ĠÉĳnvÉĻloÊĬ p
ÉĶÉ¹pÉĻÉ¹É¹ eÉªtÉªd
ĠhÃ¦ndk ÉĻÉ¹t
ĠÉ¡lÉªm ps
iËĲ ps
iËĲ ÊĥÉĻ
sk Éªn
Ġt oÊĬdz
Ġb ÊĮbÉĻl
Êĥ mÉĻnt
Êĥ ÉĶk
Ġf eÉªz
ÉªÅĭ ks
Éªd ÉĽntÉĻli
ĠfÉ¹ ÊĮst
ĠpÉ¹ ÉĽm
ĠpÉ¹ Ã¦m
ĠkÃ¦ ÊĴuËĲÉĻl
ĠpiËĲ ÉĽm
ĠbÉ¹ uËĲs
ĠÉªnt ÉĽnt
Ġsl aÉªs
ĠÊĮm Ã¦ndÉĻ
ÉĶt s
ĠÃ¦n ÊĮl
ĠÉĽl aÉªÉĽn
ĠjuËĲz Éªz
ĠÉ¹uËĲ ts
ĠÉ¡l iËĲ
ĠbÉªh Ã¦f
ÊĴÉĻÉ¹É¹ iz
ĠÉªnf ÉĽkÊĥÉĻn
ĠkÉĳnt É¹Éªb
ĠdÊĮk oÊĬtÉĻ
ĠswiËĲt s
ĠviËĲ aÉª
ĠviËĲ ÉĻt
ĠkÉªt ÉĻn
ĠÉ¹oÊĬz i
ĠdÉªsp ÉĽÉ¹
ĠspÉ¹ÉªÅĭ z
ĠsuËĲt ÉĻbÉĻl
ĠÉĳks aÉªd
ĠmÉĶnstÉĻÉ¹ z
ĠtÃ¦ks Éªz
ĠpÉ¹oÊĬt ÉĽsts
ĠmÉĽÉ¹Éª mÉĻn
ĠsÉªtÉªz ÉĻn
ĠdÉĽst Éªni
ĠÊĮdmÉªnÉªstÉ¹eÉªt Éªv
ĠÊĮniËĲz i
ĠlÃ¦ÅĭÉ¡ É¹Éªd
Êĥ ÉªoÊĬ
Ġf Éª
Ġp ÉĽts
ÉªÅĭ ÉªÅĭ
ĠÉ¹ ÉĽvÉĻn
ĠÉĶl m
ĠÉ¹Éª fÉĶÉ¹m
Éªl Éªn
Ġv É¹uËĲm
eÉªs iËĲ
Ġkl ÉĶd
ĠwÉĽÉ¹ ÉĻÉ¹
Ã¦kt Éªv
Ġsm Ã¦k
ĠÉªnd ÊĮld
jÊĬl ÉĻÉ¹z
ĠÉªnv ÉĽntÉªd
ĠsÉĽnt ÉĻÉ¹z
ĠÉĽÉ¡z ÉªstÉªd
ĠbiËĲÉªÅĭ z
ĠdÉªsk ÊĮst
ÊĴeÉª eÉªt
ĠÉ¹Éªz Éĳlvd
ĠseÉªv ÉªÅĭz
ĠÉ¹Éĳk ÉªÅĭ
ĠÃ¦k ÉĻd
ĠÉĳkt ÉĻp
ĠÊĮks ÉĽl
ĠlÉĶÉ¹ ÉĽnz
ĠpÉ¹Éªz uËĲm
ĠbÉªlÉĶÅĭ ÉªÅĭ
ĠÊĮpÉªÉ¹ ÉĻnsÉªz
ĠkÉĳÉ¹t uËĲn
ĠmÉĳn ÉĻÉ¹k
ĠkÃ¦É¹ÉªktÉĻÉ¹ É¹Éªst
ĠtÃ¦p ÉĻÉ¹É¹ÉĽk
ĠdÉĻm Éªn
ĠkÉĳmplÉªk eÉªtÉªd
ĠmÉĻm ÉĶÉ¹ÉªÉĻl
ÉĻ tiËĲd
ÉĽ Åĭ
ÉĽ ft
ÉĶ ft
Ġk ÉľËĲv
Êĥ Ã¦m
Êĥ Ã¦nt
Ġn Éªp
Ġn Ã¦É¡
ÊĴ ÊĮÉ¡
ÉĻÉ¹É¹ ÉĻt
ĠfÉ¹ ÉĶd
ĠlaÉª ftaÉªm
É¹i z
ĠÉľËĲ z
É¹uËĲ t
ĠstÉ¹ ÉĻtiËĲd
Ġz ÉĽn
ĠÉªm ÉĽns
ĠÉªÅĭk laÉªnd
ĠkÉĻmp ÉĽt
ĠÃ¦ns ÉĻÉ¹É¹ÉªÅĭ
ĠleÉª bÉĻÉ¹É¹
ĠbÉĳm z
ĠÊĥÉĶÉ¹t s
ĠÉªns ÊĮlt
bÉ¹ ÉĽd
ĠbÃ¦t mÃ¦n
uËĲm ÉĻ
ĠÉĶt oÊĬ
ĠfÊĮk Éªn
ĠfÊĬtbÉĶl ÉĻÉ¹
ĠÉ¹oÊĬl ÉĻÉ¹
ĠlÉĳ ÅĭÉ¡ÉĻÉ¹É¹
ĠkÉĻmÃ¦nd ÉĻÉ¹É¹
ĠpÃ¦n ÉĻl
ĠpÉ¹Éĳs Éªk
ĠteÉªst i
ĠwuËĲnd z
ĠaÉªdÉĽnt Éªti
ĠhÉĳl ÉĻnd
Éĳns eÉª
ĠkÊĬ kt
ĠÉ¹ÉªkwaÉªÉĻÉ¹ mÉĻnts
ĠfÉªlÉĳsÉĻf i
ĠvÃ¦lÉĻnt aÉªn
ĠwÉªÎ¸ dÉ¹
s ÊĮn
w eÉªt
Éª j
aÉª oÊĬ
Ġb Éĳd
Ġm eÉªz
Ġl aÊĬnd
Ġl Éªnd
ĠbiËĲ oÊĬ
ĠÉĶÉ¹ fÉĻn
Ġkl Ã¦n
Ġsk Ã¦n
ÉªÊĥ ÉĻ
aÉªz ÉĻn
ĠÉĳ f
Ġbl Éĳnd
ĠpÉĻÉ¹ mÉªtÉªd
ĠmÃ¦ st
Ġsm ÊĮÉ¡
ĠlÉĽ stÉĻÉ¹
Ġsw ÉĶÉ¹
ĠnaÉªt m
ĠkÉĳn weÉª
ÊĴÉĽn z
ĠkÉĻns pÉªÉ¹
ĠwÊĬmÉĻn z
ĠhÉĽÉ¹ oÊĬ
ĠpÉĻz ÉªÊĥÉĻnz
hoÊĬ hoÊĬ
ĠdÃ¦Êĥ t
ĠdÃ¦n st
ĠsÃ¦m pÉĻl
ĠkjuËĲ b
ĠspuËĲn z
ĠÉ¹ÉªmuËĲv z
ĠpÉ¹aÉªs Éªz
ĠÉ¹ÉĽs lÉĻÉ¹
ĠsÉĻpl aÉªz
ĠdÉª eÉªÉ¡oÊĬ
ĠjuËĲt ÉĶ
ĠkÉĳntÉ¹ ÉĽÉ¹i
ĠsoÊĬd iÉĻm
ĠmeÉªnt eÉªn
ĠÃ¦lkÉĻ hÉĳl
m Ã¦stÉĻÉ¹
aÉª f
Êĥ dÊĮbÉĻljuËĲdÊĮbÉĻljuËĲdÊĮbÉĻljuËĲ
Ġf eÉªd
Ġl eÉªz
ĠtÉĻ bÃ¦k
ĠÎ¸ Ã¦t
ĠÊĥ eÉªv
ĠÊĥ ÉĽf
ĠÉªz ÉĻb
ĠbiËĲ l
Ġv ÉĽnd
É¹Éªd eÉª
ĠkÃ¦ É¹oÊĬl
iËĲd oÊĬ
É¹ÉªÅĭ tÉĻn
Ã¦l juËĲ
piËĲ s
ĠÉĽv É¹ÉªdeÉª
ĠÊĮl ÉľËĲt
ĠdiËĲ oÊĬ
ĠÉªnd Éªd
ĠliËĲ pt
ĠkÉĳn sÉĻl
ĠÉĽd wÉĻÉ¹dz
ĠtÉľËĲ mÉªn
ĠkÉĻns iËĲld
ĠÎ¸É¹ ÉĽd
ĠÉĶt ÉĳnÉĻmÉĻs
ĠtÉ¹Éª ps
ĠnoÊĬv ÉĽmbÉĻÉ¹É¹
ĠpÉ¹ÉĳpÉĻÉ¹ tiz
ĠÉĽvÉ¹ÉªwÊĮn z
ĠkÉĻnv ÉľËĲtÉªd
ĠtÉĽÉ¹Éª faÉªd
ĠsÉªmp ÉĻÎ¸
ĠÉĽld ÉĻÉ¹li
ĠpÊĮp Éªt
ĠstÉ¹aÉªk ÉªÅĭ
ĠkÉĳntÉ¹ Ã¦st
ĠkÉĳnsÉĻnt É¹eÉªt
ĠpÉ¹ÉĽp ÉĻÉ¹É¹eÉªÊĥÉĻnz
ĠfjÊĬÉ¹ É¹iÉĻs
ĠvÉª ÉĽnÉĻ
ĠtÃ¦b lÉĻt
ĠÉ¹Éªh ÉľËĲs
ĠstÊĮtÉªst Éªks
ĠwÉĽbs aÉªt
ĠfÉ¹oÊĬz ÉĻn
ĠnÉªnt ÉĽndoÊĬ
b ÉĳÉ¹
d uËĲ
É¹ ÉĶÉªt
st ÉĳÉ¹
Ġs Ã¦
Ġd ÉĽÉ¹ÉªÅĭ
ĠÉ¡ Éªfts
Ġv Éĳn
É¹iËĲ z
ĠhÃ¦d tÊĬ
ĠkÉ¹ ÉĽst
ĠÉĳ sk
ĠtiËĲ siËĲ
É¹oÊĬ b
ĠpÉ¹Éª k
ĠpÉ¹Éª fÉľËĲd
ĠÊĮt moÊĬst
ĠbÉª w
ĠdaÉª pÉĻÉ¹
ĠlaÉªt ÉĻÉ¹
É¹Éªst s
ĠsÉªl ÉĽkt
Ã¦mp ÉĻ
uËĲs ÉĻÉ¹
ĠÉ¡ÊĮvÉĻÉ¹n ÉĽs
ĠfÉ¹iËĲ li
ĠkÉĻl ÉĽktÉªd
ĠbÊĬl ÊĥÉªt
ĠÃ¦É¡ ÉĻni
ĠÊĥÉ¹ aÉªn
ĠsuËĲz i
ĠfÃ¦nt ÉĻsi
ĠhÉĶÉ¹eÉª ÊĥÉĻ
ĠbÉĳÉ¹k ÉªÅĭ
ĠpÉªst ÉĻl
ĠÊĮstÉĳn ÉªÊĥmÉĻnt
ĠswÉªft li
ĠfloÊĬt ÉªÅĭ
ĠÉĽvÉĻn z
ĠÃ¦lÉĻb Ã¦mÉĻ
ĠmÃ¦É¡nÉªfÉªs ÉĻnt
ĠviËĲÉĻt nÉĳm
ÊĮ ÅĭÉ¡
uËĲ ÊĴÉĻn
Ġt Éĳk
Ġt É¹Éªn
Ġn iËĲn
Ġp Éªd
ÊĴ ÉĻdi
ĠhÉª nt
Ġst ÉĶl
ĠÊĮn m
ĠhÃ¦d li
ĠbÉ¹ eÉªnz
Ġkl Éªks
ÉĻt ÉĻÉ¹É¹
Ã¦m ÉĻn
oÊĬn iÉĻn
ĠoÊĬn ÉĻÉ¹É¹
ps ÉĻn
ĠÉĽl f
ÊĴuËĲ liÉĻ
ĠÊĮl aÉªk
ĠÃ¦kt ÉĻÉ¹z
ĠÉªnd oÊĬn
ĠÉ¹Ã¦ ft
ĠnÃ¦ li
ĠkÉĻmp iËĲt
ĠhÃ¦f weÉª
ĠhÉĶÉ¹s ÊĥuËĲ
ĠvÉªz Éªts
ĠfÉªnÉªÊĥ ÉªÅĭ
ĠdÉªfÉ¹ÉĻns Éªz
ĠtÉ¹eÉªd ÉªÅĭ
ĠspÉĽl ÉªÅĭ
ÉªfaÉª ÉªÅĭ
ĠsaÉªÉĻnt Éªst
ĠÃ¦ÅĭÊĥÉĻs li
ĠÉªndÉªk eÉªt
ĠpÉĻÉ¹É¹ eÉªd
ĠwÉĶÉ¹Éª ÉĻÉ¹
ĠmÉª j
ĠÉĽlÉªv eÉªtÉĻÉ¹
ĠtiËĲn eÉªd
ĠÉªliËĲ É¡ÉĻl
ĠhÉľËĲÉ¹Éª keÉªn
l ÉªÉ¡
m eÉªts
p oÊĬl
p eÉªpÉĻÉ¹z
s ÉªÅĭ
ÊĮ bi
Ġt aÊĬÉĻÉ¹z
Êĥ Ã¦d
ĠÉĽks h
ĠaÊĬt ÉĻ
Åĭk ÉĻ
ĠÉ¡É¹ oÊĬz
Ġsp É¹eÉª
ÉªÉ¡ li
ĠeÉª biËĲsiËĲ
ĠmÃ¦ ps
ĠÉ¹iËĲ k
pÉ¹ ÉĻn
ĠÉªnv eÉªÊĴÉĻn
ĠÉĽÉ¹ laÉªnz
ĠmÃ¦t s
ĠkÉĻnt É¹
ĠtÉľËĲ ks
ĠÉĽls wÉĽÉ¹
ĠkaÊĬnt ÉĻÉ¹É¹
ĠstiËĲ mÉĻÉ¹
ĠloÊĬ ÉĻÉ¹d
ĠÎ¸É¹ Ã¦Êĥ
ĠbÉĶÉ¹d ÉªÅĭ
oÊĬm i
ĠsaÉª ÉĻnsÉªz
ĠkÉĻmpl eÉªn
ĠÊĥÉĳt s
ĠkÃ¦nd ÉĻlz
ĠÉ¡É¹Ã¦s p
ĠiËĲÉĽl ÉĽl
ĠbÊĮtÉĻÉ¹ flaÉªz
ĠvoÊĬt Éªd
ĠÉ¹Éªb ÉĻn
ÊĴuËĲkeÉªÊĥÉĻn ÉĻl
ĠpÉ¹ÉĻvaÉªd ÉªÅĭ
ĠdÉªstÉ¹Éªb juËĲÊĥÉĻn
ĠsÉĶÉ¹s Éªz
ĠbÊĮÉ¡ i
ĠsÉĽlÉĻb É¹eÉªtÉªd
ĠÉ¹ÉĽvÉĻluËĲÊĥÉĻn ÉĽÉ¹i
ĠpÊĮmp kÉªn
ĠdwÉĽl ÉªÅĭz
ĠÃ¦dm ÉĻÉ¹É¹eÉªÊĥÉĻn
ĠÊĮnaÊĬns mÉĻnt
ĠÊĮkÉĳmpl ÉªÊĥt
ĠpÉ¹ÉĻn aÊĬnst
ĠbjÊĬÉ¹ É¹oÊĬ
ÉĻ hoÊĬ
sk É¹Éªpt
Ġk juËĲti
Ġt oÊĬnz
Ġs ÉĻst
Êĥ ÉĽks
Ġl ÉĽnt
ĠÉ¡ juËĲ
ĠiËĲ s
Ġst aÉªlz
Ã¦n Éªti
Ġv Éªs
Ġv aÉªz
É¹Éªd li
ĠÉĶÉ¹ t
ĠlÊĬk Éªn
Ã¦nd É¹ÉĻ
ĠwÉªl Éªs
ĠnuËĲ tÉĻn
ĠhaÉª ÊĮ
ĠÊĮt É¹
ĠkeÉª bÉĻl
ĠdÉªv ÉĶÉ¹s
ĠdÉªp ÉĽnd
ĠbÉĳÉ¹ sÉªl
ĠwÉĳ ÊĥÉĻÉ¹z
ĠdÉªl eÉªd
ĠbÉĽn z
ĠfÉªftiËĲn Î¸
ĠÉ¹Éªz Éªst
ĠiËĲv z
ĠfaÉªt s
ĠkÊĬdÉĻnt ÉĻv
ĠtÉ¹Ã¦ns fÉĶÉ¹m
ĠwÉĽst ÉĽn
ĠkÉ¹Éªst Éª
ĠÉªs eÉª
ĠÉªliËĲn ÉĻÉ¹É¹
ĠÉĽsk ÉĶÉ¹t
ĠkÉĶst uËĲm
ĠÃ¦É¡ i
ĠkÉĳmp É¹ih
ĠfÃ¦n z
ĠmÉľËĲ É¹eÉª
ĠtÉ¹Éªk i
ĠkÉľËĲt ÉĻn
ĠflÃ¦Êĥ t
ĠkÉĳntÉ¹ ÉĻv
ĠpjuËĲ pÉĻl
ĠÉ¹ÉªÃ¦kt ÉªÅĭ
ĠfÉ¹iËĲkw ÉĻnt
ĠÊĮbÉ¹ ÊĮpt
ĠÃ¦Î¸l iËĲts
ĠkÉĽt ÉĻl
ĠpÉ¹ÉĻ É¡É¹ÉĽs
ĠmiËĲd iÉĻm
ĠÃ°ÉĽÉ¹Éª z
ĠÊĮpÉ¹ÉĳksÉªm ÉĻtli
ĠtÉĻbÃ¦k oÊĬ
m Éªl
n eÉªt
É¹ aÉªd
st ÉĻ
Ġw Éĳs
Ġs Éĳm
Ġd Éªks
Ġd ÉĽlt
Ġd ÊĮmi
Ġn Ã¦k
ĠÉ¡ ÊĮs
ĠÉªn ÊĮ
Ġst iËĲp
ÉĽm Éªn
Éªl ÉĻÉ¹É¹
ĠlaÉª d
ÉĻm ÉĽntÉĻl
ĠÉĽn vi
ĠhaÊĬ sk
ĠwÊĬd hÃ¦vtÉĻ
Ġsk ÉĽl
ĠhoÊĬ seÉª
ĠÉĶf ÉĻÉ¹É¹
ÊĮd ÉĶÉ¹
ĠÉĽv ÉĻluËĲÊĥÉĻn
ĠÉªm juËĲn
ÉĽf ÉĽl
ĠhÊĮ Êĥ
ĠnÉĶÉ¹ ÉĻ
ĠÉĽksp oÊĬzd
ĠliËĲ oÊĬ
ĠliËĲ nd
ĠkÉĻnt ÉĽmpt
ĠÊĮk ÉĶÉ¹d
ĠpÉľËĲ p
ĠÉĽnt ÉĻÉ¹É¹
ĠwÉĳ ÊĥÉĻÉ¹
ĠmaÉªn ÉĻÉ¹z
ĠmÉªst eÉªks
ĠsÉĽvÉĻntiËĲn Î¸
ĠniËĲ Ã°ÉĻÉ¹É¹
ĠhÉĶl t
ÊĥÉªk ÉĳsÉĻ
ĠtÉ¹ÊĮst Éªd
ĠkÃ¦Î¸ i
bÉĽÉ¹i z
ĠbÉĶ ld
ĠÉ¹Éªb ÉĽl
ĠkwÉĶl ÉªfaÉªd
ĠÉ¹iËĲs ÉĽs
ĠÉĽkspiÉĻÉ¹Éª ÉĻnsÉªz
ĠsÉĽn ÉĻtÉĻÉ¹
ĠÉľËĲlÉª Éªst
ĠtÃ¦ks i
ĠseÉªk É¹Éªd
ĠÎ¸É¹ÉĽt ÉĻnÉªÅĭ
ĠÉ¹Éªn eÉªmd
ĠtuËĲÎ¸ bÉ¹ÊĮÊĥ
ĠdeÉªb juËĲd
ĠÉ¡É¹aÊĬ lz
ĠÉ¹ÉªpÉ¹ ÉĻd
ĠeÉªÉĽm waÉª
ĠÉ¹aÉªv ÉĻl
ĠsÉĽmÉªt ÉĽÉ¹i
ĠÃ¦mbjÊĬl ÉĻns
ĠwÉĽstÉĽn É¹ÉĻ
d ÉĻ
uËĲ mz
Ġk ÉĽÉ¹i
Ġh ÉĽns
Ġd eÉªm
Ġl oÊĬl
Ġl ÉªndÉĻ
ĠÉ¡ É¹Éªp
ĠÉ¡ É¹Éªf
ĠÉ¹ ÉĶÉ¹z
ÉĻÉ¹É¹ ÉĻlz
ĠwÉª ski
ÊĮnd i
ĠdÉªd ÉĻn
ĠÉĽn ÊĥÊĬÉ¹
ĠÉ¡É¹ ÊĮm
iËĲz iËĲz
ĠÊĮb juËĲs
Éĳl v
ÉĶÉª baÉª
ĠÊĮm eÉªz
ĠmeÉª pÉĻl
É¹uËĲ p
ĠteÉª ps
Ġsw Éĳmp
ĠÉªnd iËĲ
pÉĻÉ¹ t
ĠÉĽÉ¹ ÉĻÉ¹
ĠliËĲ k
ĠÉ¹Éªl ÊĮkt
ĠÉ¹ÊĮn weÉª
ĠpÉľËĲ l
ĠÉĳb st
ĠliËĲd ÉĻÉ¹ÊĥÉªp
ĠfÉĶÉ¹tiËĲn Î¸
ĠdÉªt É¹ÉĶÉªt
ĠbÉľËĲn ÉĻÉ¹d
ĠkÉĻmÃ¦nd Éªd
ĠpoÊĬl ÉĻÉ¹
ĠfÉªks ÉªÅĭ
ĠweÉªk ÉªÅĭ
ĠÉĻkeÉª ÊĴÉĻnz
ĠklaÊĬn z
ĠÉ¹ÉªmaÉªnd z
ĠÉ¹Éªfl ÉĽktÉªd
ĠÊĮpÉ¹uËĲ vÉĻl
ÊĴÉªstÉĻÉ¹ d
ÊĴÉªs l
ĠbÊĮf ÉĻloÊĬ
ĠÉĽnÎ¸uËĲzi Ã¦zÉĻm
ĠdÉ¹iËĲ md
ĠpÉľËĲmÉĻn ÉĻnt
ÉĻlt eÉªniÉĻs
ĠÉĽksiËĲd ÉªÅĭli
k ÊĮt
m ÉĽnt
w ÊĬmÉĻn
É¹ ÊĮnt
oÊĬ ks
eÉª ÊĴÉĻ
Ġk ÉľËĲn
Ġh eÉªs
Ġd Ã¦f
Êĥ ÉĻntli
Ġm Éªm
Ġm Éĳs
Ġl ÊĮmp
ĠfÉ¹ eÉª
ĠfÉ¹ iËĲk
Ġv Ã¦nd
Ġpl Ã¦ntÉªd
Éªf aÉªz
ĠÉĶÉ¹ tÉĻn
ĠbÉ¹ Ã¦z
ĠwaÉª pt
ĠseÉª ld
ĠkÉ¹ aÊĬt
pÉĻl d
ĠkÉĶ ÊĥÉĻsli
ĠÃ¦d z
ĠbÉªt É¹eÉªd
ÊĥuËĲ t
ĠÃ¦l ÉĻ
ĠstÃ¦nd ÉĻÉ¹dz
ĠpÃ¦ É¹ÉĻm
ĠbÉĳÉ¹ É¡
ĠlÃ¦nd l
ĠlÉĽs li
ĠÉªns eÉªn
É¹Éªz ÉĻm
ĠÉ¹Éªv ÉľËĲs
ĠÉĻÉ¹É¹aÉªv ÉªÅĭ
ĠÉ¡Ã¦l ÉĻp
oÊĬv ÉĻ
ĠdÉªkl ÉĽÉ¹
ĠdÉĽfÉªn ÉªÊĥÉĻn
ĠsÉĽm Éªn
ĠkÉľËĲt Éªs
ĠdÉªskÊĮs ÉªÅĭ
ĠsaÉªm ÉĻlteÉªniÉĻs
ĠÉĽstÉªm eÉªtÉªd
ĠÉªnsp aÉªÉĻÉ¹d
ĠpÃ¦É¹ÉĻl ÉĽl
ĠpÉ¹Éĳmpt li
ĠÃ¦p É¹ih
ĠsÊĮbst ÉªtuËĲt
ĠÉ¡É¹Ã¦t ÉªtuËĲd
ĠÉªmpeÉª ÊĥÉĻnt
ĠbÉĽdÉ¹ÉĻlbjuËĲd ÉĻÉ¹
ĠtÃ¦pÉĻÉ¹É¹ÉĽk ÉĶÉ¹dÉĻÉ¹
ĠbÉĳÉ¹sÉªl oÊĬnÉĻ
k É¹oÊĬ
w ÉªÃ°
oÊĬ Î¸
Ġn aÉªd
Ġp Ã¦m
ĠÉĽm tiËĲ
ĠÉ¹ oÊĬn
Ã°ÉĻ m
Ġst É¹Éª
ĠÊĮn Éªnt
Ġkl Ã¦t
ĠwaÉª vz
ĠÉĳ nd
ÉĳÉ¹d oÊĬ
Ġfl ÊĮt
ĠhÉĽl mÉªt
ĠÉĽl ÉĻ
ÊĴuËĲ ÉĻt
ÊĮb Éĳd
ÉĻp Éĳn
ĠlÉĶ É¡z
ĠÉ¹Éªz ÉĽm
laÉª f
ĠmÉĽd ÉĻlz
ÉªfÉªk eÉªÊĥÉĻnz
ĠÉ¹eÉªs Éªz
ĠÉĽkskl ÊĮmeÉªÊĥÉĻn
ĠsÉªÉ¡n Éªt
ĠtÉ¹Ã¦ pt
ĠsÉĻsp ÉªÊĥÉĻs
ĠblÉĽs ÉªÅĭ
ĠtuËĲÎ¸ p
ĠkÉĳnsÉªkw ÉĻns
ĠÃ¦plÉªk eÉªÊĥÉĻn
ĠsÉªÉ¡ÉĻÉ¹É¹ ÉĽt
ĠdÉªsÉªp lÉªn
ĠÉ¹ÉªvÉĳl vÉĻÉ¹
ĠÊĮndÉĻÉ¹k ÉľËĲÉ¹ÉĻnt
ĠsÉªnÉĻm ÉĻ
ĠÉĽfbiËĲ aÉª
ĠÉ¹ÉĽvÉĻn uËĲ
m Éªk
n uËĲ
w ÉĻn
É¹Éª ÉĶl
eÉª ÊĥÉĻs
Ġk juËĲs
Ġh ÊĮb
Ġm oÊĬld
Ġm ÉĽÉ¹Éªt
Ġn ÉĻs
ĠÃ¦nd ÉĻÉ¹sÉĻn
Ġst Ã¦b
Ġst ÉªÅĭk
ĠÉĳÉ¹ kt
ĠmaÉª ld
ĠÃ¦t Éªk
ĠbÊĮt ÉĻÉ¹É¹
ĠpÉ¹ ÉĽÉ¹z
ĠÊĮn ÉĽmpl
ĠbÉ¹ oÊĬz
Ġbl Ã¦ks
Ã¦l ps
ĠÊĮs Ã¦s
ĠhÃ¦nd i
ĠdiËĲ ÉĽneÉª
ĠÉ¹uËĲ tiËĲn
ÉľËĲt ÉĻn
ĠhÉĽd eÉªk
Ã¦nt ÉĻ
ĠnaÉªs ÉĻÉ¹
Ġsn eÉªl
ĠkÉĻns uËĲm
ĠkÉĻns Éªsts
jÊĬÉ¹ É¹ÉĻn
ĠdaÉª ÉĻÉ¹É¹i
ÉĻk ÉĻlz
ĠÊĮÅĭk ÉĻlz
ĠfÃ¦kt ÉĻÉ¹z
ĠfaÉªÉĻÉ¹ pleÉªs
ĠÉªns ÉĽkts
ĠvÉªd ÉªoÊĬz
ĠÉ¹ÉĽz ÉªdÉĻns
ĠÉ¹ÉĽf ÉĻÉ¹É¹
ĠtÃ¦k ÉĻl
ĠfeÉªt ÉĻl
ĠskwiËĲz Éªz
ĠmÉªÊĥ ÉĽl
ĠlÊĮvÉĻÉ¹ z
ĠbÉĽ ÅĭÉ¡
ĠkÃ¦tÉªÉ¡ ÉĻÉ¹É¹i
ĠkÃ¦tÉĻÉ¹p ÉªlÉĻÉ¹
ĠÉĶtÉĻmÉĻbi ÉĻl
ĠdÉªsÉ¡É¹ eÉªs
ĠbÉªw Éªld
m eÉªt
ÊĮ ÊĥÉªz
uËĲ mÉªn
Ġt ÉĳÉ¹t
ĠÉª É¹Éªt
Ġs ÉªÉ¡
Ġb Éªst
ĠÉ¹ Éĳm
ĠÉ¹ Ã¦ns
ĠÊĥ ÊĮd
Ġst Éªm
juËĲ Éªn
ĠfÉ¹ ÉĽdi
Ġv ÊĮn
ĠsiËĲ s
ĠÊĮp d
Ġsk ÉĽt
ĠwÉĽÉ¹ ÉĻpÉĳn
Ġbl Éĳ
Ġkw ÉªÉ¡li
ĠoÊĬvÉĻÉ¹ t
ĠÉĽl Éªs
ĠÃ¦d v
ĠniËĲd ÉĻl
ĠmÉªs ÊĮndÉĻÉ¹
ĠmÉĳm z
Ġsw Éĳp
ĠsÉĽkÉĻnd ÉĻÉ¹É¹i
ĠÉ¹Ã¦ sk
ĠdÉªfÉ¹ÉĻnt li
ĠÉĳfÉªs Éªz
ÊĥÉĳÉ¹ m
ĠÃ¦ks ÉĻnt
ĠvÃ¦l juËĲz
ĠÉ¹oÊĬz Éªz
ĠÉ¡Ã¦l ÊĮks
ĠÃ¦lÉªÉ¡zÃ¦nd ÉĻÉ¹É¹
ĠkÉĳnst ÉĻbÉĻl
ĠpÉ¹ÉĽs ÉªÅĭ
ĠnÃ¦n i
ĠskÉ¹ eÉªp
ĠÊĥÊĬ É¡ÉĻÉ¹É¹
ĠbÉĳÉ¹n ÉĻm
ĠbÉĳÃ°ÉĻÉ¹ É¹ÉªÅĭ
ĠÉªnvÉĽstÉªÉ¡ eÉªt
ĠstÉľËĲ lÉªÅĭ
ĠmÉĳnt É¹ÉªÉĶl
ĠbÉ¹Ã¦z ÉªliÉĻn
f aÉª
f aÉªt
f ÊĮk
w iËĲ
w ÉĻz
Ã¦ pÉĻl
ÊĴ eÉªmi
ĠÉªn ÉĶd
Ġst Ã¦É¡
ĠbiËĲ sts
ĠfÉ¹ Ã¦É¡
ĠsiËĲ iËĲ
ÉĻs Éªz
Ġtw ÉªstÉªd
ĠkÉĶ Éªn
ĠtwÉĽnti faÉªv
ĠoÊĬvÉĻÉ¹ bÉĶÉ¹d
ĠkÉĳÉ¹ É¡oÊĬ
juËĲz ÉªÅĭ
ĠpleÉªs ÉªÅĭ
ĠpÉĳÉ¹ sÉĻn
ĠfjuËĲ mÉĶÉ¹
ÊĴÉĽn juËĲÉªn
ĠfÉĶÉ¹m Ã¦t
ĠmÉªl ÉĻÉ¹
ĠdÉªn aÉªd
ĠkÉ¹Éªs p
ĠmÉĽd Éªt
ĠkÉĻl oÊĬn
Éªnt oÊĬ
ĠnÉĳ ÅĭÉ¡
ĠhÃ¦m bÉľËĲÉ¡ÉĻÉ¹
ĠvÃ¦l eÉª
ĠpÉĶÉ¹ k
ĠkÉ¹Ã¦k ÉĻÉ¹z
ĠpÉ¹ÉĻm oÊĬtÉªd
ĠÉªndÉªk eÉªtÉªd
ĠtÊĮn z
ĠkÉĻnsÉľËĲn ÉªÅĭ
ĠoÊĬb eÉª
ĠmÉĽ ÊĴÉĻÉ¹z
ĠÊĮsÉĽm bÉĻld
ĠÉĽksÉªk juËĲÊĥÉĻn
ĠÉªzÉĻb ÉĽl
ĠnÉĻs ÉĽs
l Éªts
n ÉĻz
Éª ÉªÅĭ
É¹ ÊĮn
aÉª eÉª
aÉª iËĲv
ĠÃ¦ bÉĻÉ¹
Ġw eÉªn
Ġh ÉĻ
Ġd aÊĬnt
Ġb ÉĽÉ¹Éª
Ġb ÉĽndÉªÅĭ
Ġf Ã¦k
Ġp oÊĬz
Ġp ÉľËĲd
Ġl Éĳks
Ġl iÉĻn
ĠÉ¡ ÉĶÉ¹
ĠÉ¡ ÊĮt
ĠÉ¡ ÉªÉ¹
ÉľËĲ z
ĠÃ°Ã¦t ÉĻd
ĠoÊĬ z
ĠÊĥ eÉªn
Éªk eÉªÊĥÉĻn
ĠÉĶl tÉĻÉ¹
ĠÉĳÉ¹ n
Éªst ÉĻnt
ĠlÃ¦ Åĭ
aÊĬn z
Ġsl Éªm
ĠeÉª iËĲ
ĠmÃ¦n hÃ¦tÉĻn
ĠÊĮs ÉĽs
iÉĻÉ¹ i
ÊĥuËĲ ÉĻs
ĠhÃ¦p Éªli
Ġsn uËĲp
ĠdÉªv aÉªd
ĠbÉªliËĲv z
ĠvÉĶÉªs ÉªÅĭ
ĠÉªlÉĽvÉĻn Î¸
ÊĴÉĻÉ¹É¹ eÉªtÉĻÉ¹
ĠwÉªn ÉĻÉ¹z
ĠnuËĲz peÉªpÉĻÉ¹z
ĠkÃ¦É¹i z
ĠdÉªt ÉĽkt
ĠkÃ¦mp ÉªÅĭ
ĠtÉĽst Éªd
fl ÉĽks
ĠkÉĻnv ÉĽnÊĥÉĻn
ĠwaÉªld li
ĠlÉªm Éªts
ĠstuËĲd ÉªoÊĬz
ĠÉ¹Ã¦t s
ĠpÊĮz ÉĻlz
ĠÉĳpÉĻÉ¹É¹ eÉªtÉªd
ĠsÃ¦l ÉĻd
ĠpÉĳkÉªt bÊĬk
ĠhÊĮm bÉĻl
hÉĳÉ¹t Éªd
ĠbÉĳÃ°ÉĻÉ¹ d
ĠmÃ¦É¡ÊĮz iËĲnz
ÊĴiËĲd ÊĮbÉĻljuËĲdÊĮbÉĻljuËĲdÊĮbÉĻljuËĲ
ĠhÉªnd uËĲ
ĠkÉĳnsÉªkw ÉĻnsÉªz
ĠÊĮstÉĳn ÉªÊĥt
ĠsiËĲkw ÉĻl
ĠÊĮkweÉªnt ÉĻns
ĠÉªmoÊĬ ÊĥÉĻnz
ĠÉªsl Éĳm
ĠmÉĶÉ¹É¡ Éªd
ĠsuËĲpÉĻÉ¹É¹Éªnt ÉĽndÉĻnt
b ÉĶÉªz
l Ã¦st
m eÉªk
É¹Éª v
ĠÊĮ ÅĭÉ¡
Ġb ÉĽvÉĻÉ¹
Êĥ ÉĶ
Ġm aÊĬnd
Ġp Éĳd
ÊĴ ÉĽd
ÊĴ Ã¦b
ĠÉĶ k
ĠÊĥ ÊĮn
aÉªt ÉĻld
ld ÉĻ
Ġsp ÉĳÉ¹
Ġsp ÉªÉ¹
Ġkl ÊĮt
Éªm ÉĻn
ĠlÉĽt Éªs
ĠtiËĲ ÊĥÉľËĲt
ĠdÉ¹ eÉªk
É¹oÊĬ p
ĠdÉªs ÉĽndÉªd
ÊĴÉĻn ÉĻs
ĠÉĽÉ¹ ÉĻnd
ĠliËĲ É¡z
ĠkÉĻn ÉĽtÉªk
ĠkÉĻns ÊĮmpÊĥÉĻn
ĠpÉľËĲs i
fÉĶÉ¹ mz
ĠdÉªp ÉĽndÉªÅĭ
ĠdÉªz aÉªÉĻÉ¹d
ĠkaÊĬnt s
ĠÃ¦nt aÉª
ĠniËĲ É¡É¹oÊĬ
É¹aÉª vÉĻÉ¹
kÊĮm ÉªÅĭ
ĠdÉªÉ¡ ÉĻÉ¹
ĠÃ¦s hoÊĬl
ÊĥÊĮk lÉªÅĭ
ĠmÉªÉ¹ ÉĻkÉĻl
ĠmÃ¦k Éªn
ĠwÉĶÉ¹n ÉĻÉ¹
ĠÉĳpÉĻÉ¹É¹ eÉªt
ĠfÉªz Éªks
ĠÊĮlaÊĬ ÉªÅĭ
ĠÉ¹Éªst É¹Éªkt
ĠÊĮtÉ¹Ã¦kt Éªd
ĠeÉªs iËĲ
ĠhÉĳÉ¹ti li
ĠÉĽmpiËĲ aÉªiËĲv
ĠfÉĽÃ°ÉĻÉ¹ z
ĠlÉĶÉ¹ÉĽnz oÊĬ
ĠÉĽmpiËĲaÉªiËĲv ÉĻmÃ¦nt
É¹ Éĳd
ÉĽ É¹Éªs
Ġt Ã¦kt
Êĥ Éªks
Ġm ÉĽst
Ġf Ã¦l
ĠÉ¡ Ã¦É¡
ĠÉ¡ eÉªzÉªÅĭ
ÊĴ ÉĻlz
ÊĴ ÉĽpÉĻÉ¹d
Ġst ÉĽm
ĠÉ¡oÊĬ sts
Ġv ÉĶn
ÉĽs ÉĻ
ĠlÃ¦ v
ĠÉľËĲ nÉªÅĭ
ĠmÉĶÉ¹ É¡ÉĻn
Ġbl ÉªÅĭk
ĠeÉª ÉĽfsiËĲ
ĠÃ¦n ÉªvÉľËĲs
ĠhÃ¦nd iz
ĠbÃ¦ É¹ÉĻl
ĠÊĮl Ã¦s
ÊĥuËĲ ÉªÅĭ
ĠÉªnd ÉªÉ¡n
ĠkÉĳm li
oÊĬd i
ĠkÉĻnt ÉĽnt
stÉ¹ ÉĶÅĭ
ĠsÉľËĲv z
ĠhÉĳÉ¹t li
ĠÃ¦nt s
ĠÉªmp ÉªÉ¹iÉĻl
ĠstÉªk ÉĻÉ¹
ĠÉ¡ÉĳÉ¹d iÉĻn
ĠsÉľËĲk Éªt
ĠniËĲ ÊĥÉĻ
ĠÉ¹eÉªd Éª
ĠÉ¹eÉªd ÉªeÉªÊĥÉĻn
ĠkÉĶÉ¹n ÉĻÉ¹z
ĠfÉ¹Ã¦Åĭk li
ĠkÉĳp ÉĻÉ¹
ĠspÉĳt Éªd
ĠdÉªsp oÊĬz
ĠpÉĳt s
ĠsÉªkjÊĬÉ¹ d
ĠvaÉªÉĻl Éªn
ĠpÉĻÉ¹fÉĶÉ¹m ÉªÅĭ
ĠÉ¹ÉĽs Éªp
ĠmÉĽl ÉĻdi
ĠÉ¹ÉªpiËĲtÉªd li
ĠsÉªnd i
ĠmÃ¦sk oÊĬki
ĠfÃ¦s ÉĻnd
ĠmÉĽÎ¸ÉĻd z
ĠtÉĽmpÉĻÉ¹É¹ ÉĽÉ¹i
ĠstÉ¹aÉª ps
ĠfÉĻs ÉªlÉªtiz
ĠÉªlÉĽktÉ¹Éĳn Éªk
ĠbÉ¹uËĲn oÊĬ
ĠÉ¡ÉĻÉ¹É¹Éª lÉĻ
ĠkÉĻnÉĽtÉªk ÉĻt
ĠÉĽ É¹ÉĻ
Ġm ÉªÅĭÉ¡
Ġn Ã¦s
ĠaÉª ÉĻÉ¹
ĠÉ¹ ÉĶÉ¹i
ĠÎ¸ ÉĶÉ¹
ĠÊĥ ÉªvÉĻÉ¹
ÊĮn z
ĠlaÉª ÉĻÉ¹
ĠÊĮn p
ĠkÃ¦ ps
ĠbaÉª baÉª
Ġsp Éªld
Ã¦d ÉĻn
Ã¦nd oÊĬ
ĠkÉ¹ Éĳn
Ġsl eÉªt
Ġsl ÉªÅĭki
Ġbl oÊĬn
ĠsÉľËĲ f
ĠdÉĳ Åĭ
ĠÃ¦l aÉªd
ĠsteÉªt mÉĻnts
ĠÉĽÉ¡z Éªt
ĠfaÉªn Ã¦ns
ĠsÉªm pl
Ġskw ÉĳÊĥ
ÉªÉ¡n eÉªtÉªd
ĠsiËĲm Éĳn
ĠpÉĶl Éªn
ĠflÃ¦t s
ĠsÊĮl f
ĠkÉľËĲt ÉĻnz
ĠnÉĳmÉªn eÉªÊĥÉĻn
ĠbaÊĬns ÉªÅĭ
ĠÉľËĲs lÉĻ
ĠbÊĮnd ÉĻl
ĠlÉªvÉĻÉ¹ puËĲl
ĠtÉªb Éªts
ÊĥÉªm ni
ĠlÉĶnd É¹i
ĠvÉĽnÉªzweÉª lÉĻ
ĠhÉĻ waÉª
j ÉĻÉ¹É¹i
v ÉĻs
oÊĬ b
Ġt ÊĮnd
Ġs Éĳn
Ġj Ã¦z
Ġf ÉªÉ¹z
Ġn ÉĶt
ĠjuËĲ ÉĽf
ĠÎ¸ Ã¦Åĭkt
ĠÊĥ Éĳkt
ĠtuËĲ nÉĻ
aÉªn ÉªÅĭ
ĠpÉ¹ ÉĽÉ¹i
Éªf Éªkli
ĠhÉªÉ¹ oÊĬ
Éĳp ÉĻ
Ġsk É¹iËĲt
ĠhoÊĬ plÉĻs
ÉĽk ÉĻl
ĠweÉª vd
Ġz uËĲm
Ġsm ÉľËĲ
ĠsÉªt kÉĳm
ĠÉªnd Éªst
ĠdÉªf aÉªnd
ĠnÉĶÉ¹ weÉª
ĠkÉĻnt eÉªnÉªÅĭ
ĠfÉĶÉ¹m ÉĻl
ĠsÉĶÉ¹t Éªd
ĠÉĻb s
ĠjÉĽl d
ĠwÉªs ÉĻlz
Ġskw ÉľËĲlz
ĠdÉĽd ÉªkeÉªtÉªd
ĠbÃ¦t ÉĻlz
ĠhÉĳÉ¹ Êĥ
ĠdeÉªvÉªd z
ĠpÉĳÉ¹k ÉªÅĭ
ĠfÉªÉ¹ fÉĻl
ĠÉ¹ÉĽkÉĻÉ¡n aÉªzÉªz
ĠbuËĲ Î¸
ĠlÉªm z
ĠkÉĳnst ÉªtuËĲÊĥÉĻnÉĻl
ĠÉ¡Éªl t
ÊĴaÉª ÉĻnts
ÊĥÃ¦t ÉĻÉ¹É¹ÉªÅĭ
ĠskÉ¹ Ã¦p
ĠhÉĶÉ¹n z
ĠmÃ¦njuËĲ skÉ¹Éªpt
ĠhÉĻÉ¹É¹ aÉªzÉĻn
ĠkÉĻlÉĽkt ÉªÅĭ
ĠklÉªf ÉĻÉ¹d
ĠlÉªtÉĻÉ¹É¹ ÉĽÉ¹i
ĠÉ¡É¹Ã¦m i
ĠÉ¡É¹Ã¦m ÉĻÉ¹
ĠswÉĶl oÊĬ
ĠÉ¹Ã¦É¡ Éªd
ĠkÉĻmpoÊĬz ÉĻÉ¹
ĠstÉ¹Éªkt li
É¡ÉĳÉ¹t ÉĻn
ĠpÉ¹ÉªnsÉªp ÉĻlz
b ÉľËĲn
d ÉĶÉ¹
ÉĽ É¡z
Ġk Éĳd
Ġh Éĳm
Ġs ÉĳÉ¹k
Ġd ÉĻÉ¹
Ġf iËĲn
Ġn eÉªd
Ġp ÊĮÅĭk
Ġl ÉªÎ¸
ĠÉ¡ Éĳb
ÉľËĲ ÊĴÉĻn
ĠÉ¹ eÉªp
ĠÊĥ eÉªpt
ÉĽl diËĲ
Ġst ÉªÉ¹ÉªÅĭ
ÉĽt Éªks
ĠmaÉª nÉªÅĭ
vÉĻÉ¹ ti
ĠÊĮn w
ĠpiËĲ l
ĠbÉ¹ ÉĽt
Ġkl ÉĽm
ĠwaÉª ÉĻÉ¹z
Ġsk É¹iËĲ
Ġtw ÉĽlf
ĠkÉ¹ uËĲs
ĠÊĮm eÉªzd
Ġfl eÉª
Ġfl ÉĽm
ĠpÉ¹Éª m
ĠtÉ¹aÉª Ã¦ÅĭÉ¡
Ġsw Éĳn
Ġsw Ã¦m
ĠsÉªÅĭ kÉªÅĭ
ĠÉ¹iËĲ juËĲn
pÉ¹ ÉĻm
ĠliËĲ Éĳn
ÊĴÉªn eÉªÊĥÉĻn
ĠkÉĻmp ÉĽld
ĠdÉ¹Éª l
ĠdÉªz ÉľËĲtÉªd
bÉĶl t
Ġskw Éĳ
ĠkoÊĬ Éªns
ĠbÃ¦Î¸ tÊĮb
ĠfÉĶÉ¹t naÉªt
ĠtÉĽm pÉĻlz
ÊĴÉľËĲmÉĻn z
ĠbÉľËĲn z
ĠÉ¡É¹eÉª ÊĥÉĻs
ĠnÉľËĲs Éªz
ĠlÉĶÉ¹d z
ĠkÉĳmp ÉĻns
ĠvoÊĬt ÉªÅĭ
ĠpÉ¹aÉªm ÉĽÉ¹Éªli
ĠlÉªft ÉªÅĭ
ĠÉ¹ÊĮb ÉªÅĭ
ĠÉªÉ¡n ÉĶÉ¹
ĠpÉ¹ÉĻpoÊĬz ÉĻlz
ĠÉĽntÉĻÉ¹ pÉ¹
ĠjuËĲkÉ¹ eÉªniÉĻn
ĠswÉĶl oÊĬd
ĠskÉªp ÉĻÉ¹
ĠÉªnsp ÉĽkÊĥÉĻn
ĠskÉ¹uËĲd É¹aÉªvÉĻÉ¹
ĠpeÉªt É¹Éª
ĠkÉª ndÉĻÉ¹
ĠÊĥÃ¦mp uËĲ
ĠpÉ¹ÉªsaÉªs li
ĠbiËĲoÊĬ biËĲ
ĠÃ¦nÉªvÉľËĲs ÉĻÉ¹É¹i
b eÉªst
Ġw Éĳb
eÉª eÉª
Ġt eÉªm
Ġt ÊĮÉ¡
Ġd eÉªtÉªd
Ġb Éĳl
Ġp É¹Éªsk
ÉľËĲ ÊĥÉĻn
ÉĽn ÊĥÉĻli
Ġst Éªt
Ġv ÉĽst
ĠÊĮn bÉªliËĲv
ĠÉĽks ÉĽp
ĠkÃ¦ soÊĬ
ĠÉĶÉ¹ Î¸
ÊĴÊĮst Éªn
ĠwÉĽl noÊĬn
Ġsp ÉĽk
Éªm ÉĽntÉĻÉ¹É¹i
ĠÉĶf Ã°
ĠÉªl ÉĽkÊĥÉĻnz
ĠÊĮd Ã¦pt
ĠpÉĳÉ¹t Éªd
ĠbeÉªs ÉĻn
ĠmaÉªn ÉĶÉ¹Éªti
ĠÉĳÉ¹m ÉĻÉ¹
ĠÉĳÉ¹m iËĲn
ĠÉ¹ÉĽst Éªd
ĠÉ¹ÉĽst lÉĻs
ĠÉ¹Éªz uËĲmd
ÊĴÉľËĲ k
ĠkÉĻl Ã¦ps
ĠkÃ¦É¹i ÉĻÉ¹
É¹aÉª bz
ĠÉªntÉĻÉ¹ feÉªs
ĠlÉĳ li
ĠÉĶÉ¹Éª É¡ÉĻn
ĠÉ¹Éªv juËĲz
ĠÉ¹ÉĽpÉ¹ÉªzÉĽnt s
ĠkwiËĲn s
ĠÉªnstÉ¹ ÊĮkt
ĠblÃ¦Åĭk Éªts
ĠfÉªk ÊĥÉĻnÉĻl
ĠÉªntÉ¹ÉĻd ÊĮkÊĥÉĻn
ĠwÊĮnd ÉĻÉ¹É¹
ĠsÉªnd ÉªÉ¹
ĠsÉĶÉ¹d z
ĠsÉĻÉ¹vaÉªv d
ĠkÉĳmpl ÉªmÉĻnt
ĠmÉªÎ¸ ÉĳlÉĻd
ĠmÃ¦ÅĭÉ¡ ÉĻniËĲz
ĠsÊĮbs Éªkw
ĠlÉĽmÉĻn eÉªd
ĠwÉªsk Éĳns
ĠaÉªdiËĲ ÉĽs
ĠiËĲkÉĻnÉĳm Éªks
ĠÉĳktÉĻp ÉĻs
ĠÉªndiËĲ Ã¦nÉĻ
h ÉĽl
Ġb ÉĽndz
ĠÉĽm ÉªÉ¡
aÊĬ ÉĻÉ¹d
ÊĴ ÉĽkÊĥÉĻnz
eÉªt ÉĻn
Éªn eÉªtÉªÅĭ
ĠfÉ¹ ÉĽt
ĠtÉ¹ ÉĶ
Ġkl ÉĽvÉĻÉ¹É¹
ĠkÉ¹ ÊĮÊĥ
ĠÉĳ st
ĠdÉ¹ ÊĮmz
ĠdÉ¹ ÉĻmÃ¦tÉªk
ĠbÃ¦ z
ĠhaÉª p
ÊĴÉĻn tiËĲnÉĻ
Ġsw ÉªÅĭz
ĠkeÉªm bÉ¹Éªd
ĠpÉĳÉ¹ sÉĻl
ĠkÉĻns ÉªstÉªd
ĠdÉªsk ÉĻnt
ĠÉ¹ÉĽdi li
ĠkÉĳl Éªnz
ĠÉ¹Éªz aÉªnd
ĠÉ¹Éªp iËĲts
ĠhjuËĲ É¡oÊĬ
ĠÉ¹Éªd ÊĮkÊĥÉĻn
ĠfÉĳÉ¹m ÉªÅĭ
ĠkÉĻnf É¹ÊĮnt
hÉĽd Éªd
ĠpÉĳ vÉĻÉ¹ti
ĠpoÊĬ lz
ĠsÉĽpt ÉĽmbÉĻÉ¹É¹
ĠweÉªst Éªd
ĠsaÉªk ÉĳlÉĻd
ĠseÉªl ÉĻÉ¹z
ĠbÉĽk Éªt
ĠsÉĽks i
ĠboÊĬl t
ĠbeÉªk ÉĻn
ĠkÉĻÉ¹É¹ÉĽkt li
ĠskÉĳl ÉĻÉ¹z
ĠtÉ¹eÉªl ÉĻÉ¹
ĠÉ¹ÉĽsk juËĲd
ĠstÉĽdi li
ĠÉ¹ÉĽÉ¹ li
ĠdÉªstÉªÅĭkt li
ĠÃ¦lÉªÉ¡ eÉªtÉĻÉ¹
ĠtÉĳks Éªk
ĠpÉĻÉ¹sw eÉªd
ÊĥÉĽn ÉĽf
ĠdÉªstÉªÅĭÉ¡w ÉªÊĥt
ĠÉĽkspÉĽns Éªz
ĠhÃ¦loÊĬ iËĲn
ĠmÊĬz lÉªm
ĠÉ¡Ã¦É¹ÉĻn tiËĲ
ĠwÉĽnd i
ĠdiËĲoÊĬ juËĲ
ĠtwÉĽlf Î¸
ĠwÉªskÉĳns Éªn
b ÉĽlÉĻ
h Ã¦n
n ÊĮt
Ġt iËĲd
Ġt aÉªz
Ġs ÊĮv
Ġb aÊĬd
Êĥ ÉĶÉ¹
Êĥ aÉªz
Ġj oÊĬn
ĠaÉª bÉ¹
ĠÉĶ ÉªÅĭk
ĠÉ¹ aÉªm
ĠoÊĬ Éªn
ĠwÊĮt ÉĻv
ĠsÉĽ É¡
Éªz ÉĻmz
ĠmiËĲ ts
ĠÉ¹Éª pt
Ġv Ã¦mp
Ġkl ÊĮ
Ġfl ÊĮÊĥt
ĠoÊĬvÉĻÉ¹ hÉĽd
oÊĬk iËĲ
ĠpeÉª st
ĠÉ¹Éªs aÉªt
ĠkÉĽÉ¹ lÉĻs
ĠkÉĻns ÉĽnt
ÉĻf É¹
ĠÉ¡É¹Ã¦nd sÊĮn
ĠhÃ¦ft ÉĻÉ¹
ĠdÉªp É¹ÉĽst
ÊĥiËĲ ti
ÊĥÃ¦ ft
ĠvoÊĬkÉĻl aÉªzÉªÅĭ
ĠÉªs ÉĽnÊĥÉĻl
ĠsloÊĬ p
ĠmÉĳd ÉĻlz
ÊĴÉĽst s
ÉĽsk oÊĬ
ĠtaÉªt li
ĠdÉªsp oÊĬzd
ĠÉľËĲÎ¸ kw
ĠÉĽmp aÉªÉĻÉ¹É¹
ĠbÉĶ ÉªlÉªÅĭ
ĠpÉĳk eÉªmÉĻn
ĠÉĽÉ¹pÉĶÉ¹t s
ĠvÉĳl keÉªn
ĠsÉĽlf d
ĠneÉªbÉĻÉ¹ É¹ÉªÅĭ
ĠsÉĻÉ¹v aÉª
ĠÉĻkeÉªÊĴÉĻn ÉĻl
ĠfÉ¹uËĲt s
ĠÉªÉ¡n ÉĻÉ¹É¹ÉĻnt
ĠwÉªk Ã¦m
ĠÉ¹Éªfl ÉĽkt
ĠswÉĽt ÉĻÉ¹
ĠÉªnvÉĳl v
ÊĴÉĳÊĥ juËĲÉĻ
ĠwÉĶndÉĻÉ¹ É¹ÉªÅĭ
ĠkÉĻnspÉªÉ¹ ÉĻsi
ĠfiËĲn Éªks
b ÉĽÉ¹
b ÊĮs
h Ã¦Åĭ
l oÊĬz
l Éªnz
É¹ ÊĮpt
Ġs Éĳd
Ġd aÊĬ
Êĥ ÉĽd
ÉĻl ÉĽkt
Ġp ÊĮl
ÉľËĲ É¹ÉĻl
ÊĴ ÉĳÉ¡
Î¸ É¹oÊĬ
ĠÃ°Ã¦t Éªt
ĠhÃ¦ sÉĻn
ĠÊĥ Éªn
ĠÊĥ ÉĽpÉĻÉ¹d
ĠhÉª Ã°ÉĻÉ¹
Ġst ÉªÉ¹
Ġv ÉĶlt
ĠsiËĲ bÉ¹ÊĬk
ĠsoÊĬ lz
ĠtÉ¹ uËĲp
ĠaÊĬt l
ĠnaÊĬ ÉĻd
Ġkl uËĲz
Ġsk oÊĬld
ĠdaÊĬn z
ĠeÉª l
ĠoÊĬn z
Ġfl ÉľËĲ
ÊĮd ÉĳdÉĻ
ĠoÊĬvÉĻÉ¹ wÉĽl
ÊĮb aÊĬts
ÊĥuËĲ eÉªÊĥÉĻnz
ÊĮf i
ĠdiËĲ ÉĽf
ĠÉĽmÉĽm eÉªt
ĠsÉĽnt ÉĻnsÉªz
ĠsÉªm pt
ÉªÅĭk ÊĥÉĻn
ĠlÃ¦nd sk
iÉĻÉ¹Éª ÉĻ
ĠbÉĶÉ¹d z
ĠkÉĻnf ÉľËĲm
ĠsaÉªl ÉĻntli
ĠsÉĻks ÉĽÊĥÉĻn
ĠmÉĳd Éªst
ĠÉªÅĭÉ¡lÉªÊĥ mÉĻn
ĠmÃ¦s ÉĻk
ĠpÉ¹ÉĳmÉªs Éªz
ĠmÊĮs ÉĻl
ĠÊĥÉľËĲt s
ĠkÊĮst ÉĻmz
ĠÊĥÉ¹ aÉªnz
ĠfÃ¦nsi d
ĠskwiËĲ lÉªÅĭ
ĠtÉĽÉ¹Éªt ÉĶÉ¹iz
ĠbÉ¹ÊĬk lÉªn
ĠÉ¹Éªfl ÉĽkÊĥÉĻn
ĠpÉĳÉ¹tÉªsÉªp eÉªtÉªd
ĠdÉªsm Éªst
ĠnÉªkÉĻl ÉĻs
ĠmÉľËĲdÉĻÉ¹É¹ ÉĻÉ¹
ĠleÉªm ÉĻ
ĠÊĮbs ÉľËĲd
ĠkÉĻnfÉĽdÉĻÉ¹É¹ ÉĻsi
ĠÉªmoÊĬ ÊĥÉĻnÉĻl
ĠdÉªsÉ¡ÊĮst ÉªÅĭ
ĠbjuËĲt ÉªfÉĻli
ĠÃ¦kÉĻd ÉĽmÉªk
ĠnaÉªtm ÉĽÉ¹
ĠtuËĲÎ¸p eÉªst
ĠkÉªndÉĻÉ¹ É¡ÉĳÉ¹tÉĻn
ĠkÃ¦soÊĬ ÉĽÉ¹i
f oÊĬnz
h ÉĻn
n eÉªmd
s lÃ¦Êĥ
Ġb ÉĻÉ¹É¹
Ġn ÉĽp
Ġp ÊĮÎ¸
ĠjuËĲ ÊĬwÉĻ
ĠhiËĲ Ã°ÉĻn
ÊĥÉĻn ÉªÅĭ
ĠsiËĲ saÉªd
ĠwÉĶ ld
ĠÊĮp É¹aÉªt
ĠÊĮn iÉĻn
ĠlÃ¦ l
Ġsk ÉľËĲt
ĠkÉ¹ Ã¦kt
Ġkw Éªd
ĠmÃ¦n Éªf
ĠsÉªk nÉĻs
ĠpÉĻÉ¹s uËĲd
É¹Éªt sÉĻÉ¹
ĠkÉĳÉ¹ k
ĠÎ¸ÉĶt fÉĻl
ĠÉ¹iËĲ oÊĬ
ĠÉĽÉ¡z Éªsts
ĠtÉĽn ÊĥÉĻn
ĠkÉĻnt ÉĽst
ĠkÉĻnt ÉĽntÉªd
Ġsn ÊĮÉ¡
ĠÉĽnt aÉªtÉĻld
ĠÉĳp ÊĥÉĻnz
ĠÎ¸É¹ ÉĽts
ĠdÃ¦ns ÉĻÉ¹
ÊĴÉªm n
ÊĴiËĲn i
ĠkÉĶÉ¹ ÉĻs
ĠpeÉªnt ÉªÅĭz
ĠkÉĳmp ÉĻzÉªÊĥÉĻn
ĠbÉĶ É¹Éªs
ĠmÃ¦Î¸ juËĲz
É¹aÉªb d
ĠÊĮnf ÉĽÉ¹
ĠtoÊĬ bi
ĠmÉĽÉ¹Éª lÃ¦nd
ĠÉ¡loÊĬ b
ĠdeÉªn ÉĻ
ĠdeÉªn ÉªÊĥ
ĠstÉ¹ÉĶbÉĽÉ¹i z
ĠstÉĽf ÉĻni
ĠkÉĻnfÉĽdÉĻÉ¹É¹ ÉĻt
ĠtÉ¹ÉĽ ÊĴÉĻÉ¹z
ĠfoÊĬt oÊĬz
ĠnaÊĬÉĻd eÉªz
h aÊĬz
m ÉªÎ¸
Éª Éĳn
oÊĬ kt
oÊĬ lz
Ġt Ã¦nd
Ġp aÊĬt
ĠÉĽm i
aÊĬ si
ÊĴ ÉĶÉ¹
ÉĳÉ¹ ti
ĠÊĥ ÉªntoÊĬ
ĠwÉª ÊĥÉªÅĭ
ĠnoÊĬ ÊĥÉĻn
Ġst É¹iËĲmz
ĠwiËĲ t
Éªv ÉĻnt
ÉĽs Éªs
ĠpiËĲ piËĲ
ĠaÊĬt fÉªt
ĠbÉ¹ ÊĮm
ĠwÉĽn ÉĽvÉĻÉ¹É¹
ĠkÉ¹ Éĳp
ĠÊĮm É¹ÉªtsÉĻÉ¹
ĠpleÉª Éªn
ĠtÉĶ st
ĠlÉĶÅĭ d
ĠÉ¹iËĲd ÉĻÉ¹z
ĠmÊĮÃ°ÉĻÉ¹ fÊĮk
ĠbÉĳks ÉªÅĭ
ĠmÉĶÉ¹nÉªÅĭ z
ĠÉĽnt É¹
ĠpiËĲs fÉĻl
ĠtÉĳp Éªk
ĠkÉĻmp ÉĽÉ¹
ĠÉĽkst ÉĽnsÉªv
ĠbÉĳÉ¹t s
ĠhÉĶl tÉªd
ĠpÃ¦k Éªt
ĠpÉ¹oÊĬÉ¡É¹Ã¦m ÉªÅĭ
ĠÉ¡Ã¦l ÉĻnt
ĠÉ¹Éĳb ÉªnsÉĻn
ĠdÉ¹ÉĶÉªÅĭ É¹uËĲm
ĠspÉĽl d
ĠsÉĻsp ÉĽndÉªd
ĠpÉ¹ÉĻtÉĽkt ÉªÅĭ
ĠbÉĽÉ¡ ÉªÅĭ
ĠhoÊĬst Éªd
ĠoÊĬk deÉªl
ÊĴÉĻns iz
ĠsiËĲkw ÉĻns
ĠhÉĳst Éªd
ĠdÉªÉ¡n Éªti
ĠziÉĻÉ¹oÊĬz iÉĻÉ¹oÊĬziÉĻÉ¹oÊĬ
ĠbÉĳÉ¹É¡ Éªn
ĠkwiËĲns lÉĻnd
j aÉª
k ÉĳÉ¹
s ÉĽnt
w ÉĽÉ¹i
Éª Éªst
aÉª ÉĻl
Ã¦ É¹i
uËĲ ÉĻ
Ġh aÉªn
Ġh ÉĽk
Ġs eÉªd
Ġd wÉĶÉ¹
Ġb Éĳk
Ġf Éªst
Ġn Ã¦m
ĠhÃ¦ É¹ÉªÅĭtÉĻn
ĠÊĥ Éĳnt
ĠbiËĲ biËĲ
Éªl ÉĻÉ¹z
Ġpl aÊĬ
Ġpl Éªm
Éĳn ÉªkÉĻ
Éĳm uËĲ
ĠÉ¡É¹ ÊĮmpi
Ã¦d ÉĻ
ĠÉ¡ÊĬd neÉªt
ÉªÊĥ ÉĻnd
Ġsl Ã¦k
Ġsl iËĲps
Ġfl Éªnt
ĠoÊĬvÉĻÉ¹ teÉªk
ĠÉĽl ÉªÉ¡
ÉĻd ÉĶÉ¹
ĠmÃ¦ É¹
ĠÉ¹oÊĬ si
ĠmÉªs ÉĻl
ÊĮl oÊĬ
ĠdiËĲ ÉĽs
ĠkÉĳm pÉ¹ÉĻm
ĠhÉĽd hÊĮnt
ÉĻb É¹
ĠpÉĳÉ¹ ÊĥÉĻl
ĠkÉĳn ÉĻÉ¹
ĠfÉĳÉ¹ mz
Ã¦Åĭ z
ĠkÉĳ li
ĠwÉªnd sÉĻÉ¹
ĠfÉĶÉ¹m ÉªÅĭ
ĠkÃ¦m É¹ÉĻz
ĠmÉĳÉ¹ Î¸ÉĻ
ĠÉĳp ÉĻ
Éĳv oÊĬ
ĠÉ¹Éªp ÉĽÉ¹
ĠhaÉªd É¹ÉĻ
ĠÉ¹aÉªd z
ĠklÃ¦s ÉªkÉĻl
ĠbÉĳb z
ĠÃ¦ks ÉªdÉĽntÉĻli
ĠfÉªt ÉªÅĭ
ĠbÉľËĲn ÉĳÉ¹d
kl Ã¦s
ĠÉ¹Éĳb d
ĠÉ¹Éĳb ÉĻÉ¹É¹i
ĠtÉªk lÉªÅĭ
ĠmÃ¦ks ÉªmÉĻm
ĠmÉĽl bÉĻÉ¹n
ĠstÉĳk ÉªÅĭz
pÉ¹Éª nts
ĠwÉĶÉ¹d ÉĻn
ĠkÉĳÅĭk É¹iËĲt
ĠÉ¹ÉªkwaÉªÉĻÉ¹ mÉĻnt
ĠhÉĳst ÉĻl
ĠfÉĻs ÉªlÉªti
ĠdiËĲv iËĲdiËĲ
ĠÃ¦kjÊĬÉ¹ ÉĻt
ĠhÃ¦b Éªts
ĠziÉĻÉ¹oÊĬwÊĮn ziÉĻÉ¹oÊĬ
ĠÃ¦pÉªt aÉªt
ĠÉªnÉĶd ÉªbÉĻl
k Ã¦sÉĻl
st ÉĽd
Ġw Ã¦ks
ÉĶ É¡
Ġs eÉªs
Ġd Éªkt
Ġb oÊĬst
Êĥ viËĲ
Êĥ Ã¦ks
Ġm ÉĶs
Ġm ÉĳlÉªk
Ġf i
Ġp ÉĶnt
Ã¦n Î¸
Éªn ÉĽntÉĻl
ĠmaÉª Ã¦mi
ĠkÃ¦ z
Ġsp Ã¦Åĭk
ĠmÉĶÉ¹ oÊĬvÉĻÉ¹
ÉĽnd ÉĻÉ¹É¹
Ġsl Ã¦p
ĠtÉĽl i
ÊĴuËĲ di
ĠkÉĻm pÉ¹
ĠjuËĲz ÉĻÉ¹z
ĠkÉĳm ÉĻ
aÉªv ÉªÅĭ
ÉĽÉ¹Éªk ÉĻl
ÉĻk l
ĠdÉªsk É¹aÉªbz
ĠmÉĳÉ¹ É¡
ĠÉªnst ÉªtuËĲÊĥÉĻn
ÊĮÊĥ ÉĻ
ĠÉ¹Éªz ÉĽnt
ĠiËĲv lÉªn
ĠsaÊĬÎ¸ iËĲstÉĻÉ¹n
ĠÉĽÉ¡zÃ¦m Éªnd
ĠsÉĻpÉĶÉ¹t ÉĻÉ¹z
ĠbÃ¦Åĭ z
ĠdÉĳd z
ĠmjuËĲnÉªsÉªp ÉĻl
ĠsÃ¦m i
ĠÉ¡Ã¦l ÉĻÉ¹É¹i
ĠwÉĶnd ÉĻÉ¹d
Åĭkw ÉĽst
ÉĳÉ¡É¹ÉĻ fÉĻÉ¹
ĠÉ¹ÉĽz ÉĻl
ĠskÉĽÉ¹ s
ĠdÉĽn Éªs
ĠjuËĲÉĽs eÉª
ĠfoÊĬk ÉĻst
ĠpÉľËĲpÉĻs Éªz
ĠhÉĽvÉĻn z
ĠflÃ¦Êĥ ÉªÅĭ
ĠÉĽmplÉĶÉª mÉĻnt
ĠÉ¹ÊĮs ÉĻlÉªÅĭ
ĠÃ¦lf É¹Éªd
ĠÉ¹ÉªkwÉĽst Éªd
ĠÉĳt oÊĬ
ĠnÉĳv ÉĻhoÊĬ
ĠÃ¦dm ÉľËĲÉ¹ÉĻl
ĠÉªnÉªÊĥ ÉĻli
ĠkÉĻmpjuËĲt ÉĻÉ¹É¹
ĠÉĽksÉªk juËĲtÉªd
ĠwÉĽlÎ¸ i
ĠÊĮpl ÉĶz
ĠstÃ¦m ps
ĠsÉĽÉ¹ ÉĻz
ĠbÉĽs iz
ĠkÉĻntÉ¹Éªb juËĲt
ĠleÉªdÉªb ÉľËĲd
ĠÊĮmeÉªz mÉĻnt
ĠbÉľËĲnÉĻÉ¹d oÊĬ
ÊĴÉĽpÉĻÉ¹d i
ĠÉĽÉ¹ÉĻ pleÉªn
b Ã¦sk
f Ã¦ÊĥÉĻnd
h ÉªÉ¹
i ÉĻmz
iËĲ ÊĴÉĻn
st É¹iËĲm
Ġk Éĳks
Ġs ÊĮlt
Ġd Ã¦mp
Êĥ iËĲvd
Êĥ daÊĬn
Ġm ÉĶd
Ġf oÊĬz
Ġl ÉĽÉ¹
Éªd eÉªl
ĠÉĳÉ¹ É¹eÉª
ĠÃ¦z ÉĻÉ¹b
Ġpl ÉĽd
ĠpÉ¹ oÊĬn
Ġsk eÉªtÉªÅĭ
ÉªÊĥ ÉĻntli
ĠtiËĲ pÉĳt
ĠkÉĶ Éªnz
ĠdeÉª nti
ÊĴuËĲ liÉĻn
ÊĮb aÊĬt
ĠmÉªn ÉªstÉ¹i
ĠÉĽÉ¹ d
ĠwÉĶÉ¹ f
ĠtaÉª f
ĠfaÉªn Éªst
ĠlaÉªt haÊĬs
Éªb ÉªÊĥÉĻn
ĠfÉĶÉ¹m eÉªÊĥÉĻn
ĠkÃ¦m ÉĻÉ¹É¹ÉĻn
ĠfÉªn ÉĳmÉªn
ĠmÉªl z
ĠdÉªz i
ĠÉĳÉ¹m stÉ¹ÉĶÅĭ
ĠkÃ¦pt Éªvz
ĠÉ¹Éªp iËĲtÉªÅĭ
ĠÉ¹Éªk ÊĮvÉĻÉ¹É¹i
ĠmÉĳÉ¹k ÉĻs
ĠdÉªk ÊĥÉĻn
ĠÉªliËĲn ÉĻÉ¹z
ĠkÉĳs wÉľËĲÎ¸
ĠÉ¹aÉª fl
ĠdÉ¹iËĲm ÉªÅĭ
É¹ÉĽs Éªv
ĠÉ¡É¹oÊĬn ÉªÅĭ
ĠÉªkw eÉªÊĴÉĻn
ĠÉ¹ÉĽÉ¡jÊĬlÉĻÉ¹ li
ĠsÉĳb ÉªÅĭ
ĠÉ¹ÉªmaÉªnd Éªd
ĠkoÊĬk oÊĬ
ĠdaÉªÉĻl ÉĽkts
ĠstÉ¹ÉªÅĭ z
ĠÉ¹ÉĽlÉĻtÉªv li
ĠmÉĽ ÊĴÉĻÉ¹d
ĠÉĻkÉľËĲ z
ĠdÉĽst ÉªneÉªÊĥÉĻn
ĠswiËĲp ÉªÅĭ
ĠÉªntÉĻfÉªÉ¹ ÉĻns
ĠsÉªlv iÉĻ
ĠeÉªv ÉªeÉªÊĥÉĻn
ĠÉªmpÉ¹ÉĽs Éªv
ĠÊĥÊĮn ÉĽl
f ÉĻnd
h ÉĶÉ¹n
p ÊĬÉ¹
p Ã¦Î¸
s iz
w ÉľËĲd
Ġw Éĳl
uËĲ Î¸
Ġh wÉĳn
Ġh ÉĶts
Ġd ÉĽÉ¹i
Ġj Ã¦Åĭk
ÊĴ oÊĬz
ÊĴ ÉĽndÉĻÉ¹
ÉĽn i
ĠwÉª É¡ÉĻl
juËĲ li
ĠÉ¹Éª Åĭk
ĠsÊĮm deÉª
ĠÉĽn ÉĽfÉĽl
Ġbl ÉĶs
Ġkw ÉĶÉ¹i
Ġfl iËĲ
Ġfl Ã¦É¡z
ĠtÉĽl Éªt
ĠÊĮs uËĲmd
iËĲv ÉĻl
ĠkÊĮ s
ĠÉ¹oÊĬ ps
ÊĮb z
ÉªÊĥÉĻn si
ÊĥÉĻÉ¹ oÊĬki
ĠoÊĬld fÃ¦ÊĥÉĻnd
ĠkÉĳm ÉĽntÉªd
pÉĻÉ¹ É¹ÉªÅĭ
ĠÉªnv ÉĽnt
eÉªl ÉĻ
Ġsn oÊĬÉªÅĭ
ĠwoÊĬnt ÊĮv
ĠÉ¹Ã¦ Î¸
ĠnÃ¦ ÊĥÉĻn
ĠÃ¦nÉªm eÉªÊĥÉĻn
ĠÉ¹ÉĽk ÉĻm
ĠsÉªl ÉĽkÊĥÉĻn
ÉĽb ÉĻlz
ÊĴÃ¦k jÊĬleÉªtÉªd
ĠiËĲv ÉĻ
ĠkoÊĬ bÉĶlt
ĠpÉ¹Éĳm ÉªnÉĻnt
ĠvÉªl ÉĻn
ĠdÉªt Ã¦t
ĠÉĽÉ¡zÃ¦m Éªnz
ÊĴÉĽst ÉªÅĭ
ĠpÉĽn Éªz
ĠhÊĮnt ÉĻÉ¹z
ĠdÉªsp juËĲt
ĠÉ¹ÉĽpÉ¹ÉªzÉĽnt ÉªÅĭ
ĠÉ¹ÉĽkÉĻÉ¡n ÉªÊĥÉĻn
ĠsÉĻksÉĽs fÉĻli
ĠpÉªl z
ĠpÉ¹ÉĻs ÉĽÊĥÉĻn
ĠsÉĽlf k
ĠsuËĲt s
ĠvaÉªÉĻl ÉĻntli
ĠsÉĻÉ¹É¹ ÉĽndÉĻÉ¹
ĠtÉªp Éªkli
ĠÉªv Ã¦ljuËĲ
ĠpÉ¹ÉĻm oÊĬÊĥÉĻn
ĠmÉĶ Éªst
ĠfÉĽÉ¹i z
ĠÊĮnn ÉĽsÉªs
ĠpÊĮn ÉªÊĥ
ĠÉĶd ÉªoÊĬ
ĠkÉĻnsÉľËĲn z
ĠÉĽÎ¸ nÉªk
ĠtÉ¹Ã¦v ÉĻlz
ÊĥeÉªm bÉĻÉ¹É¹
ĠkÉĻndÊĮkt ÉĻÉ¹
ĠmÉĶÉ¹t ÉĻl
ĠÊĮkweÉªnt Éªd
ĠkÉĳnÊĥÉĻs nÉĻs
ĠpÉĻÉ¹sw eÉªdÉªd
ĠÉĽsp oÊĬz
ÉĻÉ¡É¹Ã¦f ÉªkÉĻl
ĠÉ¡É¹Ã¦v Éªti
ĠkwÉĶÉ¹ ÉĻl
ĠjuËĲÉĽn siËĲ
ĠbÊĮv ÉĽÉ¹iÉĻ
ĠÊĮbÉ¹ÊĮpt li
ĠÉ¹ÉªbÉĽl iÉĻn
ĠÉĳnd É¹eÉª
ĠnÉĻsÉĽs Éªti
ĠpÊĮÎ¸ ÉĽtÉªk
ĠhÉĽdhÊĮnt ÉĻÉ¹z
b Éĳt
f uËĲ
f aÉªÉĻÉ¹
m aÉªnd
p ÉĶÉªnt
É¹ ÊĮk
Ġk Éªnd
Ġt ÉĽs
Ġs ÉĻn
Ġd oÊĬtoÊĬ
É¡ waÉª
ĠÉ¡ ÉĳÉ¡
ÉľËĲ kÉĻm
Ã¦t É¹Éªk
ĠiËĲ É¡ÉĻlz
Éªd ÉĻ
ĠÊĥ Éĳn
ÉĽl oÊĬ
ĠmiËĲ k
ĠbaÉª nd
ĠwÉĽl Êĥ
ĠbÉ¹ Ã¦k
ĠlÃ¦ si
ĠÊĮb É¹iËĲv
Ġsp ÉĽÉ¹d
Ġkl iËĲv
ĠfaÉª ld
ĠkÉ¹ ÊĬk
ÉĳÉ¹d i
ĠmeÉªk ÊĮp
pl eÉªnz
ĠhaÉª nd
ĠÉĻÉ¹É¹ iËĲnÉĻ
ĠÉ¡l iËĲm
ĠmÉªn ÉªmÉĻm
ĠÉĽneÉª bÉĻl
Éªnz i
ĠÊĮmÉĽÉ¹Éªk ÉĻz
ĠÉ¹aÊĬnd z
ĠmÃ¦É¡ iz
ĠdÉĳÉ¹ wÉªn
ĠsÉĽl ÉĻÉ¹
ĠkÃ¦pt Éªv
ĠkÃ¦pt Éªnz
ĠmÉĽt É¹oÊĬ
ÉĶÉªd z
ĠwÉªn ÉĻÉ¹É¹
ĠklÃ¦s pt
ĠwaÉªf z
ĠsÉĽnd z
ĠkÉĻnsÉªd ÉĻÉ¹É¹
ĠÊĮnd uËĲ
ĠdiËĲp ÉĻÉ¹
ÊĥÉª pt
ĠÉĽkskl uËĲs
ĠsnoÊĬ mÉĻn
ĠsiËĲkÉ¹Éªt li
ĠdÉªvÉĽlÉĻp ÉªÅĭ
ĠmÉªnÉªstÉĻÉ¹ z
ĠbaÉªt ÉªÅĭ
ĠmÉĶnstÉĻÉ¹ É¹
ĠmÉªÊĥÉĻn ÉĽÉ¹iz
ĠbÉ¹iËĲf keÉªs
ĠmÉªz ÉĻÉ¹É¹i
ĠÊĮpÉ¹uËĲ v
ĠÃ¦Åĭk ÉĻÉ¹
ĠziËĲlÉĻnd ÉĻÉ¹z
É¹ÉªÉ¡ eÉªÊĥÉĻn
ĠspÉĻs ÉªfÉªkli
ĠÉ¹ÉĽfÉ¹ÉĻns Éªz
ĠpÉĽÅĭÉ¡w Éªnz
ĠtÉ¹Ã¦nsl eÉªtÉªd
ĠtÊĮm bÉĻl
ĠmÊĮÊĥ ÉĽti
ĠhÉªk ÊĮps
ĠfoÊĬtÉĻÉ¡É¹Ã¦f z
ĠsuËĲpiÉĻÉ¹Éª ÉĻÉ¹
ĠtÉ¹oÊĬ fi
ĠÊĮnÉĶÉª ÉªÅĭ
ĠsÉĻbst Ã¦nÊĥÉĻl
ĠÉĶÉ¹k Éªst
haÊĬz Éªz
ĠplÉªm ÉĻÎ¸
ĠÃ¦zÉĻÉ¹b aÉªd
ĠhÉĶts Ã¦lps
b ÉªÉ¡
f ti
f É¹i
h ÊĮm
m ÊĮÃ°ÉĻÉ¹
st eÉªt
É¹Éª Î¸
eÉª lÉªÅĭ
Ġt Éªpt
Ġd ÊĬÉ¹
Ġd Ã¦É¡
Ġj jaÉª
É¡ ÉľËĲl
Ġp ÊĮls
Ġl Éªb
ÊĴ Éªv
ÊĴ jÊĬÉ¹É¹ÉĻn
ĠÉ¹ Ã¦mp
Éªd i
juËĲ mz
ĠtÉ¹ Ã¦mp
ĠtÉ¹ ÊĮÅĭks
ÊĴÊĮst ÉĻs
ĠwÉĽl fÉĽÉ¹
ĠeÉª p
ÊĴiËĲ ÉĳÉ¹
ĠkÉĻm ÉĽnst
Ġz ÉĽkÉĻl
ĠhÃ¦nd ÉªÅĭ
ĠÉªnd Éªf
ĠheÉª vÉĻn
ĠÉĽÉ¡z Ã¦d
ĠfÉĳÉ¹ Ã°ÉĻÉ¹É¹
ĠkÉĽÉ¹ toÊĬ
ĠfaÉªn ÉĻlz
ĠÊĮnt ÊĬ
ĠbÉľËĲ mÉªÅĭ
ĠpÉ¹ÉĽz ÉªdÉĻns
ĠdaÉª ÉĻ
ĠÊĥÃ¦l oÊĬ
ÊĴeÉª ÉĽn
ĠpÃ¦ stÉĻÉ¹
ĠbÉĳÉ¹ l
ĠtaÊĬn ÊĥÉªp
ĠmÃ¦d i
Ġskw ÉľËĲt
ĠbÉĳ z
ĠÃ¦b sÉĻnt
ĠklaÉªm z
ĠkÉĶÉ¹ pÉ¹ÉĻl
ĠÉ¹aÉª ÉªdeÉªl
ĠbÃ¦Åĭ kw
ĠkÉĻnv ÉªkÊĥÉĻn
ĠsuËĲpÉĻÉ¹ st
ĠhÉĽn z
ĠvÉľËĲ ÊĴÉĻnz
ĠstÉĽp ÉªÅĭ
ĠmÉĳn ÉªkÉĻ
ĠkÉĻntÉªnjuËĲ ÉªÅĭ
ĠsÉĽn jÉĶÉ¹
ĠpaÉªl ÉĻts
ĠÉ¹ÉªzÊĮlt Éªd
ĠÉ¡É¹Ã¦n bi
ĠÉªndÉªk eÉªtÉªÅĭ
ĠskwiËĲ l
ÊĥÉĳÉ¹t s
ĠtÉ¹eÉªs Éªz
ÊĮÉ¹ oÊĬni
ĠkÊĬ ÊĥÉĻn
ĠvÉĶd wÉĳ
ÊĴÊĮÅĭk ÊĥÉĻn
ĠklÉªk ÉªÅĭ
ĠÉ¡É¹Ã¦djuËĲ eÉªtÉªÅĭ
feÉªs d
ĠpÃ¦nÎ¸ ÉĶÉªbaÉª
ĠvÉªns ÉĻnt
iËĲdi ÉĻns
ĠkÉ¹ÉªstÉª Ã¦nÉªti
ĠsÉªmpt ÉĻmz
Ġfi ÉĳnseÉª
bÃ¦sk Éªt
ĠbÉľËĲmÉªÅĭ Ã¦m
h i
Éª oÊĬkÉĻ
É¹Éª mÉªn
Ġk ÊĮk
Ġh eÉªts
Ġs Éªp
Ġm ÊĮk
Ġf ÉĽmÉªn
Ġn Ã¦Êĥ
ÉªÅĭ Î¸
ÊĴ ÉľËĲn
ĠÉĶ tÉĻ
ÊĮm ps
ĠÊĥ É¹Éªm
ĠduËĲ pl
ĠwiËĲ zÉĻl
Ġv ÉĶ
Ġv aÊĬ
Ġv eÉªl
ĠsoÊĬ k
ĠsoÊĬ ÉªÅĭ
Ġpl Ã¦stÉĻÉ¹
ĠhuËĲ d
ÉĽnd ÉĻn
Ġsl iËĲv
Ġkw ÉªvÉĻÉ¹
ĠÉĽnÉª weÉªz
ÉľËĲs ÉĻn
ĠlÉĶÅĭ ÉªÅĭ
jÊĬl eÉªtÉªÅĭ
ĠjuËĲn iÉĻnz
ĠÃ¦l t
ĠÃ¦l ÉĻk
ĠÉĽk oÊĬd
ĠÉ¹Éªs pÉĽktÉªd
ÉĳÉ¹É¹ ÉĻz
ĠÉĽksp Éªkt
ĠdÉĶÉ¹ bÉĽl
ĠluËĲ kÉĻ
ĠpÉľËĲ f
ĠpÉĳp t
ĠmÉĳÉ¹ É¹ÉªoÊĬ
ĠÃ¦m sdÉĻn
ĠsÃ¦t ÉĻl
ĠÉĳn ÉĻ
ĠÉ¹Éªz ÉĻn
ĠpleÉªd oÊĬ
ĠsÉĽns Éªz
ĠÉĽkst ÉªÅĭkt
ĠhÉĳÉ¹ mÉĻn
ĠhjuËĲ mÉĻÉ¹
ĠpÉ¹Éªt ÉĽndÉªd
ĠpÉĽn ÉĻli
ĠÉ¹ÊĮ ÊĥÉĻnz
ĠfÉĻÉ¹É¡ÉĽt ÉªÅĭ
Ã¦z m
ĠdÉªsÊĮp ÉĶÉªnt
ĠwÉĽlkÊĮm d
ĠÊĮw oÊĬk
ÊĥÃ¦t ÊĮh
ĠbÊĮ ÅĭÉ¡
ĠÉ¹ÊĮb d
ĠÉĶÎ¸ ÉĻÉ¹z
ĠpÉ¹ÉĻvaÉªd z
ĠtÃ¦sk s
ĠÊĥeÉªks pÉªÉ¹
ĠÉĶtÉĻm Ã¦tÉªk
ĠsÉªvÉªÉ¹ li
ĠskÊĮl pt
ĠÃ¦plÉªk eÉªÊĥÉĻnz
ĠÉªstÃ¦blÉªÊĥ mÉĻnt
ĠÉĽÅĭkw aÉª
ĠlÃ¦bÉ¹ ÉĻtÉĶÉ¹i
ĠÊĮmbÃ¦sÉĻd ÉĻÉ¹
ÉľËĲkÉĻm flÉĽks
ÊĴjÊĬÉ¹É¹ÉĻn ÉĶÉ¹d
Ġ ÊĴÉĳn
É¹ Ã¦ft
É¹Éª ÊĥÉĻn
ĠÊĮ stÉ¹
Ġk Éªks
ĠÉª É¡
Ġd ÊĮv
Ġd Éĳts
Ġb ÊĮb
Êĥ iËĲtÉªÅĭ
Ġm ÊĮnt
Ġl Éªsts
ÉĶÉ¹ oÊĬ
ÊĴ ÉĶÉªz
ks ÉĽs
ÉĽn ÊĥÉĻnÉĻl
ĠÊĥ w
ĠÊĥ aÉªni
ÉĻÉ¹É¹ ÉĻÉ¹
ĠwÉª pt
ĠnoÊĬ d
Éªn Éĳm
ĠhÉľËĲ mÉĻn
ÉªÉ¹ eÉªniÉĻn
ĠkÃ¦n sÉĻl
ĠtÉ¹ ÉĽt
ĠkÉ¹ ÉĶ
Ġbl oÊĬk
Ġbl eÉªzÉªÅĭ
Ġfl uËĲt
iËĲt ÉĻÉ¹
ĠpleÉª É¡É¹aÊĬnd
ĠtÉĶ nt
ĠtÉ¹aÉª bÉĻl
ĠÃ¦l Éªb
ĠÉ¡l Ã¦nsÉªz
ĠÉªnv eÉªd
ĠliËĲ ÊĴÉĻÉ¹
ÉĽv Éªt
jÊĬÉ¹ É¹i
wÉĽÉ¹ toÊĬ
ĠwiËĲk nÉĻs
ĠÉĳÉ¹m iz
ĠÉĽkspl oÊĬs
ÊĥiËĲ aÉª
ĠÎ¸ÉľËĲtiËĲn Î¸
ĠpÉ¹ÉĻd ÊĮkÊĥÉĻnz
ĠpÉĶl z
ĠpÃ¦k ÉªÅĭ
ĠhÊĮnt Éªd
ĠÉªfÉĽkt Éªvli
ĠsÉªÉ¡n ÉĻlz
ĠdÉĽk l
ĠmÃ¦k ÊĮÉ¹oÊĬni
ĠskÉĳt i
ÊĴÉĻl ÉĻ
ĠpÉ¹ÉĻduËĲs ÉªÅĭ
ĠpÉ¹ÉĻduËĲs Éªz
ĠpÃ¦d lÉªÅĭ
ĠdÉ¹Ã¦É¡ ÉĻnz
ĠÉªnvÉĽstÉªÉ¡ eÉªtÉĻÉ¹
ĠdÊĮm pt
ĠtÃ¦p ÉªoÊĬkÉĻ
ĠsÉĻpl aÉªd
ĠpÉ¹Éªs Éªp
ĠÉ¹Ã¦sbÉĽÉ¹i z
ĠmÊĮ stÉĻÉ¹d
ĠhÊĮn z
ĠÃ¦Î¸l ÉĽtÉªk
ĠÉ¹Ã¦Åĭ kt
Êĥm ÉĻnd
É¡ÉĻs l
ĠÉ¹Éĳt ÉĻn
ĠtÉĻÉ¹É¹ Éĳnt
ĠpÊĮt É¹oÊĬl
ĠvÃ¦lÉĻnt aÉªnz
ĠÊĥÉĽlt ÉĻÉ¹É¹
ĠdaÉªÉĻÉ¡n oÊĬzd
ĠhÊĮmp ti
ĠhÉĳÉ¹v Éªst
ĠÉ¡Ã¦n Éªt
ĠÉ¹oÊĬn oÊĬk
ĠsÉªndÉªÉ¹ ÉĽlÉĻ
ĠÉľËĲÎ¸kw eÉªk
f ÉĻk
m ÊĮn
t ÉĻÉ¹z
w eÉªn
st aÉªl
É¹Éª É¹
Ã¦ É¹ÉªoÊĬ
Ġs ÉĻm
Ġs weÉª
Ġm Éĳl
Ġf oÊĬm
Ġn ÉĻbÉ¹
Ġl Éªl
ĠkaÉª l
ÊĴ Éªts
Éĳt Éªd
Ġst ÊĮ
Éªn ÉĻns
Éªl oÊĬ
Ġv aÉªv
ĠsiËĲ ÉĽÉ¹ÉĻ
ĠsiËĲ sÉĶ
ĠpÉ¹ ÉĻl
ĠhaÊĬ nd
ĠwÉĽl z
ĠbÉ¹ ÉĳvoÊĬ
Éĳp oÊĬ
Ġsp ÉĶÉªld
keÉª ks
ĠnuËĲ li
ÉľËĲn Éªti
ĠpÉ¹Éª v
ĠbÃ¦ É¹ÉĻn
ĠdiËĲ lz
ĠwÉľËĲk ÉĻÉ¹
ĠsÉĽk ÊĥÉĻnz
É¹ÉĻ hÃ¦m
ĠdÉªf ÉĽnsÉªv
ĠÎ¸ÉĶt fÉĻli
ĠnÉĶÉ¹ wiËĲd
ĠsÉĽnt Éªm
ĠbÉľËĲ ti
ĠtÉĳm z
ÉĽb É¹Éªti
ĠbeÉªs mÉĻnt
ĠpÉĻl uËĲluËĲ
ĠÊĮndÉĻÉ¹stÃ¦nd z
ĠsaÊĬÎ¸ wÉĽstÉĻÉ¹n
ĠbÉªznÉĻs Éªz
ĠÊĮdv aÉªzd
ÊĴÉªm ÉĻnt
ĠdÉĳn ÉĻ
ĠbÉľËĲn Éªs
ĠfÉ¹ÉĳÉ¡ i
ĠkÉĻnv eÉª
ĠdÉªsp Ã¦t
ĠpÉªl É¡
ĠÉ¡É¹oÊĬ v
ĠÉ¡É¹Ã¦s pt
ÊĴÃ¦ É¹ÉĻd
ĠtÉªk ÉĻlz
ĠsaÉªk ÉĻl
ĠdÉĽl i
ĠdÉĳk juËĲm
ÊĥÃ¦t ÉĻÉ¹
sÉĻ ksÉĽs
ĠkÊĮlt Éªv
ÊĴÉĽÉ¹ ÉĻmi
ĠkÊĮn ÉªÅĭ
ĠÊĮdÉ¹ÉĽs ÉªÅĭ
ĠsÉĻb mÉªÊĥÉĻn
ĠstÉ¹ÊĮÉ¡ ÉĻld
ĠÊĮkw aÉªÉĻÉ¹d
ĠfeÉªnt li
ÊĴÉĽf ÉĻÉ¹sÉĻn
ĠeÉªb É¹ÉĻhÃ¦m
ĠsÉĽlÉĻb É¹eÉªÊĥÉĻn
ĠfÊĮÅĭk ÊĥÉĻnz
ĠdÉªsÉ¡ aÉªz
ĠÊĮdÉĳp t
ĠkÃ¦ns ÉĻld
ĠkÉĻndÊĮkt Éªd
ĠÉ¹ÊĮÉ¡ bi
ĠvÉª ÊĴuËĲÉĻl
ĠdÉªtÉľËĲmÉªn eÉªÊĥÉĻn
ĠpÃ¦Åĭk eÉªks
ĠeÉªaÉª aÉª
ĠskÉ¹Ã¦m bÉĻld
ĠmoÊĬn ÉªÅĭ
ĠÉĽksh eÉªlz
ĠkÉľËĲn ÉĻlz
ĠÉ¹Ã¦sk ÉĻl
ĠlÃ¦ndsk eÉªp
ĠpÉ¹ÉĽzÉªdÉĻns i
ĠtÉĻÉ¹É¹Éĳnt oÊĬ
b iËĲt
l oÊĬd
l oÊĬzd
s bÉªn
aÉª st
aÉª ÉĻt
uËĲ sÉĻl
Éĳ i
Ġm eÉªs
Ġm Éĳb
Ġf aÊĬnt
Ġn ÉĳÉ¹
Ġp ÉĶÉ¹Éªd
Ġp wÉĽÉ¹toÊĬ
Ġl Éªnt
ĠjuËĲ É¡ÉĻsl
ÊĴ Éĳl
Ã¦t ÉĻs
ĠhÉª ldÉĻ
ĠwÉª st
juËĲ lz
ĠÉ¹Éª fÉĶÉ¹md
ĠÃ¦z Éªz
aÉªd ÉªÅĭ
ĠkÃ¦ w
ĠtÉ¹ ÉĽd
ÉĶl z
Éĳp i
Ġsp aÉªs
ÉĻt Éªk
Ġsk ÉĶÉ¹z
ĠlÊĬk aÊĬt
viËĲ ÉĳÉ¹
Ġsl aÉªm
Ġbl eÉªd
Ġbl eÉªz
Ã¦l É¡i
Ã¦s iÉĻm
ĠÉĽl ÉĽs
ÊĴuËĲ ld
ÊĥuËĲ eÉªtÉªd
ĠhaÉª pÉªt
ĠÉ¹uËĲ bi
ÊĥaÉªld ÉªÊĥ
ĠbÉªl iËĲ
jÊĬl ÉĻz
ĠnÉĶÉ¹ mÉĻn
ĠnÉĶÉ¹ fÉĻk
ĠpÉĳÉ¹ s
É¡É¹ eÉªd
ĠÉĽd ÉªtÉĻÉ¹
ÊĴÉªn ÉªÉ¹z
ĠdÉªz ÉľËĲvd
ĠÃ¦m ÉĻt
ĠwÉĶk ÉĻÉ¹
ĠloÊĬ f
ĠkÉľËĲ É¹i
ÊĴÉĻÉ¹É¹ uËĲsÉĻl
ĠkÉªl z
ĠÉªÉ¹ eÉªniÉĻn
ĠÃ°ÊĮt sbÉªn
ĠhaÉªd É¹ÉĻd
ĠkÉĻnf ÉĽÊĥÉĻn
ĠdÃ¦ns Éªz
ĠkoÊĬt s
ĠpÉĽn z
ÊĴÉĶ Éªnz
ĠhÃ¦m bÉľËĲÉ¡
fl aÊĬÉĻÉ¹
ĠlÉª É¹Éªks
ĠpÉĻt ÉªÊĥÉĻn
ĠpÉ¹Éªz ÉľËĲvd
ĠnÉªk neÉªm
ÊĴÊĮm ps
oÊĬv Éªt
ĠvaÉªÉĻl Éªt
ĠtÉªm Éªd
ĠpÉ¹Éªnt ÉªÅĭ
ĠÉ¹Éªst ÉĶÉ¹d
ĠÉĶÉ¹É¡ÉĻn aÉªz
ĠnÉľËĲv z
ĠÉĳkjÊĬp eÉªÊĥÉĻn
ĠhaÉªt s
ĠskÉĳl ÉĻÉ¹
ĠÉĽmplÉĶÉª iËĲ
ĠpÉ¹Éĳf Éªts
ĠÃ¦Åĭk ÉĻl
ĠÉªndÊĮstÉ¹i z
ĠsÉĻl ÉĽbÉ¹Éªti
ĠÉ¹ÉĽnd ÉĻÉ¹d
ĠkÉĻmpÃ¦É¹ÉĻtÉªv li
ĠÉĳbz ÉĻÉ¹veÉªÊĥÉĻn
ĠdaÊĬnt aÊĬn
ÊĥÃ¦tÊĮh ÊĮt
ÊĴÉĻÉ¹É¹uËĲsÉĻl ÉĻm
b Éªs
b É¹i
k oÊĬt
w oÊĬ
Éª eÉªt
Ġh ÉĽÉ¹i
Ġs aÊĬ
Êĥ d
Êĥ ÉľËĲ
Êĥ ÊĮp
Êĥ eÉªst
Êĥ eÉªpt
Ġn Ã¦nd
Ġn Éĳdi
ĠaÉª sÉĻl
ĠÉ¡ eÉªnz
ÊĴ ÉªÊĥÉĻn
ĠÉ¹ Éĳn
ĠÉ¹ ÉĶÉ¹ÉªÅĭ
ĠÎ¸ aÉª
ÉĽl ÉĽldiËĲ
ĠduËĲ m
ĠÊĥiËĲ lÉĻ
ĠsoÊĬ lÉĻÉ¹
ĠÊĮn ÉĶÉªd
ĠbaÉª ÉĳlÉĻd
ĠbÉ¹ ÊĮÊĥt
ĠwÉĽn z
iËĲn ÉĻz
ĠdÉ¹ ÉĶÉ¹z
ĠÉĽl ÉĳÉ¹
ĠÊĮl ÉĳÉ¹md
ĠlÉĶÅĭ É¡ÉĻÉ¹É¹
ĠÃ¦l fÉĻ
ÉĶÉ¹i ÉĻs
aÊĬd i
ĠsÉĽt lÉĻÉ¹z
ĠbÉĳks ÉĻÉ¹
ĠpÉ¹ÉĽz ÉªdÉĻnts
ĠpÉľËĲ É¹
ĠdaÉª s
ĠfÉªl z
ĠkÉĻmp oÊĬn
ĠkÉĻmp Ã¦kt
ĠziÉĻÉ¹oÊĬ Î¸É¹iËĲ
uËĲs ÉĻ
ĠfaÉªÉĻÉ¹ wÉľËĲks
ĠÎ¸É¹ ÉĶÅĭ
ĠhÉĳÉ¹ vÉĻÉ¹d
ĠvoÊĬkÉĻl aÉªz
ĠlÊĮk ÊĥÉĻÉ¹É¹i
ĠÉĶÉ¹É¡ Ã¦nÉªk
ĠloÊĬk i
ĠbÉĶ Éªl
ĠsuËĲp ÉĻÉ¹É¹
ĠpÉĻt Ã¦siÉĻm
ĠnÉªk i
ĠpiÉĻÉ¹ÉªÉĻd z
ĠteÉªst Éªd
ĠtÉĽkn iËĲk
ĠkÉ¹Ã¦Êĥ ÉªÅĭ
ĠÉ¹ÉĽs lÉĻÉ¹z
ĠbaÊĬnd ÉĻÉ¹É¹i
ĠÊĮmaÊĬnt s
ĠpÃ¦d ÉĻl
ĠÉ¹ÉĳsÊĮmÊĮnd z
fiËĲld z
ĠsÃ¦tÉªsf Ã¦kt
ĠmÃ¦ks wÉĽl
ĠkÉĶf Éªn
ÊĥÉĽs ÉĽlÉĽldiËĲ
ĠkÉ¹uËĲÉĻl ti
ĠdÉªsm eÉª
ĠskÉĳÉ¹ f
ĠaÉªÉĻ wÉĻ
ĠfaÊĬ l
ĠkÉĳÉ¹p ÉĻnt
ĠnÃ¦É¹ ÉĻtÉªv
ĠÉ¹ÉĽvÉĻÉ¹É¹ ÉĽnd
ĠdiËĲk É¹iËĲ
ĠpeÉªm ÉĻnt
ĠhÉĽÉ¹oÊĬ Éªn
ĠÊĮnbÉªliËĲv ÉĻbÉĻl
ĠseÉªs ÉĳÉ¹
ĠdÉªkÊĥÉĻn ÉĽÉ¹i
b É¹ÉĻns
f aÉªl
k ÊĮl
l iËĲ
m ÉĻl
s bi
Éª i
Éª w
Éª Éªd
ÉĶ É¹Éªn
sk ÉĻ
Ġt Éªps
Ġs Éªb
Ġs Ã¦É¹
Ġd ÉªÅĭÉ¡
Êĥ k
Ġm ÉĻs
Ġm eÉªtÉĻÉ¹
Ġp ÊĮÅĭkt
ĠÉ¡ aÊĬt
ĠÉ¹ aÊĬ
ĠÉ¹ Ã¦Åĭks
Éªt aÉªm
Éªt ÉĻÉ¹É¹ÉĻ
ĠhÃ¦ É¡
ĠhÉª n
ÉĻÉ¹É¹ eÉªtÉªÅĭ
ĠwÉª ki
ÉĽm ÉĽm
ĠlaÉª m
Ġv Éªv
ĠsoÊĬ bÉĻÉ¹
ĠsÊĮm ÉĻÉ¹z
ĠwÉĽl d
Ġsk aÊĬt
ĠdÉ¹ eÉªn
ĠpÉĻÉ¹ mÉªt
ĠtÉĽl Éªn
ĠÃ¦n tiËĲ
ÉĻz ÉĽl
ÊĮb Éªk
ĠdiËĲ siËĲ
ĠÃ¦l fi
ÉĳÉ¹É¹ ÉĳÉ¹É¹
ĠfjuËĲ ÉĻÉ¹
ÉĶÉ¹i ÉĻnz
Ġsn ÉĳÉ¹
ĠmoÊĬ ÊĥÉĻnz
ÊĴÉĽn Éªf
ĠmjuËĲz ÉªÊĥÉĻnz
ĠmÉĳÉ¹ s
ĠleÉª ks
ĠÉ¹Éªz ÉľËĲvd
ĠsÊĮb weÉª
ĠhjuËĲ mÃ¦n
biËĲn oÊĬ
ĠdÉªpÉĳÉ¹t Éªd
ĠdÉªpÉĳÉ¹t mÉĻnts
ĠdÉªm Éªt
ĠkÉĶÉ¹t ÉĳnÉĻ
ĠnÉĽt wÉľËĲks
ĠfÉĳloÊĬ ÉĻÉ¹z
ÊĴÊĮm pÉĻÉ¹
ĠÉĽld Éªst
ĠweÉªst ÉªÅĭ
ĠÉ¹ÉĽz ÉªÉ¡neÉªÊĥÉĻn
ĠÉĳks ÉĻn
ĠjoÊĬ joÊĬ
ÊĥÉªÉ¹ fÉĻli
ĠpÊĮp Éªz
ĠslaÉªd z
ĠmÊĮlt Éªp
ĠsÉĻÉ¹É¹aÊĬnd ÉªÅĭz
ĠÉĽmplÉĶÉª iËĲz
ĠÉĽts ÉªtÉĻÉ¹É¹ÉĻ
ĠfÉĽst Éªv
ĠÉ¡lÃ¦ns ÉªÅĭ
ĠmeÉªnt eÉªnd
ĠÉĽlm oÊĬ
ĠdÉªvaÉªs Éªz
ĠwÉªz dÉĻm
ĠÃ¦stÉĻÉ¹É¹ÉªskÊĮstÉĻÉ¹É¹Éªsk ÊĮstÉĻÉ¹É¹Éªsk
ĠkÉªdn Ã¦pt
ĠnÉĽl sÉĻn
ĠkÉĻnviËĲnÉª ÉĻnt
ĠhÉĻwaÉª iËĲ
ĠjuËĲÉĽf oÊĬ
ĠstÊĮ bÉĻÉ¹n
b ÉĻs
b É¹uËĲ
h ÉĳÉ¹
p Ã¦É¹ÉĻ
s Éªks
É¹ eÉªn
ÉĻ Êĥ
Ġw ÉĶÉ¹s
Ġt ÉĽns
Ġt ÉĽÉ¹ÉªÅĭ
Ġs ÉĶÉª
Ġs ÉľËĲn
Ġs ÊĮks
Ġb eÉªn
Ġm eÉªsÉĻn
Ġf ÊĮm
ĠaÉª vÉĻn
ÊĴ eÉªs
ĠÉªn sÉĻl
ĠÉ¹ Ã¦Êĥ
ĠoÊĬ ki
ĠÊĥ Ã¦k
ĠÊĥ ÉĽÉ¹z
ĠhiËĲ hiËĲ
Ġst eÉªsi
aÉªt i
ĠnÉĳt wÉªÃ°
ĠpÉ¹ ÉĽf
ĠkÃ¦n vÉĻs
ĠÊĮn sÉĻksÉĽs
aÉªd ÉĻn
ĠkÃ¦ lÉĻnd
ĠÉĽn l
ĠpiËĲ ÉĽl
ĠÉĶÉ¹ aÉªt
ĠÉĶÉ¹ liÉĻnz
oÊĬz i
Ġsp ÉªÉ¹z
bi ÉĻÉ¹
ĠseÉª Éªn
ÉĽkt ÉĻÉ¹
ĠkÉ¹ ÊĮm
Ġkw Éĳd
É¹uËĲ s
ĠdÉªs ÉĽnd
ĠlÉĽ bÉĻn
ĠmÊĮm z
ĠdaÉª Ã¦ndÉ¹ÉĻ
ĠsÉªÉ¹ iÉĻl
bÉĶl z
ĠÃ¦nt oÊĬn
ĠÉĳn ÉĻÉ¹É¹ÉĻbÉĻl
ĠÉ¡ÊĮvÉĻÉ¹n ÉĻÉ¹z
ĠdÉªn ÉĻÉ¹z
ĠÉ¡Ã¦ É¹ÉĻ
ÊĴÃ¦n Éªt
ĠeÉªm d
ĠtÉ¹Éª É¡ÉĻÉ¹
ĠpoÊĬst s
ĠÃ¦k juËĲz
ĠpÉĳpjÊĬl Ã¦É¹Éªti
ĠÉ¹aÉª ÉĻt
ĠpÃ¦k hÃ¦Åĭ
ĠdÉªsp ÉĻzÉªÊĥÉĻn
ĠpÉĳlÉªt ÉªÊĥÉĻnz
ĠpÉĽns ÉĻlz
ĠhÉľËĲÉ¹i ÉªÅĭ
Éĳz ÉĻ
ĠbÊĮs Éªz
ĠskwÉĽÉ¹ z
ĠtÊĬÉ¹ É¹Éªst
ĠÉĽst oÊĬniÉĻ
ĠtÉªm bÉĻÉ¹
ĠdÉĶ bÊĮs
ĠpÉ¹Éªnt s
ĠmÃ¦njuËĲ ÉĻl
ĠkÉ¹ÉĶl z
ĠdÉĽspÉĻÉ¹É¹ ÉĻtli
ĠsÉĻl uËĲt
ĠtaÉªdi ÉªÅĭ
ĠkÃ¦ndÉªd eÉªts
ĠpÃ¦tÉĻÉ¹n z
ĠdoÊĬn ÊĮts
ĠsÉªÉ¡ÉĻÉ¹É¹ ÉĽts
ĠsaÉªkl Éªst
ĠÊĮbÊĮnd ÉĻnt
ĠmÉĽk ÉĻn
ĠÎ¸ÉĽÉ¹ÉĻp i
ĠkÉĳntÉ¹Éªb juËĲÊĥÉĻn
ĠnÉĳtwÉªÃ° stÃ¦ndÉªÅĭ
j ÉľËĲ
oÊĬ ÉĽm
Ġd ÉĽvÉĻn
Ġd oÊĬm
Ġn ÉªÅĭÎ¸
Ġp ÉªÅĭÉ¡
Ġl ÉªÅĭÉ¡w
ĠaÉª ÉĻl
ĠÉ¹ ÊĬk
ĠÉ¹ ÉĳnÉĻld
ĠoÊĬ ÉĽs
ĠÊĥ ÉĽli
Ġst ÉĶÉ¹Éªd
ĠfÉĶÉ¹ bz
ĠjÊĬÉ¹ É¹uËĲ
ĠÉ¹Éª Ã°ÉĻm
Ġv oÊĬ
ĠsiËĲ lz
Éªf ÉĻl
ĠtÉ¹ ÉĽÊĴÉĻÉ¹É¹
ĠÉ¹aÉªt li
ĠÉªnt ÉĽÉ¹ÉĻ
Ġsk uËĲt
Ã¦nd ÉĻÉ¹z
ĠkÉ¹ ÊĮt
Ġsl ÉªÅĭ
Ġbl ÊĮnt
Ġkw Éªz
ĠeÉª bÉ¹
Ġfl oÊĬÉªÅĭ
pl ÉªÅĭ
ĠkÉĻm ÉĽns
ĠbeÉª kt
ĠÉ¹iËĲ Éªl
ĠÉ¹iËĲ kÉĻn
ĠmÊĮst ÉĻv
ĠÉĽÉ¹ z
ĠkÉĶÉ¹s ÉĽÉ¹z
ĠdaÉª ÉĳksaÉªd
ĠdÉªv ÉªÊĴÉĻnz
ĠsÉªns ÉªÉ¹
ĠkÉĳl ÉĻÉ¹
ĠfÉªÊĥ Éªz
ĠÉĳÉ¹t Éªf
ÊĴÉªt Éªv
ĠvaÉª bÉ¹
ĠkÉĻnd ÉĽm
ĠpÉ¹Ã¦kt Éªst
ĠÉ¹Éªkw aÉªÉĻÉ¹z
ĠdÉĽk ÉĻÉ¹É¹eÉªÊĥÉĻn
ĠÉ¡Éªl bÉĻÉ¹t
É¹Éªp ÊĥÉĻnz
ĠsÃ¦l v
ĠtÉĶl ÉĻÉ¹
ĠkÉĳÉ¹l oÊĬz
ĠÃ¦ÅĭÉ¡É¹i li
ĠdiËĲd z
ĠbÉĳn i
ĠfÊĮs ÉªÅĭ
ĠpiËĲn ÊĮts
ĠsÉĻf ÉªÊĥÉĻntli
ĠpÊĮblÉªÊĥ ÉªÅĭ
ĠÃ¦Êĥ li
ĠspÉĽkt eÉªtÉĻÉ¹z
ĠÊĮkÉĳmpl ÉªÊĥ
ĠsmÃ¦Êĥ t
ĠpÉ¹ÉĻ h
ĠpÉĳÉ¹tn ÉĻÉ¹É¹
ĠkwÉĶnt Éªti
ĠhÉĳn ÊĥuËĲ
ĠdÉªsÊĮÉ¡É¹iËĲ ÉĻbÉĻl
ĠpliËĲ b
ĠÉĳlÉªv iÉĻ
ĠbÃ¦kt ÉªÉ¹iÉĻ
ĠdÉĽns Éªti
ĠÊĮltÉªm ÉĻt
ĠpÃ¦É¹ÉĻd aÉªs
ĠmÃ¦Î¸ÉªmÃ¦t Éªks
ĠkÉĳnsÉĻl t
ĠaÉªbÉ¹ aÊĬz
ĠdÉĽkl ÉĻÉ¹É¹eÉªÊĥÉĻn
n aÉªn
s ÉĶl
s ÉĽvÉĻn
v ÉľËĲt
É¹ ÉĻÉ¹
É¹ eÉªz
eÉª ÉĻn
Ġh oÊĬz
ĠÉª li
Ġs Ã¦h
Ġp ÉĽnt
Ġp ÊĮnd
ĠÉªn sk
ĠÉ¹ Ã¦nt
ĠÉ¹ aÉªmz
ĠÎ¸ ÉĶÉ¹n
Ã¦n Éªm
Ġv ÉªÉ¡
ĠpÉ¹ uËĲd
ĠkÃ¦ É¹ÉĻ
ĠpiËĲ siËĲaÉª
Ã¦d z
Ġsk oÊĬ
Î¸ÉªÅĭ k
É¹oÊĬ k
Ġfl Éªk
iËĲt oÊĬz
ĠnaÉª vz
ĠmÃ¦ h
ÊĮb ÉªlÉĻti
Ġz aÉª
ĠdiËĲ m
ĠdÉĳ nt
ĠtÉ¹aÉª fÉĻl
ĠdÉªf ÉĽndÉªd
ĠÊĮt ÉĽndÉªÅĭ
ĠslÃ¦Êĥ slÃ¦Êĥ
ĠsÉĽnt ÉĻnst
É¡É¹ Ã¦d
ĠlÉĶ fti
ĠkÉĻns p
ĠdaÉª Ã¦n
ĠÊĮf l
ĠpÃ¦ É¹ÉĻn
ĠspiËĲk ÉĻÉ¹É¹
ĠkÉ¹iËĲ pÉªÅĭ
ĠfÊĬl fÉªl
ĠplÃ¦n Éªts
ĠÉĽkst ÉĽnÊĥÉĻn
ÊĴÉĶÉª mÉĻnt
ĠwÉĶl Éªt
ĠÉ¹eÉªz Éªz
ĠdeÉªt aÉªm
ĠhÉĶ k
ĠÃ¦lb ÉľËĲt
ĠÉ¹Éĳb Éªnz
ĠstiËĲv z
ĠkjÊĬÉ¹ É¹i
ĠÉ¹ÉĽÉ¡ jÊĬlÉĻÉ¹É¹
ĠÉ¹ÉĽs ÉĻl
ĠmÃ¦dÉĻm ÉĻzÉĽl
ĠfÉªz ÉªÊĥÉĻn
ĠÉĶÉ¹É¡ÊĮn ÉĻzeÉªÊĥÉĻn
ĠpiËĲt ÉĻÉ¹É¹
ĠslaÉªd ÉªÅĭ
ĠdÉĽmÉĻkÉ¹Ã¦t s
ĠÉĳpÉĻÉ¹tuËĲn Éªtiz
ĠdiËĲt eÉªld
ĠfÉľËĲn ÉªÊĥt
ĠÊĮdmÉªn ÉªstÉĻÉ¹
ĠÉªndÉªk eÉªts
ĠtÉ¹eÉªs i
ĠkÊĮneÉªd iÉĻnz
ĠÎ¸i ÉĻtÉĻÉ¹É¹
ĠoÊĬvÉĻÉ¹l Ã¦p
ĠdÉªzÉľËĲv z
ĠÃ¦nÎ¸ ÉĻm
ĠÉ¹ÉªpleÉªs mÉĻnt
ĠdoÊĬn ÊĮt
ĠkÉĻmÉªÊĥÉĻn ÉĻÉ¹
ĠÉ¡É¹iËĲt Éªd
ĠÉªmpÉ¹uËĲv mÉĻnt
Ã¦É¹ÉĻ st
poÊĬ lz
ĠkÉ¹ÉªtÉªs ÉªzÉĻm
ĠÉĽkspÃ¦nd Éªd
ĠÉªnfÉĻnt É¹i
ĠsnuËĲp i
ĠÉĶk ÊĥÉĻn
ĠÉªndÉªst ÉªÅĭkt
ÊĥÃ¦ks wÉĽÉ¹i
ĠduËĲpl oÊĬ
ĠnÉĻbÉ¹ Ã¦skÉĻ
h Éĳp
k ÉĶÉ¹s
w ÉªÅĭ
w Éĳl
É¹ aÊĬ
Ġs aÊĬÉĻÉ¹
Ġb ÉĳÉ¡
Êĥ tiËĲ
Ġf ÉĶnt
ÊĴ ÉľËĲd
Ã¦t i
ĠÎ¸ ÉĽft
juËĲ ÊĥÉĻnz
Ġv oÊĬl
ĠpÉ¹ aÊĬ
ĠlaÉªk ÉªÅĭ
ĠkÃ¦ bÉªd
ĠtÉ¹ Éĳli
ĠaÊĬt É¹eÉªd
Éªst ÉĻ
ĠÉ¡É¹ eÉªn
ÉĽnd ÉĻl
ĠkÉ¹ Ã¦Åĭk
ĠkÉ¹ Éĳps
ĠÉĳ z
ĠÊĮm iËĲliÉĻ
ĠbÃ¦k stÉĻÉ¹
ĠhÃ¦nd fÉĻl
ĠÉĻÉ¹É¹ aÊĬzd
ĠÉªnd ÉĽks
ĠpÉĻÉ¹sÉĽnt Éªd
ĠdÉªÉ¹ aÉªvd
ĠaÉªv i
ĠÃ¦l Éªk
ĠkÉĻnt É¹Ã¦kt
ĠbÉĶl t
ĠdÉªsk aÊĬnt
ĠsÉªÉ¹ iÉĻ
ĠÃ¦ns ÉĽstÉĻÉ¹z
ĠdÉªz aÉªnz
ÉĶs i
ĠÉĻb sk
ĠfÃ¦kt ÉĻÉ¹
ÊĴoÊĬ ks
ĠtÉ¹Ã¦ns ÉªÊĥÉĻn
ĠviËĲ ÉĽs
ĠÃ¦ks ÉªdÉĻnts
ĠhÉĶ ks
ĠdaÊĬt fÉĻl
ĠÉ¡É¹iËĲ di
ĠÊĮtÃ¦k ÉªÅĭ
ĠfeÉªvÉĻÉ¹É¹Éªt s
ĠÉ¹ÉªmÉĽm bÉ¹ÉĻns
ĠsÊĮbd Éªv
ĠvÉĳl juËĲmz
ĠÊĮtÉĽmpt ÉªÅĭ
ĠweÉªst bÃ¦skÉªt
ĠÉ¹ÉĽz ÉªdÉĻnts
ĠsaÉªk oÊĬ
ĠmuËĲn laÉªt
ĠkÉĻntÉªnjuËĲ ÉĻs
ĠkÉ¹Éª m
ĠspÉ¹ÉĽd ÉªÅĭ
ĠÉĽksaÉªtÉªd li
ĠÉªÉ¡n ÉĶÉ¹d
ĠsÉĽpÉĻÉ¹É¹ eÉªÊĥÉĻn
ĠstÉľËĲ É¹ÉªÅĭ
ĠkÉĳÅĭk ÉĻÉ¹d
ĠkÉĻntÉ¹oÊĬ lz
ĠhÃ¦bÉªt Ã¦t
ÉªtuËĲ ÊĥÉĻnz
ÊĴÉªs lÉĻt
ĠÉĶÎ¸ÉĻÉ¹É¹ aÉªzd
ĠÉ¹oÊĬb Éĳt
ĠÉĽmf ÉĻsÉªs
ĠÊĥÊĮv ÉĻl
ĠÉ¡Ã¦st ÉĻn
ĠÉĽÅĭkaÊĬnt ÉĻÉ¹
ĠfÊĮ tiËĲ
ĠklÉĶÉ¹ aÉªd
ĠÉªndoÊĬn iËĲÊĴÉĻ
ĠÉ¡Ã¦lÊĮks i
j ÉĳÅĭ
Ġ ÉĻÉ¹É¹Éª
É¹ Ã¦f
ĠÃ¦ ÊĥÉĻÉ¹
st ÉĽp
ĠÃ° Ã¦nÉĻn
Ġm Ã¦Êĥ
Ġf iËĲz
Ġl Éĳl
ĠkaÉª ÊĮÅĭ
ÊĴ Éªsts
ÉĳÉ¹ mz
ĠÉ¹ eÉªk
ĠÎ¸ iËĲvz
ĠoÊĬ ÉªÅĭ
ĠoÊĬ Î¸
ĠÊĥ Ã¦m
ĠhÉª ÉªuËĲ
ĠfÉĶÉ¹ kÃ¦st
ÉĽm pÉĻÉ¹É¹
ĠsÉĽ ktÉĻÉ¹
ĠfÉ¹ eÉªt
ĠfÉ¹ Éĳk
Ġv ÉªÊĥÉĻl
ĠsiËĲ É¡
ĠÃ¦t ÉĻÉ¹
ÉĻm pl
ĠÉªnt É¹uËĲd
ĠkÉ¹ Ã¦m
ĠkÉ¹ ÊĮÊĥt
eÉªz ÉĻl
ĠtiËĲ ÉĽf
ĠÊĮÉ¡ É¹ÉĽsÉªv
Ġfl ÊĮÊĥ
ĠpleÉª ÉĶfs
ĠkÃ¦nt Éĳnz
ĠdÉªs ÉĽmbÉĻÉ¹É¹
ĠmÊĮt ÉĻÉ¹É¹ÉªÅĭ
ĠdÉªÉ¹ li
ĠÃ¦l aÉªn
ĠÊĮd ÉĶÉ¹
ĠfaÊĬnd ÉªÅĭ
ĠÉĽÉ¡z Éªb
stÉ¹ ÊĮkt
ĠbÉľËĲ m
ĠdÉªv oÊĬÊĥÉĻn
ÊĴÉĽkt Éªvz
ĠbeÉªs Éªz
aÉªÉĻÉ¹ n
ĠhÉĶÉ¹s mÉĻn
ĠsÉĽl ÉĻÉ¹É¹i
ĠbÉªld ÉĻÉ¹z
ĠÉ¡Ã¦s pÉªÅĭ
ĠpÃ¦t ÉĻn
ĠstÉ¹ÉĶÅĭ É¡Éªst
ĠpÉĻliËĲs mÉĽn
ĠkÉĻl Ã¦b
Ã¦v tÉĻ
ĠÉ¹Éĳ z
ĠkÉĻnsÉªd ÉĻÉ¹É¹ÉĻbli
ĠpÉĳ stÉĻ
ĠkÉĶÉ¹ pÉĻÉ¹É¹
ĠÉ¹oÊĬz ÉĻv
ÊĴÉªt ÉĻbÉĻl
ĠiËĲvnÉªÅĭ z
ĠdaÊĬt s
ĠÉªlÉĻstÉ¹ eÉªÊĥÉĻnz
ĠaÉªdÉĽnt ÉªkÉĻl
ĠkÉĻnstÉ¹ ÊĮkt
ĠkÉĻnstÉ¹ ÊĮktÉªd
ĠÉ¡Ã¦b ÉĻÉ¹É¹
ĠÉ¡Ã¦b É¹iËĲÉĻl
ĠÉĽmb Ã¦É¹ÉĻst
ĠkÃ¦p ÊĬÉ¹
ĠÉªk ÉªnÉĳm
ĠÉ¹Éªst ÉĶÉ¹
ĠÉ¹Éªn eÉª
ĠdÉĽp Î¸
ĠbÊĮm pt
ĠbÊĮz ÉªÅĭ
ĠpÊĮblÉªÊĥ ÉĻÉ¹z
ĠpÃ¦nd ÉĽmÉªk
ĠmaÊĬ Ã°z
ĠkÃ¦tÉªÉ¡ ÉĻÉ¹É¹iz
ĠtÉĳt Éĳ
piËĲd iÉĻ
ĠkÉĽnt ÊĮki
ĠpÉªts bÉľËĲÉ¡
ĠbÉ¹ÉªÉ¡ eÉªd
ĠÉ¹ÉĽsÉªp iËĲ
ĠkoÊĬÉªns ÉªdÉĻns
ĠÉ¹ÉĽkÉĻm ÉĽndÉªd
ĠkjÊĬÉ¹É¹i ÉĻsli
h ÉĽÉ¹d
k iËĲpÉĻÉ¹
ÊĮ stÉĻÉ¹É¹i
ĠÃ¦ biËĲnoÊĬ
Ġh ÉĽÉ¹d
Ġd eÉªdÉĻÉ¹
Êĥ tiËĲtiËĲ
É¡ Ã¦n
É¡ ÊĮn
Ġf ÊĮkt
Ġf eÉªdÉªd
Ġf Éªliz
Ġn Éªm
Ġl ÉĽks
ĠaÉª ÉĻÉ¹z
ĠaÉª ÉĻd
ĠÉ¡ Éªld
ĠiËĲ meÉªl
ÉĻÉ¹É¹ ÉĽkt
Éªz ÉªbÉĻl
ÊĮn eÉªt
ĠsiËĲ biËĲÉĽs
É¹iËĲ É¡
ĠÊĮp wÉĻÉ¹d
ĠÊĮp ÉªÉ¹ÉªÅĭ
Ġpl ÊĬÉ¹É¹ÉĻl
ÉĻm b
ĠpÉ¹ ÊĮÊĥÉĻ
ĠÊĮn iÉĻnz
ĠÉĽn biËĲsiËĲ
ĠpiËĲ eÉªt
ÉĶl ÉªÅĭ
ĠÉĶÉ¹ iÉĻnt
ĠlÃ¦ s
ĠmÉĳt oÊĬ
ft ÉĻbli
Ġkl Éªps
ĠÉªnt ÉªÉ¹iÉĻÉ¹
Ġbl Éĳkt
Ġfl ÉĶ
ÊĮk ÉĻl
oÊĬk oÊĬ
ĠmÉªs ÉĻlz
ĠÉ¹uËĲ stÉĻÉ¹
ĠdÃ¦d ÉĶ
ĠsÉªÅĭ ÉĻÉ¹z
ĠhÃ¦p ÉªÉĻÉ¹
ĠpÉĳÉ¹ kt
ÊĴÉĽn oÊĬÉĻ
ĠÉĽls Éªz
ĠpÉĳp i
ĠhÊĮd sÉĻn
ĠbÉªliËĲv ÉªÅĭ
ĠÉ¹ÉªmÉĽmbÉĻÉ¹ É¹ÉªÅĭ
ĠmaÉªk ÉĻlz
ĠmÃ¦d ÉªsÉĻn
ĠstÉĳÉ¹ vÉªÅĭ
ĠkÊĮp ÉĻlz
ĠneÉª oÊĬmi
ĠpÉ¹ÉĻf aÊĬnd
ĠpÉ¹ÉĻt ÉĽstÉªd
ĠmÃ¦s Éªz
ĠbÊĬl z
ĠsuËĲpÉĻÉ¹ v
ĠÊĥeÉªk ÉĻn
ĠdÉĽfÉªn ÉĻt
ĠpÉĻÉ¹fÉĶÉ¹m ÉĻnsÉªz
ĠÉ¡ÉªÉ¡ lÉªÅĭ
ĠstÉ¹ÊĮÉ¡ ÉĻlz
ĠÉªnfluËĲ ÉĻnst
ĠsÉĳb z
ĠdÉªzaÉªn ÉĻÉ¹
ĠpÊĮn ÉªÊĥt
ĠeÉªk ÉĻÉ¹z
ĠsÉĽpÉ¹ ÉĻtli
ĠspÉªn ÉªÅĭ
ĠÎ¸iËĲ oÊĬ
ĠeÉªs ÉľËĲkÉĻmflÉĽks
ĠsÉªÉ¡nÉªfÉªk ÉĻntli
ĠbÃ¦kw ÉĻÉ¹d
ĠfÉ¹iËĲz ÉªÅĭ
ĠÉ¡Éĳs Éªp
ĠmjuËĲ hÊĮm
ĠdaÉªnÉªÅĭ É¹uËĲm
ĠbÊĮst Éªd
ĠÉĽmbÉ¹ eÉªs
ĠkoÊĬÉĶÉ¹d Éªn
ĠkÉĻmpÃ¦ É¹ÉªsÉĻn
ĠtÃ¦blÉĻt s
ĠiËĲs ÉĻnd
ĠhÉªÉ¹oÊĬ Éªk
ĠÉĶÉ¹Î¸ ÉĻd
ĠvÉĳlkeÉªn oÊĬ
ĠkliËĲv lÉĻnd
ĠÉªkÉªnÉĳm ÉªjÉĻ
b ÉĻnt
Ã¦ É¹ÉĻn
ÉĶ É¹Éª
Ġs Ã¦É¡
Ġd aÉªm
Êĥ ÉĻz
Êĥ eÉªnz
Ġm ÉĶÅĭ
Ġf É¹Éªts
Ġl Éªnzi
ĠÉ¡ É¹Éªd
ÊĴ ÉĽndÉĻ
ĠÉªn ÉªÊĥÉĻl
ĠÉªn ÉĽvÉªt
ĠÎ¸ ÊĮnd
ĠÊĥ ÉĶl
ÉĻÉ¹É¹ ÉĻÉ¹z
Ġst ÉªÅĭ
Ġst ÉĽl
ĠfÉĶÉ¹ ÉĽst
Éªk ts
ĠÉĳÉ¹ É¹ÉĽs
ĠÊĮp t
ĠÊĮp ÉĶÉªnt
ĠnÉĳt ÉªÅĭÃ¦m
ÉĽs ÉĻnt
ĠÉĽn biËĲ
ĠÉ¡É¹ ÊĮndi
Ġsp Éĳns
Ġsk aÉªz
Ġsk Ã¦ndÉĻl
ĠÉĳ É¡
ĠeÉª pÉ¹ÉĻn
ĠsÉľËĲ biÉĻ
ĠweÉª lÉªÅĭ
ĠwÊĮts oÊĬ
ĠkÉĻm Éªtiz
Ġsw ÉĶÉ¹n
ĠsÉªt Éªn
ĠnaÉªt taÉªm
ĠsÉªÅĭ ÉĻÉ¹s
ĠÉĽk oÊĬ
ĠuËĲ m
ĠfÉĽl ÉĻ
ĠÉĽksp ÉľËĲts
ĠfÉĶÉ¹m ÉĻli
ĠdÉªp É¹
ĠdÉªp lÉĻm
ĠkÉªÅĭ stÉĻn
ĠÉ¡ÉĳÉ¹d Éªd
É¹Éªz eÉªÊĥÉĻn
ĠneÉª Î¸ÉĻn
ĠsÃ¦nd ÉĻÉ¹z
ĠÊĥÉªp ÉªÅĭ
ĠmÉĻ hÃ¦mÉªd
ĠÉ¹Éªv oÊĬlt
ĠkwÉªk ÉĻÉ¹
Ġspl Éªnt
ĠkÉĳmÉĻn wÉĽl
ĠtÉ¹ÊĮst ÉªÅĭ
ĠlÉĽm juËĲl
ĠkjuËĲ bÉĻ
ĠÊĥoÊĬld ÉĻÉ¹É¹
ĠfÉªlm ÉªÅĭ
ĠÉ¹Éªb ÉĻnz
ĠÃ¦É¹ ÊĮbÉªk
ĠhÉªst ÉĶÉ¹iÉĻnz
ĠÉĳd z
ÊĥÊĬ nz
ĠdÉ¹ÉĽd fÉĻli
ĠsÉĳÉ¹d iËĲnz
ĠÉĶlt ÉĻÉ¹d
ĠdÉªstÉ¹ÉĶÉª ÉªÅĭ
ĠpiËĲn Éªs
ĠÊĮns ÉľËĲtÉĻn
ĠdÉªziËĲz Éªz
ĠoÊĬb eÉªd
ÉĻÉ¹v eÉªÊĥÉĻnz
ĠÊĮdvÃ¦ns ÉªÅĭ
ĠÉ¡É¹aÊĬ lÉªÅĭ
ĠmÉĽmbÉĻÉ¹ ÊĥÉªp
ĠÃ¦Î¸l iËĲt
ĠÉªmpl ÉªmÉĻnt
ĠÉĳÉ¹É¡juËĲ mÉĻnts
ĠbÉ¹ÉĶdkÃ¦st ÉªÅĭ
ĠÊĮfÉĽkÊĥÉĻn ÉĻt
ĠkoÊĬÉĳp ÉĻÉ¹É¹eÉªÊĥÉĻn
ĠdÉªstÉªÅĭÉ¡w ÉªÊĥ
ĠhÊĮÅĭÉ¡ ÉĻÉ¹É¹i
ĠÉĽmbÃ¦É¹ÉĻs ÉªÅĭ
ĠÉĻpoÊĬn ÉĻnt
ĠnÃ¦v ÉªÉ¡
ĠskÉĽl ÉªtÉĻn
ĠÃ¦bÉĻÉ¹ É¹Éªd
ĠÃ¦lt ÉªtuËĲd
ĠÃ¦ntoÊĬn ÉªoÊĬ
ĠÉĻbsk jÊĬÉ¹
ĠfÊĮtiËĲ É¡
ÊĥtiËĲtiËĲ piËĲ
ĠsÉªÅĭÉĻÉ¹s ÉĶÅĭ
h ÉĻÉ¹
j ÉĻÉ¹z
l Ã¦d
ÉĻ Åĭk
ÉĽ Ã°
ĠÃ¦ li
oÊĬ ÊĴÉĻÉ¹
É¹Éª ft
Ġw ÉĶÉ¹t
Ã¦ vÉĻl
Ġk ÉĶÉª
Ġt ÊĮsk
Ġs Éĳf
Êĥ Ã¦nd
Ġj Ã¦k
Ġf ÉªÉ¹ÉªÅĭ
Ġn ÊĬÉ¹
Ġn Éªks
Ġp Éªnz
Ã° ÉĽm
ÊĴ ÉĽts
ĠÉ¹ ÉĶÉ¹d
kw aÉªz
ĠsÉĽ kt
ĠbiËĲ ps
ĠnÉĳt s
ĠsoÊĬ ni
ĠsÊĮm ÉĻs
Ã¦k iÉĻ
ĠÉĽn fÉĶÉ¹s
ĠÉĽn ÉªtaÉªm
ĠÉªf ÉªÊĥÉĻnt
iËĲz ÉĻ
ĠbÉ¹ ÊĮÊĥÉªÅĭ
Ġsp eÉªd
Ġkl ÉľËĲk
Éĳl oÊĬ
Ġsk Ã¦t
Ġbl ÊĮf
ĠbÃ¦k jÉĳÉ¹d
Ġfl aÊĬÉĻÉ¹É¹
ĠoÊĬvÉĻÉ¹ taÉªm
É¹uËĲ f
ÉĻz bÉľËĲÉ¡
ĠÉ¹oÊĬ É¡
ĠdÉªs laÉªk
É¹Éªk ÉĻn
ÉĽf ÉĽf
ĠÃ¦l s
ĠmÊĮm blÉªÅĭ
aÉªv z
ĠÉªnv Ã¦l
ĠkÉĳn soÊĬ
ĠlaÉªt ÉªÅĭ
ĠÉ¹Ã¦ li
ĠdÉªp l
ĠwuËĲ ÉĻzbÉľËĲÉ¡
ĠkÉªl ÉĻm
ĠÉĽkspl eÉªnÉªÅĭ
ĠÉĽkspl oÊĬdÉªd
ĠhjuËĲ stÉĻn
ĠkÉ¹Éªs ps
ĠkÉ¹Éªst oÊĬ
ĠwÉĶl sÉĶl
ĠmÃ¦m iz
ĠpÉĳÉ¹k ÉĻÉ¹
ĠÊĮnd aÊĬt
ĠÉ¹aÉª x
ĠmÉĻÉ¹É¹ iËĲnz
ĠkÉĳp ÉªÉ¹
ĠÉĻÉ¹É¹aÉªv z
ĠpÉ¹ÉĻv ÉªÊĴÉĻnz
É¹eÉª li
ĠkÉĻnv ÉľËĲt
ĠmÉĽÉ¹i li
ĠkwÉĶl Éªtiz
ĠÉ¹eÉª vÉĻn
ĠlÉĶÉª ÉĻÉ¹z
ĠjoÊĬ h
ĠdÉĽl tÉĻ
ĠtÉĽkn iËĲks
ĠÉªnh ÉĽÉ¹Éªt
ĠhÉªd iÉĻs
ĠdÉªspl eÉªd
ĠpÉªÉ¹ s
ĠÃ¦mb ÉªÊĥÉĻn
ĠtÉ¹Ã¦nspÉĶÉ¹t eÉªÊĥÉĻn
ÊĴeÉªk ÉĻb
ĠtÉĳÉ¹É¡ Éªts
ĠÉĻkÉľËĲ É¹ÉĻns
ĠÉ¡É¹aÊĬ ld
ĠÉ¹uËĲd Éĳlf
ĠhjuËĲm Éªl
ĠÉ¹ÉĽkt Ã¦ÅĭÉ¡ÉĻl
ĠÉĽksplÉĶÉ¹ ÉĻÉ¹
ÊĴÃ¦z mÉªn
ĠÉªntÉĻÉ¹s ÉĽpt
ĠlÊĮÅĭ z
ĠÊĮlÉĽks ÉĻ
ĠfÉ¹ÊĮst É¹eÉªtÉªd
ĠniËĲn ÉĶ
ĠvÉªs ÉªnÉªti
ĠbÉĽÅĭÉ¡ ÉĶl
ĠsÃ¦tÉĻl aÉªt
ĠdÉĳkjuËĲm ÉĽntÉĻÉ¹É¹i
ĠdÉĶbÊĮs ÉĻn
ĠkÉĳnsÉĻlt eÉªÊĥÉĻn
ĠkÃ¦É¹ÉĻ biÉĻn
ĠbÉĶlt ÉªmÉĶÉ¹
k Ã¦t
p ÉĳÉ¹t
w ÉĶl
Ġt eÉªt
Ġd Ã¦s
Ġb ÉªÅĭÉ¡oÊĬ
Êĥ Ã¦ps
É¡ oÊĬz
Ġp Éª
Ġp ÉĻ
Ġp aÉªz
ĠÉ¡ É¹Éªt
ÊĴ juËĲ
ĠÎ¸ ÊĮd
Éªs i
ÉĽl ÉĻÉ¹z
ĠfÉĶÉ¹ l
ĠmiËĲ tÉĻÉ¹
ĠlaÉª nd
ĠsiËĲ mÉĻn
ĠhÉľËĲ ld
Éªv ÉĻlÉĻnt
ĠhÃ¦d Ã°ÉĽm
ĠÉĶÉ¹ bÉªt
ĠwÉĽn s
ĠÉªnt ÉĻlÉĽkt
Ġsk Ã¦l
aÉªz ÉĻÉ¹z
Ġsl ÉĽd
ĠtwÉĽnti fÉĶÉ¹
ĠnuËĲ kÃ¦sÉĻl
ĠbÉªÉ¡ ÉĻÉ¹É¹
ĠtÉ¹aÉª sÉªkÉĻl
ĠfiËĲ bÉĻl
ĠÃ¦kt ÉĻÉ¹É¹
ĠpeÉª v
ĠkÉĳm ÉľËĲs
ĠÉ¹Éªt ÉĶÉ¹tÉªd
ĠkeÉª oÊĬ
ÊĥÉĻÉ¹É¹ ÉĻÉ¹
ĠnoÊĬn oÊĬ
ĠÉ¹ÉĽk lÉĻs
ĠdÉªp Éĳz
ĠpÉľËĲsÉĻn ÉĽl
ĠbÉĳÉ¹ bi
ĠÊĮÅĭk aÉªnd
ĠbÉĳm ÉĻÉ¹z
ĠÉ¹Éªp É¹oÊĬt
ĠsÉªs iËĲliÉĻ
ĠkÉªl Éĳm
ĠdÉ¹aÉªv ÉĻÉ¹É¹
ĠmÉĳ f
pÉĽkt Éªv
ĠfÉĽÉ¹ vjuËĲ
ĠpÉ¹ÉĻt ÉĽst
ĠwÊĮÉ¹i ÉªÅĭ
ĠluËĲz Éªz
ĠkÉĳns ÉĻÉ¹ts
ĠbÉĶ ÉªÅĭ
ĠnÉªk oÊĬl
ĠsÊĮ pl
ĠsÃ¦l ts
ĠpÉ¹Ã¦ktÉªs ÉªÅĭ
ĠkÉ¹Éªt Éªk
ĠÉªÅĭkÉ¹iËĲs Éªz
ĠmÉĳÉ¹kÉªt ÉªÅĭ
ĠsÉĻb mÉªtÉªd
ĠdÉĶ sÉĻn
ĠdÉ¹Ã¦É¡ ÉªÅĭ
ĠkÉľËĲt ÉĻsi
ĠfÊĮnd ÉªÅĭ
ĠÉĽkstÉ¹ Ã¦kt
ĠfeÉªv ÉĻÉ¹É¹ÉĻbÉĻl
É¹Éªl eÉªtÉªd
ĠpÉªÉ¹ ÊĮm
ĠmoÊĬs Éªz
ĠnÉĳv ÉĻlz
ĠzoÊĬ É¹ÉĻ
ĠÉĳnÉĻÉ¹É¹ ÉĽÉ¹i
ĠtÊĮm bÉĻld
ĠstÉĽÉ¹ keÉªs
ĠpÉĻlaÉªt li
ĠÉ¡Éĳs pÉĻl
ĠwaÉªnd ÉªÅĭ
ĠÊĥÉ¹iËĲ ks
ĠbÉ¹iËĲd ÉªÅĭ
ĠlÉľËĲ nt
ĠsÊĮp ÉĻÉ¹É¹
ĠpÃ¦É¹ÉĻm aÊĬnt
ĠbÉĽvÉĻÉ¹ li
ĠkÉĳmpÉĻns eÉªÊĥÉĻn
ĠÉ¹ÉĽzÉĻl uËĲt
ĠÊĮnnÉĽsÉªs ÉĻÉ¹É¹i
ĠbÉĳÉ¹l ÉĽtÉĻ
ĠbÉĳz wÉĽl
ĠÃ¦lÉªb ÉĳmuËĲ
ĠziÉĻÉ¹oÊĬÎ¸É¹iËĲ ziÉĻÉ¹oÊĬ
ĠwÉĶÉ¹s ÉĶ
ĠkÉĳmÉĻnwÉĽl Î¸
b Éĳ
b oÊĬn
h ÉĶl
h ÉĳÉ¡
É¹ ÉĶs
ÉĻÉ¹ mÉĻn
eÉª ps
Ġk ÉĶÉ¹i
Ġk oÊĬdz
Ġt iËĲdiËĲ
Ġh Éĳd
Ġf Ã¦ks
ĠÉ¡ ÊĮts
ÊĴ Ã¦s
Éªt ÉĻs
ĠÊĥ ÉĽv
ĠnoÊĬ bÉĽl
Ġst Éĳl
ĠfÉĶÉ¹ ks
ĠÃ°ÉĽÉ¹ biËĲ
Ġv eÉªnz
Ġpl ÊĮk
Ã¦k st
ĠÉ¡É¹ eÉªdi
ÊĴÊĮst ÉªfaÉªd
ÉĽst É¹i
ĠwÊĬd i
ĠkÉ¹ eÉªn
Ġsl ÉľËĲ
Ġkw aÉªÉĻÉ¹
ĠÊĮs aÉªl
ĠÉªm ÉĶÉ¹t
ĠmÉªs fÉĶÉ¹t
ĠbÉªn Éĳk
Ġsw ÉĽl
ĠÉªnd uËĲs
ĠpÉªk ÉĻlz
ĠÉªnv ÉªzÉªbÉĻl
Ã¦p st
ĠÉ¹Éªs iËĲt
ĠfÉĽl ÉĻz
ĠlaÉªf z
ĠboÊĬ h
saÉªd Éªd
ĠkÉĳ ÅĭkwÉĽst
ĠfÉĶl sÉĽt
ÉĻf oÊĬn
ĠÉ¹Ã¦ f
ĠbluËĲ m
mÉªn ÉĻlz
ĠmÉĳÉ¹ tiËĲn
ĠÉĽksk luËĲd
ĠbÊĬ ld
ĠloÊĬ ÉĻÉ¹É¹
ĠpÃ¦s pÉĶÉ¹t
ĠstÉĶÉ¹ mz
ĠÉĽkspl oÊĬd
ÊĴoÊĬ h
ĠmÉĽs ÉªÅĭ
wÉľËĲ Ã°i
ĠsÃ¦nd bÉĳks
ĠbÉ¹Éªt ÉĻnz
ĠhÃ¦m p
ĠÉ¹aÉª fÉĻlz
ĠsÉĻpÉĶÉ¹t s
ĠÉĳktoÊĬ bÉĻÉ¹É¹
ĠhÉĶ ld
ĠvaÉª ÉĻ
ĠwaÉªd ÉĻÉ¹
ĠdÉªkl aÉªnd
ĠvÃ¦n z
ĠsaÉªk ÉĻlÉĳd
ĠbaÉªt s
ĠsÉĻsp ÉªÊĥÉĻnz
ĠspiËĲd ili
ĠtÃ¦l ÊĮp
Ã¦ÅĭÉ¡ oÊĬ
ĠkÉĻÅĭk ÉĶÉ¹d
ĠwÊĮnd ÉĻÉ¹z
ÊĥoÊĬ kt
ĠboÊĬn ÉĻs
ĠwÉĶÉ¹d É¹oÊĬb
ĠkÉĻmjuËĲnÉªk eÉªt
ĠveÉªk ÉĻnt
ĠÉĶtÉĻm Ã¦tÉªkli
ĠdÉĽv ÉĻlz
ÊĥiËĲv mÉĻnt
ĠÉĽkspÉĽÉ¹Éª mÉĻnts
ĠÊĮtl Ã¦ntÉĻ
ĠdÉĳÉ¹t Éªd
ĠtÃ¦d poÊĬlz
ÊĥoÊĬk ÉªÅĭ
ĠkÃ¦É¹ ÊĮv
ĠdÉ¹aÊĬn ÉªÅĭ
ĠkÃ¦f eÉª
ĠskiËĲ mz
ĠÉ¹ÉĽpt aÉªlz
ÊĮns ÉªeÉªÊĥÉĻn
ĠÊĮtÉ¹ Ã¦kÊĥÉĻn
ĠmÉĽdÉªt ÉªÉ¹eÉªniÉĻn
É¹ÉªÉ¹ z
pÃ¦É¹ÉĻ É¡É¹Ã¦f
ĠpÃ¦khÃ¦Åĭ bÉĻ
ĠÉĶÉ¹Î¸ÉĻd Éĳks
ĠÊĮndaÊĬt Éªdli
b ÊĮt
h ÊĮz
k eÉªk
s pÉ¹
Ġ eÉªtiËĲ
É¹ Éĳp
iËĲ lÉªÅĭ
Ġw Éĳd
sk oÊĬp
Ġt Éªkli
Éĳ bi
Ġh ÊĬkt
Ġs ÉĻÉ¹t
Ġm eÉªts
Ġf É¹Éª
Ġn ÉĽv
ÉĻl iËĲn
Ġl iËĲt
Ġl eÉªlÉĻ
ÉĶÉ¹ ÉĻs
ĠÉ¹ aÊĬts
ĠÎ¸ eÉª
ĠÎ¸ É¹Éªl
ĠÊĥ aÊĬÉĻÉ¹É¹
ĠhiËĲ lÉªÅĭ
juËĲ ts
Ġv ÉĽlv
ĠsiËĲ ld
ĠsÊĮm pleÉªs
ĠaÊĬt laÉªn
iËĲd z
ÊĴÊĮst ÉªfaÉª
Ã¦d i
Ġsk aÊĬnd
ĠhoÊĬ hoÊĬhoÊĬ
ĠÉ¡ÊĬd i
Ġsl eÉªn
ĠbÃ¦k ÊĮp
ĠkÉĶ É¹Éªd
ĠpÉĻÉ¹ f
ĠmÃ¦n ÊĥÉĻn
ÊĴiËĲ piËĲ
ĠmeÉªd ÉĻn
ĠÉ¹uËĲ lÉªÅĭ
ĠÊĮt ÉĻÉ¹
ĠsÉªÅĭ ÉĻÉ¹É¹
ĠÉ¹Éªt eÉªnd
ĠweÉªt s
ĠuËĲ uËĲ
ĠÉ¹Éªl iËĲv
ĠÉ¹ÊĮn ÉĻweÉª
Ã¦b jÊĬl
ĠdÉĳl ÉĻÉ¹É¹
ĠfeÉª lÉªÅĭ
ĠdÉĳÉ¡ iz
ĠflÉĶÉ¹ ÉĻnsÉªz
ĠbÉĳÉ¹ oÊĬd
ĠsÃ¦t s
Ġskw Éªd
ĠÊĥÉĶÉ¹t ÉĻÉ¹
ĠhÉĳÉ¹ p
ĠbÉĽl dÉĻn
ÊĥÉĳÉ¹ liz
ĠmÉĻ sk
ĠdÉªÉ¹ÉĽkt ÉĻÉ¹É¹i
ĠmÉĳd ÉĻlÉªÅĭ
ĠtÉĽst ÉĻmÉĻnt
ĠpÉªÉ¡ lÉªt
ĠpÃ¦l ÉĻst
ĠpÉ¹ÉĻp ÉĶÉ¹ÊĥÉĻn
mÉªt Éªv
ĠÉ¹oÊĬm ÉªoÊĬ
ĠtÉĶl Éªst
ĠkÃ¦st ÉªÅĭ
ĠsoÊĬÊĥÉĻl Éªst
ĠlÊĮki li
ÊĥÃ¦n ÉĻlz
ĠtÉĽÉ¹ ÉĻÉ¹É¹
ĠfÉ¹aÉªt ÉĻn
ĠÉ¹ÉªleÉªÊĥÉĻn ÊĥÉªps
ĠbÉ¹aÉª ÉĻnt
ĠsÉĻb mÉªt
ĠÉ¡É¹Ã¦b d
ĠlÉĶs Éªz
ĠÉĽntÉĻÉ¹t eÉªnd
ĠdÉĽp Î¸s
ĠkÉ¹oÊĬm ÉĻÉ¹z
ĠÉĻpÉªn iÉĻnz
ĠoÊĬb ÉĳmÉĻ
ĠdaÉªv ÉľËĲs
ĠÉĽksÉĻÉ¹s aÉªzÉªz
ĠkwÉĶÉ¹tÉĻÉ¹ bÃ¦k
ĠkÉĻmjuËĲnÉªk eÉªÊĥÉĻnz
ĠhÉĽz ÉªteÉªÊĥÉĻn
ĠdaÉªÉĻmÉĻnd z
ĠveÉª É¡ÉĻs
ĠstÉ¹aÉª ks
ĠsÊĮbst ÉĻns
ĠvaÉªt ÉĻm
ĠfÃ¦b É¹Éªk
ĠÉĽÅĭkw aÉªÉĻÉ¹d
ĠklÉªn Éªk
lÃ¦s Éªz
ĠhÉĶnt Éªd
ĠhÉĳspÉªt ÉĻlz
ĠfÉľËĲt ÉĻl
ÉªluËĲ jÉĻ
ĠbÉĽÉ¹Éª ÉĻl
ĠskÉ¹iËĲ md
ĠÉĽntÉĻÉ¹pÉ¹ aÉªz
ĠkÉ¹ÊĬk Éªd
ĠvÉĶ Éªst
ĠpÉ¹ÉĻl ÉĶÅĭ
ĠeÉªbÉ¹ ÊĮm
ĠsÃ¦lts bÉľËĲÉ¡
ĠfÉĶlsÉĽt oÊĬ
ĠsÉĻÉ¹t ÉªfÉªk
k uËĲ
l ÊĮv
l Ã¦f
m Ã¦t
p ÉĽt
t ÉľËĲm
É¹ ÉĽp
Ġk oÊĬzi
Ġh juËĲz
ĠÉª É¹ÉªÅĭ
Êĥ aÉªm
Êĥ iz
Ġp ÊĮv
Ġl ÉªÅĭÉ¡
ĠaÉª Éĳnz
ĠÉ¡ eÉªnÉªÅĭ
ĠÉªn pÊĬt
ĠwÉª ld
Ġv Ã¦k
ĠbÊĮt Ã¦liÉĻn
aÉªn ÉĻl
ĠsÊĮm ÉĻnd
ĠÊĮn st
ĠkÊĮm ftÉĻbli
ĠÉ¹aÉªt ÉĻÉ¹É¹
ĠbÉ¹ Éĳ
ĠbÉ¹ ÉĽndÉĻn
Ġsp ÉĽns
Ġsp ÉªtÉªÅĭ
Ġsk eÉªt
ĠkÉ¹ ÊĮnt
Ġsl ÊĮm
bÉĻÉ¹ oÊĬ
Ġfl Éĳk
ĠÊĮs eÉªl
ĠÊĮs aÉªnd
ĠÉĽl vÉªs
ĠhiËĲz hÃ¦d
ĠstÉ¹ Ã¦p
ĠhaÉª loÊĬ
ĠdÉªf ÉĽndÉªÅĭ
ĠhÊĮ ÊĮ
ĠmÊĮm bÉĻlz
ĠmÉªn Éªm
ĠfÉĽl d
ĠÉĽÉ¹ fiËĲld
ÉĽv ÉĻl
ĠÉĽd nÉĻz
ĠÉ¹Éªl eÉªt
ĠhÉĳÉ¹d Éªst
É¹iËĲt ÉĻ
ĠpÉľËĲ m
ĠÉ¹ÉĽk ÉĻns
ĠÃ¦m juËĲn
ĠleÉª ÉĻÉ¹z
ĠÉĻb lÃ¦st
ĠÉ¹Éªz ÉĶÉ¹t
ĠkÉĳnt ÉªnÉĻnt
ĠhÉĳÉ¹ É¹uËĲ
ÊĥÉĳÉ¹ l
ÉªÉ¡n ÉĻn
ĠdÉĳÉ¹k ÉĻÉ¹
ĠpÉ¹iËĲ s
ĠÉ¡lÃ¦d li
ĠkÉ¹Éªst iËĲnÉĻ
ĠÉ¹Éĳ bi
ĠseÉªf ÉĻÉ¹
ĠdÉªm ÉĻk
ÊĴÉªt eÉªÊĥÉĻn
ĠÉ¡É¹Ã¦ndm Ã¦mÉĻ
ĠwÊĮÉ¹i z
ĠdaÉªn ÉĻ
ĠÊĮw eÉªtÉªÅĭ
ĠwÉªnt ÉĻÉ¹z
ĠmÉĳn ÊĮstÉĻÉ¹É¹i
ĠÉĳnt Ã¦É¹ÉªoÊĬ
juËĲm i
ĠkÃ¦Î¸É¹Éªn z
ĠwÉªm pÉĻÉ¹É¹ÉªÅĭ
ĠslÉªp ÉĻÉ¹É¹i
ĠtÃ¦p ÉªÅĭ
ĠdÉªsaÉªd z
ĠdiËĲd ÊĮbÉĻljuËĲdÊĮbÉĻljuËĲdÊĮbÉĻljuËĲ
ĠÉĶst Éªn
ĠmÉªks ÉªÅĭ
ĠdaÉªÉĻl ÉĳÉ¡
ĠÉĽÎ¸ n
ÊĥiËĲp ÉĻÉ¹
ĠsÉªÅĭÉ¡ jÊĬlÉĻÉ¹
ĠsÊĮk ÉªÅĭ
hÃ¦nd Éªd
ĠdwÉĽl ÉªÅĭ
ĠÊĥÃ¦ É¹ÉĻn
ĠÉªlÉĽktÉ¹Éªk ÉĻl
ĠtÉĽmpÉĻÉ¹É¹ ÉĽÉ¹Éªli
ĠtiËĲz ÉªÅĭ
ĠtÉ¹ÉĽm bÉĻld
ĠtÉ¹ÊĮmp Éªt
ĠbÊĮl k
ĠdiËĲiËĲ ÉĽn
ĠÉĶltÉĻÉ¡ ÉĽÃ°ÉĻÉ¹É¹
ĠmÊĮl Éªnz
ĠpÉĽd É¹oÊĬ
ĠpÊĮt É¹Éª
ĠkÉĳmplÉªk eÉªÊĥÉĻnz
ĠkÉĻnsÉªst ÉĻnt
ĠsÉĽs ÊĮmi
ĠÉªntÉªm ÉĻt
ĠbÃ¦É¹ ÉĻlz
ĠÉ¹ÉªlaÉª ÉĻbÉĻl
ĠÃ¦st É¹ÉĻn
ĠdÉĳlf Éªn
ĠlÃ¦ndl ÉĶÉ¹d
Ã¦pÉĻl Éªs
ĠflÉĽm ÉªÅĭ
ĠÉĽlÉªÉ¡ ÉĻnt
ĠÊĮsaÉªl ÉĻm
b Éĳb
d Éªn
s aÉªzd
w ÉĶt
É¹ aÉªz
Ġw ÉªÅĭk
Ã¦ É¹Éªd
eÉª ÉĽm
Ġk Ã¦k
Ġt ÊĬÉ¹É¹ÉªÅĭ
Ġh ÉĽÉ¹z
ĠÉª p
Ġd ÊĮnd
Êĥ eÉªk
É¡ oÊĬÉªÅĭ
Ġp ÉĻd
Ġp ÊĮb
Ġp uËĲmÉĻ
ĠÉ¡ iËĲ
ĠÉ¡ É¹Éªn
ĠÉªn ÉĶÉ¡
ĠiËĲ diËĲ
ĠhÃ¦ nz
ÉĽl ÉĻn
Ġst ÉĶÉ¹d
Ġst ÉªÅĭki
Ã¦n ÉĻÉ¹
ĠsÉĽ Î¸
Éªl aÉªn
ĠwÉľËĲ ÊĥÉªpt
ÊĮz i
Éªf ÉªÊĥ
ĠÉĽks ÉªbÉªÊĥÉĻn
ĠhuËĲ ÉĻv
ÉĻt É¹i
Ġsl Éªd
Ġfl ÊĮfi
weÉª v
ÊĴuËĲ lz
ĠpÉ¹Éª mÉªtÉªv
ĠdÉªs oÊĬb
ĠbÉªt ÉĻÉ¹li
ĠdiËĲ ÉĻti
Ġsw eÉªn
ĠdÉªf ÉĻÉ¹É¹
ĠnaÉªt É¹ÉĻd
ĠÉ¡l ÉĶÉ¹iÉĻ
ĠdÉªst ÉªÅĭkÊĥÉĻn
ĠtÉĽn ÉĻnt
ĠÉĽÉ¹ pleÉªnz
ĠpÉ¹Éĳb ÉĻbÉĻl
iËĲk oÊĬ
ÊĴÉªn jÉĻ
ĠflÉĶÉ¹ z
ĠmÉªl Ã¦n
ĠtÉ¹iËĲ zÉĻn
ĠkÉĳl ÊĮmz
ĠfÃ¦kt ÉĻÉ¹É¹iz
ĠbÉĳm ÉªÅĭ
ĠÉ¡É¹iËĲn z
ĠfÉªÊĥ i
Éĳv Éªk
ĠpÃ¦t ÉĻnt
ĠpaÉª ÉĻn
ĠfaÉªt ÉĻÉ¹z
ĠÉ¡Ã¦ Ã°ÉĻÉ¹É¹
ĠbÉĳÉ¹t oÊĬ
ĠpÉĽÉ¹ ÉĻl
ĠkÉĻl ÉĽktÉªv
ĠtaÉªt ÉĻld
ĠdÉªm Éªn
ĠmÉľËĲd ÉĻÉ¹z
ĠpÉ¹Éĳv ÉªdÉĻns
ĠhÉĶ Åĭk
ĠkÉĻmÃ¦nd z
ĠÉ¡É¹iËĲ ks
ĠsÃ¦m ÉĻn
ĠbuËĲ buËĲ
ĠpÉªl oÊĬz
ĠhÉĶÉ¹ heÉª
ĠbÉ¹ÉĽÎ¸ lÉĻs
ĠÉ¹ÉĽz ÉªdÉĽnÊĥÉĻl
ĠmÉĳn juËĲmÉĻnt
ĠbÃ¦sk Éªts
ĠÉ¹ÉªmuËĲv ÉªÅĭ
ĠfÉĳks Éªz
ĠÉªntÉĻÉ¹v ÉĻlz
ĠkÊĮst ÉĻdi
ĠÉªkw ÉªvÉĻlÉĻnt
ÉĽld ÉĻn
ĠÉĽmb ÉĻsi
ĠtÉªm ÉĻÎ¸i
ĠdÉ¹ÉĽd Éªd
ĠkoÊĬk ÉĻn
ĠfÊĮs Éªz
ĠkÉªm bÉĻÉ¹
ĠÉ¡É¹aÊĬ l
ĠpÉĳÉ¹tÉªsÉªp eÉªt
ĠtÃ¦n jÉĻ
ĠkÉĳnsÉĻnt É¹eÉªÊĥÉĻn
ĠÊĮpÉ¹ ÉĽnt
ĠfuËĲ lz
ĠÊĮmjuËĲz ÉªÅĭ
ĠdÊĮmp ti
ĠmÊĮÊĥ É¹uËĲm
ĠvÉĽÉ¹Éª eÉªÊĥÉĻnz
ĠsÉĳ vÉĻÉ¹
ĠpÉ¹ÉĽd ÉĻtÉĻÉ¹z
ĠÃ¦lÉªÉ¡ eÉªtÉĻÉ¹z
ĠtÉĽlÉªÉ¡ É¹Ã¦f
ĠlÉªz ÉĻÉ¹d
ĠkÉ¹ÉªtÉªs aÉªzd
ĠvaÉªt ÉĻl
ĠkÃ¦tÊĮl ÉĳÉ¡
ĠkÉĳnv ÉĶÉª
ĠÃ¦dvÉĻÉ¹t aÉªzÉªÅĭ
ĠnuËĲt É¹ÉĻl
ĠkÉĻmpleÉªnt s
ĠkÃ¦É¹ÉªktÉĻÉ¹É¹Éªst Éªks
ĠsmÉľËĲ f
ĠkÉĳmpÉ¹ÉĻm aÉªz
ĠmÉĳlÉªk juËĲlz
ĠbÃ¦Åĭkw Éªt
ÊĴÉĽnÉªf ÉĻÉ¹
ĠnÉªÅĭÎ¸ uËĲ
ĠÉ¹oÊĬzÉĻv ÉĽlt
ĠÃ¦mjuËĲn ÉªÊĥÉĻn
l Éªf
l Éªmz
s uËĲ
w ÉĻs
ĠÃ¦ h
Ġk uËĲn
Ġk Éªtiz
Ġs Éªnz
Ġs aÉªzÉªz
Ġs Éªnt
ĠÉĽ liz
Ġb Ã¦s
Ġb uËĲp
Êĥ siËĲ
Ġj ÉľËĲ
Ġf Ã¦É¡
tiËĲ eÉªt
Ġl Ã¦ns
ĠkaÉª É¹oÊĬ
ÊĴ ÉĻz
ÊĴ ÉĶz
ĠÊĮv ÉĽnd
Éªs p
ĠÊĥ É¹ÉªÅĭk
ĠÉªz É¹eÉªli
Ġst ÊĮnt
Ġst ÊĮmpi
Ã¦n ÊĥÉĻn
ĠduËĲ md
ĠfÉ¹ eÉªd
ĠÉ¹Éª siËĲ
ĠÉĽn viËĲÉĳÉ¹
ĠpiËĲ siËĲ
ĠaÊĬt stÃ¦ndÉªÅĭ
Éĳm Éªt
É¹i ÉĻt
ĠbÉ¹ aÊĬz
Ġkl ÊĮÅĭ
Éªm ÉĻ
ĠkÉĶ ÊĥÉĻn
ĠeÉª liÉĻn
oÊĬk uËĲ
ĠhaÉª l
ĠÉĻÉ¹É¹ aÉªz
ĠhoÊĬm lÉĻs
ĠÊĮt ÉĻÉ¹É¹
eÉªv d
ĠhÊĮ ÅĭÉ¡ÉĻÉ¹
ĠÉ¹Éªt eÉªn
ĠÃ¦l k
ĠÃ¦l bÉĻÉ¹ts
ĠÉ¹iËĲ f
oÊĬs iËĲz
ĠÉĽd Éªt
ĠÉ¹Éªl Ã¦kst
ÊĥÉĻÉ¹É¹ ÉĻs
ĠfÉªl iËĲp
ĠmiËĲt Éª
ĠÉĽvÉĻÉ¹ É¹Éªt
ĠtÉ¹uËĲ mÉĻn
ĠdÉªsk ÊĮmf
ĠtÉĳm psÉĻn
ĠsÉªl vÉĻÉ¹É¹
ĠdÉ¹Éª pÉªÅĭ
ĠpÃ¦ ÊĥÉĻnÉĻt
ĠbÉĳÉ¹ ni
ĠÃ¦m stÉĻÉ¹d
ĠkÊĮt ÉĻÉ¹
ĠsÉĽl bi
ĠÉ¹oÊĬmÉĻn z
Éĳv iÉĻ
ÊĥiËĲ ÅĭÉ¡
ĠÃ°ÊĮt hÊĮz
ĠhjuËĲ i
ĠÉ¡Ã¦ bi
ĠmÉĽd Éª
ĠmÉĳ sk
ĠtÉ¹Ã¦ns mÉªÊĥÉĻn
ĠkÉĻnf aÉªnd
ĠÉ¹Éĳ nd
ĠmÉĻ ÊĥiËĲÅĭÉ¡
ĠkÉ¹eÉª É¡
ĠÉ¹ÉªpÉĶÉ¹t ÉªÅĭ
ĠpÉ¹oÊĬ faÉªl
ĠpÉ¹Éªns Éªz
ĠfÉĶÉ¹wÉĻÉ¹d z
ĠkÉĶÉ¹ ps
kl ÉĶÎ¸
ĠpoÊĬl oÊĬ
ĠbÉ¹aÉªt li
ĠÉ¡Éªl É¹ÉĶÉª
ĠwÊĬl vz
ĠÉ¹ÉªmeÉªnd ÉĻÉ¹É¹
ÊĥÉĽl oÊĬ
ĠniËĲt li
ĠbÉ¹Ã¦nd i
ĠsÉĽpÉĻÉ¹É¹ eÉªt
ĠsÉĻÉ¹vaÉªv ÉĻl
ĠpÉĻÉ¹É¹ uËĲ
ĠmÉĶnt ÉĻn
ĠmÃ¦nt ÉĻl
ĠkÊĬ ÊĥÉĻnz
ĠkÉĳntÉ¹Ã¦kt s
ĠÉĽstÉªm ÉĻts
ĠkÃ¦lk jÊĬleÉªtÉªd
ĠstÉľËĲn li
ĠÉªnvÉĳl vz
ĠkÉĳmpaÊĬnd z
ĠdÉªfÉĽnd ÉĻÉ¹z
ĠbÉ¹iËĲÃ° d
ĠvÉĳlÉĻnt ÉªÉ¹
ĠÉ¡ÉªtÉĳÉ¹ É¹Éªst
ĠtÉĽmpt Éªd
ĠtÃ¦t uËĲ
ĠÉ¹ÉªfÉ¹ ÉĽ
ĠvÉĽt ÉĻÉ¹É¹ÉĻn
ĠkÉĻmÉªt mÉĻnt
ĠmÊĬz lÉªmz
ĠnÉªÉ¡l ÉĽktÉªd
ĠtÉ¹Éªn Éªti
ĠÎ¸É¹Ã¦Êĥ ÉĻÉ¹
ĠpÉ¹ÉĻÉ¡É¹ÉĽs Éªv
ĠsÉĻÉ¹vaÉª vÉĻÉ¹z
ĠmÉĻs jÉľËĲ
ĠpÊĮv ÉªliÉĻn
ĠpÊĮtÉ¹Éª ÊĥÉĻ
ĠÃ¦mstÉĻÉ¹d Ã¦m
ĠÃ°ÊĮthÊĮz bÉªn
j ÉĻn
w ÉĽnt
É¹ oÊĬn
ÉĽ ÊĴÉĻÉ¹z
ÊĮ w
ÉĻÉ¹ nÉĻs
ÉĻÉ¹ É¹Éªn
oÊĬ vÉĻÉ¹É¹
Ġk É¹Éªb
Ġt ÊĮkt
Ġt Ã¦Åĭks
Ġs Éĳlvd
Êĥ iÉĻ
tiËĲ t
Ġl Ã¦n
ĠÉĽm aÉª
ĠjuËĲ É¡
ĠÉ¡ eÉªd
ÉľËĲ bz
ĠÎ¸ ÊĮmp
ÉĽt Éªkli
ĠmiËĲ aÊĬ
ĠÉĳÉ¹ É¹i
juËĲ lÉĻ
ĠÉ¹Éª ÅĭÉ¡
Ġv ÉªvÉªd
ĠÊĮp ÉĳloÊĬ
ĠbaÉª ÉĻlÉĳd
ĠbÉ¹ aÉªs
eÉªs Éªz
Ġsp eÉª
ÉªÉ¡ oÊĬ
Ġkl Ã¦mp
ĠkÉ¹ ÉĶld
Ġsl ÉĽndÉĻÉ¹
ĠmeÉª bÉĻl
oÊĬt Éªv
ÉĻd iz
Éĳs i
ĠpÉĻÉ¹s iËĲvd
ĠjÉªÉ¹ lÉªÅĭz
ĠjuËĲz ÉĻÉ¹
ĠkÉĳÉ¹ sÉĻn
ĠÉ¹uËĲ z
ĠpÉĳÉ¹t ÉªÅĭ
ĠÉĽd ÉªtÉĻÉ¹É¹
Ġsn Ã¦pt
ÊĥÉĻÉ¹É¹ ÉĻÉ¹z
ÉĻld z
ĠÃ¦nÉªm eÉª
ĠsÉªm ÉªlÉĻÉ¹É¹
ĠÃ¦m ÊĮz
ÊĴÉĽnÉĻÉ¹É¹ eÉªÊĥÉĻnz
ĠkÉ¹iËĲ p
ĠkÉľËĲ bi
ĠwÊĮndÉĻÉ¹ fÉĻli
ĠmÊĮnÎ¸ li
ĠhaÉªd z
ĠÉ¡ÊĮn ÊĥÉĳt
ĠkÉĻnf ÉĽst
ĠÊĥÉĳÉ¹ stÉĻn
ĠhÃ¦Åĭ d
ĠvÃ¦l Éªd
ĠfÉªÉ¹ sli
ÊĴÉªt Éªm
ĠfÉªnÉªÊĥ Éªz
ĠÊĥuËĲt s
ĠkÉĶÉ¹t s
ĠkÉĳns ÉĻÉ¹veÉªÊĥÉĻn
ĠbÃ¦Åĭk É¹ÊĮpt
ĠdÉªsaÉªdÉªd li
ĠvÉľËĲ bÉĻl
ĠÃ¦f É¡Ã¦n
ÊĴÊĮm eÉªk
ĠpÉ¹ÉªzÉĻn ÉĻÉ¹É¹
ĠÉĳÉ¹k iËĲ
ĠsÉªn Î¸
ĠÉĽsÉĽs eÉªt
ĠhÉªst ÉĶÉ¹iÉĻn
ĠvÉľËĲd Éªkt
ĠkÉĳnvÉĻÉ¹s eÉªÊĥÉĻnz
ĠkÉĽm ÉªkÉĻlz
ĠtÉĽd iz
ĠdÉªskÉ¹aÉªb ÉªÅĭ
ĠdÊĮÉ¡ aÊĬt
ĠfluËĲ Éªd
ĠÉ¹ÊĮs ÉĻlz
ĠfÃ¦s ÉªneÉªtÉªÅĭ
ĠÊĮliËĲd Éªnz
ĠdÉ¹Ã¦ft Éªd
ĠdÉĽv Éªst
ĠÉ¹ÉĽstÉ¹Éĳnt s
ĠvÉĽÉ¹Éª ÉĻbÉĻl
ĠdÉĽnt ÉĻn
ĠtÉ¹Ã¦m pÉĻl
ĠÉªmÉªÉ¡ É¹ÉĻnts
ĠkÉĳz m
ĠÃ¦dvÉĻÉ¹t aÉªz
ĠmÉªkÃ¦n ÉªkÉĻl
ĠvoÊĬk Ã¦bjÊĬl
ĠÉ¹ÉªhÉľËĲs ÉĻl
ĠÃ¦dv ÉĻk
ĠmÉªÅĭÉ¡ ÉĻld
ĠtÉ¹ÉĶ mÉĻ
ĠmÉĳÉ¹É¡ É¹i
ĠÉĳÉ¹É¹eÉª ÉĽf
ĠhjuËĲmÃ¦n Éªti
ĠkÉªlÉĻm iËĲtÉĻÉ¹z
spÉ¹ ÉĽd
b aÉªk
f juËĲ
f É¹iËĲ
j Éĳn
l ÉĽs
x t
ÉĻ ps
st oÊĬnz
Ġs fÉªÉ¹
ĠÉĽ stÉĻÉ¹É¹
Êĥ b
Êĥ w
Êĥ ÊĮnd
Ġj Éĳt
Ġn ÉĽks
Ġn Éªv
Ġn Ã¦d
ĠjuËĲ siËĲaÉª
ÊĴ Ã¦ps
ÊĴ ÉĽÅĭk
ĠÉĶ ks
ĠÉ¹ ÊĮdi
Éªt eÉªt
Éªt ÉĻÉ¹É¹ÉªÅĭ
ĠÊĥ Ã¦t
ĠÊĥ Ã¦tÉĻÉ¹d
ÉĽt ÉĻn
Éªn eÉªt
ĠsÉĽ ÊĥÉĻnz
ĠfÉ¹ aÊĬn
ĠÊĮp ÉĽnd
ĠÊĮp ÊĮl
ÉªÉ¹ iÉĻn
ĠÊĮn ÉªÅĭk
ĠkÃ¦ vÉĻl
Éĳn ÉĻÉ¹
ĠpiËĲ eÉª
Éĳm z
ĠkÊĮm pÉĻs
ĠÉ¡É¹ aÉªnd
ĠbÉ¹ ÉĽn
ĠlÃ¦ ÅĭkÉĻ
ÉĽst iËĲ
Éªm ÉĻnz
ĠwÉªl ÉªÅĭli
ĠkÉ¹ eÉªd
ÉĳÉ¹d z
Ġfl ÉĽks
ĠweÉª ks
ÉĻz eÉªÊĥÉĻnz
ĠhÉĽl pÉĻÉ¹
ĠmÉĽn juËĲ
ĠhÃ¦nd ÉĻld
ĠÎ¸ÉľËĲ st
jÊĬl eÉªÊĥÉĻnz
ĠpÉĳÉ¹ mÉĽn
ĠpÉĳÉ¹ ÊĥÉĻli
ĠtÉľËĲn ÉĻÉ¹
ĠtÉĽn ÉĻnts
ĠkÉĻnt ÉĽmpÉĻÉ¹É¹
ĠwÉĶÉ¹ fÉĽÉ¹
ĠtaÉª É¡
ĠleÉªd ÉĻn
ĠsÉĽkÉĻnd li
ĠhÃ¦z Éªt
ĠÉĳp tÉªm
juËĲd ÉĻ
ĠkÉľËĲ k
ĠkÉĳnt ÉªnÉĽntÉĻl
ĠsÊĮb ÉľËĲb
ĠbÉĳ zÉĻl
ĠfaÉªt ÉĻÉ¹
ĠsaÉª É¹ÉĻn
ĠkÉĻmpl eÉªnÉªÅĭ
ĠmeÉªn lÉĻnd
ĠkoÊĬ f
ĠkoÊĬ ks
ĠpÉ¹iËĲ sts
ĠÉªs ÉĽnÊĥÉĻli
ĠpoÊĬst bÃ¦É¡
ĠpÉ¹Éĳp ÉĻÉ¹É¹
ĠÊĮÉ¡É¹iËĲ ÉĻbÉĻl
ĠÉªntÉĻÉ¹ viËĲ
ĠkÉĳÉ¹d ÉªnÉĻl
ĠÉĻf ÉĽnsÉªv
ĠÉ¹Éªkw aÉªÉĻÉ¹É¹
ĠspÉĽnd z
ĠsÉªv Éªl
ĠÊĮksÉĽpt ÉĻbÉĻl
ĠÉĽld ÉĻÉ¹z
ĠpÉĽÉ¡ iz
ĠÉ¹Ã¦t ÉĻlÉªÅĭ
ĠtÉĽkn Éªkli
ĠskÉĽÉ¹ kÉ¹oÊĬ
ĠmÉľËĲ fi
ĠÉ¹ÉĽl ÉªvÉĻnt
ĠlÃ¦m ps
jÊĬ mÉªn
ĠbÉĽÉ¹i z
ĠtÊĮk ÉĻÉ¹z
ĠbÉ¹aÉª b
ĠtÉĽd z
ĠÉªndÉªk eÉªÊĥÉĻn
ĠÉĶlt ÉĻÉ¹É¹eÉªÊĥÉĻn
ĠhiËĲt ÉªÅĭ
ĠhÃ¦l ÉªluËĲjÉĻ
ĠpÉ¹ÉªvÉĽnt Éªd
ĠÉľËĲs jÊĬlÉĻz
ĠbÉªd ÉªÅĭ
ĠmÉĽÉ¡ ÉĻ
ĠkÃ¦ÅĭÉ¡ ÉĻ
ĠÉ¡Éĳ Î¸
ĠhaÊĬshoÊĬld z
ĠÊĮnlaÉªk li
ĠpÉ¹ÉĻn ÊĮnsÉªeÉªÊĥÉĻn
ĠÉ¹ÉªviËĲ l
ĠdÃ¦ É¹i
ÊĴÉªb Éĳb
ĠÉ¹ÉªfÉ¹ ÉĽÊĥ
ĠkÃ¦tÊĮl oÊĬniÉĻ
ĠsÉĳlÉĻm li
ĠbÉľËĲk li
ĠsÊĮnd eÉªz
ĠbÉĳs n
ĠpÉ¹ÉªzuËĲm ÉĻbli
ĠÉĳsk ÉĻÉ¹
ĠÉ¹Ã¦ns ÉĻm
ĠÉ¹aÉªfl ÉĽmÉĻn
ĠÉĶÉ¹kÉªst É¹ÉĻ
ĠÉ¡Ã¦É¹ÉĻ weÉª
ĠÉªntÉĽÉ¹ÉĻ É¡
ĠbÉªnÉĳk jÊĬlÉĻÉ¹z
ĠkÉĶÉ¹Éªd ÉĶÉ¹
ĠÊĮnÉªÅĭk ÉĶÉ¹pÉĻÉ¹É¹eÉªtÉªd
ĠkÉĻntÉĽmpÉĻÉ¹É¹ ÉĽÉ¹i
b Ã¦Åĭk
d É¹uËĲ
p iËĲz
Ġ ÉĳmÉĻ
Éª Éĳt
Éª Ã¦k
iËĲ ÊĥÉĻn
Ã¦ nti
eÉª ÊĥÉĻ
uËĲ vÉĻÉ¹
Ġt Ã¦ÅĭÉ¡ÉĻld
Ġh ÉĳÉ¡
ĠÉª kl
Ġs Ã¦p
Ġb uËĲl
Êĥ Ã¦Åĭ
Êĥ eÉªp
Êĥ iËĲtÉĻ
ĠÉ¡ ÉĽÉ¹Éª
ÊĴ ÉĽnts
ÊĴ jÊĬÉ¹É¹
ĠÉ¹ ÉĶt
ĠÊĥ ÊĮÊĥ
ÉĽl ÉĻÉ¹É¹
Ġv ÉľËĲn
ÉĽnt oÊĬ
eÉªd oÊĬ
ĠtÉ¹ oÊĬkiËĲ
Éĳn ÉĻmi
ĠbaÉª s
ĠhaÊĬ l
Ġsp É¹ÉªÅĭk
ĠwaÉª ps
Éªm ÉĻni
ĠwÉªl t
ÉªÊĥ ÉĻsli
ĠkÉ¹ aÊĬnd
bÉĻÉ¹ É¡
ĠeÉª ÉĽl
ĠkÊĮ Êĥm
ĠhÉĽl m
ĠdÉªs eÉª
uËĲl ÉĻ
É¹Éªt ÉĻn
ĠkÉĳÉ¹ m
ĠhoÊĬm ÉĻÉ¹
ĠÉªnd ÉªÉ¡neÉªÊĥÉĻn
ĠhÊĮ É¡z
ĠÃ¦l É¡ÉĻÉ¹
ĠÃ¦l jÊĬmÉªn
ĠfÉĳ li
ĠfaÊĬnd ÉĻÉ¹É¹
ĠfjuËĲ kjuËĲ
Ã¦b z
ĠnÊĮ É¡
ĠmoÊĬ hÃ¦mÉªd
ĠkÉĳ kt
ĠsÊĮn laÉªt
ĠnÊĮÎ¸ÉªÅĭ z
ĠÉ¡Éĳd mÊĮÃ°ÉĻÉ¹
ĠsteÉª bÉĻlz
ĠfÉªl Î¸i
ĠsÉľËĲv eÉª
ĠÉ¹ÉĽdi nÉĻs
ĠmÉĳÉ¹ Êĥ
ĠbÉªh oÊĬld
ĠÉªnst ÉªtuËĲÊĥÉĻnz
ĠÉ¹Éªz aÉªn
ĠÉĽkst ÉĽndz
ĠÉªns ÉªdÉĻnts
ĠstÉĳÉ¹ v
ĠbÉĶÉ¹d ÉĻÉ¹É¹
ĠÉ¹Éªd ÊĮnd
ĠsÉľËĲk jÊĬleÉªÊĥÉĻn
ĠÉ¹aÉªd ÉĻÉ¹z
ĠfÉ¹eÉªs ÉĻÉ¹É¹
ÉªÉ¡n i
ĠkÉĻl ÉªÊĴÉĻn
ĠkÉªt ÉĻnz
ĠÊĥÊĮt ÉªÅĭ
ĠsÉĻÉ¹pÉ¹ aÉªzÉªz
ĠÉ¹aÉª li
ÊĴÉªst iz
ĠsÉªv ÉªliÉĻn
ĠskÉĳt s
ĠÉ¹eÉª ÊĥÉªoÊĬ
ĠsaÉªk aÉªÉĻt
ĠlÉĽÉ¡ ÉĻsi
ĠtÉ¹Ã¦vÉĻl ÉĻÉ¹z
ĠÉ¡É¹oÊĬn ÊĮp
ĠuËĲps i
ĠÉ¹Éªsk s
ĠÊĮkw Éªs
ĠpÉ¹ÉĻm ÉªÉ¹d
ĠÉĶÉ¹É¡ÉĻn ÉªzÉĻm
ĠÉªÉ¡n ÉĻÉ¹É¹ÉĻns
ĠdÉªstÉ¹Éªb juËĲt
ĠhÉĳp ÉªÅĭ
ĠsÃ¦Åĭ kt
ĠfÊĮs i
ĠbÉľËĲst ÉªÅĭ
ĠkÊĬ ks
ĠspÉªn ÉĶf
ĠlÉªk ÉĻÉ¹
ĠlÉªk ÉªÅĭ
ĠkÉĳnsÉĻnt É¹eÉªtÉªd
ĠtoÊĬk ÉĻn
ĠÉªnvÉĳl ÉĻnt
ĠkÉĻmb aÉªn
ĠpÃ¦É¹ÉĻl Éªmp
Ġts ÉĳÉ¹
ĠwÉªÎ¸ dÉ¹uËĲ
ĠÊĮltÉªm ÉĻtli
ĠdÉªlÉªbÉĻÉ¹É¹ ÉĻtli
ĠmÃ¦Î¸ÉªmÃ¦t ÉªkÉĻl
ĠnuËĲd ÉĻlz
ĠÉ¹iËĲÉªn fÉĶÉ¹s
ĠÊĮbsÉĶÉ¹ bd
ĠhÉĳÉ¹k ÉĶÉ¹t
ĠpleÉªÉ¡ É¹uËĲp
ĠwÉªÎ¸dÉ¹ ÉĶ
ĠvaÉªz iÉĻÉ¹
ĠÉªseÉª bÉĽlÉĻ
ĠheÉªs ÉĻnd
ĠÊĮnÉªnt ÉĽlÉªd
ĠÉ¹ÉĽfÉĻÉ¹É¹ iËĲ
ĠvÊĮn ÉĽsÉĻ
ĠÉĳÉ¹miËĲn iÉĻn
ĠfaÊĬnt Éªn
ĠjuËĲÉ¡ÉĻsl ÉĳviÉĻ
ĠsÃ¦tÉªsfÃ¦kt ÉĻÉ¹É¹i
ĠwÉªki piËĲdiÉĻ
ĠpÉªÅĭÉ¡ uËĲ
ĠjÊĬÉ¹É¹uËĲ É¡waÉª
ĠsÉªÅĭÉĻÉ¹sÉĶÅĭ É¹aÉªtÉĻÉ¹
ĠmÉĳf Ã¦t
ĠeÉªbÉ¹ÊĮm ÉĶf
ĠÃ¦lÉ¡ÉĻÉ¹ É¹ÉªÎ¸
f ÉĽld
k Éĳn
l Éªv
n iz
w ÉĻÉ¹
iËĲ bÉĻ
eÉª liÉĻ
ĠÊĮ fÉĶÉ¹
Ġk oÊĬnz
Ġs Ã¦mpÉĻlz
Ġd w
Êĥ Éªv
É¡ oÊĬld
Ġn ÊĮÃ°ÉĻÉ¹
Ġn Éªnd
Ġp aÉªld
Ġl ÊĮd
Ġl ÉĻd
ĠÉ¡ ÊĮst
ĠÉ¡ Éĳnd
ĠÉªt ÉľËĲnÉĻl
ĠÉªn wÉĻÉ¹d
ĠÉ¹ aÊĬzd
ĠiËĲ Î¸
ĠhÃ¦ ÅĭÉ¡
ĠhiËĲ tÉªd
ĠhiËĲ bÉ¹uËĲ
Éªn juËĲd
aÉªt ÉªÅĭ
aÉªt Éªs
ĠÉĶl mÉĻ
ĠÉ¹Éª bz
ĠlaÉª kwaÉªz
Ġv Éĳd
ĠwÉľËĲ l
Ġpl iËĲdÉªd
ĠtÉ¹ eÉªtÉĻÉ¹
ĠaÊĬt wÉĻÉ¹d
ĠhÉªm z
ĠÉ¡É¹ oÊĬzd
ĠwÉĽl t
Ġsk Ã¦nd
Ġsl iËĲvz
ĠtiËĲ ÉĽs
Ġkw oÊĬtÉªd
ĠoÊĬvÉĻÉ¹ p
ĠsÉľËĲ p
ÅĭÉ¡ lÃ¦sÉªz
piËĲ k
iËĲp ÉªÅĭ
ÉĻv ÉĶd
Ġz Ã¦m
ĠdÉªf ÉĽndÉĻnt
ĠjuËĲn Éªk
ĠfÉĽl É¡eÉªt
ĠfjuËĲ kÉĻ
ĠÉ¹uËĲm ÉĻÉ¹z
ĠeÉªd z
ĠdÉªsk É¹ÉªmÉªn
Éªb É¹
ĠfeÉª ÊĥÉĻl
ĠmÉªl wÉĶk
ÊĴÃ¦k Éªts
ĠnÉĶÉ¹Î¸ iËĲstÉĻÉ¹n
ĠÉĳb lÉªÉ¡
ĠkaÊĬnt ÉĽs
ĠkaÊĬnt ÉĻnÉĻns
ĠpÉĻl uËĲÊĥÉĻn
ĠleÉª ÉĻÉ¹
ĠleÉª bÉĻlz
ÊĴÉĽnÉĻÉ¹É¹ ÉĻlz
ĠÃ¦nt Ã¦É¡ÉĻn
ĠÉĳÉ¹t ÉªstÉªk
ĠÉ¡ÉĽs ÉªÅĭ
ĠkÉĻmpl eÉªnd
ĠÉ¹Éĳ bÉĻÉ¹ts
ĠÉ¹eÉªd ÉªÉĻs
ĠhÃ¦t i
hÉĳ hÉĻ
ĠkÉĻÉ¹É¹ Éĳti
ĠÃ¦s ÉĽts
ĠsuËĲpÉĻÉ¹ mÉĳÉ¹k
ĠÃ¦lÉªÉ¡zÃ¦nd É¹ÉĻ
ĠhÉĶÉ¹ m
ÊĴuËĲÉĻl É¹i
ĠsaÉªn ÉªÅĭ
ĠkÉĳÉ¹t É¹Éªd
ĠmÉĳn ÉªtÉĻÉ¹
ĠÉ¹ÉªÉ¡ÉĳÉ¹d z
ĠlÉĶÉª ÉĻÉ¹É¹
ĠsÊĮ ÅĭÉ¡lÃ¦sÉªz
ĠsmaÉª li
ĠpÉ¹ÉĻsiËĲd ÉªÅĭ
ĠkoÊĬst ÉĻl
ĠtÃ¦l juËĲlÉĻ
ĠÉªnfluËĲ ÉĽnÊĥÉĻl
ĠskwiËĲ ks
ĠÊĮdm aÉªÉĻÉ¹
ĠduËĲd ÉĻl
ĠtÉĽnd ÉĻnsi
ĠbÊĮm bÉĻl
ĠboÊĬld li
ĠÃ¦ÅĭÉ¡ ÉĻÉ¹É¹
ĠÉĻkÉľËĲ É¹
ĠÊĥÃ¦ nti
ĠsÃ¦ks ÉĻn
ĠÉĳÉ¹É¡juËĲ ÉªÅĭ
ĠmÉĶÉ¹n Éªn
ĠflÊĮd Éªd
ĠÊĮpl aÉªz
ĠÉ¹ÉªduËĲs ÉªÅĭ
ĠpliËĲ bz
ĠÉªsl ÉĳmÉªk
ĠÃ¦spÉĽkt s
ĠbÃ¦pt aÉªzd
ĠnÉªÉ¡l ÉĽkt
ĠtÉľËĲb ÉĻt
ĠbÉªwÉªld ÉĻÉ¹d
ĠÊĮsÉĽs mÉĻnt
ĠsÉĻn Ã¦É¹i
ĠbÉªliËĲ fs
ĠsÉľËĲn eÉªm
ĠkÉ¹Éªm sÉĻn
ĠkÉĳpÉªÉ¹ aÉªt
ĠtÃ¦lÊĮp uËĲsÉĻÉ¹
ĠpÉĻÉ¹f ÉĽkÊĥÉĻn
ĠkÃ¦vÉĻl É¹i
ĠkÊĮÊĥm ÉªÉ¹
ĠÃ¦ljÊĬmÉªn iÉĻm
ĠÉ¡É¹oÊĬzd ÉĻvÉĶd
f oÊĬld
k iËĲ
l Ã¦
t Éĳp
É¹ Éĳ
É¹Éª É¡oÊĬ
Ġw ÉĽÉ¹i
Ġk ÉĽndÉĻl
Ġt iËĲnÉĻ
Ġh Éĳb
Ġh ÉĽÃ°ÉĻÉ¹
Ġs aÉªtÉªd
Êĥ li
Ġn eÉªp
ĠjuËĲ m
ÊĴ Éĳd
ÊĴ Éªkli
ĠiËĲ n
ĠiËĲ Éĳi
Éªt Éªk
Éªs ÉĻnz
ĠÊĥ É¹Éªl
ÉĻÉ¹É¹ Éĳ
ÉĻÉ¹É¹ eÉªnd
Ġst oÊĬ
Éªk st
ĠÊĥiËĲ ps
Ġv juËĲd
Ġv ÉªÊĥÉĻs
ÉĻs iz
Ġpl ÉĽÊĴÉĻÉ¹z
ĠpÉ¹ eÉªzd
ĠtÉ¹ ÉĶf
Éĳn ÉĻz
ĠbÉ¹ aÊĬ
ÉĳÉ¹t s
Ġkl oÊĬk
ĠÉľËĲ ni
ĠwÉĽÉ¹ ÊĮbaÊĬts
aÉªz ÉĻÉ¹
ĠbÃ¦k ÉªÅĭ
ĠbÃ¦k pÃ¦k
Ġfl Ã¦n
Ġfl ÉĶÉ¹i
ÊĮk juËĲt
ĠdÉªs Éĳlvd
ĠstÉ¹ eÉª
ĠniËĲd ÉĻlz
ÊĮb Éªz
Ġz Éªm
ĠÉªl ÉªsÉĻ
ĠdiËĲ s
Ġsw aÉª
ĠkÉĳÉ¹ vd
ĠÉ¡É¹eÉªt ÉĻÉ¹É¹
ĠÉªnd uËĲst
eÉªv ÉªÅĭ
ĠkÉĳm Éªks
Ã¦st ÉĻ
ĠkeÉª Éĳs
ĠwÉĳt sÉĻn
ĠÉĽÉ¹ laÉªn
ĠkiËĲp ÉĻÉ¹
ĠÉªÅĭk ÉĻns
ĠÉªÅĭk ÉĶÉ¹pÉĻÉ¹É¹eÉªtÉªd
ĠoÊĬpÉĻn li
ĠkÉĶÉ¹s ÉĽÉ¹
ĠlaÉªt ÉĻn
ĠfÉªl Éªps
ĠÉ¹Ã¦ pÉĻÉ¹
ĠdÉªp ÉĳzÉªt
ĠsÉªm bÉĻlz
ĠdÉªz aÉªÉĻÉ¹É¹
ĠkÉľËĲ ld
ĠpÉĳl ÉªÊĥ
ĠÉ¹Éªk ÉĶld
ÊĥÉĻÉ¹d sÉĻn
ĠbÉĳ Ã°ÉĻÉ¹É¹
ĠÉĽkspl ÉĶ
ĠmÉĳ liz
ĠnÉĳ Åĭk
ĠkÉĻÉ¹É¹ ÊĮpÊĥÉĻn
ĠkÉĶÉ¹t jÉĳÉ¹d
ÊĴÉĻnt aÉªn
ÊĥÊĮk ÉĻl
ĠkÉĻnv ÉªktÉªd
ĠsuËĲpÉĻÉ¹ mÃ¦n
ĠwÉĶÉ¹m li
ĠkjÊĬÉ¹ d
ĠÉ¹oÊĬm eÉªniÉĻ
ĠmÃ¦Î¸ s
ĠÉ¹Éªb Éªld
ĠkÉĽn zi
ĠkÉ¹Éª mÉªnÉĻlz
ĠbÉ¹eÉªv li
ĠsÉĳl ÉĳmÉĻn
ĠsÃ¦k oÊĬ
ĠstÉ¹oÊĬ ks
ĠÉĶÉ¹É¡ÉĻn ÉªzÉĻmz
ĠdÉªfÉĽns Éªz
ĠmoÊĬÊĥÉĻn lÉĻs
ĠbÉªheÉªv d
ĠbÉªheÉªv jÉĻÉ¹É¹
ĠÊĮdm aÉªÉĻÉ¹d
ĠÉĽkstÉ¹ Ã¦v
ĠtÃ¦k Éªn
ĠstÊĮm bÉĻld
ĠdÉªstÉ¹ÉĶÉª ÉĻÉ¹z
ĠkÉ¹iËĲeÉªt Éªv
ĠpÉĳÉ¹tnÉĻÉ¹ ÊĥÉªp
ĠkÉ¹uËĲz ÉĻÉ¹
ĠnuËĲzpeÉª pÉĻÉ¹É¹
ĠpÉĶÉªz ÉĻnd
ĠdÉªsm Éªs
ĠbÊĮl É¡
ĠÊĥÉªft Éªd
ĠbÉ¹uËĲt ÉĻl
ĠkÉªdn Ã¦pÉªÅĭ
ĠtÃ¦lÉĻnt Éªd
ĠkÉĻnsÉªst ÉªÅĭ
ĠÎ¸É¹Éª lÉĻÉ¹
ĠÉĻÉ¹É¹eÉª biÉĻn
ĠbeÉªl Éªf
ĠlÉĳb stÉĻÉ¹
ÊĥÊĮÉ¡ ÉĻ
ĠhaÉªdÉ¹ ÉĳksaÉªd
ĠkÉĻloÊĬn ÉªÉĻl
ĠsÊĮbsÉªkw ÉĻntli
ĠhaÉªn ÉĻs
ĠÉĽÅĭkwaÉª ÉĻÉ¹É¹i
ĠwÉªld ÉĻÉ¹nÉĻs
ĠmÉĽdÉª iËĲvÉĻl
ĠmÉªlwÉĶk iËĲ
f iz
j j
k jÊĬl
v Éªt
w ÉªsÉªt
ÊĮ É¹Ã¦kt
ĠÃ¦ É¹ÉĻn
Ġk ÉĽÉ¹ÉªÅĭ
Ġt ÉĽÉ¹Éªs
Ġh ÊĮk
ĠÉª É¹i
ĠÉª sÉĻn
Ġs ÉĳÉ¹É¹
Ġd ÉĽks
Ġd eÉªk
Ġb oÊĬk
Êĥ h
Ġm uËĲs
Ġf oÊĬl
Ġn ÉĶÉ¹t
Ġl ÉªÅĭkt
ÊĴ Éĳs
Î¸ ÉľËĲ
ĠÉªn fÉĶÉ¹
ĠoÊĬ m
ĠÊĥ ÉĶÉ¹z
ÉĻÉ¹É¹ uËĲs
ĠhiËĲ Î¸
Éªk ÊĥÉĻnz
ĠwÊĮt ÉĻl
ĠwiËĲ ld
ĠtuËĲ k
ÊĮn tiËĲn
ĠÉĳÉ¹ keÉª
ĠjÊĬÉ¹ É¹Éªn
Ġv ÉľËĲm
Ġpl Ã¦Åĭk
aÉªd ÉĻÉ¹
ĠÉ¡É¹ ÊĮf
ĠbÉ¹ Ã¦t
ÉĻt ÉªzÉĻm
ĠkÉ¹ ÊĮst
Ġsl aÉª
ĠeÉª li
Ġfl oÊĬtÉªd
ÊĮd eÉª
ĠpÉĻÉ¹ pl
ĠpÉĻÉ¹ pÉĽt
ĠÃ¦n ÉĳÉ¹k
ĠÃ¦n lÃ¦f
ĠiËĲt Éªn
ĠbeÉª li
ĠbeÉª bÉªd
ÊĮs ÉĽt
ĠÊĮt ÉĳmÉªk
ĠkaÊĬ bÉĶÉªz
ĠÉ¹Éªt É¹iËĲv
oÊĬs i
ĠbÉĶÉª ld
ĠÉĽksp Ã¦nÊĥÉĻn
ÊĴÉĻÉ¹ bÉ¹ÉĽd
ĠÉªÅĭk ÉĻn
ĠÊĥoÊĬ f
ĠkÃ¦t ÊĮÉ¹Ã¦kt
ĠstÃ¦nd ÉªÊĥ
ĠÉ¹Ã¦ ÊĥÉĻnÉĻl
ĠmÉĽm ÉĻÉ¹É¹
ĠÉĽksk wÉªsÉªt
ÊĴÉĽnÉĻÉ¹É¹ ÉĶsÉªti
ĠjuËĲs Éªd
ĠloÊĬ Éªst
ĠkÃ¦pt ÉªvÉªti
ÊĴÉĻÉ¹É¹ eÉªtÉªd
ĠbÉĽn i
Éªkt ÉªÅĭ
ĠÉ¹Éªz Éĳlv
ĠÉªnf ÉªnÉĻt
ĠÉ¹Éªp ÉĽnt
ĠsÊĮb mÉĻÉ¹É¹
ĠpeÉªpÉĻÉ¹ wÉľËĲk
ĠÎ¸É¹ ÉĽÊĥ
ĠpÃ¦t s
ĠbÉĽl ÉĻÉ¹É¹uËĲs
ĠpaÉª pÉĻÉ¹
ĠwÉĽst wÉĻÉ¹d
ĠdÉªt ÉĽktÉªd
ĠÉ¡oÊĬld fÉªÊĥ
ĠhÉĶl weÉª
bÉľËĲ É¡z
ĠstÉ¹eÉªt ÉĻn
ĠpÉĽn ÉĻlti
ĠkÉĻÉ¹É¹ ÉĽktÉªd
ĠÃ¦ktÉªv ÉªzÉĻm
ĠpÉ¹ÉĻv Éªn
ĠpeÉªnt ÉĻÉ¹
fl eÉªks
ĠnÉĽt s
ĠwÉĶÉ¹m Î¸
ĠtaÉªd ÉªÅĭz
ĠpÉ¹ÉĳmÉªs ÉªÅĭ
ÉĽstÉĻÉ¹ É¹
ĠÉªd Éª
ĠblÉĳk ÉªÅĭ
ĠwiËĲd z
ĠsaÉªk lÉªÅĭ
ĠpÉ¹ÉĻsiËĲd ÉªÅĭz
ĠbaÊĬnd ÉĻÉ¹É¹iz
ĠspÃ¦n Éª
ĠbÊĮn z
ĠbÊĮk ÉªÅĭÃ¦m
ĠÉ¹uËĲl ÉĻÉ¹z
ĠÉ¹ÉªzÊĮlt ÉªÅĭ
É¹aÉªt ÉªÅĭ
ĠsÃ¦tÉªsf aÉª
ĠtÊĮk ÉĻÉ¹É¹
ĠÉĳÉ¹É¡ juËĲd
ĠdÉĽs ÉĻl
ĠbÉľËĲt É¹Éªk
ĠsÉĻsaÉªÉĻti z
ĠÉªÅĭkw ÉĻÉ¹É¹iz
ĠÎ¸iÉĻÉ¹ iz
ĠÉĽntÉĻÉ¹t eÉªnÉªÅĭ
ĠÊĮvÉĶÉªd Éªd
ĠÃ¦lÉªs ÉĻn
ĠmÉĻd É¹Éªd
ĠmeÉªnt ÉĻnÉĻns
ĠoÊĬvÉĻÉ¹l Ã¦pt
ĠÃ¦É¹ÉĻndÉªs mÉĻnts
ĠskÉĳÉ¹ lÉªt
ĠmaÊĬ É¹i
ĠbÉĳnd z
ĠlÉĶÉªÉĻl ti
ĠtÉĽmpt eÉªÊĥÉĻn
ĠkÃ¦v ÊĮl
ĠÉ¡luËĲm i
ĠpÉĽp ÉĻÉ¹z
ĠwaÉªs mÉĻÉ¹
ĠÉĽlf wÉªn
ĠvÃ¦mp aÉªÉĻÉ¹
ĠtÉĽlÉªt ÊĮbÉªz
ÊĴiËĲÉĳÉ¹ É¹oÊĬ
ĠÊĥÉ¹Éªm p
ĠnÉªv Ã¦dÉĻ
b ÉĽk
h ÉĶÉ¹s
n Éªs
n ÉĻm
p Éªn
t d
É¹ Ã¦k
ÊĮ ÊĥÉĻnz
ĠÃ¦ Êĥt
sk Éªnz
ĠÊĮ sk
Ġs uËĲl
Ġm Ã¦Åĭk
Ġm jÊĬÉ¹É¹
ÉĻl ÉªÊĥÉĻn
ĠÉĽm ÉĽl
ÉĶÉ¹ ÉĻl
ÊĴ Éĳk
ĠÊĥ Éªl
Ġst ÉĽd
ĠÉĳÉ¹ s
Ġv iËĲn
ĠhÉľËĲ É¹Éªdli
ĠÃ¦z Ã¦d
ĠsÊĮm ÉĻnz
ĠkÃ¦n ÉĻnz
ĠkÃ¦n uËĲt
ĠaÊĬt kÊĮm
ĠÊĮb n
Ġsp oÊĬks
Ġkl Éĳks
ĠÎ¸ÉªÅĭk Éªn
Ġsk aÊĬ
Ġsk Ã¦m
ĠkÉ¹ aÉªt
ÉĳÉ¹d Éªd
ĠtiËĲ tiËĲ
Ġkw Éªn
ĠdÊĮz ÉĻnz
ĠhÉĽl iËĲnÉĻ
ĠÉ¹oÊĬ vÉĻÉ¹
ĠÃ¦d ÉĻl
lÉªÅĭ tÉĻn
ĠÊĮl ÉĽd
ĠjÉªÉ¹ li
ÉĽz ÉªÉ¡neÉªtÉªd
pÉ¹ ÉĻs
ĠpÉĳÉ¹t ÉªkÉĻlz
ĠsteÉªt z
ĠkeÉª ÉĽl
ĠÉĽk oÊĬÉªÅĭ
ĠmÃ¦t É¹ÉĻs
ĠsÉĽt ÉĻlÉªÅĭ
ĠdaÉª Ã¦nÉĻ
ĠsteÉª ÊĥÉĻnd
ĠÉ¹iËĲÉĻl aÉªzÉªÅĭ
Éªb ÉĽk
fÉĶÉ¹ wÉĻÉ¹d
ĠsmÉĶl ÉĻÉ¹É¹
ĠdÉªz aÉªÉĻÉ¹z
ĠlÉªs bÉĻn
ĠlaÉªn ÉĻÉ¹
ĠloÊĬ ÉĻÉ¹z
ĠkÉľËĲ É¹Éªk
ĠnoÊĬt bÊĬk
ĠÉĽkst ÉĽnd
ĠÉ¹Éªk i
ĠkÊĮp keÉªks
ÊĴÉľËĲ m
hÉĽd z
ĠpÉĶÉ¹t s
ĠfeÉªvÉĻÉ¹ z
hoÊĬ lz
ĠlÃ¦d ÉĻÉ¹z
ÊĥiËĲf li
ĠdÉªstÉ¹ Ã¦kt
ĠkÉĳp ÉªÉªÅĭ
ĠluËĲz ÉĻÉ¹
É¹eÉª ÉĳbÉĻ
ĠtÉĽst ÉªmÉĻni
ĠloÊĬk eÉªÊĥÉĻnz
ĠsiËĲz ÉªÅĭ
ĠwÉĶÉ¹m ÉĻÉ¹
ÊĴÉª ÉĳÅĭ
ĠkÉĳnst ÉªtuËĲt
ĠÊĥeÉªk i
ĠÉ¡ÉĳÉ¹ mÉĻnts
ĠspÉĶÉ¹t ÉªÅĭ
ĠÉªmÉªt eÉªt
ĠkÉĽn i
ĠkÉĽn ÉĻÎ¸
ĠbÊĮd z
ĠsÉĳl ÉĻtÉĽÉ¹i
ĠseÉªnt d
É¹Éªf aÉªd
Éªkw ÉĻt
ĠÉ¡É¹eÉªs fÉĻl
ĠhÉĽvÉĻn li
ĠÉĳl ÉªvÉĻÉ¹
ĠpÉ¹aÊĬd li
ÊĥiËĲk oÊĬ
ĠfÉĻÉ¹É¡Éªv nÉĻs
ĠdÉªmÃ¦nd z
ĠbÊĬÊĥ É¹eÉªnd
ĠÊĮweÉªk ÉĻnd
ĠdÊĮst i
ĠbÉ¹eÉªs wÉĽl
ĠÉªkÉĳn ÉĻm
ĠtÃ¦Åĭk ÉĻÉ¹
ĠwaÉªÉĻÉ¹ lÉĻs
ĠpÉĽnÊĥÉĻn ÉĻÉ¹z
ĠÉªnÉªÊĥ i
ĠskwÉĳd É¹ÉĻn
ĠbeÉªt ÉĻ
ĠÊĮbÃ¦nd ÉĻn
ĠÉ¹ÊĮm blÉªÅĭ
ĠmÉĽlt Éªd
ĠdÉ¹Éªft Éªd
ĠpiËĲtÉĻÉ¹z bÉľËĲÉ¡
ĠdÉĽnt Éªst
ĠhÊĮÅĭÉ¡ ÉĽÉ¹iÉĻn
ĠmÃ¦sÉªd ÉĻn
ĠdÉĽlÉªÉ¡ eÉªt
ĠÉªntÉªÉ¡ É¹ÉĻl
ĠsÃ¦b ÉĻt
ĠpÉ¹iËĲm iÉĻm
ĠÉĶlm aÉªti
ĠsaÉªmÉĻlteÉªniÉĻs li
ĠÊĮpd eÉªt
ĠtÉ¹aÉªÃ¦ÅĭÉ¡ ÉĻlz
ĠÉĽksÉĽp ÊĥÉĻnz
ĠnÉĽp ÉĶl
ĠjÃ¦Åĭk iËĲ
ĠwÊĮtsoÊĬ ÉĽvÉĻÉ¹
ĠkÉªlÉĳm ÉªtÉĻÉ¹z
ĠvÉĽlv Éªt
ĠpÉĳÉ¹mÉĽn ÉªoÊĬ
ĠÉªÅĭkÉĻn viËĲnÉª
b Éªk
h ÉĶ
m aÉª
m ÊĮt
m ÉĽd
p ÉĻns
s bÉľËĲÉ¡
É¹ Éĳk
É¹ eÉªl
aÉª ÉĻÉ¹É¹ÉĻbÉĻl
Ġw aÊĬnd
eÉª ÊĴÉĻnz
uËĲ ÊĥÉĻnz
Ġs Éªsk
Ġb É¹Éªs
Ġb É¹Éªst
Ġn Éªt
Ġn Éĳb
Ġn Ã¦kt
Ġn ÉĽlt
Ġn iËĲnÉĻ
Ġl ÉĽnz
Ġl ÉªÅĭks
ĠÉ¡ ÉĳÉ¹t
ÉľËĲ ÊĥÉĻl
Î¸ ÉĻl
ÉĳÉ¹ kt
ĠÉ¹ ÊĮst
ĠÉ¹ ÊĮd
ĠÉ¹ ÊĮÅĭ
Éĳt ÉĻn
ĠhÃ¦ É¹eÉªÉĳbÉĻ
ĠoÊĬ h
Ġst eÉªn
ĠÃ°ÉĽÉ¹ d
ĠÉĳÉ¹ dÊĮbÉĻljuËĲdÊĮbÉĻljuËĲdÊĮbÉĻljuËĲ
ĠfÉ¹ Ã¦nts
Ġv Éªt
Ġv ÉĽkst
ĠÊĮp s
Ġpl ÊĮmz
eÉªm ÉªÅĭ
ĠpiËĲ ks
ÉĶl ÉĻs
iËĲd ÊĮbÉĻljuËĲ
eÉªs mÉĻnt
ĠlÃ¦ ks
ĠlÃ¦ mz
Ġkl ÉľËĲd
ĠhuËĲ fs
Ġsk ÉĶÉ¹n
ÉĽk ÉĻÉ¹
ĠÉĻ ÅĭÉ¡
Ã¦m ÉĻs
ĠtaÉªm ÉªÅĭ
ĠoÊĬvÉĻÉ¹ siËĲ
ĠÃ¦n tiËĲk
pl ÊĮs
ĠstÉ¹ Ã¦nd
ÊĮb Éªn
ĠhÃ¦nd lÉªÅĭ
ĠÉªm plÉªk
ÉĻp ÉĶz
ÊĥuËĲ ÉĻnsi
ÉľËĲt ÉªÅĭ
ĠhÉĽd foÊĬnz
ĠÃ¦l v
ĠpÉĳÉ¹ sÉĻnz
ĠdÉĶÉ¹ mÉªt
ĠskuËĲl É¹uËĲm
É¹Éªs pÉĽkt
ĠkÉĻns iËĲl
ĠÊĮk juËĲt
ĠfÉªl md
ĠwÉªnd mÉªl
ĠÉ¹ÉĽk ÉĻl
ĠdÉªp ÉĽndÉªd
ĠbÊĬ liÉĻn
ĠÃ¦nt Éªl
ĠkÉĳnt É¹ÉĻd
ĠsÊĮb t
ĠsÉĶÅĭ É¹aÉªtÉĻÉ¹
ĠbÉĶÉ¹d ÉĻÉ¹d
ĠmÉĳÉ¹k ÉĻÉ¹
ĠdÊĮbÉĻljuËĲ oÊĬÉĽm
ĠsaÉª pÉ¹ÉĻs
ĠbÉĳÉ¹t ÉĻl
ĠhÉĶl z
ĠsiËĲm ÉªÅĭ
ĠtÉĽm z
ÊĴÉĶ Éªst
ĠkÉĻÉ¹É¹ ÊĮpt
ĠpÉĶl ÉĻ
ĠdeÉªt ÉĻb
ĠÉĽsk ÊĮl
ĠspÉĳt i
ĠdaÊĬt Éªd
ĠkjuËĲ mÉĻn
ĠÉ¹Éĳd É¹ÉªÉ¡oÊĬ
ĠnÉªk neÉªmd
ĠsÉªn Éªm
ĠpuËĲ h
ĠdÉĽn mÉĳÉ¹k
ĠsÊĮl ÉĻn
ĠkÉ¹Ã¦k aÊĬ
ĠbÉ¹eÉªv ÉĻÉ¹É¹i
ĠpÉ¹aÉªv ÉĻtli
ĠÉ¡É¹eÉªv z
ĠÊĥÉ¹ ÉĽk
ĠÉªÅĭkw ÉĻÉ¹É¹i
ĠplÉĽzÉĻnt vÉªl
ĠÉ¹Éªn uËĲd
ĠstuËĲ pt
ĠskÉ¹iËĲn É¹aÉªtÉĻÉ¹
ĠmÉĽ ÊĴÉĻÉ¹É¹
ĠÎ¸iËĲ ÉĻdÉĶÉ¹
ĠnuËĲm oÊĬniÉĻ
ĠtaÉªl ÉĻnd
ĠnÉªkÉĻl sÉĻn
ĠÊĮbÉªlÉĻti z
ĠÊĥÉªft ÉªÅĭ
ĠÉ¹ÉªtaÉªÉĻÉ¹ É¹ÉªÅĭ
ĠmÊĮÊĥ É¹uËĲmz
ĠvÉĳlÉĻnt ÉªÉ¹z
ĠÊĮdvaÉªz ÉĻÉ¹
ĠspÉĳÉ¹k lÉªÅĭ
ĠfÃ¦b jÊĬlÉĻs
ĠÊĥÃ¦mp eÉªn
ĠÉĻÉ¹É¹eÉª biÉĻ
ĠkÉĳÉ¹n ÉªvÉĻl
ĠfÉĻt ÉĳÉ¡É¹ÉĻfi
ĠdÉĳlf Éªnz
aÉªoÊĬ uËĲ
ĠkÉĳntÉ¹ÉĻv ÉľËĲsi
ĠspÉĳÉ¹ ks
ĠwÉĳb li
ĠdÉªskÉĻnt ÉªnjuËĲd
ĠfÉªnÉĳmÉªn ÉĻn
ĠpÉ¹ÉªsÉªp ÉªteÉªÊĥÉĻn
ÊĴÉľËĲd ÉĻ
ĠkÃ¦É¹ÊĮv Ã¦n
ĠvÃ¦k juËĲm
ĠiËĲdiËĲ ÉĽn
ĠÊĥoÊĬf ÊĬÉ¹
b ÉĽd
f ÉĻÉ¹z
l ÉĽÉ¡
s n
s Éªti
Ġt ÉĶÉ¹i
Ġt Éªkt
Ġd ÉĶÉ¹t
Ġd ÉĶÉ¹s
Ġd oÊĬdoÊĬ
Êĥ n
Êĥ ÉĽz
Êĥ diËĲ
Ġm ÊĮz
Ġm Éªli
Ġm jÊĬÉ¹
Ġf É¹Éªsk
Ġn ÉľËĲ
Ġp ÉĽst
Ġp ÉªÉ¹z
Ġl juËĲ
Ġl ÊĮks
ĠjuËĲ ki
ĠÉ¡ aÊĬn
ĠÉ¡ Éªb
aÊĬ m
ÉľËĲ ÊĥÉĻnz
Éªd ÉĻbÉĻl
Éªs Éªs
ĠoÊĬ vÉĻl
ÉĽl ÉĻz
Ġst aÉª
ĠwiËĲ z
ĠbiËĲ vÉĻÉ¹
ĠfÉ¹ Ã¦ntÉªk
Éªl ÉĻÉ¹É¹i
Ġv ÉªÉ¡ÉĻÉ¹É¹
ĠsoÊĬ kt
ÉĻm Éĳ
ĠpÉ¹ eÉªd
ĠkÃ¦ sk
ĠkÃ¦ pÉªt
tiËĲn oÊĬ
ÉĽÉ¹i ÉĻm
ĠÉ¡Éĳt ÉĻÉ¹
ĠÉªnt ÉĽnÊĥÉĻnz
Ġsk aÊĬts
ÉĶÉª mÉĻnt
Éªm oÊĬ
Ġbl iËĲt
Ġbl eÉªmd
Ġkw eÉªnt
ĠmeÉªk ÉĻÉ¹
ĠpÉ¹Éª lÉªm
ĠdÉªs ÉĶÉ¹dÉĻÉ¹
ĠÊĮl iËĲÊĥÉĻ
ĠÉªl Ã¦b
Ġsm Ã¦ks
ĠtÉ¹aÉª ÉĻlz
ĠlÉĽ pt
ĠÉĽnd ÉĻÉ¹z
ĠhoÊĬm sÉªk
ĠdÉªf aÉª
ĠkÉĳm ÉĻnz
Ã¦st Éªkli
ĠÉ¡l oÊĬÉªÅĭ
ĠfÉĳ stÉĻÉ¹
ĠÉªnv eÉªdÉªd
ĠlaÉªf boÊĬt
ĠtaÉª É¡ÉĻÉ¹É¹
ÊĥÉĻÉ¹É¹ oÊĬ
ĠsaÉªd wÉĶk
ĠÊĮk l
ĠpÉľËĲs Éªk
ĠfÉĶÉ¹m ÉªdÉĻbÉĻl
ĠmÉĳÉ¹ vÉªn
ĠhÉĶÉ¹s mÉĽn
ĠdÉĳÉ¹ n
ĠkloÊĬs Éªst
ĠkÉľËĲ b
ĠkÉľËĲ l
ĠbÉªld z
ĠÉ¹Éªp eÉª
ĠdÉ¹ÉĶ ÉªÅĭz
ĠbÉĽÉ¹ ÉĻks
ĠhÉĳÉ¹ Î¸
ĠmÉĳÉ¹k Éªts
ĠkoÊĬ mz
ĠkÊĮvÉĻÉ¹ É¹Éªd
ĠvÉªl ÉĻÉ¹z
ĠtÉ¹Éª pt
ĠdiËĲl ÉĻÉ¹
ÊĥÉªk oÊĬ
ĠpÉĶÉ¹t É¹Éªt
ĠÉ¹eÉªn i
ĠtÉĽm p
ĠhÉĽv iÉĻÉ¹
ĠdÃ¦Êĥ ÉªÅĭ
ĠÉ¹Éªv aÉªv
ÊĥaÉªn Ã¦mÉĻn
ĠpÉĶz ÉªÅĭ
ĠpÃ¦n z
ĠÉ¹ÉªspÉĳns ÉĻbÉªlÉªtiz
ÊĥuËĲz ÉªÅĭ
ĠbÉªzi Éªst
ĠspÉ¹ÉªÅĭ ÉªÅĭ
ĠlÃ¦t ÉĻÉ¹É¹
ĠtÉ¹iËĲt ÉªÅĭ
ĠÉĻp oÊĬz
ĠÉĻp oÊĬzÉªÅĭ
ĠÉ¹ÉĽz ÉªdÉĻnt
ĠnoÊĬtÉªs ÉªÅĭ
Éªsf ÉªÉ¹
ĠpÉ¹Ã¦ktÉªs Éªz
ĠfÉªz Éªs
ĠsÊĮndeÉª skuËĲl
bÉĶÉ¹d z
ĠÉ¡É¹eÉªv i
ĠhoÊĬtÉĽl z
ĠÊĥÉ¹ ÊĮÉ¡
ĠmÉĽl ÉĻn
ĠÉªnfluËĲ ÉĻnsÉªz
ÊĥÉĽstÉĻÉ¹ É¹
ĠÉĳkjÊĬp aÉª
ĠkeÉªp ÉĻbÉªlÉªti
ÊĥÉĳÉ¹t ÉĻÉ¹
ĠstÉ¹iËĲ k
ĠoÊĬb iËĲdiÉĻns
ĠpÉĳm ÉĻÉ¹
ĠÉ¡É¹Ã¦ndÃ¦d z
ĠsÉĻl Éªs
ĠhÊĮÉ¡ ÉªÅĭ
ĠÉĽstÉªm ÉĻt
ĠÉªnvÉĳl vÉªÅĭ
ĠbeÉªt mÉĻn
ĠÉ¹Ã¦k Éªt
ĠÉªnvaÉªt ÉªÅĭ
ĠstÉľËĲd i
ĠpÃ¦Åĭk eÉªk
ĠliËĲp ÉªÅĭ
ĠÉªntÉľËĲpÉ¹Éªt eÉªÊĥÉĻn
ĠklÉªn ÉªÊĥÉĻn
ĠÉªmpeÉª ÊĥÉĻntli
ĠvÊĮl n
ĠÉ¹ÉĽpt aÉªl
ĠkÉĳlÉĻn iz
ĠpÉ¹ÉĳsÉªk juËĲÊĥÉĻn
ĠfÉ¹Ã¦É¡ mÉĻnts
ĠbÊĮÅĭÉ¡ ÊĮloÊĬ
ĠpÉ¹ÉĻh Éªb
ĠhÃ¦mp ÊĥÉĻÉ¹
ĠmÉĶntÉĻn iËĲ
ĠÃ¦mÊĮz Éĳn
ĠsÉªsk ÊĮsÉĽt
ĠbÉ¹Éªst ÉĻl
d ÉĽzÉªÉ¡neÉªtÉªd
j ÉĽÉ¹
j ÉĻlz
l ÉĶÉ¹
l eÉªd
l uËĲs
v oÊĬ
w ÉªÎ¸
É¹ ÉĻlz
Ġt ÉĽnts
Ġd eÉªd
Ġd Éĳs
Ġd ÉĶnt
Ġd ÉĽts
Êĥ ÉªÉ¹d
Ġm Éªsk
Ġm ÊĮdi
ÉĻn eÉªz
Ġf Ã¦lkÉĻn
Ġf É¹Éªnd
Ġp ÉªÉĽÉ¹
ĠÉ¹ aÊĬz
ÊĮm eÉªÊĥÉĻnz
ĠhÉª É¡
Ġst ÉĽlÉĻ
Éªn ÉĻlz
ĠbiËĲ ÉĽm
ĠbiËĲ pÉªÅĭ
Ġv ÉĽl
Ġv Éĳs
Ġv oÊĬlt
Ġv Ã¦ld
Ġpl ÉĽz
ÉĻm oÊĬ
ĠpiËĲ ÉĳÉ¹
ĠhaÊĬ di
ĠbÉ¹ Ã¦É¡
ĠbÉ¹ ÉĳÎ¸
Ġkl ÊĮÅĭk
ĠÉľËĲ É¡
ĠwaÉª pÉªÅĭ
ĠbÃ¦k st
ĠmeÉª flaÊĬÉĻÉ¹
ĠoÊĬvÉĻÉ¹ naÉªt
ĠÉ¹oÊĬ ÉªÅĭ
ĠlÉĽ É¡oÊĬ
É¹ÉĻ fi
ĠÉ¹ÉĽd z
ĠÉ¹iËĲ ÊĮp
ĠÉ¹iËĲ koÊĬ
pÉ¹ Éĳf
Éªsk oÊĬp
ĠÉĽneÉª bÉĻld
ĠnÊĮ poÊĬl
Ġsn eÉªlz
ĠkÉĳ É¡n
ĠhÉĳÉ¹d i
ĠÊĮk juËĲz
ÉĽÉ¹Éª n
ĠÉĽnt aÉªÉĻÉ¹É¹
ĠmÉĳÉ¹ m
ĠsÉĶÉ¹t ÉªÅĭ
ĠlÉªs ÉĻnz
ĠdÉªl ÉĻn
ĠÃ¦nt Éĳn
ĠÉªns ÉªÉ¡n
ĠpÊĮbl ÉªsÉªti
É¹Éªz ÉĶnt
ĠklÃ¦s É¹uËĲm
ĠsÃ¦nd z
ĠkÉ¹Éªst i
ĠÉ¹eÉªz ÉĻnz
ĠkÉĻÉ¹É¹ ÉĽs
ĠdÉªstÉ¹ Ã¦ktÉªd
ĠhÉĶ É¹ÉªzÉĶnt
ĠdÃ¦n Éª
ĠÉĻf ÉĽndÉªd
ĠÉľËĲÎ¸ z
ĠpÃ¦n ÉĻmÉĳ
ĠbÃ¦l k
ĠdÉªkl aÉªn
ĠfiËĲd z
ĠsÉĽnsÉĻs dÉĽzÉªÉ¡neÉªtÉªd
ĠkÉĻntÉªnjuËĲ ÉĻli
ĠÉĳpÉĻÉ¹É¹ eÉªts
ĠmÃ¦É¹i ÉªÅĭ
ĠlaÉªÉĻn ÉĻl
ĠÉ¹ÉªspÉĽkt Éªv
ĠÉªnstÉ¹ ÊĮkÊĥÉĻn
ĠfÉªz Éªkli
ĠwÉªm pÉĻÉ¹z
ĠsÉĽm aÉª
ĠslÉªp ÉªÅĭ
ĠtÉĶÉ¹ ÉĻz
ÊĴÉĽl ÉĻsi
sp Ã¦n
ĠoÊĬk ÉĳlÉĻ
ĠsÉĶÉ¹ li
ĠÉ¡w ÉĽn
ĠstÉ¹iËĲm ÉªÅĭ
ĠkoÊĬd i
ĠspaÉªd ÉĻÉ¹z
ĠpÉĳzÉªtÉªv li
ĠpÃ¦É¹ÉĻÉ¡É¹Ã¦f s
tÉ¹ Ã¦k
ĠkÉĻlÊĮm bÉĻs
ĠÉĽmpÉĻÉ¹É¹ ÉĻÉ¹É¹
ĠkaÊĬns ÉªlÉĻÉ¹
ĠÉ¡É¹oÊĬs ÉĻÉ¹É¹iz
ĠziÉĻÉ¹ oÊĬn
ĠpÉ¹ÉĻn aÊĬns
ĠspÉªl t
ÊĴÉªp i
ĠsÉĽÉ¹ÉªmÉĻn iz
ĠtwÉªÅĭk lÉªÅĭ
ĠbÉªb ÉĽ
ĠwÉªsk ÉĻÉ¹z
ĠluËĲp Éªn
ĠpÉ¹ÉĳspÉĽkt s
ĠÉ¡É¹Éªm li
ĠdiËĲz ÉĻl
ĠÉĻpoÊĬn ÉĻnts
ĠÊĥÃ¦ft s
ĠsÉĻst eÉªn
ĠÊĮnÉĽmpl ÉĶÉªd
ĠstÃ¦É¡ ÉĻÉ¹d
ĠfÃ¦k ÉĻlti
ĠÉ¹eÉªdÉª eÉªtÉĻÉ¹
ĠhÉĳm ÉªsaÉªd
ĠhÉªÃ°ÉĻÉ¹ tuËĲ
ĠkÉĻntÉĽst ÉĻnts
ĠwÉĳl Éªs
ĠkÃ¦lÉĻnd ÉĻÉ¹
ĠÉĳÉ¹tÉªf ÉªÊĥÉĻl
ĠjoÊĬh Éĳn
ĠpÉªÉ¹ÊĮm Éªd
ĠtÉ¹Ã¦mpÉĻl iËĲn
ĠdÉªseÉª bÉĻld
ĠÎ¸É¹ÉĽÊĥ oÊĬld
ĠpÉ¹ÉªlÉªm ÉªnÉĽÉ¹i
h ÊĮn
p Ã¦n
s Ã¦n
z ÉĻm
Ġ ÊĴ
oÊĬ bÉĻ
eÉª iËĲ
Ġk Éªp
Ġk uËĲt
Ġh ÊĬks
Ġd ÉĶÉ¹n
Ġd oÊĬl
Ġd iËĲnÉĻ
Êĥ ÉľËĲn
Ġm Éĳp
Ġf eÉªn
Ġf É¹Éªk
ĠÉĽm ÉĻÉ¹É¹
Ã¦t soÊĬ
ĠÊĥ ÉĽÉ¹i
ĠÊĥ ÉĽp
ĠÊĥ ÉĽldÉĻn
Ġst Ã¦ks
Ã¦n i
ĠwiËĲ n
ĠÊĮp wÉĻÉ¹dz
ĠÉĽks bÉĳks
ĠtÉ¹ ÊĮv
ĠÉ¹aÉªt ÉªÅĭz
ĠbÉ¹ ÊĮÊĥÉªz
Ġsp ÉĽlt
Ġkl ÉªÅĭÉªÅĭ
ĠfaÉª ÉĻÉ¹t
Ã¦nd i
ĠÉĻ hÉĻm
Ġsl ÊĮÉ¡
Ġbl Éªs
Ã¦l ÉĻd
É¹oÊĬ ld
ĠmÃ¦n li
ĠÊĮs ÉªstÉªd
ÉªstÉĻÉ¹ z
ĠdÉªs ÉĶÉ¹d
ĠdÉªs ÊĮbÉªlÉĻti
nÉĻ st
ĠÊĮl ÊĮm
ĠpÉĻÉ¹s ÉªstÉªd
ĠhaÉª laÉªt
ĠdÉªf aÉªn
ĠoÊĬld ÉĻÉ¹É¹
ĠpÉĳÉ¹t ÉªkÉĻl
ĠÉĽksp ÉĽnd
ĠboÊĬ lz
eÉªl ÉĻns
ĠfÉĶl ts
oÊĬl ÉĻn
ÊĴÉªn ÉĽÉ¹i
ĠpÉĳp ÉĻz
ĠdÉªsk É¹ÉªpÊĥÉĻnz
ĠÉ¡É¹Ã¦nd t
ĠÊĮf ÉĽkts
ĠbluËĲ mÉªÅĭ
ĠmaÉªn ÉĳÉ¹di
ĠwaÉªt s
ĠkÉªd ni
ĠleÉª bÉĻÉ¹z
ĠkÉ¹iËĲ eÉªts
ĠbÊĬ li
ĠkÉľËĲ ti
ĠwuËĲ huËĲ
ĠbÃ¦t s
ĠsÉĻÉ¹ m
ĠbÉľËĲÎ¸ deÉªz
ĠÉ¡Ã¦ É¹ÉªsÉĻn
ĠmÉĽd oÊĬ
ĠbÉĳÉ¹t É¹Ã¦m
ĠtÉ¹Éª pÉĻl
ĠsÉĶft ÉĻÉ¹
ĠÉ¹iËĲzÉĻn ÉĻbli
ĠkÉĶÉ¹ k
ĠkÉĶÉ¹ ÉĻn
ĠpaÊĬnd ÉªÅĭ
ĠÉĶÉ¹Éª ÉĽntÉĻl
ĠkÉĻmÃ¦nd ÉªÅĭ
ĠsnoÊĬ i
ĠloÊĬk ÉĻm
ĠÉ¹ÉªmÉĽm bÉĻÉ¹z
ĠÉ¡É¹oÊĬ nd
ĠhÉĶÉ¹ ÉĻs
ĠjÊĬÉ¹É¹ÉĻp iÉĻnz
ÊĴÊĮm boÊĬz
ĠÉĽp Éªd
ĠheÉªst i
ĠspÉĽl z
ĠÉªmÉªt eÉªÊĥÉĻn
ĠkÉ¹Éª tiËĲk
ĠpÉ¹uËĲv z
ĠskÉ¹uËĲ z
ĠkÃ¦p i
ĠkÃ¦p n
ĠtÃ¦p ÉªÉ¹
ĠpÉ¹eÉª ÉªÅĭ
ĠÊĮdm aÉªÉĻÉ¹É¹ÉªÅĭ
ĠhÉªp ÉĻp
ĠiËĲÉ¡ÉĻÉ¹ nÉĻs
ĠhÉĳÉ¹m lÉĻs
ĠfeÉªnt Éªd
ĠkÉĳmpÉĻt ÉªÊĥÉĻnz
ĠÃ¦ÅĭÉ¡ l
ĠhÉĻÉ¹É¹ Ã¦s
ÊĴÉĻnd z
ĠsplÃ¦Êĥ ÉªÅĭ
ĠkÉĳnsÉªkw ÉĻntli
ĠÉĽkspÉĽÉ¹Éª mÉĽntÉĻl
ĠtÉ¹Ã¦nsl eÉªÊĥÉĻn
lÃ¦nd ÊĥÃ¦ft
ĠbÊĮnd Éªs
ĠdÉªlÉªv ÉĻÉ¹É¹
ĠÉ¡É¹oÊĬs ÉĻÉ¹É¹i
ĠkÉĻnteÉªn ÉĻÉ¹
ĠÉ¡É¹ÉĽÉ¡ ÉĻÉ¹É¹i
ĠfÉĳs ÉĻl
ĠdÉĽmÉĻnstÉ¹ eÉªÊĥÉĻn
ĠstÊĮtÉªst ÉªkÉĻl
ĠbÉ¹Éĳk ÉĻli
ĠÉĽndÉĽvÉĻÉ¹ d
ĠtÉ¹ÉªbjuËĲt ÉĽÉ¹iz
ĠjiËĲld Éªd
ĠmÉªkÃ¦n Éªks
ĠÉ¹Ã¦d ÉªkÉĻl
ĠbÉ¹uËĲz d
ĠvÉĳÉ¹ sÉªti
ĠflÊĬÉ¹ É¹aÉªd
ĠkÃ¦É¹ÉªktÉĻÉ¹É¹Éªst Éªk
ĠkÉĻmpÉĽt ÉªtÉªv
ĠsÉªmpÉĻÎ¸ ÉĽtÉªk
ĠÉ¡É¹Éªf Éªn
ĠaÉªÉĻÉ¹ nÉªÅĭ
ĠpÉªlÉ¡ É¹Éªm
ĠÉ¹iËĲÉªl ÉĽkÊĥÉĻn
É¹iËĲÉ¡ ÉĽz
ĠÉªnvÃ¦l Éªd
ĠsÉĻÉ¹tÉªfÉªk ÉĻt
ÊĴÉĽÅĭk Éªnz
ĠbÉĳzÉĻl lÃ¦ndÊĥÃ¦ft
ĠÉ¡Éĳnd i
ĠmÉĶntÉĻniËĲ É¡É¹oÊĬ
ĠbÃ¦lk ÉĻni
b aÊĬnd
f oÊĬ
m Ã¦tÉªk
p ÉĳÉ¹ti
s piËĲ
w ÉĻld
ÊĮ wÉĽÉ¹
sk É¹Ã¦ft
Ġk eÉªz
Êĥ ÉĽÉ¹iz
Ġm ÊĮÉ¡
Ġj ÉĳÉ¹n
É¡ l
ÉĻl Éªn
Ġp Éªnd
Ġp oÊĬzd
Ġl aÊĬsi
ĠÉĽm d
ĠÉĽm t
ÉĶÉ¹ É¡ÉĻn
ĠÉªn ÉĽks
ĠÉ¹ ÊĮsti
ÊĮm oÊĬtoÊĬ
ĠoÊĬ É¡É¹
Ġst ÊĮmp
Éªk i
Éªk eÉªt
Éªk juËĲ
Éªk Ã¦b
Éªn ÉĻm
ĠwiËĲ pÉªÅĭ
ĠtuËĲ v
ĠÉĳÉ¹ b
Ġpl ÉĳzÉĻ
ĠpÉ¹ uËĲ
ĠpÉ¹ oÊĬtiËĲ
iËĲz d
ĠbÉ¹ ÊĬks
ĠbÉ¹ oÊĬdi
ĠÊĮb uËĲ
Ġsp aÊĬt
Ġkl Ã¦pt
aÊĬnd ÉªÅĭ
oÊĬn iÉĻs
Ġfl ÉĶsi
ĠmÃ¦n s
iËĲv ÉĻ
ĠaÊĬ lz
ĠkÊĮ stÉĻÉ¹d
ÊĴiËĲ ÉĽn
ĠmÉĽn ÉĻpÉĶz
ĠdÉªs bÃ¦nd
ĠniËĲd ÉªÅĭ
Ġz Éĳm
ĠÎ¸ÉľËĲ m
Ã¦ns iz
ĠÉªl uËĲmÉªn
ĠdiËĲ ÉĽl
fÉĻl nÉĻs
Éªli ÉĻÉ¹
É¹Éªt aÉªm
ĠÉ¹uËĲ pÉĻÉ¹t
ĠheÉª ld
ĠheÉª ft
ĠÊĮndÉĻÉ¹ t
ĠÊĮt ÉĽndÉĻnt
ĠfÉĳ liz
ĠpÉ¹Éĳb ÉĻbÉªlÉªti
ĠtaÉª wÉĳn
ÊĴÉĽn ÉĻÉ¹
ĠsiËĲn jÉĻÉ¹É¹
ĠfÊĬt Éªd
ĠeÉªd ÉĻ
ĠbÉľËĲ ps
ĠkÉĶÉ¹s Éªz
ĠwÉªnd i
fÉĶÉ¹ st
ĠsÉªns Éªn
ÊĴeÉª eÉªÉĽm
ĠÉĶÉ¹d ÉĻÉ¹É¹ÉªÅĭ
ĠpÃ¦ h
ĠÃ¦ns ÉĽstÉ¹i
ĠÃ¦m ÉĻÉ¹
ĠÉ¹Éªp ÉĽÉ¹d
ĠÉªns pÉĻÉ¹É¹eÉªÊĥÉĻn
ĠÉĽkspl ÉĶÉ¹ÉªÅĭ
ĠpÊĮbl Éªkli
ĠÉ¹Éĳk Éªts
ĠtÉ¹Ã¦ns mÉªt
ĠwÉĽst mÉªn
É¹aÉª bÉĻÉ¹z
ĠpÉ¹Éĳp ÉĻzÉªÊĥÉĻn
ĠpÉĽn ÊĥÉĻnz
kl Éªf
ĠÉ¡É¹Ã¦ndm ÊĮÃ°ÉĻÉ¹É¹
ÉĻÉ¹m ÉĽn
ĠsuËĲpÉĻÉ¹ h
ĠswÉªm ÉĻÉ¹
ĠdÉĽk eÉªdz
ĠdÉĽk ÉĻÉ¹É¹eÉªtÉªd
ĠspeÉªs Éªz
ĠÉªntÉĻÉ¹É¹ Ã¦ktÉªv
ĠmÉĳn ÉĻÉ¹
ĠÉ¹ÉªÉ¡ÉĳÉ¹d lÉĻs
ĠmuËĲn z
ĠsoÊĬl li
ĠÉ¹ÉªspÉĽkt s
ĠÉ¹ÉªkÉĶÉ¹d ÉªÅĭz
ĠjuËĲÉĽs ÉĽs
ĠkÉ¹Éª Åĭk
ĠskÉªn i
ĠfoÊĬ nd
pÉ¹Éª nt
fÉĳ Ã°ÉĻÉ¹É¹
ĠsÉĻÉ¹vaÉªv ÉªÅĭ
ĠÃ¦ÅĭÉ¡ ÉĻlz
ĠhÉĻÉ¹É¹ Éĳ
ĠÉªÅĭkÊĮm bÉĻnt
ĠkÉĳnsÉĻnt É¹eÉªtÉªÅĭ
ĠÉªnhÃ¦b ÉªtÉªd
ĠhÉªnd i
ĠkÊĮntÉ¹Éª mÉĽn
ĠtÃ¦m Éªl
ĠmÊĬÉ¹ z
ĠpÉ¹Éªd Éªkt
ĠbÃ¦b Éĳ
ĠlÉĽn ÉĻÉ¹d
ĠtÉĳks Éªn
ĠdÉªsÊĮpÉªÉ¹ ÉĻns
ĠÎ¸É¹Éª ld
ĠmÊĮf ÉĻld
É¹iËĲd ÉªÅĭ
ĠÊĮsoÊĬsÉª eÉªt
ĠÊĮkÉĳmÉĻd eÉªÊĥÉĻn
ĠfÉĻt ÉĳÉ¡É¹ÉĻfÉĻÉ¹
ĠhaÊĬsk iËĲpÉĻÉ¹
ÊĴÉªsl ÉĻtÉªv
ĠÊĮnÉĽmpl ÉĶÉªmÉĻnt
ĠsÊĮlf eÉªt
ĠklÉĽm ÉĻnt
ĠblÉĶs ÉĻm
ĠhÉĳÉ¹mÉĻn i
ĠpÉĳÉ¹s ÉĻlz
ĠaÉªsÉĻl eÉªtÉªd
ĠspeÉª skÉ¹Ã¦ft
ÊĴÉªtÉªm ÉĻt
ĠvoÊĬkÃ¦bjÊĬl ÉĽÉ¹i
ĠnÃ¦kt t
b aÉªz
b ÉªlÉªti
p Ã¦st
r z
Ġ ÊĬl
É¹ eÉªÊĥÉĻnz
É¹ ÉĻtÉªv
É¹ eÉªtÉĻÉ¹
ÉĻ wÉĽÉ¹
iËĲ iËĲ
ĠÃ° aÉªn
Ġk uËĲsÉĻÉ¹
Ġt Ã¦mpÉĻ
Ġs Ã¦s
Ġs Ã¦f
Ġd juËĲ
Ġb aÉªdÉĻn
Ġm ÉĽlÉĻ
Ġn juËĲt
tiËĲ viËĲ
Ġp aÉªk
Ġl Éªkt
ĠÉĽm eÉªÉĳÉ¹
ĠaÉª b
ĠjuËĲ fÉĻ
ĠÉ¡ ÉĶÅĭ
ÊĴ ÉĽz
ĠoÊĬ ts
ĠÊĥ Éĳ
ĠÊĥ eÉªdi
ĠduËĲ p
ĠÉĳÉ¹ É¹oÊĬ
Ġv aÉªk
Ġpl aÉªt
ĠÊĮn ÉĻwÉĽÉ¹
ĠtÉ¹ ÉĽÊĥ
ĠÉ¡É¹ ÊĮd
ĠÉ¡É¹ uËĲm
ĠÃ°ÉĽn s
Ġsk ÉľËĲts
ĠÉ¡ÊĬd lÊĬkÉªÅĭ
Éªm Éªti
ĠkÉ¹ uËĲd
Ġsl Éªps
Ġbl eÉªdz
Ġkw Éªnt
ĠwÉªt nÉĻst
Ġfl oÊĬd
ÊĮd v
ĠoÊĬvÉĻÉ¹ siËĲz
ĠÊĮs ÉĽnt
Éĳs Éªti
ĠstÉ¹ eÉªnÉªÅĭ
uËĲd Éªd
ĠlÉĽ pÉĻÉ¹d
ĠfÉªf i
ĠÉĽnd eÉªnd
ĠÉªnd ÉĶÉ¹z
biËĲ iËĲ
ĠÉ¹iËĲ ÉĻÉ¹É¹eÉªnd
ĠmÊĮst Ã¦Êĥ
ĠdÉªst É¹ÉĽst
ĠliËĲ kt
ĠlÉĶ Éªd
Ã¦Åĭ d
É¹Éªs ÉĻ
ÊĴÉĽn ÉĻÉ¹É¹ÉĻ
ĠhÉĳÉ¹d wÉĽÉ¹
ĠsÊĮn ÉªsaÉªd
ĠwÉĶtÉĻÉ¹ m
ÊĮÉ¡ ÊĮt
ĠkÊĮl pÉ¹Éªt
ĠdÉªv oÊĬt
ĠmaÉªnd Éªd
ĠÉ¹Ã¦ É¡z
ĠmÃ¦d nÉĻs
ĠloÊĬ ÉĻÉ¹É¹ÉªÅĭ
ĠfaÉªÉĻÉ¹ mÉĽn
ĠhÉĽÉ¹ ÉĻld
É¹ÉĻns i
ĠsuËĲ Ã°ÉªÅĭ
ĠsÊĮb tÉ¹
ĠsÊĮb ÉľËĲbz
ĠÉ¹Éªk É¹uËĲt
ĠpÃ¦t iz
ĠÉªÉ¹ ÉĽÉ¡
ĠbÉĽl iËĲz
ĠvÉªl ÉĻ
ĠtÉ¹Éª v
ĠÉ¹Éĳ faÉª
ĠfÉĶÉ¹s ÉªÅĭ
ĠmÉĳd ÉĻÉ¹É¹ÉĻt
ĠÉ¹ÉªpÉĶÉ¹t ÉĻÉ¹
ĠpÉĶl oÊĬ
ĠÉĶÉ¹É¡ Ã¦zÉĻm
ĠÉ¹aÉª uËĲ
fl Éªks
ĠvÉªd Éª
ĠpÃ¦n zi
ĠnÉĽt flÉªks
ĠpÉ¹Éĳs ÉĻdi
ĠÉªlÉĽkt ÉĻÉ¹É¹ÉĻl
ĠvÉĳl z
ĠsmÉĽl i
ĠtÊĬÉ¹ z
ĠkÉĳÉ¹t uËĲnz
ĠbaÊĬnd z
ĠkÉ¹Ã¦k ÉªÅĭ
ĠkÉ¹Éª pt
ÊĥÉªÉ¹ i
ĠsÉĻÉ¹v eÉª
ĠtÉĶÉ¹ mÉĽnt
ĠfÉľËĲn ÉªÊĥ
ĠÉ¹Éªn uËĲ
Ã¦nz ÉĻ
Ã¦ÅĭÉ¡ÉĻl ÉªÅĭ
ÊĥÉĳp s
ĠÊĮvÉĶÉªd ÉªÅĭ
ĠtÉĶÉ¹t ÉĻs
ĠdÉªtÉĽktÉªv z
ĠkÉĶÉ¹d z
ĠveÉªk ÉĻnsiz
ĠdwÉĽl t
ĠÉªÅĭkÉ¹ÉĽd Éªbli
ĠkleÉªm ÉªÅĭ
ÊĴÉĶÉªnt s
ĠÉĽlÉªv eÉªÊĥÉĻn
ÊĴuËĲlÉª ÉĻs
ĠvÉĳlÉĻnt ÉªÉ¹d
ĠwÉªz ÉĻÉ¹d
ĠkÉ¹Ã¦b z
ĠjÉĶn ÉªÅĭ
ĠdÃ¦l m
ĠÉĽmf ÊĮs
ĠÊĥÉ¹iËĲ k
ĠtÃ¦d ÉĻ
ĠspÉĽs ÉªmÉĻnz
ÉĻÉ¡É¹Ã¦f Éªk
ĠdÉĽb ÉĻÉ¹É¹ÉĻ
ĠvÉĻÉ¹ ÉĳnÉªkÉĻ
ĠwÉĽs li
ĠstÉ¹Éª ps
ĠneÉªd ÊĥÉªkoÊĬ
hÉĽl m
ĠpÉľËĲf juËĲm
ĠÃ¦kjuËĲz eÉªÊĥÉĻn
ĠmÉĽkÉĻn ÉªzÉĻm
ĠÊĮfl oÊĬt
ĠsÉªvÉªl ÉªzeÉªÊĥÉĻn
ĠpÉ¹ÉĻvÉªn ÊĥÉĻl
ĠoÊĬÉ¡É¹ eÉªdi
ĠtÉ¹ÉĽÊĥ Ã¦m
ĠÉ¹ÉĳfaÉª ÉĽl
l iËĲd
l ÉĻd
l aÊĬd
m baÉª
v ÉľËĲs
Ì ĥ
Éª ÉĳÉ¡oÊĬ
É¹ Éĳnz
ĠÃ¦ kw
ĠÃ¦ É¡É¹
ĠÃ¦ ÅĭÉ¡w
É¹Éª ÊĥÉĻs
uËĲ b
Ġt Ã¦s
Ġt Éªh
Éĳ liz
Ġh ÉĽs
Ġs É¹iËĲ
Ġd Éĳm
Ġb ÉĽlf
Ġb uËĲn
Ġp ÉĽnd
Ġp ÉªÉ¹d
Ġl ÉĽl
Ġl ÊĮst
ĠÉĽm Ã¦st
ĠÉ¡ É¹ÉªÉ¡
ÊĴ Ã¦nd
ÊĴ Éªkt
ÊĴ iÉĻÉ¹ÉªÉĻ
ĠÉ¹ aÉªnz
ĠÊĥ n
ĠÊĥ ÊĮf
Éªk eÉªÊĥÉĻnz
ĠÉ¡oÊĬ ts
Ġv ÉĻl
Ġv Ã¦Åĭk
É¹iËĲ di
ĠhÉľËĲ bÉĻÉ¹t
aÉªn ÉĻn
aÉªn ÉĻÉ¹É¹i
ĠÊĮp iËĲld
ĠkÃ¦ É¹Éªs
ĠkÃ¦ si
ĠkÊĮm fi
ĠÉ¡É¹ eÉªnd
ĠbÉ¹ eÉª
Ġsp ÉĽd
vÉĻn pÉĶÉ¹t
Ġkl ÊĮk
Ġsk oÊĬp
Éĳd Éªk
ÉĶÉª ÉĻ
Ã¦m ÉªtÉĻÉ¹
Ġkw ÉªbÉĽk
ĠwÉªt s
bÉĻÉ¹ É¹ÉªÅĭ
ĠnuËĲ kÊĮm
ĠkÊĮ Åĭ
ĠÉĽs ÉĽl
ĠmÉĽn ÊĥÉĻnz
ĠmÃ¦ z
ĠkÉĳm ÉĻnt
ĠÉªnv ÉĽnÊĥÉĻn
ĠkÉĳn sÉĻn
ĠÉ¹Éªl eÉªtÉªÅĭ
ĠsÊĮn É¹aÉªz
ĠsaÉªd weÉªz
ĠdaÉª iËĲÊĥÉĻ
aÊĬnt Éªd
ĠdÉªsk É¹iËĲt
ĠfÉĶÉ¹m oÊĬst
ĠpÉ¹Éªti Éªst
ĠmÉªl fÉĶÉ¹t
ÉªoÊĬ p
ĠwiËĲk ÉĻÉ¹
ĠÃ¦m f
ĠÉĳÉ¹m ÊĮd
ĠÉªÅĭÉ¡ É¹iËĲdi
ĠfÃ¦kt ÉĻÉ¹É¹
ĠÉĳn wÉĻÉ¹d
ĠÉĽkst ÉĽndÉªÅĭ
ĠwÉĽ stÉĻÉ¹
ĠbÉĳ x
ĠpÉ¹iËĲ skuËĲl
ĠkÉ¹Éªst iËĲn
ĠÉªs ÉĻ
ĠpÉĽn É¹Éĳd
ĠkÉĻÉ¹É¹ iËĲ
ĠvaÉª É¹ÉĻs
ĠtaÊĬ ÉĻlz
É¹ÉĽs ÉªÅĭ
ĠÉ¹Éĳd ni
ĠpÉ¹ÉĻp ÉĶÉ¹
ĠdÉĽk eÉªd
ĠheÉªt É¹Éªd
ĠÉĽÅĭk Éĳ
ĠpÉ¹ÉĻduËĲs ÉĻÉ¹z
ÊĥÃ¦t ÉĻÉ¹d
ĠbÉĽk ÉĻÉ¹
ĠsÃ¦tÉĻÉ¹d eÉªz
ĠÊĥuËĲ tÉĻÉ¹
ĠÉ¹uËĲl ÉĻÉ¹
ĠtÃ¦ks ÉªkÃ¦b
É¹Éªf ÉĳbÉĻ
ĠÊĮdÉ¹ÉĽs Éªz
ĠsÃ¦nt ÉªÉĳÉ¡oÊĬ
ĠdÊĮm pÉĻÉ¹
ĠÉ¡aÉªd laÉªnz
ĠpÉ¹ÉĳsÉĽs ÉªÅĭ
ĠdÉªsaÉªd ÉªÅĭ
ĠdÊĮ sk
ĠblÉĽs ÉªÅĭz
ĠstuËĲ ÉĻÉ¹d
ĠsÉľËĲkÉĻmst Ã¦ns
ĠmoÊĬtÉĻÉ¹ baÉªk
ĠpÉĳm p
ĠstÉľËĲ É¹
ĠhÉĻÉ¹É¹ eÉª
ÊĥeÉªm bÉĻÉ¹z
ĠbÃ¦n ÉĻÉ¹
ĠsÉªÉ¡nÉªfÉªk ÉĻns
ĠÊĥÃ¦ bi
ĠÉĽmpÉĻÉ¹É¹ ÉĻÉ¹z
ĠpÉ¹ÉªzÉĽnt ÉĻÉ¹
ĠtÉ¹eÉª lÉªÅĭ
ĠpÉ¹Éªd ÉªktÉªd
ĠmÉĳnt Ã¦nÉĻ
ĠsmÃ¦Êĥ ÉªÅĭ
ĠdÃ¦ vÉĻnpÉĶÉ¹t
ĠÉĳksÉªd eÉªÊĥÉĻn
ĠÉĽnÎ¸uËĲzi Ã¦stÉªk
ĠbÉªf ÉĶl
ĠkÉĶÉ¹ÉªspÉĳnd ÉĻns
ĠkÉĳlÉĻn Éªsts
ĠÉªntÉĽnt li
ĠnÉªp ÉĻn
ĠbÉªst oÊĬd
ĠÉªndÉªÉ¡n ÉĻnt
ĠÉªndÉªf É¹ÉĻnt
ĠpÃ¦stÉĻÉ¹ É¹ÉĻl
ĠsÉĽnjÉĶÉ¹ ÊĮ
ĠÊĴÉĳn É¹ÉĻ
ĠÉªnÉĽvÉªt ÉĻbÉĻl
ĠÉĽnbiËĲ eÉª
ĠsÉĳf ÉĻm
ÊĥÃ¦nd lÉĻÉ¹
bÉĳ x
ĠsÉĳvÉĻÉ¹ É¹Éªn
ĠÊĮpÉĽnd Éªks
pÉ¹Éĳf Éªt
ĠziÉĻÉ¹oÊĬn aÉªnz
b ÊĬl
b oÊĬd
b Ã¦ks
b ÊĬks
k Ã¦stÉĻÉ¹
w ÉªÉ¡
É¹ Ã¦É¡
ÊĬ wÉĻz
Éĳ fÉªs
ĠÉĽ z
Êĥ Ã¦k
Êĥ iÉĻn
Êĥ mÉĽn
Ġm eÉªsi
Ġm Ã¦Êĥt
É¡ ÊĬd
Ġf juËĲz
Ġf Ã¦ÊĥÉĻnd
Ġf ÊĮzi
Ġp Ã¦ntÉªd
ĠÉ¡ aÉªdÉªd
ÉľËĲ bÉĻn
ĠÉ¹ ÉĽbÉĻlz
Éªs ÉĽs
ĠhÉª ps
ÉĻÉ¹É¹ ÉĻz
ĠduËĲ ÉĻl
ĠmiËĲ koÊĬ
ĠfÉ¹ Ã¦d
Éªl ÉĻs
Ġv aÊĬz
Ġv iÉĻÉ¹ÉĻ
ĠÊĮp Ã¦l
ĠpÉ¹ ÉĻkl
ĠÉĽks iËĲdÉªÅĭ
ĠtÉ¹ Ã¦nz
É¹i ÉĻm
Ġkl aÊĬs
Éĳl ÉĻÉ¹
ĠÉªnt ÉĻÉ¹É¹Éª
Ġsk eÉªlz
Ġsk ÉĶfs
Éĳd z
Éªm uËĲn
ĠmÉĶÉ¹ s
ĠkÉ¹ eÉªl
ÉĶÉ¹t ÉªÅĭ
Ġfl ÊĮks
oÊĬk ÉĻn
ÊĴiËĲ loÊĬ
ĠpÉ¹Éª n
ĠÉ¹oÊĬ li
ĠbÉªt ÉĻn
ĠbeÉª Ã°ÉªÅĭ
ĠhaÉª pÉĻÉ¹
ĠÉĽnd ÊĮbÉĻljuËĲdÊĮbÉĻljuËĲdÊĮbÉĻljuËĲ
jÊĬl ÉĻm
ĠdÉªÉ¹ i
ĠjuËĲn aÉªt
pÉĻÉ¹ sÉĻn
Êĥt aÉªm
ĠliËĲ s
Ġsn aÊĬt
ĠwÉĶtÉĻÉ¹ fÉĶl
ĠdaÉª pÉĻÉ¹z
ĠÉ¹iËĲÉĻl ÉªstÉªk
ĠdÉªsk ÉľËĲÉ¹Éªd
ĠÉ¹Ã¦ ps
ĠsÉªm f
ĠsÉªm ÉĽnt
ĠmÉªl Éªm
ĠmÉĳÉ¹ z
ĠmaÉªn ÉĻÉ¹É¹
ĠleÉª ÉĻÉ¹É¹
ĠloÊĬ haÉª
ĠkÉľËĲ lz
ĠÉ¹iËĲt ÉĻ
ĠpÉĳl Éªn
ĠpÉĳl ÉªÊĥt
ĠÉĳÉ¹t ÉªlÉĻÉ¹É¹i
ĠÉĽkst ÉľËĲnÉĻl
ĠÉªmp É¹Éªz
ĠmÉĽt ÉĻlz
ĠpaÉª lz
ÊĴÉĶÉª ÉĻs
ĠkÃ¦l ÉªÉĻl
ÊĴoÊĬ v
ĠkÉĻnf juËĲzÉªÅĭ
wÉľËĲ ld
ĠkÉĻl ÉĽkÊĥÉĻnz
ĠÉ¡oÊĬld Éªl
ÊĴÉªm eÉªnd
ĠtÉĻnaÉªt s
Ã¦li ÉĻnz
ÊĴÉĶ ÉªfÉĻli
ĠiËĲst wÉĻÉ¹d
ĠlÉľËĲn z
ĠfÉªÉ¹ lÉĻs
ĠbÉ¹aÊĬn i
ĠÃ¦s ÉĻÉ¹t
ÊĥÊĮk ÉĻld
ĠkÉĻnv ÉľËĲs
ĠwaÉªld laÉªf
ĠsÃ¦m td
ĠÉ¹Éªkw ÉĽsts
ĠmÉĽÉ¹i z
ÊĴÉª ÉĳlÉĻd
ĠdÉľËĲ bi
ĠsuËĲt Éªd
ĠÉ¹Éªb Éªlt
ĠdÉĽl ÊĮwÉĽÉ¹
ĠnoÊĬtÉªs Éªz
ĠÉ¹ÉªspÉĽkt ÉĻbÉĻl
ĠdÉĽÉ¹ sbi
ĠbÊĮn Éªz
ĠÉĶÉ¹É¡ÊĮn ÉĻzeÉªÊĥÉĻnz
waÉª f
ĠtÉ¹Ã¦k ÉªÅĭ
ĠmÃ¦ks Éªm
ĠÉ¡É¹eÉªs i
ĠpÃ¦Î¸ s
ĠpÉ¹ÉĳsÉĽs Éªz
ĠÉ¹ÉªliËĲs Éªz
ĠvÉªk i
ĠmÉĻl ÉĽk
ĠpeÉªl iËĲ
ĠÉĽmplÉĶÉª ÉĻÉ¹z
ĠstÃ¦n ÉĳÉ¹d
ĠfoÊĬld z
ĠsÉĽlÉĻb É¹eÉªtÉªÅĭ
ĠkÊĮmfÉĻÉ¹t ÉªÅĭ
ĠÉĶd É¹i
ĠÉ¡É¹Ã¦ndp ÉĳpÉĻ
ĠkeÉªv z
ĠdÉ¹ÊĮÅĭk ÉĻn
ĠloÊĬnli nÉĻs
ĠhjuËĲm ÊĮn
ĠhÉĽlÉªkÉĳp tÉĻÉ¹z
mÉĳÉ¹ ks
ĠkÉĻnsÉľËĲv ÉĻtÉªvz
ĠmÉĶÉ¹n oÊĬ
ĠhÉĽzÉªt eÉªt
ĠbÃ¦ÅĭÉ¡ d
ĠkwÉĶnt ÉĻm
ĠkÉªdn Ã¦p
ĠkwoÊĬt eÉªÊĥÉĻn
ĠÉĽndÉĽvÉĻÉ¹ É¹ÉªÅĭ
ĠÃ¦ntÉªsÉªp eÉªtÉªd
ĠmaÉªkÉ¹oÊĬ weÉªv
ĠÉ¡juËĲ tÉĻn
ĠkÉĳntÉ¹ÉĻv ÉľËĲÊĥÉĻl
ĠdÉªks ÉĻn
ĠvÃ¦nd ÉľËĲ
faÉªt ÉĻÉ¹
meÉªk ÉªÅĭ
ĠÉ¡Ã¦É¡ Éĳ
ÉĻfÉ¹ Ã¦ns
ĠoÊĬvÉĻÉ¹wÉĽl md
ĠsÊĮlt ÉĻnz
ĠÉ¡ÉĳÉ¡ ÉĻlz
ÊĴÉĳl Éªf
ĠlÉĳl Éªp
ĠpeÉªv mÉĻnt
ĠÃ¦stÉ¹ÉĻn ÉĶt
ĠÊĮpÉ¹ÉĽnt Éªs
ĠÃ¦fÉ¡Ã¦n ÉªstÃ¦n
ĠkÉ¹eÉªd ÉĻl
ĠeÉªli ÉĻs
ĠvÉªÉ¡ÉĻÉ¹É¹ ÉĻsli
ĠnÊĮpoÊĬl ÉªÉĻn
ĠhÉªpÉĻp Éĳt
ĠsÉªnsÉªn Ã¦ti
ĠmÉĳnÉĻÉ¹ ki
ĠÉªmpÉ¹Éªz ÉĻnd
f Éªld
h aÉªd
j Ã¦
m ÉĳÉ¹t
n Ã¦t
p ÉĽÉ¹Éªti
s ÉĽn
v iËĲz
w ÉĳnÉĻ
É¹ aÊĬnd
st Éĳk
oÊĬ ÊĥÉĻs
uËĲ ÊĴÉĻnz
Ġd oÊĬp
Ġm ÊĮnd
É¡ w
Ġn aÊĬn
Ġl ÉĳÉ¹É¹ÉĻz
ĠÉĽm pÉ¹ÉĽs
ĠÉ¡ Ã¦t
ĠÉ¡ ÉĶl
ĠÉ¡ Ã¦d
ÉľËĲ ks
ÊĴ Ã¦f
Ã¦t Éªks
ĠÉĶ É¹Éªt
ĠÉĶ bÉĻÉ¹d
ĠÉ¹ ÊĮt
ĠÊĥ ÉĽt
Ġst oÊĬk
Ã¦n ÉĻs
Éªn ÉĻtli
ĠsÉĽ p
ĠÉ¡oÊĬ d
Ġv Éĳ
ĠsiËĲ aÉªeÉª
ĠwÉĶ liz
ĠpÉ¹ Éĳt
ĠpÉ¹ Éĳk
ĠÊĮn É¹
ÉĽs eÉª
ĠkÃ¦ ÊĥÉªÉ¹
ĠÉĽn h
ĠpiËĲ kt
ĠpiËĲ pt
ÉĽÉ¹i ÉĻs
ĠÉ¡É¹ Ã¦mpÉĻ
ĠlÃ¦ vÉªn
ĠwÊĬd p
ĠfaÉª ÉĻÉ¹É¹i
ĠÉªnt Éĳl
ĠÉªnt ÉªÉ¹i
Éĳd ÉĻs
ÉĽnd ÉĻÉ¹z
ĠkÉ¹ Ã¦n
Ġbl ÉĽd
Ġkw oÊĬÎ¸
Ġfl oÊĬn
ĠoÊĬvÉĻÉ¹ vjuËĲ
ĠÊĮs ÉĽntÉªd
ĠÉĽs ÉĳÉ¹
ĠÃ¦n ÉĻl
ĠÉĽl tÉĻn
siËĲ k
ĠÃ¦d Éĳlf
É¹Éªk oÊĬ
ĠÉªl aÉªd
ĠÉ¡ÉľËĲ d
É¹ÉĻ k
ĠsÉĶ sÉĻÉ¹
ĠÉ¹iËĲd ÉĻÉ¹
ĠÉ¹Éªs aÉªk
ĠÉĽÉ¹ ÉĻÉ¹z
ÊĥÉĻl ÉĻÉ¹
stÉ¹ ÉĽt
ĠmÊĮmi ÉĻl
ĠsÉĻp É¹Éĳn
ĠdÉªsk s
ĠdÉªsk oÊĬ
ĠkÃ¦m ÉĻlz
ĠtÉĳp Éªks
ĠkÉĻmp ÉĳzÉªt
ĠjÊĮÅĭ stÉĻÉ¹z
ĠfÉªn lÉĻnd
ĠbÉĳÉ¹ ks
ĠbÉĳÉ¹ nz
ĠwÉĳ fÉĻlz
ĠÃ¦m pÉĻl
ĠÉªnst ÉĻnsÉªz
ĠsÉĽl iËĲnÉĻ
ĠÉĻb stÉ¹
ĠkÉľËĲ st
ĠbÉĳm ÉĻÉ¹
ĠmÊĮn ÉªlÉĻ
ĠbÉĽn Î¸
ĠÉªnf ÉĽkÊĥÉĻnz
laÉª ÉªÅĭ
ĠbÉĳ bÉĻl
ĠÉªÉ¹ Ã¦k
ĠÉ¡Ã¦ É¹Éªt
ĠsaÉª ÉªÅĭ
ĠklÃ¦s ÉªfaÉªd
ĠswiËĲt Éªst
ĠtÉ¹Éª m
ĠpÉ¹oÊĬ b
ĠbÉľËĲn staÉªn
ĠkÉĳÉ¹d i
ĠpÉªÉ¡ Éªz
ĠdÉªsÊĮp É¹uËĲ
ĠlÉĶÉ¹ ÉĻn
ĠteÉªp ÉªÅĭ
ĠkÃ¦nd Éªs
Éĳnd Éªd
ĠpÉ¹Éĳs pÉĻÉ¹É¹
ĠkÉ¹uËĲ ÊĥÉĻl
ĠkÉĳnf ÉĻÉ¹meÉªÊĥÉĻn
ÊĮh Ã¦n
ĠÉĽÅĭk loÊĬzd
ĠfÉ¹ÉĽÊĥ mÉĽn
ĠÉ¹ÉĽl m
ÊĥÃ¦t ÉªÅĭ
ĠsÉªmÉªlÉĻÉ¹ li
ĠbÉ¹eÉªv z
ĠpÉ¹aÉªv ÉĻsi
ĠaÉªÉ¹iËĲn z
ĠpÉĽt É¹ÉĻl
ĠÉªkw eÉªÊĴÉĻnz
ĠsÉĻb m
ĠsÉĻb sk
ĠÉĳÉ¹É¹ ÉĽl
ĠtÉĶÉ¹ piËĲd
sp É¹ÉªÅĭ
ĠfÊĮnd ÉĻmÉĽntÉĻl
ĠdiËĲd ÉĻÉ¹É¹Éªk
ĠdÉª oÊĬsiËĲz
ĠlÃ¦k ÉªÅĭ
ĠÉ¹ÉªspÉĳnd z
ĠÊĮfÉĶÉ¹d Éªd
ĠhÉĶÉ¹eÉª ÊĥÉªoÊĬ
ĠÉ¹ÉªÃ¦kt Éªv
Ã¦ts uËĲ
ÊĴuËĲd ÉªÊĥÉĻl
ĠÉªnÉĻs ÉĻns
ĠÊĥÃ¦ ÉĻnt
ĠpÉªst ÉĻlz
ĠpÉ¹ÉªzÉĽnt ÉªÅĭ
ĠtÉĽÉ¹ÉĻÉ¹ É¹Éªst
ĠÉ¡É¹iËĲt ÉªÅĭz
ĠbÃ¦stÉĻÉ¹d z
ĠflÊĮd z
ĠdÉĽpjuËĲti z
ĠbÉªs iËĲd
ĠhÉªk ÉĻÉ¹É¹i
ĠÉ¹ÉĽm n
ĠkÉĻnsÊĮlt Éªd
ĠÉĳnvÉĻloÊĬ ps
ĠkÃ¦tÉĻÉ¹p ÉªlÉĻÉ¹z
ĠÉ¹ÉĽkÉĻmÉĽnd eÉªÊĥÉĻnz
ĠÉĽÉ¡zÃ¦mÉªn ÉªÅĭ
ĠpÉ¹ÉĻfÉĽÊĥÉĻn ÉĻli
ĠhÉĳspÉªt Ã¦lÉªti
ĠbÊĮÅĭk ÉĻÉ¹
ĠtÉªÅĭk ÉĻÉ¹
ĠwÉĽs Éªks
ĠkÃ¦ÊĴuËĲÉĻl tiz
ĠfÉª oÊĬnÉĻ
ĠÉ¹ÉªpÉ¹ÉĻd ÊĮktÉªv
ĠÊĮsÃ¦s ÉªneÉªÊĥÉĻn
ĠÉĳÉ¹n ÉĻld
ĠlÉªÎ¸ juËĲ
ĠÊĮnw ÉªlÉªÅĭ
ÊĴÉªmn eÉªs
ĠÉĽksploÊĬs Éªv
ĠdÉªsÉĽnd ÉĻnts
ĠsÉªnsÉªÉ¹ li
ĠkÉĶÉ¹pÉĻÉ¹É¹ ÉĻt
ĠfÉĶÉ¹l ÉĶÉ¹n
ĠdÉªpÉĳz ÉªtÉªd
ĠpÃ¦É¹ÉĻlÉªmp Éªks
ĠÃ¦lÉ¡ÉĻÉ¹É¹ÉªÎ¸ ÉĻm
ĠsÉĻnÃ¦É¹i oÊĬ
ĠÊĥÉªl ÉªÅĭz
ĠdeÉªtÉĻb eÉªs
ĠmÉĽlÉĻ Åĭk
ĠÃ¦ÅĭÉ¡w ÉªÊĥ
b juËĲ
h aÉªl
k ÉĶÉ¹
k ÉĽÉ¹
l ÊĮnd
l Éªb
m eÉªkÉĻÉ¹
s Éªs
ÉĻ kt
Éĳ ÅĭÉ¡
Ġs aÊĬdi
Ġb uËĲz
Êĥ ÉĽvÉĻÉ¹
Ġf Éªnz
Ġn Éªkt
ÉĻl tiz
Ġl ÊĬÉ¹
ĠaÉª É¹Éªs
ĠÉ¡ ÉĽÉ¹
ĠÉ¡ É¹Éªz
aÊĬ k
ÊĴ ÉĽti
Î¸ m
ÉĽÉ¹ ÉĻnts
ĠiËĲ l
ĠÊĥ Ã¦nÉĻn
Éªn ski
ĠwiËĲ nÉĻÉ¹
ĠsÉĽ f
ĠmiËĲ z
ĠlaÉª nÉªÅĭ
ĠsiËĲ siËĲ
ÉĽnt Éªv
ĠnÉĳt si
ĠsoÊĬ s
ĠÉĽks ÉĻl
ĠÉĽn z
ĠaÊĬt bÉ¹eÉªk
ĠaÊĬt stÉ¹ÉĽt
ĠÉĶÉ¹ ÉĻl
ĠÉĶÉ¹ sÉĻn
ĠÉ¡É¹ eÉªl
ĠÉ¡É¹ Ã¦vÉĻl
ĠÉªf ÉªÊĥÉĻnsi
ĠÉĽf tiËĲ
ĠÉĽf ÉĳÉ¹
ĠbÉ¹ ÉĶn
ĠbÉ¹ ÉĽÃ°
ĠlÃ¦ Åĭk
Ġkl Éĳp
ĠÉľËĲ vÉªÅĭ
ĠseÉª n
Éªm ÉªÉ¹
ÉªÊĥ Éªz
ÉªÊĥ aÉªd
ĠtwÉĽnti wÊĮn
ĠtÉĽl ÉªskoÊĬp
oÊĬt s
pl ÉĻsli
ĠdÉªs Éĳl
ĠdÉªs iËĲv
ĠstÉ¹ Ã¦ps
Ġz ÉĽl
Ġz ÉĶÉ¹Éªn
Éĳks i
ÊĮs Éªn
fÉĻl d
Ġsw oÊĬlÉĻn
ĠÉĽnd lÉĻs
ĠÊĮt É¹Éªb
ĠnaÉªt É¹eÉªt
ĠÃ¦l aÉª
ĠÎ¸Ã¦Åĭk aÉªoÊĬuËĲ
pÉ¹ ÉĻd
ĠÉ¹Éªs ÉĽÊĥÉĻn
ĠÉĽksp oÊĬÊĴÉĻÉ¹
É¡É¹ oÊĬn
ĠwÉĶÉ¹ ÊĥÉªps
ĠÉ¹ÊĮn ÉĻÉ¹
Ġsn Ã¦ks
ÊĴÉĽn iz
ÊĴÉĳn bÉĶÉª
ĠÊĮk ÉľËĲs
ĠbÉª wÉĽÉ¹
ĠdaÉª ÉĻÉ¹
ÊĮp ÉĶÉ¹
ĠsaÊĬnd ÉªÅĭ
ĠdÉªsk É¹ÉĽÊĥÉĻn
ĠÊĮf Éªl
ĠdÉĳÉ¡ Éªz
ĠdÉªp ÉĽndÉĻnt
ĠmÉĳÉ¹ loÊĬ
ĠdÉĳÉ¹ lÉªn
ĠÉ¹iËĲt eÉªl
ĠÉĳn lÉª
ĠiËĲv l
ĠbÉĳt bÉĳt
ĠsÉľËĲk jÊĬlÉĻÉ¹
ĠseÉªv jÉĻÉ¹
ĠjÉĶÉ¹k ÊĥÉĻÉ¹É¹
ĠkÉĻmpl iËĲÊĥÉĻn
ĠbÉĳÉ¹t lÉªt
ĠklÃ¦s ÉªfÉªkeÉªÊĥÉĻn
ÉĶnt ÉĻn
ĠsloÊĬ ÉĻÉ¹
ĠdÉĳn sÉĻn
ĠfeÉªvÉĻÉ¹ d
ĠÉĶÉ¹dÉĻÉ¹ li
ÊĴÉĶ ÉªfÉĻl
ĠkÉĶÉ¹ ÉĻl
ĠbÃ¦É¡ Éªd
ĠpÉ¹ÉĽzÉĻnt eÉªÊĥÉĻn
ĠÉ¹ÊĮ ÊĥÉªz
ĠkÉĳÉ¹d bÉĶÉ¹d
ĠÉĶÉ¡ ÊĮst
ĠsÃ¦d nÉĻs
ĠÉ¡É¹iËĲ v
ĠÉ¹ÉĽpÉ¹ÉªzÉĽnt eÉªÊĥÉĻn
ĠÃ°eÉªv hÃ¦d
ĠmÉªÉ¹ ÉĻÉ¹É¹
ĠvÉľËĲ bz
ĠbÉ¹aÉªt ÉĻÉ¹
ĠsÉĽlf oÊĬn
ĠziËĲ l
ĠÉĽp Éªk
ĠsÉĻsp ÉĽns
ĠbaÊĬnd Éªd
ĠÉ¹Ã¦m z
ĠtÉĽÉ¹ Ã¦tsoÊĬ
ĠÉªv Éĳlvd
ĠstÉ¹oÊĬ d
ĠtÊĮÅĭ z
ĠfÉľËĲn Ã¦ndoÊĬ
ĠÉªÅĭkw aÉªÉĻÉ¹É¹ÉªÅĭ
ÊĴÉĽl ÉªfÉªÊĥ
ĠdÊĮ ÅĭÉ¡ÉĻÉ¹É¹
ĠvÉªk ÉĻÉ¹
ĠfÉĽn z
ĠpÉĳÉ¹l ÉĻm
ĠsÉªnd É¹oÊĬm
ĠÃ¦mb ÊĬ
ĠÃ¦mb ÉªÊĥÉĻs
ĠpÉĳm z
ĠÊĮwÉĽÉ¹ nÉĻs
ĠmÉĽÉ¹Éª mÉĻnz
ĠklÃ¦ É¹Éªf
ĠklÉªf s
ĠkÉĻntÉ¹oÊĬ lÉªÅĭ
ĠtÃ¦n ÉªÊĥaÉªd
ĠpÃ¦nt É¹i
ĠpaÊĬd ÉĻÉ¹É¹
ĠfuËĲ lÉªÅĭ
ĠlÉĳÉ¹ É¹iËĲtÉĻ
ĠÉ¡É¹iËĲt ÉªÅĭ
ĠfÉ¹iËĲz ÉĻÉ¹
ĠkÉ¹ÉĳkÉĻd aÉªlz
ĠÃ¦É¹ÉĻ É¡
ĠÉ¹Ã¦Åĭk ÉªÅĭ
ĠpÉ¹ÉĽd ÉªsÉĽs
ĠÉ¹ÊĮm bÉĻl
ĠÉ¡É¹Éª nd
ĠspÉĽs ÉªmÉĻn
ĠÎ¸É¹Éª lÉªÅĭ
ĠwÉĽbs aÉªts
ĠpÉĽÉ¹Éª lÉĻs
ĠbÉĽÎ¸ ÉĻni
ĠklÉĶd iÉĻ
lÉªÉ¡ ÉĻ
ĠÉ¡É¹Éªf ÉªÎ¸
ĠsÉĽmÉªn oÊĬl
ĠnÉĳÅĭÉ¡ d
ĠpÉľËĲd i
ĠÉ¹ÉªzÉĽnt mÉĻnt
maÉªnd Éªd
kÊĮl ÉĻÉ¹d
ĠdÉªmÉªt É¹ÉĻ
ĠmjuËĲhÊĮm Ã¦dÉĻn
ĠkÉĳnsoÊĬ l
ĠskÃ¦l p
ĠskaÊĬnd É¹ÉĻl
ĠsÉľËĲp ÉĻnt
ĠfjuËĲkÉĻ ÊĥiËĲmÉĻ
ĠÃ¦dÉĻl eÉªd
ĠvÊĮln ÉĻÉ¹É¹ÉĻbÉĻl
ĠwÉĶtÉĻÉ¹m ÉĽlÉĻn
ĠhÉªpÉĻpÉĳt Ã¦mÉĻs
ĠbÉ¹ÉĽÃ° É¹ÉĻn
h ÉľËĲst
l Éªnd
l ÉĻmz
n ÉĽkt
t ÉĻÉ¹É¹
t É¹iËĲ
w ÉĶÉ¹t
w uËĲf
Éª eÉªtÉªÅĭ
É¹ eÉªs
É¹ Éĳps
É¹Éª ÉĻs
Ġw ÉĻn
Ġw Ã¦l
Ġk ÊĮnd
Ġk ÉľËĲvd
Ġt oÊĬm
Ġs Ã¦kt
Ġs nÉĳt
Ġd ÉĶl
Ġd ÊĮd
Ġd Ã¦z
Êĥ keÉª
Êĥ ÉªbaÉª
Ġm ÉĽndÉªd
Ġj Ã¦
É¡ É¹iËĲn
ĠÉ¡ ÉĶÉ¹s
ÊĴ z
ÊĴ iËĲdiËĲ
ÊĴ ÉĳvÉĻ
ĠÉ¹ aÉªzÉªz
ĠÉ¹ ÉĽntÉªd
Éªt eÉªtÉªd
ĠÊĥ Ã¦Åĭ
Ġst ÊĮnd
ĠduËĲ b
ĠfÉ¹ eÉªÉĻ
eÉªk ÉĻn
Ġpl uËĲt
eÉªd iËĲz
ĠpÉ¹ ÊĮÃ°ÉĻÉ¹É¹
aÉªd iËĲ
ĠaÊĬt pÊĬt
ĠÉ¡É¹ ÉĽn
ĠbÉ¹ ÉĽndÉĻ
Ġsp Éĳn
Ġkl aÉªd
Ġkl ÊĮmz
Éĳl ÉªÊĥt
Ġsk ÊĮm
ĠpÊĬt n
Éªp jÊĬÉ¹É¹i
ĠwÉªt eÉªkÉĻÉ¹
ĠpÉĻÉ¹ m
ÊĮk h
ĠÊĮs ÊĮmpÊĥÉĻn
ÊĴiËĲ m
ĠÉ¡ÉĻn z
iËĲp ÉĻÉ¹z
ĠdÉªs aÉªs
ĠdÉªs iËĲst
ĠÃ¦d Ã¦pt
ĠbÃ¦ bÉªl
ĠbÃ¦ buËĲ
Éªli ÉĻ
Ġsw ÉĽlÉªÅĭ
ĠheÉª v
ĠÊĮndÉĻÉ¹ wÉĽÉ¹
ĠlÃ¦st neÉªm
ĠmÉªn ÉĻÉ¹É¹ÉĻl
oÊĬd ÉĻ
ĠÊĥiËĲz hÃ¦d
É¡É¹ Ã¦nd
ĠsÉĳÉ¹ oÊĬz
ĠkÉĻnt Éªnd
ĠÉ¹Éªl eÉªts
ĠluËĲ ÊĥÉĻ
ĠdaÉª uËĲ
ĠnÊĮm bÉĻÉ¹d
ĠÉ¹aÊĬnd Éªd
ĠmÉĳÉ¹ ti
ÊĴÉĽkt ÉªÅĭ
ĠwÉĳ fÉĻl
ĠpÊĬ sÉªk
ĠkÉľËĲ stÉĻn
ĠfÉªÊĥ ÉĻÉ¹mÉĽn
ĠÉ¹Éªz uËĲm
ĠÉ¹Éªp ÉĽÉ¹z
ĠkÉĳnt ÉĻmpl
ĠÊĥÉĶÉ¹t ÉĻnd
ĠlÉĽs ÉĻÉ¹
ĠnÃ¦ÊĥÉĻnÉĻl ÉªzÉĻm
ĠhÉĳÉ¹ nÉªs
ĠÉªÉ¹ ÉĽktÉªd
ĠpaÉª ÉĻz
ĠiËĲzi Éªst
ĠkoÊĬ ÉĻlÉªÊĥÉĻn
ĠsÉªtÉªÅĭ É¹uËĲm
ĠkiËĲ wiËĲ
ĠpÉĶÉ¹t lÉĻnd
ĠstÉ¹eÉªt ÉĻnd
ĠÊĮnd É¹ÉĽst
ĠmÉĻÉ¹É¹ iËĲnoÊĬ
ĠkÉĳp Éªd
ĠvÉªkt ÉĻÉ¹É¹iz
ÊĴoÊĬs ÉªÉĻn
ĠloÊĬk ÉĻli
ĠbÉ¹Éª m
ĠliËĲÉ¡ ÉĻli
ĠsÊĮbd uËĲd
ĠkÉĳnf ÉªdÉĽnÊĥÉĻl
ĠÊĮw eÉªtÉªd
ĠÉĽld ÊĮbÉĻljuËĲ
ĠtÊĬÉ¹ d
ĠfiËĲd bÃ¦k
ĠÊĥÉĽÉ¹ hoÊĬld
ĠsÉªn Ã¦ks
ĠpuËĲ lz
ĠpiËĲk Éĳk
iËĲm iÉĻ
ĠtÉ¹eÉªd ÉĻÉ¹z
ĠsÊĮl uËĲn
ĠÉ¹ÉªspÉĽkt Éªvli
ĠtoÊĬ pÃ¦Î¸
ĠmÊĮs ÉĳÊĴ
ĠfÉ¹aÉªt ÉĻnÉªÅĭ
ĠsÉĻÉ¹v eÉªlÉĻns
ĠÉĽst iËĲ
ĠkÃ¦É¹ÉĻl aÉªnz
ĠsÉĻb Ã¦st
ĠsÉĻb ÉľËĲbÉĻn
ĠdÊĮbÉĻl d
ĠÎ¸É¹ÉĽt ÉĻn
ĠÉªnh ÉĽÉ¹ÉªtÉªd
ĠnÉĳmÉªn iËĲ
ĠtÊĮn ÉĻlz
ĠtÃ¦k ÊĮh
ĠbÃ¦É¹i ÉĻÉ¹
ĠsÉªvÉĻl aÉªzd
ĠspÉªn Éªt
ĠfÃ¦s ÉĻn
ĠÎ¸iËĲ mz
ĠhÊĮn ÉĻm
ĠdÉªlÉªvÉĻÉ¹ É¹ÉªÅĭ
ĠbÊĮmp i
ĠbÉĽÉ¹ÉªÅĭ z
ÊĥÉªl iËĲÉĻn
ĠnÉĽf juËĲz
ĠÉ¹Ã¦k uËĲn
ĠsÊĮbs Éªd
ĠÊĮnÉĽkspÉĽktÉªd li
ĠsÉĽs ÉĽÊĥÉĻn
ĠlÊĮÉ¡ Éªd
ĠÉ¡É¹Ã¦f Éªks
ĠÉĽÅĭkaÊĬnt ÉĻÉ¹d
ĠkÉĻntÉ¹Éªb juËĲtÉªd
ĠÉ¹ÉĽÉ¡jÊĬl eÉªÊĥÉĻnz
ĠleÉªz ÉĻÉ¹
ĠpÉ¹Éªk ÉĶ
ĠloÊĬl ÉĻz
ĠflÊĮt ÉĻÉ¹
ĠstÃ¦b d
ĠsÉªÉ¡ ÉĳÉ¹
ĠsiËĲiËĲ oÊĬ
ĠÉľËĲnÉªÅĭ z
ĠÉ¹iËĲjuËĲn iÉĻn
ĠskwÉĳ Êĥt
ĠsoÊĬk ÉĶld
ĠpÉ¹ÉĽf É¹ÉĻns
ĠÊĮdmÉªnÉªstÉĻÉ¹ d
ĠÉ¹ÉªsiËĲ vÉĻÉ¹
ĠmiËĲtÉª ÉĶÉ¹
ĠÉ¡ÉĳÎ¸ Éªk
ĠdeÉªk ÉĽÉ¹
ĠspÃ¦nÉª ÉĻÉ¹dz
ĠviËĲn ÉĻs
ĠÉĽmt ÉľËĲk
ĠlÉĳlÉªp Éĳp
ĠpÉĳÉ¹lÉĻm ÉĽntÉĻÉ¹É¹i
b ÉĻni
d ÊĮst
d ÉĳÉ¡
f uËĲd
h oÊĬm
j ÊĮÅĭ
k Éĳt
l eÉªv
l ÉĽÅĭÎ¸
w Éĳt
Ġ eÉªz
st ÉĶÉ¹m
Ġw ÊĬ
Ã¦ kw
Ġt ÉĽt
Ġs Ã¦Êĥ
Ġs ÊĮbl
Ġs eÉªtÉĻn
Ġb juËĲk
Êĥ ÉĽÉ¹Éª
Êĥ aÉªmz
Ġm ÉªÊĥÉĻnz
É¡ ÉĻt
Ġf ÉĳÉ¹É¹
Ġp ÉªÉ¹ÉªÅĭ
Ġp Éĳns
ĠaÉª h
ĠaÉª n
ÉľËĲ Î¸
ÉľËĲ É¹i
ÉľËĲ kÉĻl
ĠÉªn lÉĻnd
ĠÉĶ bÉ¹i
ÉĽÉ¹ ÉĻz
Éªt ÉĽÉ¹iÉĻn
ĠÊĥ Éªm
ĠÊĥ ÉĽlvz
Ġst ÉĽÉ¹Éª
Éªk aÊĬ
ÊĮt ÉĶÉ¹ÉªÉĻl
ĠduËĲ li
ĠtuËĲ z
É¹iËĲ eÉªÊĥÉĻn
ĠhÉľËĲ stÉĻn
ĠÃ°Éª Ã°ÉĻÉ¹
ĠÊĮn sÉĽlf
ĠÊĮn ÉĽskoÊĬ
ÉĽs ÉĽs
ĠpiËĲ pÉªÅĭ
Ġkl ÉĽnt
ĠÉľËĲ b
ĠÉªnt ÉĻÉ¹t
Ġsk Éªnz
Ã¦nd ÉĽz
Ġtw Éĳz
Ã¦m Éªk
Ã¦m ptÉĻn
ĠmÉĶÉ¹ i
ĠÉĳ veÉª
ĠvÉĽÉ¹i d
ĠdÉ¹ aÉªÉĻÉ¹
ĠÉĶf Î¸
ĠeÉª eÉªiËĲ
Ġfl ÉĽt
Ġfl Éĳp
Ġfl Ã¦p
ĠpÉĻÉ¹ t
ĠoÊĬvÉĻÉ¹ d
ĠoÊĬvÉĻÉ¹ fl
ĠmÃ¦n ÉªÅĭ
ÊĴiËĲ ÉĽs
ĠÉĽl ÉĽn
ÊĴuËĲ bÉªl
ĠdÉªs iËĲvd
ĠÃ¦d Éĳnz
ĠkÉĻm oÊĬÊĥÉĻn
ĠhÃ¦nd É¹aÉªtÉªÅĭ
ĠmÉªs d
ÊĮf oÊĬn
ĠdiËĲ mÉĻn
ĠneÉªm ÉªÅĭ
ĠlÉĶÅĭ tÉľËĲm
ÉĽz ÉĻ
ĠÊĮndÉĻÉ¹ É¡É¹Ã¦d
ĠdÉªf ÉľËĲd
ĠstÉĳÉ¹t ÉĻlÉªÅĭ
ĠlÃ¦st s
ĠÉ¹Éªs Éªp
ĠfÉĽl ÉĻÉ¹
ĠwiËĲl t
ÊĴÉĽn ÉĻ
ĠfÊĬt pÉ¹Éªnts
ĠkÉĻns uËĲmd
ĠeÉªd Éªd
ĠbÉľËĲ p
ÊĮÉ¡ n
ĠbÉĽd É¹uËĲmz
ĠdÉªsk wÉĳl
ĠkÉĻmp ÉĽÉ¹ÉªÅĭ
ĠdÉªz aÉªÉĻÉ¹É¹ÉĻbÉĻl
ĠwÉĳ ÊĥÉĻÉ¹É¹
ĠtÉ¹iËĲ oÊĬ
ĠdÉĳkt É¹Éªn
ĠkÊĮt ÉĻÉ¹z
ĠÉªnst ÉĶld
ĠsuËĲ m
ĠwÉªs pÉĻÉ¹É¹
ĠwÉªn stÉĻn
ĠtÉ¹Ã¦ns p
ĠwÉĽst ÉĻn
ĠkloÊĬ vÉĻÉ¹
ĠdÉªÉ¹ÉĽkt ÉªÅĭ
Ã¦ft ÉĻÉ¹
ĠtÉ¹ÊĮbÉĻl sÊĮm
ĠÉ¹ÉªsiËĲv z
ĠmÉĻÉ¹É¹ ÉĳkoÊĬ
ĠÉªntÉĻÉ¹ vÉĻl
ĠkÉ¹ÉĶs Éªz
kl ÊĮb
ĠdÃ¦m d
ĠÊĮnl Éĳk
ĠpeÉªnt s
ĠpÉĻÉ¹tÉªk jÊĬlÉĻÉ¹z
ĠdÃ¦n jÉĻlz
ĠkÉĻnv ÉľËĲÊĴÉĻn
ĠÉ¹ÉĽkÉĻÉ¡n aÉªzÉªÅĭ
ĠÃ¦É¡ ÊĮ
ĠÉ¹ÉªfÉľËĲ b
ĠÉ¹Éĳb ÉĻÉ¹z
ĠÉ¹Éĳd z
ĠÉªntÉĻÉ¹nÃ¦ ÊĥÉĻn
ĠpÉ¹ÉĻs pÉĽÉ¹Éªti
ĠsÊĮf ÉĻk
ĠdÉĽk stÉĻÉ¹
ĠmÃ¦k i
ĠÉ¹ÉĽÉ¡ jÊĬleÉªÊĥÉĻn
ĠsÉľËĲt ÉĻnti
ĠÉ¹eÉªnd ÉªÉ¹
ĠkwÉĶl ÉªfaÉª
ĠÉĳk Éªn
ĠfÉ¹ÉĽÊĥ mÉĻn
ĠhÃ¦É¹i z
ĠÉĳpÉĻÉ¹É¹ ÉĻz
ĠtÉ¹eÉªd Éªd
ĠsÃ¦l ÉĻÉ¹É¹iz
ĠheÉªst ÉªÅĭz
ĠjuËĲÎ¸ fÉĻl
ĠÊĮlaÊĬ ÉĻns
ĠÉ¹ÉĳbÉĻÉ¹t oÊĬ
ĠaÉªdÉĽnt ÉªfÉªkeÉªÊĥÉĻn
ĠpÉĽt i
ĠkÉĳk É¹oÊĬt
ĠhoÊĬli nÉĻs
ĠmÉĶ É¡É¹
ĠÉ¹Éªst É¹Éªk
ÊĥÉĽl z
ĠtÉĽkst s
ĠhoÊĬst s
ĠhoÊĬst ÉĽs
ĠpÉ¹Éĳ st
ĠplÃ¦t oÊĬ
ĠhÉªstÉĶÉ¹Éªk li
ĠÊĮns iËĲn
ĠpjÊĬÉ¹ li
ĠpÉ¹oÊĬt ÉĻk
ĠhÊĮn ÉªmuËĲn
ĠpeÉªs Éªz
ĠtÉĽmpÉĻÉ¹É¹ ÉĻns
ĠtiËĲz d
ĠÊĮpsaÉªd daÊĬn
ĠÉ¡Éĳ bÉĻl
ĠtÉªÊĥ uËĲz
ĠÉªntÉĽns Éªti
ĠmÉĽÊĴÉĻÉ¹ É¹ÉªÅĭ
ĠÉªnfl eÉªÊĥÉĻn
ĠÊĮsuËĲm ÉªÅĭ
ĠmjuËĲt Éªni
ĠpÉĶÉªzÉĻn ÉĻs
ĠÊĥÉľËĲ lÉĳk
bÉľËĲd z
ĠtÉ¹ÉªbjuËĲt ÉĽÉ¹i
ĠÊĮsoÊĬsÉª eÉªts
ĠniËĲs Éªz
ĠvoÊĬk ÉĻlz
ĠÊĮkÉĳmÉĻd eÉªt
ĠbÉ¹Éªsk li
ÊĴÊĬÉ¹ É¹Éªs
ĠpÉ¹ÉĽm ÉªsÉªz
ĠÊĮksÉĽl ÉĻÉ¹É¹
ĠÉĶÉ¹fÉĻn Éªd
ĠsÉĻst eÉªnd
ĠlÉĽnt ÉĻlz
ĠÉĳÉ¹kt ÉĳdÉĻs
ĠkÉĻnsuËĲm ÉĻÉ¹
ĠÉªndÉªÉ¡n ÉĻntli
ĠÉĻbs ÉĽst
ĠÉªnstÉ¹ÊĮkt ÉĻÉ¹
ĠÉĽkskluËĲs Éªv
ĠhÃ¦mbÉľËĲÉ¡ ÉĻÉ¹z
ĠkÉĻmpoÊĬn ÉĻnt
ĠlÉĽbÉĻn Éĳn
ĠÉªnsk É¹ÉªpÊĥÉĻn
ĠvÉªÉ¡ ÉĻÉ¹É¹ÉĻs
ĠÃ¦lbÉľËĲt oÊĬ
ĠstÉĽl Î¸
ĠÃ¦ls ÉªndÉĻ
ĠklÃ¦mp Éªt
ĠÉĳÉ¹kiËĲ ÉĳlÉĻd
ĠzÉªm bÉĳb
ĠÉĽkstÉ¹Ã¦v ÉĻÉ¡
ĠvÉľËĲm ÉĶnt
ĠÊĥÉĽp ÉĻÉ¹dz
ĠÉ¡oÊĬldÉªl Éĳks
ĠlÃ¦vÉªn iÉĻ
ÊĴÉªmneÉªs iÉĻm
ĠmÉĽlÉĻÅĭk Éĳli
ĠÊĮkÉľËĲs Éªd
ĠÊĮnsÉĽlf ÉªÊĥ
f oÊĬn
s ÉľËĲm
t eÉªbÉĻl
Éª ndÉĻÉ¹
É¹ ÉĽt
É¹ ÊĮst
ÉĻ tiËĲn
ÊĮ lz
st Éĳp
Ġw ÉĽÉ¹Éªn
Ġk ÊĮv
Ġt ÉĽndÉªd
Ġt ÉªÅĭki
Ġh ÊĮts
Ġd ÉĶÉª
Ġd ÉĻb
ĠÉĽ É¹ÉĻn
Êĥ ÊĮÅĭk
Ġm ÊĮÅĭks
É¡ juËĲ
Ġf ÉĻn
Ġf Éªsts
Ġp ÉĶÉ¹z
Ġl ÊĮl
ĠÉĽm m
ĠÉ¡ Éªm
ĠÉ¡ É¹Éªs
ÉĶÉ¹ p
ÊĴ ÉĻntli
ĠÉ¹ ÉĻd
Éªd Ã¦d
ĠÊĥ ÉĶ
ĠhiËĲ ps
Ġst ÊĮn
Ġst É¹uËĲ
Ġst eÉªnd
Ġst ÉĶk
Éªk ÉĻnz
Éªn Éªs
ĠtuËĲ bÉĻÉ¹
ĠbiËĲ mz
juËĲ st
ĠjÊĬÉ¹ É¹oÊĬz
Éªl ÉĻn
aÉªn ÉĻlz
ĠpÉ¹ oÊĬz
ĠpÉ¹ ÊĮdeÉª
ĠbaÉª Ã¦nd
ĠbÉ¹ ÉĽnt
Ġkl Éĳ
Ġsk ÉĽpt
Ġsk É¹eÉª
ĠwÉĽÉ¹ haÊĬs
ÉĽk ÊĥuËĲÉĻl
Ġbl Éªts
ĠtiËĲ ÉĳÉ¹
ĠdÉ¹ uËĲp
Ã¦l É¡
É¹oÊĬ kÉĻn
ĠoÊĬn ÉĻÉ¹ÊĥÉªp
ĠoÊĬvÉĻÉ¹ Î¸É¹oÊĬ
ĠmÃ¦n ÉªpjÊĬÉ¹É¹i
ĠsÉľËĲ biÉĻn
ĠfÉĻÉ¹ oÊĬÊĥÉĻs
ĠkÊĮ bz
ĠdeÉª bÉ¹eÉªk
ĠÃ¦n ÉĻz
ÊĴiËĲ oÊĬ
ÊĴiËĲ eÉªt
ĠhÉĽl z
ÊĴuËĲ vÉĻn
ÊĴuËĲ deÉª
ĠtÉĶ sÉªz
ÉĻv Ã¦n
ĠdÉªs ÊĮdv
ÊĮb Éªs
ĠÊĮl uËĲmÉªn
ĠÉªl ÊĮst
ĠpÉĻÉ¹s pÉĽktÉªv
ĠdiËĲ jÃ¦
ĠjuËĲz ÉĻÉ¹É¹
ĠfiËĲ biËĲ
ĠbÉªfÉĶÉ¹ hÃ¦nd
ĠteÉª nt
ĠÉĽnd ÉĶÉ¹s
ĠkÉĳÉ¹ mÉĽn
ĠÉªnd iz
ĠdÉªf aÉªÉĻns
ĠkÉĳm bÉĻ
ĠÉ¹iËĲ l
ĠsteÉªt li
ĠÉĽÉ¡z aÉªl
ĠweÉªt ÉĻÉ¹
ĠkÉĳn i
ĠdÉĶÉ¹ ÉĻÎ¸
Ġsn ÉĶÉ¹ÉªÅĭ
ĠkÉĻns iËĲvd
ĠÊĮnt aÉªd
ĠwÉĶtÉĻÉ¹ luËĲ
ĠbÉĽd saÉªd
ĠpÉľËĲs Éªv
ĠsÉĻp É¹ÉĽst
ĠkÃ¦m ps
ĠhÃ¦z ÉĻÉ¹d
ĠmÉĳÉ¹ oÊĬ
ĠsÉªÉ¹ ÊĮp
ÉªÅĭk luËĲd
ĠwiËĲk ÉĽndz
ĠbÉªh ÉĽld
ĠbÊĬ kt
ĠkÃ¦pt ÉĻÉ¹z
ĠwuËĲ Êĥ
ĠbÉĽn Éªt
ĠbÉĽn Éªd
ĠjÊĮ ÅĭÉ¡ÉĻÉ¹É¹
ĠwÉªs ÉĻld
ĠÉªns ÉĽns
ĠmÉªd fiËĲld
ĠÉªÉ¹ ÉĽkt
ĠpaÉª nt
ĠseÉªv z
ĠeÉªm ÉªÅĭ
ĠswiËĲt kÉĶÉ¹n
ĠbÉĳdi li
ĠsÃ¦nd É¹ÉĻ
Ã¦v i
ĠkÉ¹Éªst ÉĻlz
ĠpÉĶÉ¹t ÉĻbÉĻl
ĠnoÊĬv ÉĻ
ĠkliËĲn ÉĻÉ¹
ĠstÉ¹eÉªt fÉĶÉ¹wÉĻÉ¹d
ĠÊĮÉ¡É¹iËĲ z
ĠÉ¹aÉª p
ĠÉªntÉĻÉ¹ steÉªt
ÊĥÉª É¹ÉªoÊĬ
ĠÉ¹eÉªs ÉªzÉĻm
fl uËĲ
ĠvÉªkt ÉĻÉ¹É¹
ĠtÉ¹ÊĮst iËĲz
ĠkÉĶst li
ĠlÉªm p
ĠkÉľËĲÉ¹ÉĻnt s
ĠmÉªÉ¹ ÉĻÉ¹z
ĠÉªlÉĽkt É¹oÊĬm
stÉ¹eÉª nt
ÊĴÊĮm ÉĻ
ĠpÉĳt ÉĻÉ¹
ĠÊĮksÉĽpt ÉªÅĭ
ĠÉĽÅĭk eÉª
ĠÉ¹Ã¦p ÉªÅĭ
ĠsiËĲd ÉĻÉ¹
ĠmÉľËĲ pÊĬÉ¹
ĠsÃ¦l ÊĮm
ĠkÉ¹aÊĬd z
