{"UTT_BOUNDARY":0,"PAD":1,"UNK":2,"a":3,"b":4,"d":5,"e":6,"f":7,"h":8,"i":9,"j":10,"k":11,"l":12,"m":13,"n":14,"o":15,"p":16,"r":17,"s":18,"t":19,"u":20,"v":21,"w":22,"x":23,"z":24,"¡":25,"¦":26,"§":27,"ª":28,"¬":29,"°":30,"²":31,"¸":32,"¹":33,"Ã":34,"Å":35,"É":36,"Ê":37,"Ë":38,"Ì":39,"Î":40,"Ġ":41,"ĥ":42,"Ĭ":43,"ĭ":44,"Į":45,"Ĳ":46,"ĳ":47,"Ĵ":48,"Ķ":49,"Ļ":50,"Ľ":51,"ľ":52,"ł":53,"Éª":54,"É¹":55,"ÉĻ":56,"ËĲ":57,"ĠÃ":58,"ÉĽ":59,"ÊĮ":60,"ÊĬ":61,"iËĲ":62,"ÉĻÉ¹":63,"aÉª":64,"ĠÃ¦":65,"st":66,"oÊĬ":67,"É¹Éª":68,"ĠÃ°":69,"Ġw":70,"Ã¦":71,"eÉª":72,"uËĲ":73,"ÉĶ":74,"sk":75,"ĠÊĮ":76,"Ġk":77,"stÉĻÉ¹":78,"Ġt":79,"Éĳ":80,"É¹Éªsk":81,"stÉĻÉ¹É¹Éªsk":82,"ĠÃ¦stÉĻÉ¹É¹Éªsk":83,"Ġh":84,"ĠÉª":85,"nd":86,"Ġs":87,"Ġd":88,"ĠÉĽ":89,"Ġb":90,"Êĥ":91,"Ġm":92,"Ġj":93,"É¡":94,"Åĭ":95,"Ìł":96,"ÉĻn":97,"Ġf":98,"Ġn":99,"ÉĻl":100,"tiËĲ":101,"Ġp":102,"ÉªÅĭ":103,"Ġl":104,"ĠÃ°ÉĻ":105,"ĠÉĽm":106,"ĠaÉª":107,"Ã°":108,"ĠjuËĲ":109,"ĠÉ¡":110,"ÉĶÉ¹":111,"aÊĬ":112,"Éľ":113,"ÉľËĲ":114,"oÊĬtiËĲ":115,"ĠÉĽmoÊĬtiËĲ":116,"ĠwÊĮ":117,"ĠÃ¦nd":118,"nt":119,"ĠkaÉª":120,"ÊĴ":121,"ĠtÉĻ":122,"Î¸":123,"ÉĳÉ¹":124,"Ã¦t":125,"ĠÉªt":126,"ĠÉªn":127,"ĠÊĮv":128,"ĠÉĶ":129,"ÉĽÉ¹":130,"ĠÉ¹":131,"ks":132,"ĠÃ°Ã¦t":133,"ÊĮm":134,"ÉĽn":135,"ĠiËĲ":136,"Éĳt":137,"Éªt":138,"Éªd":139,"Ã°ÉĻ":140,"ĠÎ¸":141,"Éªs":142,"ĠhÃ¦":143,"ĠoÊĬ":144,"ĠÊĥ":145,"ĠhÉª":146,"ĠÉªz":147,"ÉĽl":148,"ÉĻÉ¹É¹":149,"ĠwÉª":150,"ÉĻlz":151,"ĠnoÊĬ":152,"eÉªt":153,"ĠhiËĲ":154,"kw":155,"ĠwÊĮz":156,"li":157,"Ġst":158,"ÉĻnt":159,"Ã¦n":160,"ĠiËĲkw":161,"ĠiËĲkwÉĻlz":162,"ĠfÉĶÉ¹":163,"Éªk":164,"ÉĽt":165,"Éªn":166,"aÉªt":167,"ÊĮt":168,"ĠÉĶn":169,"ÊĬÉ¹":170,"ÊĬd":171,"ĠwÊĮt":172,"ÉĽm":173,"ĠÃ°ÉĽÉ¹":174,"ĠwÊĮn":175,"ÊĥÉĻn":176,"ĠduËĲ":177,"aÊĬt":178,"ĠwiËĲ":179,"ĠtuËĲ":180,"ĠsÉĽ":181,"ld":182,"Éªz":183,"ĠwÉªÃ°":184,"ĠjÉĽ":185,"kt":186,"ĠbiËĲ":187,"ĠmiËĲ":188,"ÊĮn":189,"ĠÉĶl":190,"ĠÉĳÉ¹":191,"ĠÃ°Éªs":192,"juËĲ":193,"ĠÉ¡oÊĬ":194,"ĠjÊĬÉ¹":195,"ĠfÉ¹":196,"ĠÉ¹Éª":197,"ÉĽks":198,"ĠmaÉª":199,"ĠÊĥiËĲ":200,"Éªl":201,"ĠÃ°eÉª":202,"ĠlaÉª":203,"Ġv":204,"ĠsiËĲ":205,"ÉĽnt":206,"ĠhÃ¦v":207,"ĠwÉľËĲ":208,"ĠÃ¦t":209,"ĠbÊĮt":210,"É¹iËĲ":211,"ĠhÉľËĲ":212,"vÉĻÉ¹":213,"Ã°ÉĻÉ¹":214,"ÉĻnd":215,"ĠwÉĶ":216,"ÉĻs":217,"eÉªk":218,"ÊĮz":219,"ĠÃ¦z":220,"aÉªn":221,"ĠÊĮp":222,"ĠnÉĳt":223,"ĠsoÊĬ":224,"Ġpl":225,"É¹Éªd":226,"ÉªÉ¹":227,"ĠhÉªz":228,"ĠÉªts":229,"oÊĬnt":230,"ÊĮnd":231,"ÉĽd":232,"ĠsÊĮm":233,"eÉªd":234,"ÉĻm":235,"ĠÃ°Éª":236,"Éªv":237,"ĠpÉ¹":238,"ÊĮst":239,"ÉĻÉ¹z":240,"ĠjÉĽh":241,"ĠÎ¸ÉªÅĭ":242,"ĠÉªnÃ°ÉĻ":243,"ĠdoÊĬnt":244,"ti":245,"eÉªm":246,"Éªf":247,"ĠÊĮvÃ°ÉĻ":248,"ÊĬk":249,"ĠkÃ¦n":250,"ĠÊĮn":251,"Ã¦k":252,"ĠlaÉªk":253,"aÉªd":254,"ÉĽs":255,"ÊĮndÉ¹Éªd":256,"ĠÉĽks":257,"ĠkÃ¦":258,"ĠtÉ¹":259,"bÉĻl":260,"ĠhÉªÉ¹":261,"ĠdÉªd":262,"hÊĮndÉ¹Éªd":263,"ĠÉ¡ÉĽt":264,"Éĳn":265,"ĠÉĽn":266,"ĠbaÉª":267,"ĠpiËĲ":268,"ĠaÊĬt":269,"tiËĲn":270,"ĠhÉªm":271,"ĠhÃ¦d":272,"ÉĽÉ¹i":273,"Éĳm":274,"Åĭk":275,"ĠfÉ¹ÊĮm":276,"ĠkÊĮm":277,"Éªst":278,"É¹i":279,"ÉĶl":280,"ĠÉĶÉ¹":281,"ĠhaÊĬ":282,"ĠÉ¡É¹":283,"ĠÉªf":284,"ĠÉĽf":285,"ĠÉ¹aÉªt":286,"iËĲd":287,"iËĲz":288,"ÊĴÊĮst":289,"ĠÃ°Ã¦ts":290,"ĠwÉĽl":291,"ĠnaÉªn":292,"ĠbÉ¹":293,"aÉªm":294,"oÊĬz":295,"eÉªs":296,"ĠlÃ¦":297,"ÉĳÉ¹t":298,"aÊĬn":299,"ÉĽst":300,"ĠmÉĳt":301,"ĠaÉªm":302,"ft":303,"ĠÊĮb":304,"Éĳp":305,"Ġsp":306,"vÉĻn":307,"ÉªÉ¡":308,"ĠnaÊĬ":309,"Ã¦d":310,"Ġkl":311,"ĠÉľËĲ":312,"ĠwaÉª":313,"aÊĬnd":314,"aÊĬz":315,"ĠwÊĬd":316,"ÉĻÉ¹d":317,"ĠfaÉª":318,"ÊĬt":319,"ĠeÉªt":320,"ĠhuËĲ":321,"ĠÃ°ÉĽm":322,"eÉªÊĥÉĻn":323,"ĠÉ¡Éĳt":324,"ĠÃ°ÉĽn":325,"Éĳl":326,"ÉĻli":327,"ĠÊĮbaÊĬt":328,"aÊĬzÉĻnd":329,"ĠÎ¸aÊĬzÉĻnd":330,"ĠwÉĽn":331,"ĠwÉĶnt":332,"ĠtÊĬ":333,"ÉĻns":334,"ĠÎ¸ÉªÅĭk":335,"ĠÉªnt":336,"ÉĻt":337,"bi":338,"eÉªtiËĲ":339,"Ġsk":340,"keÉª":341,"ĠlÊĬk":342,"ĠhoÊĬ":343,"viËĲ":344,"Ã¦nd":345,"ĠseÉª":346,"Î¸ÉªÅĭ":347,"ĠwÉĽÉ¹":348,"eÉªn":349,"ĠÉĽfeÉªtiËĲ":350,"Éĳd":351,"ÉĶÉª":352,"ÉĽk":353,"ĠsÉĽd":354,"Ġtw":355,"ĠÉ¡ÊĬd":356,"Éªm":357,"ĠwÉªl":358,"ÊĮv":359,"ĠÉĻ":360,"Ã¦m":361,"ĠjÉĽs":362,"ĠmÉĶÉ¹":363,"iËĲn":364,"ĠoÊĬkeÉª":365,"ĠaÉªÉĽn":366,"ÉĽkt":367,"ĠaÉªÉĽnviËĲ":368,"ÉĽksÉĽks":369,"ĠÉĽksÉĽksÉĽks":370,"ÉªÊĥ":371,"ÉĽnd":372,"ÉªtÉĻl":373,"pt":374,"ĠtaÉªm":375,"ĠnaÉªntiËĲn":376,"ĠkÉ¹":377,"ĠpÊĬt":378,"ÉĶÉ¹t":379,"aÉªz":380,"ÉĶÅĭ":381,"É¹ÉªÅĭ":382,"ĠÉĳ":383,"ĠlÉĽt":384,"eÉªz":385,"ÉĳÉ¹d":386,"Éªp":387,"oÊĬn":388,"ĠÉĶnÃ°ÉĻ":389,"Ã°Éª":390,"ĠÎ¸É¹iËĲ":391,"iz":392,"ĠvÉĽÉ¹i":393,"Ġsl":394,"Éªks":395,"ĠlÉªtÉĻl":396,"ĠÊĮm":397,"ĠdaÊĬn":398,"Ġbl":399,"ĠtiËĲ":400,"pÉĻl":401,"Ġkw":402,"mÉĻnt":403,"ĠkÊĬd":404,"ĠbÃ¦k":405,"ĠÉ¡oÊĬÉªÅĭ":406,"ĠdÉ¹":407,"ĠmeÉª":408,"ĠwÉªt":409,"ÉĽnti":410,"ÊĮÃ°ÉĻÉ¹":411,"ĠnaÉªntiËĲnhÊĮndÉ¹Éªd":412,"ĠteÉªk":413,"ĠkÉĶ":414,"ĠÊĮÉ¡":415,"ĠtwÉĽnti":416,"Ã¦l":417,"ĠmeÉªk":418,"ÉĶÉ¹d":419,"ĠÉĶf":420,"bÉĻÉ¹":421,"É¹oÊĬ":422,"ĠeÉª":423,"ĠbÉªk":424,"ÊĬl":425,"ĠoÊĬn":426,"ĠnuËĲ":427,"Éªti":428,"Ġfl":429,"iËĲt":430,"ÊĮd":431,"ĠpÉĻÉ¹":432,"mÉĻn":433,"ĠoÊĬvÉĻÉ¹":434,"ĠmÃ¦n":435,"É¹uËĲ":436,"ÉľËĲn":437,"ÊĮk":438,"ĠtÉĽl":439,"lz":440,"ÉĶt":441,"ĠsÉľËĲ":442,"ĠfÉĻÉ¹":443,"wÊĮn":444,"ĠÊĮs":445,"ÅĭÉ¡":446,"ĠweÉª":447,"iËĲv":448,"ĠfÉľËĲ":449,"ĠaÊĬ":450,"ĠÊĮÃ°ÉĻÉ¹":451,"ĠdÊĮz":452,"Ã¦s":453,"ĠkÊĮ":454,"ÊĮbÉĻl":455,"Éĳk":456,"ĠfaÉªv":457,"oÊĬt":458,"ĠnaÉª":459,"ps":460,"oÊĬk":461,"ĠÉĽs":462,"ĠdeÉª":463,"ĠbÉªÉ¡":464,"piËĲ":465,"oÊĬst":466,"ĠpleÉª":467,"ĠÃ¦n":468,"ĠaÉªl":469,"ÊĴiËĲ":470,"ĠhÊĮz":471,"ĠÉĽv":472,"Éĳb":473,"ÉĻz":474,"ĠÉ¡ÉĻn":475,"ĠÃ¦ft":476,"ĠhÉĽl":477,"iÉĻÉ¹":478,"pl":479,"ĠÊĮÉ¡ÉĽn":480,"ĠmÉĽn":481,"ÉĻnz":482,"ÉĽvÉĻÉ¹":483,"ĠÉ¡ÉĻnÉĻ":484,"ĠÉĽl":485,"ĠsÉĽvÉĻn":486,"Ã¦Åĭk":487,"iËĲp":488,"ĠÉªntÊĬ":489,"siËĲ":490,"ÉĻd":491,"weÉª":492,"ĠwÊĮts":493,"ÊĴuËĲ":494,"Éĳs":495,"ĠtÉĻbi":496,"ÉĽlf":497,"Ã¦Êĥ":498,"ĠpÉ¹Éª":499,"ĠÉ¡Éªv":500,"ĠmÃ¦":501,"ĠfÉľËĲst":502,"ÉĶÉ¹s":503,"ĠtÉĶ":504,"ĠpiËĲpÉĻl":505,"ĠÉ¹oÊĬ":506,"ÉªstÉĻÉ¹":507,"ĠiËĲÉĽks":508,"ÉĻv":509,"ĠiËĲÉĽkspiËĲ":510,"ĠbÉªkÊĮz":511,"ÊĮbÉĻljuËĲ":512,"uËĲv":513,"ndÉĻÉ¹":514,"ĠÉĽni":515,"ĠkÃ¦nt":516,"ĠmiËĲn":517,"nti":518,"ĠsÉªks":519,"eÉªÉĳÉ¹":520,"ĠhiËĲz":521,"ĠdÉªs":522,"ĠÃ¦d":523,"ĠkÉĻm":524,"ĠstÉ¹":525,"ĠniËĲd":526,"ÊĮb":527,"Ġz":528,"ĠhÃ¦nd":529,"ĠbÉªt":530,"nÉĻ":531,"lÉªÅĭ":532,"ĠÎ¸ÉľËĲ":533,"ĠiËĲt":534,"ĠÃ°iËĲz":535,"ĠbÃ¦":536,"ĠÊĮl":537,"É¹Éªk":538,"eÉªnd":539,"Ã¦ns":540,"ĠÉªm":541,"ÉĻp":542,"Ã¦kt":543,"ĠmeÉªd":544,"É¡z":545,"ĠÉªl":546,"ĠmÉªs":547,"iÉĻli":548,"ĠÉ¹iÉĻli":549,"ĠoÊĬnli":550,"ĠaÊĬÉĻÉ¹":551,"pÉĻn":552,"Éªld":553,"ÊĥuËĲ":554,"ÊĮf":555,"ĠbeÉª":556,"ĠmÊĮt":557,"ĠÃ¦ftÉĻÉ¹":558,"ĠÉĽnÉª":559,"ÉªfÉĶÉ¹":560,"oÊĬld":561,"ĠsÉªk":562,"ĠlÃ¦f":563,"ĠÃ°ÉĽÉ¹z":564,"ĠfÉĻÉ¹Ã°ÉĻ":565,"ĠÊĥÊĬd":566,"ĠdÉªdnt":567,"uËĲd":568,"Ġsm":569,"ĠbÉªn":570,"ĠpiËĲeÉªÉĳÉ¹":571,"ĠmuËĲv":572,"ĠsÊĮmÎ¸ÉªÅĭ":573,"ÊĮl":574,"ĠpÉĻÉ¹s":575,"ÉľËĲs":576,"iÉĻ":577,"Éĳks":578,"uËĲl":579,"ĠjÉªÉ¹":580,"ÉĶÉªz":581,"ÊĥÉĽm":582,"ÊĮs":583,"ĠdiËĲ":584,"ĠdÉĳ":585,"ĠtÉ¹aÉª":586,"ĠjuËĲz":587,"ĠlÉĽ":588,"fÉĻl":589,"ĠwÉľËĲk":590,"ĠlÊĮv":591,"ĠhaÉª":592,"ÊĴÉĻn":593,"ĠfiËĲ":594,"ĠÉĻÉ¹É¹":595,"ĠfÉªf":596,"ĠsÉĽk":597,"ĠÉ¡ÉľËĲ":598,"ĠmÉĳm":599,"uËĲn":600,"ĠbÉªfÉĶÉ¹":601,"ĠteÉª":602,"aÉªld":603,"ÉªÊĥÉĻn":604,"Éªli":605,"Ġsw":606,"ÉĻÉ¹É¹i":607,"ĠlÊĬ":608,"ĠneÉªm":609,"É¹ÉĻ":610,"ÉĶÉ¹n":611,"ĠÉĽnd":612,"É¹Éªt":613,"eÉªtÉªd":614,"ĠsÉªt":615,"soÊĬ":616,"ĠkÉĳÉ¹":617,"ĠÉ¹Éªm":618,"ĠÉ¹uËĲ":619,"ĠÉ¡É¹eÉªt":620,"ĠÃ¦kt":621,"ÊĥÉĻÉ¹":622,"ÊĮni":623,"ĠÃ°oÊĬz":624,"ĠhoÊĬm":625,"siËĲeÉªt":626,"ĠÉªnd":627,"ĠpÉĻÉ¹sÉĽnt":628,"ÊĥaÉªld":629,"deÉª":630,"ĠlÉĶÅĭ":631,"ÊĮÅĭ":632,"ĠbÉªl":633,"ĠpeÉª":634,"ĠheÉª":635,"ĠdÃ¦d":636,"ĠÃ°ÊĮn":637,"ĠwÉĶnÉĻ":638,"ĠÊĮweÉª":639,"ÉĽz":640,"ĠlÉĽts":641,"ĠÊĮndÉĻÉ¹":642,"ÉĻÉ¹É¹ÉĻ":643,"ĠwÉĽnt":644,"ÉľËĲt":645,"ĠmÉªstÉĻÉ¹":646,"ĠdÉªf":647,"ĠwÊĮzÊĮ":648,"ĠÉ¹ÉĽd":649,"ĠoÊĬld":650,"ĠwÉªÃ°Ã°ÉĻ":651,"ÉĳÉ¹k":652,"ĠÊĮt":653,"jÊĬl":654,"eÉªv":655,"ĠÉĶlsoÊĬ":656,"ĠkaÊĬ":657,"ĠdÉªÉ¹":658,"ĠduËĲÉªÅĭ":659,"Éªts":660,"ĠnaÉªt":661,"ĠÃ¦sk":662,"ĠkÉĳm":663,"ĠbeÉªbi":664,"ĠtÉĶk":665,"ĠÉĻv":666,"ĠsÉªÅĭ":667,"ĠsÉªkst":668,"Ã°ÉĻÉ¹É¹":669,"mz":670,"ĠnÉĽvÉĻÉ¹":671,"ÉĽf":672,"ĠÎ¸ÉĶt":673,"ĠÎ¸É¹uËĲ":674,"ĠwÉªÉ¹":675,"ĠhÊĮ":676,"nÉĻs":677,"ĠhÉĽd":678,"tÉĻÉ¹":679,"ÉĽmbÉĻÉ¹":680,"ĠaÉªd":681,"ĠdÊĮn":682,"biËĲ":683,"sÉĽlf":684,"ĠkeÉªm":685,"ĠfÉ¹ÊĮmÃ°ÉĻ":686,"ĠÎ¸ÉªÅĭz":687,"ĠhÃ¦p":688,"ĠÉ¹Éªt":689,"ĠhaÊĬs":690,"ĠÉľËĲm":691,"ĠaÉªv":692,"ĠjuËĲn":693,"Ã¦st":694,"ĠÃ¦l":695,"ĠÊĮd":696,"ÉĻb":697,"ĠÎ¸Ã¦Åĭk":698,"ĠÉ¹iËĲ":699,"ĠfaÉªnd":700,"pÉĻÉ¹":701,"pÉ¹":702,"bÉªn":703,"ĠpliËĲz":704,"juËĲz":705,"Éĳdi":706,"ÉĶn":707,"ÉľËĲd":708,"ĠsÉĶ":709,"Ã¦nt":710,"ĠstÉĳÉ¹t":711,"ĠstÉªl":712,"ÉĽns":713,"ĠmÊĮm":714,"ÉªkÉĻl":715,"ĠsÉĽv":716,"ĠiËĲvÉĻn":717,"nÉĳt":718,"ĠlÃ¦st":719,"ĠhÉľËĲÉ¹":720,"iÉĻn":721,"ĠpÉĳÉ¹t":722,"ĠnaÉªnti":723,"oÊĬs":724,"ĠÉĽvÉ¹Éª":725,"ĠmÊĮst":726,"ĠbÉĽt":727,"ĠlÃ¦fs":728,"uËĲt":729,"ĠpÉªk":730,"aÉªv":731,"ĠÊĮnÊĮÃ°ÉĻÉ¹":732,"ĠpleÉªs":733,"ÉĶÉªnt":734,"ĠÎ¸ÉľËĲti":735,"dÊĮbÉĻljuËĲ":736,"ĠÉ¡l":737,"Êĥt":738,"ĠÉĽmÉĽm":739,"ĠfÉ¹ÉĽnd":740,"ĠsteÉªt":741,"ĠaÊĬtÉĻv":742,"ĠmÉªn":743,"ĠslÃ¦Êĥ":744,"ĠkeÉª":745,"ĠbÉĶÉª":746,"ĠmÉĽni":747,"ĠmoÊĬst":748,"ĠÉĽk":749,"ĠhÉĽlp":750,"ĠlÉĳt":751,"oÊĬd":752,"ĠdÉªst":753,"ĠÉ¹iËĲd":754,"ĠnÉĶÉ¹":755,"ĠfÉĻÉ¹É¹ÉĻ":756,"ĠÉĻvÉĻ":757,"ĠmaÉªt":758,"ĠmÊĮÃ°ÉĻÉ¹":759,"ĠÊĥÊĬÉ¹":760,"ÊĴiËĲÉĽm":761,"ĠÉĶlÉ¹":762,"ĠÃ°ÉĽÉ¹w":763,"nÉªÅĭ":764,"ĠfÉĳ":765,"ÊĴiËĲÉĽmeÉª":766,"ĠÉªnv":767,"ĠsÉĽnt":768,"ĠfaÊĬnd":769,"ĠpÉĳÉ¹":770,"ĠtÉľËĲn":771,"ĠÉ¡ÉľËĲl":772,"ĠÉĽÉ¡z":773,"ĠnÉĽk":774,"ĠtÉĽn":775,"ĠweÉªt":776,"É¹ÉĻnt":777,"ĠÊĥiËĲz":778,"ĠwÉĳt":779,"iÉĻÉ¹oÊĬ":780,"Ã¦p":781,"aÉªl":782,"É¹ÉĻn":783,"ĠstÉĳp":784,"ĠuËĲ":785,"ĠliËĲv":786,"ĠÉ¹Éªs":787,"ĠfÉĽl":788,"ĠlÉªv":789,"ĠlaÉªf":790,"ĠsÊĮt":791,"ĠÉĽÉ¹":792,"ĠfÉªfti":793,"ÉĳÉ¹É¹":794,"ĠÊĮvÃ°Éª":795,"ĠkaÉªnd":796,"ĠÉĽksp":797,"ĠnaÉªs":798,"ĠwÉľËĲÉ¹":799,"ĠleÉªt":800,"ĠliËĲ":801,"ĠkÉĳn":802,"ĠÉªzÉĻnt":803,"ĠlÊĬks":804,"É¡É¹":805,"ĠwaÉªl":806,"ĠboÊĬ":807,"ĠeÉªti":808,"ĠkÉĶld":809,"ĠkÉĶz":810,"eÉªl":811,"ĠdÉĶÉ¹":812,"ĠmÃ¦t":813,"ÉĽv":814,"ĠfjuËĲ":815,"ĠbÊĬk":816,"ĠÉĻÉ¹É¹aÊĬnd":817,"Éªns":818,"ĠkiËĲp":819,"ĠbiËĲÉªÅĭ":820,"ĠfÉĳÉ¹":821,"pÉĶÉ¹t":822,"ĠjÉªÉ¹z":823,"ĠjuËĲzd":824,"ĠÉĽnÉªÎ¸ÉªÅĭ":825,"ÉĶÉ¹i":826,"ĠsÉĳÉ¹":827,"ÊĮnt":828,"ÊĥÉªz":829,"ĠkÉĻn":830,"ĠkÉĽÉ¹":831,"ÊĴÉĻÉ¹":832,"md":833,"ts":834,"ĠpÉ¹Éĳb":835,"ĠsÉªksti":836,"ĠfeÉªs":837,"saÉªd":838,"ĠaÉªÊĮm":839,"ĠkÉĻnt":840,"ĠseÉªm":841,"ÉĻnti":842,"ĠÉĽd":843,"ÉĽlv":844,"ĠpÉĶÉªnt":845,"ĠkÉĶl":846,"ĠwÉĶÉ¹":847,"ĠÉ¹Éªl":848,"ĠÉĽmeÉªt":849,"ÊĴd":850,"ĠwiËĲl":851,"ĠlÉĶ":852,"ĠnÉĶÉªz":853,"ĠhoÊĬld":854,"É¹ÉĻl":855,"ĠsÉĽvÉĻnti":856,"ÉĽÉ¹Éªk":857,"tÉĻn":858,"Ã¦Åĭ":859,"ĠbÉĽtÉĻÉ¹":860,"ĠbiËĲÉĳÉ¹":861,"ĠnÉĽkst":862,"bÉĳdi":863,"ĠÉĽmsiËĲeÉªt":864,"ĠÉ¹ÊĮn":865,"weÉªz":866,"aÉªnd":867,"ÊĥÉĻl":868,"ÉĽÃ°ÉĻÉ¹":869,"ĠdÊĮzÉĻnt":870,"Ã¦b":871,"ĠsÉĳÉ¹i":872,"ĠfÉĶÉ¹ti":873,"ĠÉªÅĭk":874,"Éªsk":875,"ĠÊĥoÊĬ":876,"ÉĽpt":877,"ĠtÉľËĲ":878,"ĠÉªnÃ°Éª":879,"ÉĽp":880,"stÉ¹":881,"ĠtaÉª":882,"ĠskuËĲl":883,"aÊĬd":884,"ĠÃ°eÉªÉĻÉ¹":885,"ĠÉĽneÉª":886,"ĠnÊĮ":887,"Ã¦É¡":888,"Ġsn":889,"ĠÉ¹uËĲm":890,"Éªnz":891,"ÉĻbÉĻl":892,"ĠsÉĽt":893,"ĠmoÊĬ":894,"ĠbiËĲÉĳÉ¹É¹oÊĬ":895,"ĠjuËĲv":896,"ĠbÉĳks":897,"É¹Éªs":898,"ĠluËĲ":899,"ĠkÃ¦t":900,"ĠkÉĳ":901,"ÉĻnts":902,"pÉĳn":903,"ÊĥÉĻÉ¹É¹":904,"ÊĴÉĽn":905,"ĠtoÊĬld":906,"ÊĥÉªÅĭ":907,"ĠhÉĳÉ¹d":908,"ĠÉĽls":909,"ĠfaÉªn":910,"ĠfÉĶl":911,"ĠsiËĲn":912,"ÊĴÉĳn":913,"ĠbÉĶl":914,"ĠÃ°Ã¦tÃ°ÉĻ":915,"ĠfÊĬt":916,"ÊĥÉĻnÉĻl":917,"ĠwÉľËĲd":918,"ÉĻld":919,"ĠÉĶlweÉªz":920,"ĠkÉĻns":921,"ĠlÉĽft":922,"ÊĥÉĻnz":923,"ĠeÉªd":924,"ĠsÊĮn":925,"ĠwÉľËĲld":926,"ĠwÉĽÉ¹z":927,"bÉĻÉ¹É¹":928,"juËĲn":929,"ĠnÊĮÎ¸ÉªÅĭ":930,"uËĲp":931,"ĠÊĮnt":932,"oÊĬl":933,"ĠmÊĮmi":934,"ĠÉ¡eÉªm":935,"ĠwÊĮzÃ°ÉĻ":936,"iËĲk":937,"ĠsaÉªd":938,"aÉªtÉªd":939,"ĠwÉĶtÉĻÉ¹":940,"ĠbÉľËĲ":941,"ĠtÉĻdeÉª":942,"ĠÊĮmÉĽÉ¹Éªk":943,"ĠoÊĬpÉĻn":944,"aÊĬÎ¸":945,"ĠstÃ¦nd":946,"ĠfÉĳÃ°ÉĻÉ¹":947,"ÉĳÉ¡":948,"ĠpÉ¹ÉĽz":949,"ĠwoÊĬnt":950,"jÊĬÉ¹":951,"ĠÃ°ÉĽÉ¹wÊĮz":952,"ĠÉĽvÉ¹i":953,"wÉĽÉ¹":954,"ĠbÉĶÉ¹n":955,"eÉªÊĥÉĻnz":956,"ÊĴÉªn":957,"ĠmeÉªbiËĲ":958,"ĠÉ¡Éĳd":959,"ÊĮÉ¡":960,"ĠkwaÉªt":961,"ĠÉ¡ÉĶn":962,"ÉĽÎ¸":963,"ĠÊĮk":964,"ĠbÉª":965,"ĠmÊĮni":966,"ĠkÉĶÉ¹s":967,"ÊĴÉªz":968,"ÊĥeÉªnd":969,"ĠtÊĬk":970,"É¹iËĲt":971,"lÉĻnd":972,"ĠÃ°oÊĬ":973,"ĠbÉĽd":974,"ĠpÉľËĲ":975,"ĠÉ¡oÊĬz":976,"ĠdaÉª":977,"ĠleÉªd":978,"ĠfÃ¦t":979,"ĠpÉĳp":980,"ĠmÉªsÉªz":981,"ĠdÃ¦di":982,"ĠÉĽneÉªÉĽn":983,"ÉĻf":984,"iËĲs":985,"ÊĥÉĽÉ¹":986,"ÉĶÉªs":987,"ĠkÊĮl":988,"ÉĽdi":989,"ĠÊĮntÉªl":990,"ĠÉªnÊĮf":991,"aÉªÉĽs":992,"ĠnÉªÉ¹":993,"ÉĻk":994,"ĠkÊĮmÉªÅĭ":995,"ĠsÉĽkÉĻnd":996,"É¹Éªkt":997,"ĠlaÉªt":998,"ĠÉĽsaÉªÉĽs":999,"wÉĶÉ¹d":1000,"ĠbÉĽst":1001,"É¹iËĲm":1002,"ĠsÉĽz":1003,"ĠpÉľËĲs":1004,"ĠsÉĻp":1005,"ĠsteÉª":1006,"ĠfÉªl":1007,"ĠnÊĮm":1008,"ÊĮvÉĻÉ¹":1009,"ĠhuËĲz":1010,"ĠmiËĲt":1011,"ÉĽktÉªd":1012,"É¡ÉĻÉ¹":1013,"hÊĮ":1014,"ÊĮp":1015,"É¹iËĲn":1016,"ÉĽÉ¹Éª":1017,"ĠhÊĮd":1018,"ÊĥuËĲÉĻli":1019,"ÊĥÉªld":1020,"aÉªs":1021,"ĠsÉªti":1022,"ĠdÉªv":1023,"ĠjÉĽt":1024,"ĠaÉªz":1025,"ĠÉľËĲÉ¹":1026,"tÉĻ":1027,"ÉĽÉ¡":1028,"ĠmÉĶÉ¹nÉªÅĭ":1029,"ÊĮÅĭk":1030,"ĠnoÊĬn":1031,"ĠsaÊĬnd":1032,"Éªnd":1033,"ĠhÊĮdbÉªn":1034,"aÊĬnt":1035,"ĠboÊĬÎ¸":1036,"ĠÉĽvÉĻÉ¹":1037,"iËĲeÉª":1038,"ĠtÉ¹uËĲ":1039,"ĠÊĥÃ¦l":1040,"ĠÉ¹iËĲÉĻl":1041,"ĠpÉªkt":1042,"ĠdÉªsk":1043,"ĠdÉĳl":1044,"ĠlÊĬkÉªÅĭ":1045,"ĠwÉªnd":1046,"ĠÉĽnt":1047,"Éªb":1048,"ĠjÉĶÉ¹":1049,"É¹ÉĽst":1050,"ĠfÉĶÉ¹m":1051,"ÉªÅĭz":1052,"ĠwÊĮnhÊĮndÉ¹Éªd":1053,"ĠÉ¹aÊĬnd":1054,"ĠkÃ¦m":1055,"ĠhoÊĬl":1056,"ĠÃ¦skt":1057,"fÉĶÉ¹":1058,"ĠfiËĲl":1059,"ĠmaÉªnd":1060,"ĠÉ¡É¹Ã¦nd":1061,"ĠpiËĲs":1062,"ĠÉĻpÉĳn":1063,"ÉĽvÉĻn":1064,"ÉĻloÊĬ":1065,"ĠÉ¹Ã¦":1066,"ÊĥÉªldÉ¹ÉĻn":1067,"ÉªÊĥt":1068,"ĠmÉĳmi":1069,"sÉĻl":1070,"ĠsÉľËĲv":1071,"ÉĽÉ¹z":1072,"ĠeÉªthÊĮndÉ¹Éªd":1073,"ĠdÉªfÉ¹ÉĻnt":1074,"ĠhÉĳ":1075,"ĠnÃ¦":1076,"ĠhÃ¦ft":1077,"ĠtÉĳp":1078,"ÊĥÉªp":1079,"ĠbÃ¦d":1080,"ĠÉ¡ÉĽtÉªÅĭ":1081,"ĠfeÉª":1082,"ĠtÉĻÉ¡":1083,"É¹Éªst":1084,"ĠÊĮf":1085,"ĠsmÉĶl":1086,"ĠtÉĳm":1087,"ĠdÉĳÉ¡":1088,"ĠbÉªliËĲv":1089,"ĠbluËĲ":1090,"ĠblÃ¦k":1091,"ĠÉĶlÉ¹aÉªt":1092,"ĠmeÉªks":1093,"ĠkÉĻmp":1094,"ÉĽkÊĥÉĻn":1095,"ĠÉ¹ÉĽdi":1096,"ĠmeÉªkÉªÅĭ":1097,"ĠmjuËĲz":1098,"ĠfÉĳl":1099,"hÊĮv":1100,"ĠjÊĮÅĭ":1101,"ĠhÃ¦z":1102,"ĠfÃ¦m":1103,"ĠtiËĲiËĲeÉª":1104,"ĠbÉĶÉªz":1105,"ĠhÃ¦ftÉĻ":1106,"ĠwÉªÃ°aÊĬt":1107,"ĠsÉªns":1108,"ĠbÉªtw":1109,"ĠÃ¦nÉªm":1110,"ĠÉĽvÉ¹ÉªÎ¸ÉªÅĭ":1111,"ĠÉ¹ÉĽk":1112,"ÊĮmp":1113,"ĠdÉªp":1114,"ĠziÉĻÉ¹oÊĬ":1115,"ĠbÉªtwiËĲn":1116,"ĠflÉĶÉ¹":1117,"ĠhÉľËĲd":1118,"fÉªs":1119,"ĠkaÊĬnti":1120,"ĠbÉ¹ÉªÅĭ":1121,"ĠfÃ¦mÉªli":1122,"aÊĬÉĻÉ¹":1123,"ĠdÉªdnÉĳt":1124,"ĠmÃ¦É¡":1125,"ĠhÃ¦vÉªÅĭ":1126,"ĠhÉĳÉ¹t":1127,"ĠhÃ¦f":1128,"wÉĻÉ¹d":1129,"ĠsÉªl":1130,"iÉĻs":1131,"dÊĮbÉĻljuËĲdÊĮbÉĻljuËĲ":1132,"ÉľËĲv":1133,"ĠpÉ¹Éªti":1134,"ÊĴeÉª":1135,"ĠÉĶÉ¹d":1136,"ĠhÉªmsÉĽlf":1137,"ĠhÃ¦ndz":1138,"ĠfÉªn":1139,"ĠsÉªm":1140,"ĠwÊĮnz":1141,"ĠwiËĲv":1142,"ĠÉ¹ÉªmÉĽmbÉĻÉ¹":1143,"ÉªbÉĻl":1144,"taÉªm":1145,"ĠdÉ¹Éª":1146,"ĠmÉªl":1147,"ÉĻbli":1148,"ĠmaÉªk":1149,"mÉªn":1150,"ĠpÃ¦":1151,"ĠÃ°Ã¦twÊĮn":1152,"sÉĻn":1153,"ÉªoÊĬ":1154,"ĠdeÉªz":1155,"ĠmÉĳÉ¹":1156,"ĠsuËĲn":1157,"ĠsliËĲp":1158,"ĠsÉªÉ¹":1159,"ÉĽb":1160,"ĠÊĮmÉĽÉ¹ÉªkÉĻn":1161,"ÊĴÉĽkt":1162,"ĠbeÉªs":1163,"aÉªÉĻÉ¹":1164,"ĠhÉĶÉ¹s":1165,"ÉªdÉĻnt":1166,"ÉĻmz":1167,"aÉªzd":1168,"ĠpÉľËĲsÉĻn":1169,"ĠÊĮÉ¡ÉĽnst":1170,"ĠhÉĻloÊĬ":1171,"ĠÉĽfsiËĲeÉªt":1172,"ĠÃ¦ns":1173,"ĠdÉªz":1174,"ĠÉĳp":1175,"ĠbÉĳÉ¹":1176,"ĠtaÊĬn":1177,"Ã¦ks":1178,"ĠsÉĶÉ¹t":1179,"ĠlÉªs":1180,"juËĲt":1181,"ĠbÉªz":1182,"uËĲz":1183,"ÉªÅĭk":1184,"ĠdaÉªd":1185,"ÊĬÉ¹É¹ÉªÅĭ":1186,"Ã¦ps":1187,"ÉĻÉ¹t":1188,"ĠwÉĳ":1189,"ĠteÉªbÉĻl":1190,"ĠjuËĲl":1191,"ĠtÉĶkÉªÅĭ":1192,"ĠmÃ¦d":1193,"ĠmÉĽm":1194,"Ã¦f":1195,"ĠwiËĲk":1196,"É¹id":1197,"aÉªk":1198,"ĠÃ¦m":1199,"ĠfiËĲt":1200,"ĠwÉĶk":1201,"moÊĬst":1202,"ÊĥÉĻÉ¹z":1203,"vÉĻÉ¹É¹":1204,"ĠdÉĳÉ¹":1205,"ĠhÃ¦vÉĻnt":1206,"ĠmaÉªn":1207,"ÉĶs":1208,"ĠlÊĬkt":1209,"ĠwÉĶntÉªd":1210,"ĠÃ°ÉªswÊĮn":1211,"ĠhÃ¦pÉĻnd":1212,"ĠtÉ¹iËĲ":1213,"ÊĴÃ¦k":1214,"ĠfÉĻÉ¹É¡":1215,"ĠÊĮndÉĻÉ¹st":1216,"ĠwaÉªt":1217,"ĠnoÊĬz":1218,"ĠÉĻk":1219,"ĠnÉĶÉ¹Î¸":1220,"ĠvÉĶÉªs":1221,"ĠÉĳÉ¹m":1222,"ĠmoÊĬmÉĻnt":1223,"bÉĶl":1224,"ĠpÊĬ":1225,"ĠbÉ¹ÊĮÃ°ÉĻÉ¹":1226,"ĠdÉĳkt":1227,"ĠkÊĮt":1228,"oÊĬzd":1229,"ÉĻÉ¹n":1230,"ĠsteÉªts":1231,"ĠjuËĲnaÉªtÉªd":1232,"ĠkÉªd":1233,"ĠkwÉĽst":1234,"ĠwÊĮns":1235,"ĠdÊĬÉ¹É¹ÉªÅĭ":1236,"ĠtwÉĽlv":1237,"ĠfuËĲd":1238,"oÊĬkÉĻl":1239,"ĠÉĳb":1240,"ĠtÉĻÉ¡ÉĽÃ°ÉĻÉ¹":1241,"vÉĻl":1242,"ĠbÉªh":1243,"ĠkÊĮnt":1244,"ĠpÉĳÉ¹ti":1245,"ĠÉĽksk":1246,"ĠlaÉªn":1247,"ĠkaÊĬnt":1248,"ÊĮbl":1249,"ÉªÊĴÉĻn":1250,"ĠpÉĻl":1251,"ĠsÃ¦t":1252,"ĠstÉĶÉ¹i":1253,"ÊĴi":1254,"ĠkloÊĬs":1255,"ĠÉ¹ÉĽst":1256,"ĠÉªÅĭÉ¡":1257,"ĠspiËĲk":1258,"ĠÉªntÉ¹ÉĽst":1259,"ÉĽÉ¹d":1260,"ĠleÉª":1261,"ĠplÊĮs":1262,"pÉĻÉ¹É¹":1263,"juËĲd":1264,"ĠÉªnst":1265,"ĠlÉĳÉ¹d":1266,"ÊĴÉĽnÉĻÉ¹É¹":1267,"ÉĻst":1268,"Éªkli":1269,"ĠsÉĽl":1270,"ĠÉ¡eÉªv":1271,"ĠÉ¹Éªf":1272,"ĠkÉ¹iËĲ":1273,"ĠÉĻb":1274,"ĠjuËĲs":1275,"ĠstiËĲ":1276,"ĠtÉ¹aÉªÉªÅĭ":1277,"ĠkÉĳl":1278,"ĠÉĶlmoÊĬst":1279,"ĠhoÊĬp":1280,"eÉªnz":1281,"ĠbÊĬ":1282,"luËĲd":1283,"ĠleÉªtÉĻÉ¹":1284,"ĠÉĽÉ¹i":1285,"ĠdÉªl":1286,"ĠlÃ¦nd":1287,"ÉĽÊĥ":1288,"ĠÊĮlÉĶÅĭ":1289,"ĠpÃ¦st":1290,"lÉĻs":1291,"ĠpleÉªÉªÅĭ":1292,"Ã¦mp":1293,"ĠpÉ¹ÉĳbÉĻbli":1294,"ÊĬmÉĻn":1295,"ĠloÊĬ":1296,"ĠÊĮÅĭk":1297,"ÊĴÉĳb":1298,"ĠfÃ¦kt":1299,"ĠÉ¹oÊĬmÉĻn":1300,"ĠkÉľËĲ":1301,"ĠiËĲz":1302,"ĠbÉªld":1303,"ĠeÉªtiËĲn":1304,"ĠÉ¹iËĲt":1305,"ĠbÉĳm":1306,"ĠwÊĮzÉĻnt":1307,"uËĲs":1308,"ĠfaÉªÉĻÉ¹":1309,"juËĲti":1310,"ĠÃ¦nt":1311,"ĠÉĳfÉªs":1312,"ĠkÃ¦pt":1313,"ĠÉªlÉĽvÉĻn":1314,"ĠÉ¡É¹iËĲn":1315,"ĠÉĳn":1316,"ĠlÉªsÉĻn":1317,"ĠwuËĲ":1318,"ĠmÊĮn":1319,"ĠdÉĻ":1320,"ĠÉ¹oÊĬd":1321,"ĠjÉĽl":1322,"ĠÊĮndÉĻÉ¹stÃ¦nd":1323,"ĠpÉĳl":1324,"ĠpÊĬÉ¹":1325,"ÉĻntli":1326,"oÊĬnz":1327,"ĠwÊĬmÉĻn":1328,"ĠfÉªÊĥ":1329,"eÉªtÉªÅĭ":1330,"ÊĮkt":1331,"ĠtaÉªmz":1332,"ÊĴÉĻÉ¹É¹":1333,"ĠnoÊĬt":1334,"ĠÉĶlÉ¹ÉĽdi":1335,"ĠdÉĳÉ¹lÉªÅĭ":1336,"Éĳv":1337,"ÉĻtli":1338,"ĠkÉªÅĭ":1339,"ĠÃ°ÉĽÉ¹ÉĳÉ¹":1340,"ĠbÉĽn":1341,"ĠÉĶnÃ°Éª":1342,"ĠkÊĮmz":1343,"ĠkÊĮntÉ¹i":1344,"ĠhÉĽÉ¹":1345,"ĠÉ¡ÊĮvÉĻÉ¹":1346,"Éªkt":1347,"eÉªts":1348,"ÊĮÊĥ":1349,"ĠÉĳÉ¹t":1350,"fi":1351,"ĠfÊĬl":1352,"ĠfÉªftiËĲn":1353,"ĠkeÉªs":1354,"ĠsÊĮmwÊĮn":1355,"ĠseÉªÉªÅĭ":1356,"ĠwÊĮndÉĻÉ¹":1357,"ĠhÃ¦pi":1358,"ĠpeÉªd":1359,"ÊĴiËĲÉĳÉ¹É¹":1360,"ĠkÉ¹aÉª":1361,"ÉĻÎ¸":1362,"É¹ÉĻns":1363,"ĠÉ¹Éªz":1364,"ĠwÊĬdÉĻnt":1365,"ĠÉ¡ÉľËĲlz":1366,"oÊĬÉªÅĭ":1367,"ĠÉªnf":1368,"ĠsÊĮmtaÉªm":1369,"jÊĬlÉĻÉ¹":1370,"ĠstÉĳÉ¹tÉªd":1371,"ĠÉ¡ÊĮvÉĻÉ¹n":1372,"bÉĻ":1373,"ĠpÉĳs":1374,"ÉĻÉ¹É¹ÉªÅĭ":1375,"ĠleÉªdi":1376,"ĠsuËĲ":1377,"ĠÉ¹Éªp":1378,"ĠpÃ¦s":1379,"ĠdÉ¹ÉĶ":1380,"ĠdÉĽÎ¸":1381,"ĠpleÉªd":1382,"ĠdeÉªv":1383,"ÊĮÃ°ÉĻÉ¹É¹":1384,"ĠbÉ¹oÊĬk":1385,"ĠÎ¸É¹oÊĬ":1386,"ĠÉ¡ÉĽs":1387,"vÉĽnt":1388,"ĠplÃ¦n":1389,"ĠjÊĮ":1390,"ÉĻtÉªv":1391,"ĠhÊĮv":1392,"ĠÉ¡Ã¦s":1393,"ĠwÉªs":1394,"ĠstÉĶÉ¹":1395,"bÉĻÉ¹z":1396,"ÉªÅĭÉ¡":1397,"ĠnÉĳtÉĻ":1398,"Ġskw":1399,"ĠdÉ¹ÉªÅĭk":1400,"ĠsÉĽns":1401,"ĠÉ¹ÉĶÅĭ":1402,"É¹ÉĻs":1403,"ĠmÉĳÉ¹t":1404,"ĠtiËĲm":1405,"ĠmjuËĲzÉªk":1406,"ĠiËĲv":1407,"ĠkÉĳnt":1408,"ĠklÉªÉ¹":1409,"ĠÊĥÉĶÉ¹t":1410,"ÊĴiËĲÉĳÉ¹É¹eÉª":1411,"si":1412,"ĠsÊĮb":1413,"ĠÉĽkst":1414,"ĠÉªÅĭkluËĲd":1415,"zÉĻn":1416,"ĠsÊĮmtaÉªmz":1417,"ĠmiËĲnz":1418,"ĠÉªmp":1419,"ĠmÉªnÉªt":1420,"ĠtÉ¹eÉªn":1421,"ĠpÉ¹Éĳbl":1422,"ĠjÉĶÉ¹s":1423,"ĠbÉĽÉ¹":1424,"ĠtÉĻm":1425,"ĠsaÊĬÎ¸":1426,"ĠliËĲd":1427,"ĠÉ¹Éªk":1428,"ĠsÉªs":1429,"laÉª":1430,"ĠmÊĮnÎ¸":1431,"ĠlÉĽs":1432,"ÊĴeÉªd":1433,"ĠlÉĶst":1434,"ĠdÉªn":1435,"ĠpeÉªpÉĻÉ¹":1436,"ĠkÉªl":1437,"ĠdÉĽd":1438,"ĠÎ¸É¹":1439,"ĠsÉľËĲtÉĻn":1440,"ĠÉªns":1441,"Ã¦Åĭks":1442,"ĠfÉ¹ÉĽndz":1443,"ĠtÊĮt":1444,"ÊĥÉĻÉ¹d":1445,"ĠstÉĳÉ¹":1446,"ĠpÃ¦t":1447,"ÉĽntÉĻl":1448,"mÉĻnts":1449,"ĠwÉĽ":1450,"ĠmuËĲvi":1451,"bÉ¹":1452,"ĠstÉªk":1453,"ĠbÉĳ":1454,"ĠbjuËĲti":1455,"ĠÉĽkspl":1456,"ĠbÃ¦t":1457,"iÉĻÉ¹Éª":1458,"ĠhÉĳt":1459,"ÊĥiËĲ":1460,"ĠnÃ¦ÊĥÉĻnÉĻl":1461,"eÉªp":1462,"ĠtiËĲt":1463,"wÉªt":1464,"ĠmÉªd":1465,"ĠmÉªst":1466,"É¹Éªti":1467,"ĠÉĳÉ¹nt":1468,"ĠbÉĳt":1469,"ĠsÉĻÉ¹":1470,"ĠstÊĮf":1471,"ĠhÉĳÉ¹":1472,"ĠkeÉªÉĽf":1473,"ĠbÉ¹ÉĶt":1474,"ĠkÊĮp":1475,"juËĲs":1476,"ÉľËĲnd":1477,"ĠtÉĻwÉĶÉ¹d":1478,"ĠaÉªdiÉĻ":1479,"ĠsÉĶÅĭ":1480,"ĠÉ¡ÉĳtÉĻ":1481,"ĠÉªÉ¹":1482,"ĠbÉĶÉ¹d":1483,"ĠÉ¡ÉĳÉ¹d":1484,"ĠÃ°ÊĮt":1485,"ĠsÉªÅĭÉªÅĭ":1486,"ĠtÉªl":1487,"ĠÃ¦ftÉĻÉ¹É¹":1488,"hÃ¦ps":1489,"ĠmÉĽt":1490,"ĠdÉ¹Éĳp":1491,"ĠpÉĻÉ¹hÃ¦ps":1492,"ĠÉ¡aÉªz":1493,"ĠbÉªkeÉªm":1494,"ĠsÉªkstiËĲn":1495,"ĠdÉªstÉ¹Éªkt":1496,"ĠhÊĮndÉ¹Éªd":1497,"ĠmÉĳÉ¹k":1498,"ĠfÉ¹ÊĮnt":1499,"oÊĬm":1500,"ĠkÉĻntÉªn":1501,"ĠjÉĶÉ¹sÉĽlf":1502,"ĠbÉĽl":1503,"ĠhjuËĲ":1504,"ĠsiËĲmd":1505,"ÊĮlt":1506,"biËĲn":1507,"ĠpaÉª":1508,"ĠdÉĳktÉĻÉ¹":1509,"ĠboÊĬt":1510,"É¹Éªn":1511,"ĠtuËĲhÊĮndÉ¹Éªd":1512,"ĠÉĽÉ¹iÉĻ":1513,"ĠoÊĬvÉĻÉ¹É¹":1514,"ĠpÊĬl":1515,"ĠbÉ¹eÉªk":1516,"ĠaÊĬtsaÉªd":1517,"aÉªzÉªz":1518,"ĠÉ¹Éªd":1519,"ĠtÉľËĲnd":1520,"ĠwÉľËĲdz":1521,"ÊĴÉĶÉª":1522,"É¡ÉĻl":1523,"ĠfaÉªt":1524,"ĠbÉľËĲÎ¸":1525,"ĠÉ¡aÉª":1526,"ĠsÉĻ":1527,"ĠsÉľËĲk":1528,"ÉĽvÉĻÉ¹É¹":1529,"ĠwÊĬdhÊĮv":1530,"ĠsÉĽvÉĻntiËĲn":1531,"ÊĥÉĳÉ¹":1532,"ĠbÉªÉ¡Ã¦n":1533,"ÊĥaÉªldÉĻz":1534,"ĠseÉªv":1535,"uËĲm":1536,"ÉªtÉªd":1537,"bÉĻlz":1538,"ÉĶd":1539,"ĠteÉªkÉªÅĭ":1540,"ĠbÉľËĲd":1541,"ÉªÉ¹d":1542,"ĠbÉªhaÉªnd":1543,"eÉªdiËĲ":1544,"ĠteÉªkÉĻn":1545,"ÊĥÃ¦":1546,"ĠeÉªnt":1547,"ĠwÉĶnts":1548,"ĠÉ¹Éªpl":1549,"ĠeÉªbÉĻl":1550,"ĠfÊĮni":1551,"ĠkÊĮmpÉĻn":1552,"ĠmaÉªsÉĽlf":1553,"ĠÉ¹iËĲz":1554,"ÊĮdi":1555,"ÊĴÉĻÉ¹z":1556,"ĠbÉªznÉĻs":1557,"ĠhÃ¦dtÉĻ":1558,"ÉĶz":1559,"ĠkÃ¦l":1560,"ĠhÃ¦zbiËĲn":1561,"ÉĽsi":1562,"ĠjÉĶÉ¹k":1563,"ĠfÉĽb":1564,"ĠsÉªstÉĻÉ¹":1565,"ĠÉ¹ÉªvÉĻÉ¹":1566,"ĠÉ¡Ã¦":1567,"ĠkÉ¹Éªs":1568,"ĠhaÉªd":1569,"ÉĽlvz":1570,"ĠmaÊĬÎ¸":1571,"ĠhÃ¦pÉĻn":1572,"ĠÉ¹aÉªd":1573,"ĠdÊĮbÉĻljuËĲ":1574,"ĠÉªmpÉĶÉ¹t":1575,"ÊĴÃ¦n":1576,"ĠiËĲzi":1577,"ĠÉĶfÉĻn":1578,"ĠjuËĲÊĴuËĲ":1579,"ĠeÉªm":1580,"ĠmÃ¦tÉĻÉ¹":1581,"ĠhÉªÉ¹z":1582,"ĠfÉĶÉ¹tiËĲn":1583,"ĠhÊĮvbÉªn":1584,"ĠÉľËĲli":1585,"ÉĶÉªd":1586,"ĠhÉľËĲt":1587,"É¡n":1588,"ÉªliÉĻn":1589,"ÊĴÉľËĲ":1590,"ĠpÊĮbl":1591,"É¹uËĲÉĽÉ¹i":1592,"ĠhÉªt":1593,"ĠtÉĶÉªz":1594,"ĠÃ¦nÉªmÉĻlz":1595,"ĠfÉĽbÉ¹uËĲÉĽÉ¹i":1596,"ĠsaÉª":1597,"ĠmÉĽd":1598,"ÉªvÉľËĲs":1599,"ĠkÉªs":1600,"ĠÎ¸ÉľËĲtiËĲn":1601,"ĠÃ°ÊĮtÉªt":1602,"ĠbÉªkÊĮm":1603,"ĠÎ¸Ã¦Åĭks":1604,"ĠfÉ¹iËĲ":1605,"ĠkÉĻmpl":1606,"ÊĴoÊĬ":1607,"ĠsÉªlvÉĻÉ¹":1608,"ĠÉĶt":1609,"ĠvoÊĬkÉĻl":1610,"aÊĬs":1611,"ĠÉ¡ÉªvÉĻn":1612,"ĠdÉ¹aÉªv":1613,"ĠfÊĮk":1614,"ĠfÉĽlt":1615,"ĠtÉĻmÉĳÉ¹":1616,"ĠmÉªnÉªts":1617,"ĠjÉĽloÊĬ":1618,"ĠkoÊĬld":1619,"ĠpÉ¹ÉĻd":1620,"ĠÊĮÃ°ÉĻÉ¹z":1621,"ĠmeÉªn":1622,"ĠmÉĳ":1623,"ĠwaÊĬ":1624,"É¹ÉĻt":1625,"ĠkÊĬdÉĻnt":1626,"ĠfÉĳÉ¹m":1627,"ÉªsÉªp":1628,"pÉªtÉĻl":1629,"ĠdÊĮk":1630,"ĠtÉĻmÉĳÉ¹oÊĬ":1631,"ĠfÊĬtbÉĶl":1632,"ĠbÉĳÉ¹t":1633,"ĠwÉªn":1634,"ÉĽndÉªd":1635,"ĠfÉ¹eÉªs":1636,"ĠÉ¹ÉªÅĭ":1637,"ÅĭÉ¡w":1638,"ĠvÉªz":1639,"ĠÉ¡ÊĮn":1640,"Éªft":1641,"lÉªÊĥ":1642,"pÉĽkt":1643,"ĠbjuËĲtifÉĻl":1644,"É¹eÉªd":1645,"ĠjuËĲnÉªvÉľËĲs":1646,"ĠliËĲst":1647,"ĠpÉĽÉ¹":1648,"ĠkoÊĬ":1649,"ĠÉ¹Ã¦Ã°ÉĻÉ¹":1650,"ĠfÉĽÉ¹":1651,"ĠfÉªÉ¡":1652,"ĠkÊĬk":1653,"ÊĥÃ¦ns":1654,"ĠfÉ¹Ã¦ns":1655,"ĠfÊĮn":1656,"aÉªdÉªd":1657,"ĠdÉªpÉĳÉ¹t":1658,"É¹Éªz":1659,"ÊĥÉĽk":1660,"ĠmÉĽs":1661,"ÊĥÉĻs":1662,"ĠniËĲ":1663,"ÉªÉ¡n":1664,"ĠstÉ¹ÉĶÅĭ":1665,"ĠÉ¹Éĳk":1666,"ÉªÉ¹z":1667,"ĠÃ¦b":1668,"ĠaÉªlÉĻnd":1669,"ÉĽnÊĥÉĻn":1670,"ĠfoÊĬn":1671,"ĠklÃ¦s":1672,"ĠswiËĲt":1673,"ĠÉªnsaÉªd":1674,"ĠtÉ¹Ã¦ns":1675,"ÊĴuËĲn":1676,"ĠdÉĳÉ¹k":1677,"ĠkÉĻnf":1678,"hÉĽd":1679,"wÉľËĲ":1680,"ĠbÊĬks":1681,"ĠlaÉªv":1682,"ĠpÉ¹Éĳm":1683,"ĠpÉĻliËĲs":1684,"ĠdeÉªvÉªd":1685,"ĠÊĮhÊĮ":1686,"sÉĽlvz":1687,"ĠneÉª":1688,"ĠkÉĻl":1689,"ÊĴeÉªdÊĮbÉĻljuËĲ":1690,"ĠÉ¡ÉĽts":1691,"ĠÊĮloÊĬn":1692,"ĠwÉªÊĥ":1693,"ĠnuËĲz":1694,"ĠÊĮmÊĮÅĭ":1695,"ĠwaÉªf":1696,"baÉª":1697,"ĠpÉ¹iËĲ":1698,"ĠbÉĳdi":1699,"ĠduËĲnÉĳt":1700,"ĠsaÉªl":1701,"ĠbÉ¹iËĲ":1702,"ĠtÉĶÉª":1703,"Éªnt":1704,"ĠkÊĮvÉĻÉ¹":1705,"ĠdÃ¦ns":1706,"ĠvÉªl":1707,"ĠkÃ¦É¹i":1708,"ĠtÉ¹Éª":1709,"ĠÉĳbd":1710,"ĠwÉĽst":1711,"ĠjuËĲd":1712,"iÉĻÉ¹oÊĬz":1713,"ĠsÃ¦nd":1714,"ĠviËĲ":1715,"ĠdÉªk":1716,"É¹uËĲm":1717,"ĠsaÉªt":1718,"Ã¦v":1719,"ĠnÊĮmbÉĻÉ¹":1720,"fÉĻli":1721,"ĠÊĮÉ¡oÊĬ":1722,"ĠÉ¡É¹aÊĬnd":1723,"ÉĽÊĥÉĻn":1724,"ĠmÃ¦nÉªd":1725,"ÊĴÉĶÉ¹d":1726,"juËĲÉĽÉ¹i":1727,"ĠÉ¡lÃ¦d":1728,"ĠwÉľËĲkÉªÅĭ":1729,"ĠÉ¹oÊĬl":1730,"ĠdÉªt":1731,"ĠhÉľËĲsÉĽlf":1732,"Ã¦lÉªti":1733,"ĠkÊĮmpÉĻni":1734,"iËĲst":1735,"ĠkÃ¦ptÉªn":1736,"ĠÃ°Ã¦tsÉªt":1737,"ĠkÉ¹Éªst":1738,"aÉªnz":1739,"ĠwÉĶl":1740,"ĠÊĥÉĳÉ¹":1741,"ÉĻÉ¹É¹Éª":1742,"ĠÉªmpÉĶÉ¹tÉĻnt":1743,"ĠpÉĻz":1744,"ĠbÉĳmbÉĻ":1745,"ĠÊĮdv":1746,"ĠsÉľËĲvÉªs":1747,"stÉĻÉ¹É¹i":1748,"ĠpÉĶÉªnts":1749,"ĠfÉ¹eÉªsÉĻÉ¹":1750,"ĠsÉªÉ¹iz":1751,"eÉªmd":1752,"ĠÉ¹Éĳ":1753,"ĠteÉªks":1754,"iÉĻnz":1755,"ĠkoÊĬt":1756,"ĠsÉĶft":1757,"ĠÉªs":1758,"stÉĻÉ¹n":1759,"ĠmÃ¦m":1760,"ĠaÊĬÉĻÉ¹z":1761,"pÉ¹ÉĻl":1762,"ĠÉ¹iËĲzÉĻn":1763,"ĠÉ¡oÊĬld":1764,"ĠkloÊĬ":1765,"ĠbÉĽsi":1766,"ĠbÃ¦Î¸":1767,"ĠÃ°ÉĽÉ¹wÉľËĲ":1768,"ÉªfÉªk":1769,"fÉĽkt":1770,"ÉĳlÉĻd":1771,"ĠÉªliËĲn":1772,"ĠfÉªnÉªÊĥt":1773,"ÉĶnt":1774,"ÊĴÃ¦njuËĲÉĽÉ¹i":1775,"ĠdiËĲeÉªdiËĲ":1776,"Éªsts":1777,"ĠÉ¹eÉªd":1778,"ĠsiËĲt":1779,"ĠÊĥÉªp":1780,"ĠdÃ¦t":1781,"É¹Éĳs":1782,"ĠsÉĽvÉ¹ÉĻl":1783,"ĠhÃ¦t":1784,"ĠhÉĶl":1785,"ĠmÉĻ":1786,"ĠkÉĳs":1787,"ÊĴÉªm":1788,"ĠfÉĶÉ¹t":1789,"ĠÉ¡É¹uËĲp":1790,"ĠdiËĲl":1791,"ĠfiËĲlÉªÅĭ":1792,"ĠtÉ¹aÉªd":1793,"ÊĴÉªÅĭ":1794,"ÊĥÉªk":1795,"ĠaÊĬÉĻÉ¹É¹":1796,"ĠkÉ¹eÉª":1797,"ĠstÉ¹eÉªnd":1798,"ĠdÉªÉ¹ÉĽkt":1799,"ĠfÉĶÉ¹s":1800,"ĠsÉªtÉªÅĭ":1801,"ĠsloÊĬ":1802,"ĠstiËĲvÉĻn":1803,"ĠkiËĲ":1804,"ĠsiËĲmz":1805,"ĠsiËĲm":1806,"ĠsÉĽnd":1807,"ĠkwaÉª":1808,"ĠÉĻkÉ¹Éĳs":1809,"ĠsÉĻks":1810,"ĠpÉĶÉ¹t":1811,"Éªtiz":1812,"ĠkÉĻnsÉªd":1813,"ĠdÉĳn":1814,"ĠnÉĳ":1815,"ĠfeÉªvÉĻÉ¹":1816,"ÉĽÉ¹ÉĻ":1817,"ĠbiËĲt":1818,"ĠmÉĳd":1819,"ĠÉ¹ÉªpÉĶÉ¹t":1820,"ÅĭÉ¡É¹i":1821,"ĠÉªÅĭÉ¡lÉªÊĥ":1822,"Ã¦ft":1823,"ĠnoÊĬv":1824,"ĠseÉªf":1825,"ĠÃ¦tÉĻ":1826,"ĠsÊĮmbÉĳdi":1827,"ĠtÉ¹ÊĮbÉĻl":1828,"ĠbÉ¹oÊĬ":1829,"ĠmÉªlk":1830,"ĠpÉ¹ÉĳblÉĻm":1831,"ĠhÉªstÉĻÉ¹É¹i":1832,"ĠeÉªpÉ¹ÉĻl":1833,"ÊĴÉĽnÉĻÉ¹É¹ÉĻl":1834,"ĠdÉĶt":1835,"ĠpoÊĬst":1836,"ns":1837,"ĠkliËĲn":1838,"ĠiËĲÃ°ÉĻÉ¹":1839,"vd":1840,"ĠÉ¹eÉªn":1841,"ĠbÉ¹Éªt":1842,"ĠlÉªvd":1843,"ĠfÉªÉ¡j":1844,"ÉĻnaÉªt":1845,"ĠaÉªs":1846,"É¹aÉª":1847,"ĠÃ¦k":1848,"bÉĻÉ¹t":1849,"ĠbÃ¦nd":1850,"Ã°z":1851,"ĠsiËĲk":1852,"ÉªÎ¸":1853,"ĠbÉĳb":1854,"ĠfiËĲld":1855,"ĠhaÊĬÉĽvÉĻÉ¹":1856,"ĠwÉĽÃ°ÉĻÉ¹":1857,"ĠlÉĽd":1858,"ÊĴiËĲn":1859,"ĠÉĶÉ¹dÉĻÉ¹":1860,"ĠmÉĳmÊĮ":1861,"ÊĴÉĻ":1862,"ĠtÉĻnaÉªt":1863,"ÉĻmi":1864,"ĠkÉªt":1865,"oÊĬni":1866,"ĠÉĽÉ¡zÃ¦m":1867,"ĠÉĳkt":1868,"ĠlÊĮvli":1869,"ĠjÉĶÉ¹z":1870,"ĠsÊĮd":1871,"ĠpÉ¹ÉĽzÉªdÉĻnt":1872,"ĠdÉªnÉĻÉ¹":1873,"ÊĴÉĽst":1874,"ĠpÉ¹Éªt":1875,"eÉªzi":1876,"ĠkÃ¦mp":1877,"bÉľËĲ":1878,"ÊĥÉľËĲt":1879,"ĠstÉ¹iËĲt":1880,"ĠÊĥÊĮt":1881,"ĠÊĮwÉĶÉ¹d":1882,"ĠkÉªld":1883,"ĠtÉĽm":1884,"ĠlÃ¦fÉªÅĭ":1885,"hoÊĬ":1886,"ĠÎ¸ÉªÅĭkÉªÅĭ":1887,"ĠdÉĳlÉĻÉ¹":1888,"ĠpÉĳ":1889,"ÅĭÉ¡wÉªd":1890,"ĠkÉĶÉ¹n":1891,"ĠpoÊĬ":1892,"ĠpÉĳpjÊĬl":1893,"ĠsÊĮdÉĻn":1894,"ĠlÉªvÉªÅĭ":1895,"hÉĳ":1896,"ĠlÉªst":1897,"ĠkÉ¹eÉªÉĳn":1898,"ĠkaÊĬn":1899,"ĠjuËĲÊĴuËĲÉĻli":1900,"ĠÊĮÅĭkÉĻl":1901,"ÉĽÊĥÉĻl":1902,"ĠstÉ¹eÉªt":1903,"ÉĳlÉªd":1904,"ÊĴÉľËĲmÉĻn":1905,"ĠhÉĽld":1906,"ĠÉ¡eÉªmz":1907,"ĠnÃ¦t":1908,"ĠpÉ¹Éĳp":1909,"ĠÊĮÉ¡É¹iËĲ":1910,"ĠsÉĻpoÊĬz":1911,"ĠmaÉªkÉĻl":1912,"ĠpÉĽn":1913,"ĠsÉĻÉ¹pÉ¹":1914,"ĠmÃ¦stÉĻÉ¹":1915,"ĠÊĮÃ°ÉĻÉ¹É¹":1916,"ÊĥÉĻ":1917,"Ã¦li":1918,"ĠÉ¹Ã¦n":1919,"ĠÉĽÉ¡zÃ¦kt":1920,"ÉĶst":1921,"ĠpÉ¹oÊĬ":1922,"ÉªsaÉªd":1923,"ÉĽlÉĻ":1924,"ĠpÉ¹Éªns":1925,"fÉĶÉ¹m":1926,"É¹Ã¦t":1927,"fÉĻÉ¹d":1928,"iÉĻm":1929,"ĠdÉªpÉĳÉ¹tmÉĻnt":1930,"lÉĻÉ¹":1931,"ÊĥÉĳÉ¹d":1932,"ĠpÉ¹ÉĻf":1933,"ÊĴÉĶ":1934,"ĠtÉĽk":1935,"ĠÎ¸É¹iËĲhÊĮndÉ¹Éªd":1936,"aÉªÉĻÉ¹d":1937,"ĠhÃ¦Åĭ":1938,"ĠlÃ¦ÅĭÉ¡wÉªd":1939,"ĠÃ¦ks":1940,"ÅĭÎ¸":1941,"ĠlÉĳts":1942,"ĠÉ¹ÉªsiËĲv":1943,"ÉĻÉ¹É¹eÉªÊĥÉĻn":1944,"ĠÉ¹eÉªz":1945,"eÉªtÉĻÉ¹":1946,"ÉĻti":1947,"ĠlÃ¦d":1948,"ÉľËĲnÉĻl":1949,"ĠsteÉªd":1950,"ĠpaÊĬÉĻÉ¹":1951,"mÉĻs":1952,"ĠspÉĽÊĥÉĻl":1953,"ĠsaÊĬndz":1954,"iÉĻÉ¹oÊĬziÉĻÉ¹oÊĬ":1955,"ĠkÉĻÉ¹É¹":1956,"ĠpÉĶl":1957,"ĠhÉĽv":1958,"ĠpÊĬts":1959,"ĠsÉĽvÉĻnhÊĮndÉ¹Éªd":1960,"ĠdÉ¹aÉª":1961,"ĠhÃ¦m":1962,"ĠsoÊĬld":1963,"ĠdÉ¹ÉĽs":1964,"ĠÊĮfÉ¹eÉªd":1965,"ÊĥÊĮl":1966,"ĠsteÉªÊĥÉĻn":1967,"lÉĻ":1968,"ĠsÉĽpt":1969,"ÉªÉ¡z":1970,"ĠoÊĬp":1971,"ĠwÉªÃ°Éªn":1972,"ÉĳÉ¹É¹ÉĽs":1973,"ĠÉ¹ÊĮnÉªÅĭ":1974,"ĠdÃ¦Êĥ":1975,"ĠvÃ¦l":1976,"ĠÉ¹ÉªtÉľËĲn":1977,"ĠÉĽkskjuËĲs":1978,"ĠmaÊĬnt":1979,"ĠneÉªt":1980,"ĠÉªliËĲnÉĻÉ¹":1981,"ÉĽÉ¹ÉªÅĭ":1982,"ĠfÉªt":1983,"ÊĴuËĲlaÉª":1984,"viÉĻs":1985,"ĠfaÉªvhÊĮndÉ¹Éªd":1986,"ĠÉĽvÉ¹ÉªbÉĳdi":1987,"Ã¦nÉĻ":1988,"ĠlÊĮk":1989,"ĠkÉĽpt":1990,"ĠkÃ¦É¹Éªkt":1991,"ĠbÉľËĲÎ¸deÉª":1992,"ĠbÉªÉ¡Éªn":1993,"ÊĥiËĲf":1994,"ĠpÉ¹ÉªtÉĽnd":1995,"ĠÉĶÉ¹É¡":1996,"ĠhaÊĬz":1997,"ĠsÉĻs":1998,"ĠfÉĶÉ¹wÉĻÉ¹d":1999,"ÉĽsk":2000,"ĠÊĥÉĳp":2001,"ĠfÉ¹Ã¦Åĭk":2002,"ĠtÉĽlÉªv":2003,"ĠiËĲtÉªÅĭ":2004,"ĠbÉľËĲn":2005,"ĠklaÉªm":2006,"ĠvoÊĬkÉĻlaÉªzÉªz":2007,"ĠÉĽnÉªweÉª":2008,"ĠÉ¹ÉĽp":2009,"ĠflaÉª":2010,"ĠpÉĳÉ¹k":2011,"ĠÃ°Ã¦tÉĻ":2012,"ĠvÉªlÉªd":2013,"ĠÊĮnd":2014,"ĠÉ¡ÊĮvÉĻÉ¹nmÉĻnt":2015,"ĠkÉĶÉ¹":2016,"ĠnoÊĬvÉĽmbÉĻÉ¹":2017,"ÊĴeÉªn":2018,"ĠkÉªdz":2019,"kÊĮm":2020,"ĠlÉĽtÉĻÉ¹":2021,"ĠbÃ¦É¡":2022,"Êĥi":2023,"ĠmÊĮÅĭk":2024,"ĠsÉªst":2025,"ĠiËĲst":2026,"ĠwÉªÃ°Ã°Éª":2027,"ĠmÃ¦É¡i":2028,"ni":2029,"ĠÉ¹aÉª":2030,"ĠjuËĲÉĳÉ¹É¹ÉĽs":2031,"ĠuËĲhÊĮ":2032,"ĠkÉĽÉ¹fÉĻl":2033,"ĠpÉ¹ÉĽzÉĻnt":2034,"Ã°oÊĬ":2035,"ĠÉĶlÃ°oÊĬ":2036,"ĠnoÊĬwÊĮn":2037,"ĠbeÉªbiz":2038,"ĠdÉªÉ¡":2039,"ĠfÃ¦st":2040,"ÉªzÉĻm":2041,"ĠÉ¹ÊĮ":2042,"ĠtÉĽlÉªvÉªÊĴÉĻn":2043,"ĠmÊĮnÎ¸s":2044,"ĠmÉĻÉ¹É¹":2045,"ĠÉ¡É¹eÉª":2046,"ĠÉªntÉĻÉ¹":2047,"ĠjuËĲnÉªvÉľËĲsÉªti":2048,"ĠkÉĳÉ¹d":2049,"ĠkÉ¹ÉĶs":2050,"ĠÎ¸ÉľËĲd":2051,"kl":2052,"ĠkÉĳmjuËĲn":2053,"ĠsÉĻpÉĶÉ¹t":2054,"ĠÉ¹oÊĬz":2055,"ĠspoÊĬk":2056,"ĠkÉĻmpliËĲt":2057,"ÊĴÉªst":2058,"ĠbÃ¦Åĭ":2059,"ĠdeÉªnd":2060,"ĠpÊĬtÉªÅĭ":2061,"ĠhiËĲl":2062,"ĠlÉľËĲn":2063,"ĠkÃ¦nÉĳt":2064,"ĠdÃ¦m":2065,"eÉªmz":2066,"ĠmÃ¦É¹id":2067,"ĠfÉĻÉ¹É¡ÉĽt":2068,"ĠfÉªÉ¹":2069,"ĠwÉľËĲkt":2070,"ĠÉĳktoÊĬ":2071,"ĠsaÉªz":2072,"ĠlÉĳ":2073,"tÉªk":2074,"ĠhÉĽvi":2075,"ĠÉĶÉ¡":2076,"ĠneÉªmd":2077,"ĠstÊĬd":2078,"ÊĴÉĽntÉĻl":2079,"ĠtaÉªÉĻÉ¹d":2080,"ĠÉ¡Ã¦sps":2081,"ĠÊĥaÊĬt":2082,"ĠtaÉªt":2083,"ĠvÉªzÉªt":2084,"Ã¦z":2085,"ĠpaÊĬnd":2086,"ĠÃ°eÉªÉĻÉ¹É¹":2087,"ÊĥÉĳ":2088,"ĠziÉĻÉ¹oÊĬziÉĻÉ¹oÊĬ":2089,"ĠkloÊĬÃ°z":2090,"ĠÉĽÉ¡zÃ¦ktli":2091,"bz":2092,"mÉĶÉ¹":2093,"ĠkuËĲl":2094,"ĠdÉªm":2095,"É¡É¹Ã¦m":2096,"ĠkÉ¹aÉªd":2097,"ÉĻÉ¡n":2098,"ĠmÉľËĲd":2099,"ĠpÉ¹ÉĻt":2100,"aÊĬÉĻÉ¹z":2101,"ÊĴÉªt":2102,"ĠhÃ¦Êĥ":2103,"ĠÃ°ÉĽmsÉĽlvz":2104,"ĠmÉªdÉĻl":2105,"ĠÉĻbÊĮv":2106,"ĠdÉªstÉ¹":2107,"ĠnÊĮmbÉĻÉ¹É¹":2108,"ĠkÉĳp":2109,"ĠÊĮnl":2110,"ĠfÉªnÉªÊĥ":2111,"ĠÊĥÉĳt":2112,"ÊĥÃ¦mp":2113,"ĠÃ¦nsÉĻÉ¹d":2114,"ÊĴÉĻnz":2115,"ĠkÉĻmjuËĲn":2116,"ĠdeÉªt":2117,"ĠÉĶÉ¹Éª":2118,"ĠmÊĮÃ°ÉĻÉ¹É¹":2119,"ĠÉ¹Éªv":2120,"ĠbÉ¹aÊĬn":2121,"ĠbÉ¹oÊĬkÉĻn":2122,"É¹ÉĻp":2123,"uËĲÊĥÉĻn":2124,"ĠÉĽsk":2125,"ĠmÃ¦s":2126,"ĠkÊĮpÉĻl":2127,"ĠsÉªÅĭz":2128,"ĠÃ¦s":2129,"ĠÊĥuËĲt":2130,"ÉĻnsÉªz":2131,"ÊĮkÊĥÉĻn":2132,"ĠÉ¡É¹Ã¦ndm":2133,"ĠpÉĳsÉªbÉĻl":2134,"eÉªks":2135,"ÉľËĲm":2136,"ĠÃ¦ktÉªv":2137,"ĠdiËĲp":2138,"ĠkÊĮlÉĻÉ¹":2139,"nÉĻÉ¹":2140,"ĠfÉ¹ÉĽnt":2141,"ĠÉĳktoÊĬbÉĻÉ¹":2142,"ĠmjuËĲn":2143,"ĠwÊĮÉ¹i":2144,"ĠstÃ¦ndÉªÅĭ":2145,"ÊĮks":2146,"ĠpÉ¹Éĳv":2147,"ĠmaÉªlz":2148,"ĠpÉ¹ÉĳpÉĻÉ¹":2149,"ĠlÊĮnd":2150,"ÉĻni":2151,"ĠluËĲz":2152,"ĠhÉĶ":2153,"ĠwÉªmÉªn":2154,"É¹oÊĬl":2155,"ĠÉĳÉ¹mz":2156,"ĠkwÉªk":2157,"ÉĻpÃ¦n":2158,"ĠkÉĶÉ¹t":2159,"ĠÉĻÉ¹É¹aÉªv":2160,"ĠÉªvÉĽnt":2161,"ĠvaÉª":2162,"ĠÉ¡É¹uËĲ":2163,"ÊĥaÉªn":2164,"ĠmÉĽmbÉĻÉ¹É¹":2165,"ĠpÃ¦k":2166,"ĠÉªnstÉĽd":2167,"ÊĴÉĻpÃ¦n":2168,"ĠpÉ¹ÉĻv":2169,"ĠÉ¹ÉªÉ¡":2170,"ĠklÊĮb":2171,"ÊĴÉĻnt":2172,"ĠspÉĳt":2173,"ĠpeÉªnt":2174,"É¹eÉª":2175,"ĠmÉªliÉĻn":2176,"ĠeÉªmi":2177,"ĠfÉĶÉ¹Î¸":2178,"ĠÉĽkspÉ¹":2179,"ĠÉĽvÉ¹ÉªwÊĮn":2180,"ĠpÉĶz":2181,"wÉĻ":2182,"aÉªzÉªÅĭ":2183,"ÊĥÃ¦pt":2184,"uËĲst":2185,"ÊĥÊĮk":2186,"ĠkaÊĬnsÉĻl":2187,"ĠhÉĳs":2188,"lÉĻt":2189,"stÉĽÉ¹z":2190,"iËĲnz":2191,"ĠweÉªtÉªÅĭ":2192,"ÊĴÊĮmp":2193,"ĠsiËĲzÉĻn":2194,"ÊĥÉª":2195,"ĠÉ¹eÉªs":2196,"ĠnÉĶÉªzÉªz":2197,"ĠpÊĬÊĥ":2198,"ĠÉĶÉ¡ÉĻst":2199,"ĠtÉĽst":2200,"ĠfÉ¹ÉĳÉ¡":2201,"ĠlÊĮndÉĻn":2202,"ĠdÉĳd":2203,"ĠkÉĻmÃ¦nd":2204,"ĠpÉľËĲfÉĽkt":2205,"ĠbÊĬl":2206,"ĠÉªndiËĲd":2207,"ĠkÉĻnd":2208,"ĠsÃ¦d":2209,"ĠniËĲdz":2210,"fs":2211,"fl":2212,"ĠpÉĻÉ¹tÉªk":2213,"ĠlaÉªks":2214,"ĠhÊĮnt":2215,"ĠpÉĳÉ¹d":2216,"ÉĻÉ¹É¹iz":2217,"É¹ÉĻd":2218,"ĠwÉĶt":2219,"ĠdÃ¦n":2220,"ĠpÉ¹Éĳd":2221,"ĠmÃ¦É¡n":2222,"ĠkÉĻ":2223,"Ġspl":2224,"Ã¦nts":2225,"ÅĭÉ¡ÉĻl":2226,"ĠÉĻf":2227,"ĠkÉĳns":2228,"ĠkwaÉªÉĻt":2229,"ĠÊĮz":2230,"ĠbÉ¹Éªd":2231,"ĠkÉĻnv":2232,"ĠiËĲvnÉªÅĭ":2233,"ĠnÉľËĲs":2234,"ĠÉ¹ÉªliËĲst":2235,"lÉª":2236,"bÉľËĲÉ¡":2237,"ĠdaÊĬt":2238,"ĠbÃ¦bÉĻlz":2239,"ĠsÉĽptÉĽmbÉĻÉ¹":2240,"wÉĽl":2241,"ĠhuËĲm":2242,"ĠpleÉªsÉªz":2243,"ĠhÊĮs":2244,"ĠsaÉªlÉĻns":2245,"ĠmjuËĲnÉªsÉªp":2246,"ĠdaÉªn":2247,"ĠdÉªsp":2248,"ĠÉªntÉĻÉ¹n":2249,"ĠwÉªndoÊĬ":2250,"ĠvÉªkt":2251,"ÊĥÉĻnt":2252,"ĠvÉªd":2253,"ĠmuËĲvd":2254,"ĠÉ¹oÊĬt":2255,"É¹ÉªzÉĽnt":2256,"ĠÉ¡É¹iËĲ":2257,"ÊĴoÊĬs":2258,"ÉªÊĥÉĻnz":2259,"ĠÉĽkskl":2260,"ÉĶÉ¹dÉªÅĭ":2261,"ĠfÉĻÉ¹Ã°Éª":2262,"ĠnÉªÉ¹li":2263,"ĠÉ¹ÉĽkÉĻÉ¹d":2264,"ĠsnoÊĬ":2265,"nuËĲn":2266,"ĠpÉªÉ¡":2267,"ĠkwÉªkli":2268,"ĠwoÊĬ":2269,"ĠbÉªldÉªÅĭ":2270,"ĠÉ¹ÉĽpÉ¹ÉªzÉĽnt":2271,"ÉªdÉĻns":2272,"ĠkÉĳmÉĻn":2273,"ĠtÉ¹ÊĮst":2274,"ĠtÉĻwÉĶÉ¹dz":2275,"Ã¦sk":2276,"ĠtÉĽlÉªÅĭ":2277,"ĠÉĽnÉªwÊĮn":2278,"ÉĻÉ¹É¹ÉªÉ¹":2279,"ĠpÉ¹oÊĬÉ¡É¹Ã¦m":2280,"pÉĻÉ¹z":2281,"ĠsÉľËĲtÉĻnli":2282,"ĠfÉĳloÊĬÉªÅĭ":2283,"ĠÃ¦lb":2284,"ÉĳnÉĻ":2285,"ĠÉªfÉĽkt":2286,"ĠwaÉªld":2287,"ĠdÉĽm":2288,"ĠÉ¹ÉĽkÉĻÉ¡n":2289,"ĠsÉªÉ¹iÉĻs":2290,"bÉĻnd":2291,"ĠwÊĮtÉĽvÉĻÉ¹":2292,"ĠkÉĶst":2293,"ĠfÉĻÉ¹É¡Éĳt":2294,"ĠÉľËĲÎ¸":2295,"ĠtÉľËĲnz":2296,"ĠkÃ¦Î¸":2297,"ĠkÉĶt":2298,"ĠÉ¹ÉĶÉª":2299,"ĠlÉª":2300,"ĠÉ¹ÉªtÉĻn":2301,"ĠpleÉªn":2302,"ĠsÃ¦m":2303,"ĠpÉĳpjÊĬleÉªÊĥÉĻn":2304,"ĠÃ¦É¡":2305,"ki":2306,"ĠÃ¦ftÉĻÉ¹nuËĲn":2307,"ĠÉĽdnÉĻ":2308,"ĠblÊĮd":2309,"ĠpÉ¹ÉĳvÉªns":2310,"ĠstÊĮdi":2311,"ÊĮndeÉª":2312,"loÊĬ":2313,"ĠnÊĮn":2314,"ĠpÉ¹Ã¦kt":2315,"ÉĻÉ¹É¹Éªd":2316,"ĠhjuËĲmÉĻn":2317,"ĠÉ¹Éªkw":2318,"ĠdÉªsÊĮp":2319,"ĠbÉªsaÉªd":2320,"ĠfÉĻÉ¹É¹":2321,"ĠÉ¹ÉªfÉľËĲ":2322,"bÉĽÉ¹i":2323,"ĠbuËĲ":2324,"ĠÊĮks":2325,"ĠÊĥuËĲz":2326,"ĠpÉĳÉ¹dÉĻn":2327,"lÉªn":2328,"ÉĳÉ¹É¹ÉĻ":2329,"ĠmÊĮstÊĮv":2330,"ĠkÉĻÉ¹É¹ÉªÉ¹":2331,"ĠtoÊĬt":2332,"ÉĻÉ¹m":2333,"ĠhÊĮni":2334,"ĠlÉªm":2335,"ĠÃ¦nsÉĻÉ¹":2336,"ĠhÊĮsbÉĻnd":2337,"ĠloÊĬk":2338,"ĠjÉĽstÉĻÉ¹":2339,"ÊĥÉĻÉ¹É¹ÉĻl":2340,"ĠmÉªk":2341,"ĠkÉ¹aÉªÉªÅĭ":2342,"ĠpÃ¦n":2343,"ĠÉ¹ÉªtÉľËĲnd":2344,"ĠkÉľËĲÉ¹ÉĻnt":2345,"ĠlaÊĬd":2346,"ĠlÉĶÉ¹d":2347,"ĠjÉĽp":2348,"ĠlÉĶÉ¹":2349,"ĠsuËĲpÉĻÉ¹":2350,"É¡oÊĬ":2351,"ĠbÉ¹Éª":2352,"ĠsÉªstÉĻm":2353,"diËĲ":2354,"pÉĳns":2355,"É¡É¹aÊĬnd":2356,"ĠÉĽmp":2357,"ÉªlÉªti":2358,"ĠstuËĲd":2359,"ĠsÉĻksÉĽs":2360,"ĠbÉ¹ÉªtÉªÊĥ":2361,"ĠkeÉªk":2362,"ĠtÉĽÉ¹Éª":2363,"ĠfÉĶÉ¹hÊĮndÉ¹Éªd":2364,"ĠsiËĲz":2365,"Ã¦É¡ÉĻn":2366,"ĠÃ°eÉªv":2367,"ĠkaÊĬntÉĻÉ¹":2368,"ĠpÉªÅĭk":2369,"ĠkÉĳmp":2370,"ĠteÉªp":2371,"ĠhoÊĬldz":2372,"ĠlÉĽm":2373,"ĠjÉĽstÉĻÉ¹deÉª":2374,"ĠpÉªl":2375,"ĠÊĮtÃ¦k":2376,"ĠfeÉªvÉĻÉ¹É¹Éªt":2377,"ĠmÉĽnt":2378,"ĠÊĮhÉĽd":2379,"ĠtÉĳmÉĻs":2380,"ÊĥeÉªt":2381,"É¹Éªb":2382,"ĠspÉ¹":2383,"ĠÉ¹ÉªmÉĽm":2384,"ĠsÉĻd":2385,"ÉĻlÉªÅĭ":2386,"ĠsiËĲoÊĬ":2387,"ĠkÃ¦nd":2388,"ĠmÉĽÉ¹i":2389,"ÉĽmpt":2390,"ĠfÉ¹ÊĮmÃ°Éª":2391,"ĠkÉĳlÉªd":2392,"ĠmÃ¦l":2393,"ĠÉªndiÉĻn":2394,"ĠÉĻÉ¹É¹Éªd":2395,"ĠvjuËĲ":2396,"ÉĻsi":2397,"ĠkÉĶfi":2398,"ĠÉ¹ÉªspÉĳns":2399,"ĠÉ¡Ã¦l":2400,"ÉĻÉ¹É¹ÉĻl":2401,"ĠdÉªsÉĽmbÉĻÉ¹":2402,"ĠsÉªkshÊĮndÉ¹Éªd":2403,"iËĲld":2404,"Éĳnd":2405,"ĠnÉĽt":2406,"ÊĴuËĲk":2407,"ĠbÉĶ":2408,"Éªps":2409,"ĠsÊĮdÉĻnli":2410,"ĠmÉĻk":2411,"ĠÉ¹Éĳb":2412,"ĠwaÉªd":2413,"ĠbÃ¦Åĭk":2414,"ÉĶÉ¹z":2415,"ĠbÉ¹Ã¦d":2416,"ĠÊĮpÉ¹oÊĬ":2417,"ĠÉĶÉ¹Éªnd":2418,"ĠÉªÅĭÉ¡lÉĻnd":2419,"ĠlÊĮnt":2420,"ĠspÉĽnd":2421,"liÉĻ":2422,"ĠÉ¡É¹oÊĬ":2423,"ĠwÉĶÉ¹m":2424,"ĠpÉĻzÉªÊĥÉĻn":2425,"ÉĻnsi":2426,"ÊĴuËĲs":2427,"ĠnÉĶÉ¹m":2428,"ÉªÉ¡zÃ¦nd":2429,"ĠÃ¦lÉªÉ¡zÃ¦nd":2430,"pÉĻlz":2431,"ĠfÉĶÉ¹mÉĻÉ¹":2432,"ĠsÉªli":2433,"ÅĭÉ¡ÉĻÉ¹":2434,"ĠÉ¡ÉªvÉªÅĭ":2435,"ÊĥuËĲz":2436,"ĠjuËĲzÉªÅĭ":2437,"ĠfÉĽloÊĬ":2438,"ĠÉĳÉ¹mi":2439,"ĠpÉªks":2440,"ÊĥÃ¦ptÉĻÉ¹":2441,"ĠpÉĳk":2442,"ĠsÊĮmwÉĽÉ¹":2443,"ĠliËĲÉ¡":2444,"ĠsÉªÅĭÉ¡ÉĻl":2445,"ĠhÉĶÉ¹":2446,"ĠÉ¹ÉªplaÉªd":2447,"ĠpÊĮblÉªk":2448,"kÉ¹":2449,"ĠmÊĮÅĭki":2450,"ĠmÉĽmbÉĻÉ¹z":2451,"ĠmiËĲtÉªÅĭ":2452,"ĠhÃ¦pÉĻnz":2453,"ĠwÉľËĲks":2454,"ĠsÊĮbd":2455,"ĠhÉĽn":2456,"ÊĥÊĬÉ¹":2457,"ĠaÉªÊĥÊĮl":2458,"ĠdÉªsaÉªdÉªd":2459,"ĠswÉªm":2460,"ĠstÊĮk":2461,"ĠÊĮlaÊĬd":2462,"ĠlÉĽtÉĻÉ¹z":2463,"ĠmuËĲvÉªÅĭ":2464,"ĠhÉĳhÉĳ":2465,"ĠkÉ¹ÉªsmÉĻs":2466,"ĠpÉĳlÉªt":2467,"ĠÉ¡É¹Ã¦s":2468,"ĠbÉªlt":2469,"ĠneÉªmz":2470,"ĠpiËĲsÉªz":2471,"ĠsiËĲkÉ¹Éªt":2472,"ĠfÉªÅĭÉ¡":2473,"ĠtÉ¹ÊĮk":2474,"ĠpÉ¹Éĳs":2475,"ĠbloÊĬ":2476,"ÊĴÉª":2477,"ĠbÉ¹ÉĽk":2478,"ĠtiËĲviËĲ":2479,"ĠteÉªl":2480,"ĠtaÊĬ":2481,"ĠmÉªÉ¹":2482,"ĠwiËĲks":2483,"ĠlÉªt":2484,"ĠdÉ¹iËĲm":2485,"ĠpÉĽns":2486,"ĠkÉªti":2487,"ĠÉ¹eÉªt":2488,"ĠpÉĻÉ¹tÉªkjÊĬlÉĻÉ¹":2489,"É¹ÉĽs":2490,"ÉĽlÉĻp":2491,"ĠÉªntÉ¹ÉĽstÉªd":2492,"ÊĴoÊĬsÉĻf":2493,"ĠkjuËĲ":2494,"ĠÉªtÉĻl":2495,"ÉĳmÉªn":2496,"ÊĥÃ¦mpiÉĻn":2497,"liz":2498,"ÉĻmÉĻnt":2499,"ÊĥÉĻÉ¹É¹i":2500,"ÉĽts":2501,"ĠkÉ¹uËĲ":2502,"fÉĻst":2503,"ÊĮpt":2504,"ĠsuËĲp":2505,"ĠpoÊĬl":2506,"ĠdÉĶtÉĻÉ¹":2507,"ĠÉªlÉĽkt":2508,"ĠkÉĳnst":2509,"ĠpeÉªn":2510,"ĠhÉĽlÎ¸":2511,"ĠfÉĳloÊĬd":2512,"ĠnaÉªts":2513,"ÊĴuËĲÉĻl":2514,"ĠbÉ¹ÉĽkfÉĻst":2515,"É¹Ã¦kt":2516,"vz":2517,"ĠstiËĲv":2518,"ĠfÉĳloÊĬ":2519,"ÉĽÊĥÉĻli":2520,"ĠsÉªv":2521,"ÊĴÃ¦":2522,"ĠÉĽÉ¹pÉĶÉ¹t":2523,"ĠsleÉªv":2524,"ĠliËĲvÉªÅĭ":2525,"ĠkÉ¹aÉªz":2526,"ĠÉ¹Éĳd":2527,"ĠjÊĬÉ¹É¹ÉĻp":2528,"ĠpÉĻt":2529,"ĠlÉĽÉ¡z":2530,"ĠpÃ¦l":2531,"ĠkjÊĬÉ¹":2532,"ĠkÉĳnf":2533,"ĠsÉĻpoÊĬzd":2534,"ĠstÉĳpt":2535,"ĠbÉªzi":2536,"ĠfÉªks":2537,"ĠvÉľËĲ":2538,"ĠbÉ¹aÉªt":2539,"ÉªmÉĶÉ¹":2540,"ĠpÉ¹Éªz":2541,"ĠÃ¦dÉĻm":2542,"ĠÃ¦nÉªmÉĻl":2543,"ĠbÉªlÉĶÅĭ":2544,"ĠoÊĬpÉĻnd":2545,"ĠÉªntÉĻÉ¹nÃ¦":2546,"luËĲ":2547,"ĠfÃ¦":2548,"ÉĽÅĭk":2549,"ĠkÃ¦pÉªtÉĻl":2550,"ĠmoÊĬt":2551,"ĠpÉ¹ÉĻp":2552,"ĠtaÉªp":2553,"ĠpÉĳlÉªs":2554,"ĠÉ¡ÉĳÉ¹dÉĻn":2555,"kÉĻn":2556,"ĠbÉĶt":2557,"ĠÊĥÉªt":2558,"ĠdÉªvÉĽlÉĻp":2559,"noÊĬt":2560,"Éĳf":2561,"ĠspÉ¹ÉªÅĭ":2562,"ĠdÉĽf":2563,"ĠfeÉªm":2564,"ĠnoÊĬbÉĳdi":2565,"ĠÊĮkaÊĬnt":2566,"ĠÃ¦f":2567,"ĠsÉĻnt":2568,"ĠsÉªÉ¡n":2569,"ÉĽlt":2570,"ĠkÉ¹eÉªzi":2571,"ĠÊĥÊĬdÉĻv":2572,"ĠÊĮpÉĳÉ¹t":2573,"ĠÉĽkspÉĽkt":2574,"ĠloÊĬkÉĻl":2575,"ĠwÉªlj":2576,"mÉĽn":2577,"ĠÉªÅĭkluËĲdÉªÅĭ":2578,"mÉªt":2579,"ĠliËĲvz":2580,"ĠhÉĳspÉªtÉĻl":2581,"ÊĴiËĲz":2582,"ĠpÉ¹ÉĻs":2583,"ĠpiÉĻÉ¹Éª":2584,"ĠiËĲÉĽl":2585,"ÉªlÉĻÉ¹":2586,"ĠÉĽksÉĽpt":2587,"ĠsÊĮf":2588,"ĠdÉĽk":2589,"ĠhÉľËĲÉ¹i":2590,"stÉ¹eÉª":2591,"ĠnoÊĬmÉĶÉ¹":2592,"ĠbÊĮtÉĻÉ¹":2593,"ĠbÉ¹ÉĽd":2594,"ĠÉĽnÉªbÉĳdi":2595,"niÉĻ":2596,"ĠtÉªk":2597,"Éĳz":2598,"ĠspeÉªs":2599,"ĠmÃ¦k":2600,"ĠnÉªk":2601,"ĠwÉĽlkÊĮm":2602,"ĠÉĽÉ¡zÃ¦mpÉĻl":2603,"ĠmjuËĲnÉªsÉªpÃ¦lÉªti":2604,"ĠvoÊĬt":2605,"ĠkÃ¦mÉ¹ÉĻ":2606,"ĠsiËĲoÊĬÉĽl":2607,"aÉªÉĻti":2608,"ĠÉ¹ÊĮÊĥ":2609,"iËĲtÉªd":2610,"ĠÉ¹ÉªsiËĲvd":2611,"ĠÊĥeÉªk":2612,"ĠvÉĳl":2613,"ĠÉ¹oÊĬm":2614,"ĠlÃ¦t":2615,"ĠslaÉªt":2616,"ÊĴeÉªmz":2617,"ÊĴÊĮm":2618,"ĠstoÊĬn":2619,"ĠsÉĽlf":2620,"ÉĽÊĴÉĻÉ¹":2621,"ÉªfaÉªd":2622,"ĠpÉ¹ÉªzÉĻn":2623,"ĠÉ¡lÃ¦s":2624,"ĠbÊĮs":2625,"ĠskwÉĽÉ¹":2626,"iËĲnÉĻ":2627,"ĠtÉ¹uËĲÎ¸":2628,"ÉªÉ¹Éªt":2629,"ĠpÉĳt":2630,"ĠÊĮksÉĽpt":2631,"ĠpÉ¹aÉªm":2632,"ĠkÊĬdÊĮv":2633,"ÊĮmi":2634,"ĠwÉĳÊĥ":2635,"ĠÊĥÉĳÉ¹p":2636,"ĠhÉªl":2637,"ĠstÉĽp":2638,"ĠwÉĶnd":2639,"ÊĴÉĽntÉĻlmÉĻn":2640,"ĠÉªntÉĻÉ¹nÃ¦ÊĥÉĻnÉĻl":2641,"ÊĮh":2642,"ĠtaÉªd":2643,"ĠÉªmÃ¦d":2644,"ĠfÊĬtnoÊĬt":2645,"ĠÊĮpÉªÉ¹":2646,"ĠskÉĳt":2647,"ĠbÃ¦l":2648,"ĠnÉĳk":2649,"eÉªnÉªÅĭ":2650,"juËĲzd":2651,"ĠhoÊĬldÉªÅĭ":2652,"ĠÊĮw":2653,"ĠtÉ¹iËĲt":2654,"ÊĥiËĲz":2655,"ÊĴeÉªdÊĮbÉĻljuËĲdÊĮbÉĻljuËĲdÊĮbÉĻljuËĲ":2656,"oÊĬv":2657,"ÊĴÉĻl":2658,"ĠflÉĶÉ¹ÉĻns":2659,"ĠbÉĳtÉĻm":2660,"ĠsmÉĽl":2661,"ĠtÉĽdi":2662,"ĠÉĳÉ¹k":2663,"Éªmp":2664,"lÉĳk":2665,"ÉĽÉ¹Éªt":2666,"ĠsÉªmp":2667,"ĠtÉ¹iËĲz":2668,"ĠÉĽld":2669,"ĠpÉĳlÉªtÉªÊĥÉĻn":2670,"ĠpiÉĻÉ¹ÉªÉĻd":2671,"ĠÃ¦bsÉĻl":2672,"ĠtÊĬÉ¹":2673,"ĠhÊĮÅĭÉ¡É¹i":2674,"ĠÉªsp":2675,"Åĭkw":2676,"ÊĮmz":2677,"ĠpÉ¹ÉĳmÉªs":2678,"ĠÃ¦bsÉĻluËĲt":2679,"ÉĽntÉªd":2680,"ÉĻdi":2681,"boÊĬ":2682,"ÊĴÊĮd":2683,"ĠÉªnwÉªt":2684,"ÊĥuËĲÉĻl":2685,"pÉªÅĭ":2686,"ÉĽstÉĻÉ¹":2687,"ÉĳmÉĻ":2688,"ĠÉ¹aÉªtÉªÅĭ":2689,"ĠdÉľËĲ":2690,"ĠpÉ¹ÉĽs":2691,"ÉĻstÉ¹":2692,"Éĳlvd":2693,"ÉĽndÉĻÉ¹":2694,"ĠflÃ¦t":2695,"wÊĮns":2696,"ĠwÉľËĲÎ¸":2697,"Éĳdiz":2698,"ÉĽtÉªk":2699,"ĠsuËĲt":2700,"ĠnÉĳn":2701,"ÉĻluËĲÊĥÉĻn":2702,"jÊĬlÉĻ":2703,"ĠÊĥoÊĬld":2704,"ĠsaÉªn":2705,"ĠfÉªlm":2706,"ĠheÉªt":2707,"ĠkÉĳÉ¹z":2708,"ĠÊĮtÉĽmpt":2709,"ĠÊĮpÉªÉ¹d":2710,"ĠÉªd":2711,"ĠspÉªÉ¹Éªt":2712,"ĠÉªntÉĻÉ¹É¹":2713,"ĠteÉªst":2714,"eÉªst":2715,"ĠkÃ¦É¹id":2716,"ĠhÃ¦zÉĻnt":2717,"É¹iËĲmz":2718,"ĠÉªÅĭkÉ¹iËĲ":2719,"ĠwÉªnt":2720,"ĠsÊĮmÉĻÉ¹":2721,"ĠÉªlÉĻstÉ¹":2722,"ĠwÉĶkÉªÅĭ":2723,"ĠkÃ¦lÉªfÉĶÉ¹":2724,"ĠblÉĳk":2725,"ĠfÊĮkÉªÅĭ":2726,"ĠweÉªk":2727,"ĠpÉ¹Éªp":2728,"ĠdÉªkl":2729,"ĠkÉªk":2730,"ĠfÉĽd":2731,"iÉĻl":2732,"ĠÉ¹ÊĮf":2733,"ĠÉ¹ÉĽÉ¡":2734,"ĠbeÉªst":2735,"ĠÊĥÊĬdÉĻnt":2736,"ĠwÉĽt":2737,"ĠkÉĻntÉ¹oÊĬl":2738,"ĠÉĽnÉªmÉĶÉ¹":2739,"ĠÉĻvÉĻn":2740,"ĠsÉľËĲt":2741,"pÉªt":2742,"ĠkÉĳÉ¹t":2743,"ÊĥÉĻnd":2744,"ĠÉ¹eÉªnd":2745,"ĠÊĮtÉĽnÊĥÉĻn":2746,"ĠÊĮtwÊĮns":2747,"ĠbÉ¹ÉĶd":2748,"ĠmÃ¦Î¸":2749,"ÉĽps":2750,"ÉĶÉ¹Éªti":2751,"ĠbÉ¹ÉĽÎ¸":2752,"ĠweÉªst":2753,"ÉĻÉ¹meÉªÊĥÉĻn":2754,"ĠfiËĲd":2755,"ĠziËĲ":2756,"ĠbÉªÉ¡ÉªnÉªÅĭ":2757,"wÉĳÉ¹":2758,"ÉĶnd":2759,"ĠÊĥÉĽÉ¹":2760,"ĠwÉĶtÉĻÉ¹É¹":2761,"ĠÉ¡ÉĳÉ¹":2762,"ĠÉĻp":2763,"ÉĻÉ¹s":2764,"ÊĴÉªk":2765,"ĠwiËĲd":2766,"ĠleÉªdiz":2767,"ĠpÉĽÉ¹ÉĻnts":2768,"ÉªÉ¹ÉªÅĭ":2769,"ĠÉªspÉĽÊĥÉĻli":2770,"ĠsÉªkjÊĬÉ¹":2771,"É¡É¹Ã¦f":2772,"ĠnÉĶ":2773,"ĠnÉĽs":2774,"ĠÊĥoÊĬz":2775,"ĠÉ¹aÉªts":2776,"ÉĳÉ¡É¹ÉĻ":2777,"ĠpiËĲtÉĻÉ¹":2778,"ĠÃ¦dÉªd":2779,"ĠÉ¹Éªb":2780,"ĠkwÉĶÉ¹t":2781,"ÊĥÉªkÉªn":2782,"ĠjuËĲhoÊĬ":2783,"ĠblÉĳks":2784,"ĠtiËĲeÉªt":2785,"wÉľËĲk":2786,"ĠlÃ¦ft":2787,"ĠspÉĶÉ¹t":2788,"ĠkwÉĶl":2789,"ĠÉ¡Éªl":2790,"ĠÉ¹Ã¦b":2791,"ĠkÃ¦lÉªfÉĶÉ¹niÉĻ":2792,"ĠÉªst":2793,"ÊĥuËĲeÉªÊĥÉĻn":2794,"ĠsloÊĬli":2795,"ĠwÊĬl":2796,"ĠÉĽÅĭk":2797,"ĠÉ¹ÉĽz":2798,"ĠÃ°eÉªl":2799,"kÉĻm":2800,"ĠmÉĳn":2801,"ĠÉ¹eÉª":2802,"ĠdÃ¦diz":2803,"ĠkÉ¹iËĲm":2804,"ĠsiËĲÉªÅĭ":2805,"ĠbÃ¦tÉĻl":2806,"ÉªÅĭÉ¡ÉĻÉ¹":2807,"ĠtÉ¹Ã¦":2808,"bÉĻld":2809,"ĠÉĻfÉªÊĥ":2810,"ĠfaÉªnÉĻli":2811,"ĠÉ¹ÉªÉ¡ÉĳÉ¹d":2812,"ĠdÉªstÉĻns":2813,"ĠmeÉªl":2814,"ĠdÊĮznÉĳt":2815,"ĠpÉĽÉ¡":2816,"ĠÉĶstÉ¹eÉª":2817,"ĠsÉĽnsÉĻs":2818,"ĠiËĲÉĽlÉĽs":2819,"ÉĻsli":2820,"ĠÉªtsÉĽlf":2821,"ĠÊĮmÉĽÉ¹ÉªkÉĻ":2822,"ĠÊĮkÉĶÉ¹dÉªÅĭ":2823,"ĠvÃ¦n":2824,"ĠÉĽlÉĽl":2825,"ĠÉĽkskleÉªmd":2826,"ĠmÉĶn":2827,"ĠÉ¹Ã¦t":2828,"ĠvÉªdÉªoÊĬ":2829,"ÉĳÊĥ":2830,"ĠlÉĶÉª":2831,"ĠfjuËĲt":2832,"ĠdÉ¹Éĳpt":2833,"ĠlaÉªvz":2834,"ĠÃ¦É¹":2835,"ĠbÃ¦sk":2836,"ĠÉ¹iËĲdÉªÅĭ":2837,"ĠsaÉªk":2838,"ĠÉĽp":2839,"ĠpÉªt":2840,"ĠpÊĮz":2841,"ĠÊĥoÊĬd":2842,"ĠÉĳks":2843,"ĠhÉĶÉ¹sÉªz":2844,"haÊĬs":2845,"ĠlÊĮvd":2846,"kÉĻ":2847,"ĠlÉªft":2848,"ÊĴÉĶÉªn":2849,"ĠjoÊĬ":2850,"ĠnÉĽvÉĻÉ¹É¹":2851,"ĠskaÉª":2852,"ĠspiËĲkÉªÅĭ":2853,"eÉªlz":2854,"ĠÉªnvÉĽst":2855,"ÉªzeÉªÊĥÉĻn":2856,"ĠÉ¡Éªvz":2857,"ĠwÊĮndÉĻÉ¹fÉĻl":2858,"ĠkloÊĬz":2859,"ĠflaÊĬÉĻÉ¹z":2860,"ĠlÉĽÉ¡":2861,"hÃ¦d":2862,"ĠmuËĲn":2863,"ĠlaÉªkt":2864,"tiz":2865,"ĠvaÉªÉĻl":2866,"aÊĬns":2867,"ĠÉĳk":2868,"ĠstÉĳÉ¹ts":2869,"ĠmÉªnÉªstÉĻÉ¹":2870,"ĠbÉĳtÉĻl":2871,"ĠkÉľËĲnÉĻl":2872,"ĠdÉªfÉªkÉĻl":2873,"ĠfÉĳÃ°ÉĻÉ¹É¹":2874,"ĠdÉªfÉªkÉĻlt":2875,"ĠsÉªn":2876,"ĠwÉľËĲnt":2877,"ÊĥÉªps":2878,"ĠÉªnfÉĻÉ¹meÉªÊĥÉĻn":2879,"ĠwÉĶÉ¹n":2880,"vi":2881,"ÉªeÉªÊĥÉĻn":2882,"ĠdÉĽl":2883,"ĠhiËĲd":2884,"ĠfÉ¹ÉĽÊĥ":2885,"ĠspuËĲn":2886,"ĠkÉĻntÉªnjuËĲd":2887,"ĠtÉĽkn":2888,"ĠsÉĽÉ¹ÉĻ":2889,"ĠsoÊĬl":2890,"ĠÉ¹iËĲs":2891,"ĠÉªntÉ¹ÉĽstÉªÅĭ":2892,"ĠdÉªfÉ¹ÉĻns":2893,"ĠÉĽkspiÉĻÉ¹Éª":2894,"ĠpuËĲ":2895,"ĠsÃ¦n":2896,"ĠÉ¹Ã¦p":2897,"hÊĬd":2898,"ĠkwiËĲn":2899,"Ã¦tÉªk":2900,"ĠklÉĽvÉĻÉ¹":2901,"jÉĻ":2902,"ÉĻÉ¹lÉĻnd":2903,"ĠÃ¦Åĭ":2904,"ĠpiËĲk":2905,"blÉªÅĭ":2906,"ĠsmoÊĬk":2907,"Ã¦ntÉªd":2908,"dÊĮbÉĻljuËĲdÊĮbÉĻljuËĲdÊĮbÉĻljuËĲ":2909,"ĠsÊĮ":2910,"ĠfeÉªÎ¸":2911,"ÊĥÉĳÉ¹li":2912,"dÉĻm":2913,"ĠÉĳnt":2914,"iËĲm":2915,"ĠsiËĲd":2916,"ĠdÉĳÉ¡i":2917,"wÉĽst":2918,"ĠÃ¦pÉĻl":2919,"É¹Éªp":2920,"ĠskÉĽÉ¹":2921,"ĠsmaÉª":2922,"ĠkÊĮd":2923,"ĠbaÉªt":2924,"ĠpleÉªz":2925,"ĠfÉªÅĭÉ¡ÉĻÉ¹z":2926,"ĠsÉªd":2927,"ĠnÃ¦n":2928,"ÉĽnÊĥÉĻl":2929,"ĠÉ¹ÉªmuËĲv":2930,"ĠhÃ¦É¹i":2931,"É¹eÉªt":2932,"ĠbÃ¦kÉ¡É¹aÊĬnd":2933,"É¹aÉªb":2934,"viÉĻsli":2935,"aÉªni":2936,"ĠÉ¹eÉªdÉªoÊĬ":2937,"sÉĽt":2938,"ÉĽndÉªÅĭ":2939,"fÉĻ":2940,"ĠleÉªk":2941,"ĠlÉĽÅĭÎ¸":2942,"ĠpÉ¹ÉĳblÉĻmz":2943,"ĠfÃ¦n":2944,"Ã¦nsi":2945,"ĠkÉĻntÉªnjuËĲ":2946,"ĠpÉ¹ÉĻsiËĲd":2947,"ĠseÉªl":2948,"ĠsÉľËĲkÉĻl":2949,"ĠnÃ¦p":2950,"ĠÉ¡eÉªt":2951,"ĠpÉ¹ÉĻduËĲs":2952,"ĠtÉĽks":2953,"ĠdÉĳk":2954,"ĠmÉľËĲ":2955,"ÊĴaÉª":2956,"ĠlaÉªÉªÅĭ":2957,"ĠdÉĽfÉªn":2958,"ĠÊĮnf":2959,"ĠtiËĲÎ¸":2960,"ĠpÉĻÉ¹fÉĶÉ¹m":2961,"ÉĻÎ¸i":2962,"ÉĽÊĥÉĻnÉĻl":2963,"ĠÉĳpÉĻÉ¹É¹":2964,"ĠÊĮpÉ¹oÊĬt":2965,"pÉĻs":2966,"ÉĶlt":2967,"Ã¦stÉªk":2968,"ĠmÊĮÃ°ÉĻÉ¹z":2969,"ĠÉ¹ÉĽl":2970,"ĠtÉ¹eÉªd":2971,"ĠlÃ¦m":2972,"ĠmÃ¦É¹i":2973,"ĠdÉĽn":2974,"ĠlaÉªÉĻn":2975,"ĠfÉĶ":2976,"ĠtÉľËĲm":2977,"ĠdÉ¹ÉĶÉªÅĭ":2978,"ĠsÃ¦l":2979,"ĠstuËĲp":2980,"ĠlÉĽvÉĻl":2981,"ĠpaÉªÉ¹ÉĻt":2982,"ÊĥÃ¦t":2983,"ĠhÃ¦ndÉĻl":2984,"ĠdÉĳlÉĻÉ¹z":2985,"ĠwÉªndoÊĬz":2986,"ĠwÉĽstÉĻÉ¹n":2987,"ĠÉĽksaÉªt":2988,"wÉĻÉ¹dz":2989,"ÊĴÉĽkts":2990,"pÉĻÉ¹d":2991,"ĠÉĻl":2992,"ĠjiËĲ":2993,"ĠÉĽsÉĽs":2994,"ĠsÉĽntÉĻÉ¹":2995,"ĠÃ¦fÉ¹Éªk":2996,"ĠtÉĶl":2997,"ĠaÉªtiËĲ":2998,"ÉªkÉĻn":2999,"ĠleÉªtÉĻÉ¹É¹":3000,"ĠÊĮnlÉĽs":3001,"juËĲm":3002,"ÉĻbÉªlÉªti":3003,"vÉªl":3004,"ĠsÉĻÉ¹É¹":3005,"ĠpÉĳlÉªsi":3006,"ÉªÅĭkt":3007,"ĠmuËĲvÉªz":3008,"ĠdÉªÉ¹ÉĽktÉªd":3009,"ĠtÉĽÉ¹ÉªbÉĻl":3010,"ĠpÉ¹aÉªs":3011,"ĠkÉ¹Ã¦Êĥ":3012,"ĠÉĽlÉªf":3013,"ĠmÉªsteÉªk":3014,"ĠnÊĮt":3015,"ĠÉ¡oÊĬÉªn":3016,"ÉªldÉĻ":3017,"ĠÉ¹ÉªpÊĮbl":3018,"ÊĴmÉĻnt":3019,"ÉªstÉªd":3020,"aÊĬnst":3021,"ĠkÉ¹aÊĬd":3022,"ĠmaÉªthÊĮv":3023,"jÉĶnd":3024,"ĠbÉªjÉĶnd":3025,"ÊĴÉĶÉªnd":3026,"ÉĽÅĭkeÉª":3027,"ĠjuËĲÉĽÅĭkeÉª":3028,"ĠwÉĶkt":3029,"ÊĴÉªnÉĻl":3030,"ĠpÉľËĲpÉĻl":3031,"ĠnoÊĬtÉªs":3032,"ÊĴiËĲzÉĻs":3033,"ĠnÉĽsÉªs":3034,"ĠkÉ¹iËĲk":3035,"oÊĬtÉĻ":3036,"ĠtÉľËĲnÉªÅĭ":3037,"ĠÉ¹ÉĽs":3038,"ĠmÃ¦dÉĻm":3039,"ĠkÃ¦É¹ÉªktÉĻÉ¹":3040,"ĠmÉĽks":3041,"ĠkÉĳÉ¹l":3042,"ĠheÉªst":3043,"ĠdÉªÉ¹ÉĽkÊĥÉĻn":3044,"ĠÃ¦lbÉĻm":3045,"ĠtaÊĬÉĻl":3046,"wÊĬd":3047,"Éªsf":3048,"ĠÉĻkeÉª":3049,"ĠpÉĶÉ¹":3050,"ĠjuËĲÎ¸":3051,"ĠÉ¹ÉĽf":3052,"ĠspÉĽl":3053,"ĠspiËĲs":3054,"ĠjuËĲniÉĻn":3055,"ĠstÉĳÉ¹z":3056,"ĠsÊĮl":3057,"ĠbÉĽk":3058,"ĠÊĥiËĲl":3059,"ÊĴÉĽni":3060,"ĠspiËĲsiËĲz":3061,"ĠÉªmÉªt":3062,"ĠdÉĳnÉĻld":3063,"ĠdÉªÉ¡É¹iËĲ":3064,"ĠdÉľËĲti":3065,"ĠniËĲdÉªd":3066,"ĠÉĻlÉªmp":3067,"ĠkÃ¦st":3068,"ĠpleÉªÉĻÉ¹":3069,"ĠÉ¡É¹Ã¦ndmÉĳ":3070,"ĠÉ¹ÉªspÉĽkt":3071,"ĠkÊĮlÉĻÉ¹É¹":3072,"ÊĴuËĲkeÉªÊĥÉĻn":3073,"ĠsÉĽn":3074,"ĠkÉĻmjuËĲnÉªti":3075,"vÉĻÉ¹s":3076,"eÉªzÉªÅĭ":3077,"ĠdÉĳdÉĻ":3078,"ÊĥÊĮkÉĻlz":3079,"ĠÉ¹ÉªkÉĶÉ¹d":3080,"ĠpÉ¹Ã¦ktÉªs":3081,"ĠnÊĮmbÉĻÉ¹z":3082,"ĠsÃ¦tÉĻÉ¹d":3083,"ĠÉªÉ¹z":3084,"ĠbÉªloÊĬ":3085,"bÉĻÉ¹d":3086,"ÉªÉĻt":3087,"ĠÃ¦bsÉĻluËĲtli":3088,"ÊĴÃ¦pÉĻn":3089,"sÊĮm":3090,"ĠdÉ¹uËĲ":3091,"ĠsmaÉªl":3092,"ÊĴÃ¦pÉĻniËĲz":3093,"ĠtÉ¹aÉªz":3094,"ĠsÉĽtÉĻl":3095,"ĠmÉĻÊĥ":3096,"sÉĻ":3097,"ĠkÉĽn":3098,"ĠkÉ¹iËĲeÉªtÉªd":3099,"ĠsÉĻÉ¹pÉ¹aÉªz":3100,"ĠÊĮnÊĮÃ°ÉĻÉ¹É¹":3101,"ÉĽzÉĻnt":3102,"ĠbÃ¦skÉªt":3103,"Éĳnt":3104,"ĠsoÊĬÊĥÉĻl":3105,"ĠkÊĮlÉĻÉ¹z":3106,"ĠwÉĳÊĥÉªÅĭ":3107,"ĠÉĻklÉĳk":3108,"laÉªn":3109,"nz":3110,"ÉĻtÉĽÉ¹i":3111,"ĠbÊĮ":3112,"ĠjuËĲÉĽs":3113,"ÉĻÉ¹É¹ÉĻbÉĻl":3114,"ĠwÉľËĲs":3115,"ĠÉľËĲlÉª":3116,"hÉĻ":3117,"ĠbÊĮd":3118,"ĠsÉĻsp":3119,"ÉĳÉ¡É¹ÉĻfi":3120,"ĠbaÊĬnd":3121,"ÉĽli":3122,"ĠpÉĳÉ¹ts":3123,"ĠtÉĽksÉĻs":3124,"ĠÉªnstÉ¹":3125,"ĠspiËĲd":3126,"ĠblÃ¦Åĭk":3127,"ĠÃ¦ktÉĻÉ¹":3128,"mÉĻ":3129,"ĠÉ¹Éĳs":3130,"ĠÊĮpstÉĽÉ¹z":3131,"ĠÃ¦skÉªÅĭ":3132,"ĠpÉĳkÉªt":3133,"ÊĴÉľËĲv":3134,"ĠÊĥuËĲ":3135,"ĠÃ°ÉĽÉ¹fÉĶÉ¹":3136,"ĠÉĻÉ¹É¹eÉªnd":3137,"bÉªd":3138,"ĠkÊĮz":3139,"ĠhÉªst":3140,"ĠkloÊĬzd":3141,"ĠkÉ¹Ã¦k":3142,"ÊĮvÉĻÉ¹d":3143,"ĠtÉĶkt":3144,"ĠÃ°Ã¦tÃ°Éª":3145,"ĠÊĮsoÊĬs":3146,"ĠlÊĮki":3147,"ĠdÉĽÉ¹":3148,"ĠfÉªz":3149,"ĠspÃ¦n":3150,"ĠÉªndiÉĻ":3151,"ĠsÉªmÉªlÉĻÉ¹":3152,"ĠbÉľËĲdz":3153,"ĠÃ¦ÅĭÉ¡É¹i":3154,"ĠfÉªk":3155,"ÉªtÉªv":3156,"ĠpaÊĬndz":3157,"ĠkÉ¹Éª":3158,"ĠtÉªp":3159,"ĠhÊĮm":3160,"ĠbÊĮn":3161,"ÉĳlÉĻ":3162,"ĠÊĮmaÊĬnt":3163,"ĠÉĽntaÉªÉĻÉ¹":3164,"ĠneÉªtÉªv":3165,"ĠoÊĬldÉĻÉ¹":3166,"ĠÃ¦kÊĥÉĻn":3167,"ÉĽÅĭÎ¸":3168,"ĠtÉ¹Ã¦vÉĻl":3169,"ĠpÉ¹uËĲv":3170,"ĠÊĮlaÉªv":3171,"ĠneÉªbÉĻÉ¹":3172,"haÊĬ":3173,"ĠspÉĽnt":3174,"bli":3175,"ÉĽÃ°ÉĻÉ¹É¹":3176,"ÉĳÅĭ":3177,"Éĳli":3178,"ĠsÊĮndeÉª":3179,"ĠfÉªÅĭÉ¡ÉĻÉ¹":3180,"ĠklaÊĬn":3181,"ĠskÉ¹":3182,"ĠnÉĶti":3183,"ĠvÉľËĲd":3184,"ĠÉªmiËĲd":3185,"ĠbÉ¹ÊĮÃ°ÉĻÉ¹z":3186,"ĠwÉªspÉĻÉ¹":3187,"ĠhÉĽnÉ¹i":3188,"bÉĻn":3189,"Ã¦kÊĥÉĻn":3190,"ĠfeÉªmÉĻs":3191,"ĠtoÊĬ":3192,"ÉĽsts":3193,"ĠstÉĶÉ¹iz":3194,"ĠÉĳd":3195,"ĠpaÉªl":3196,"ĠÊĮlaÊĬ":3197,"ĠkÉĶzd":3198,"É¹eÉªÊĥÉĻn":3199,"ÊĥÃ¦n":3200,"ĠfoÊĬk":3201,"ĠÉĽseÉªt":3202,"bÉĶÉ¹d":3203,"Éĳnz":3204,"ĠÉ¡É¹oÊĬn":3205,"ĠÊĮsl":3206,"ÉªÊĥÉĻs":3207,"ĠhaÉªdÉªÅĭ":3208,"ÊĴÉľËĲveÉªz":3209,"tÉĽl":3210,"ĠbÊĮk":3211,"ĠÉ¹uËĲl":3212,"ĠdÉĳÉ¡z":3213,"ĠÉ¹ÉªzÊĮlt":3214,"ĠÉ¹ÉĳbÉĻÉ¹t":3215,"ĠkÉĳt":3216,"ĠmÉĶnstÉĻÉ¹":3217,"mÉĻÉ¹":3218,"ÊĴoÊĬnz":3219,"ĠmÃ¦tÉĻÉ¹É¹":3220,"ĠÉĽkspÉ¹ÉĽs":3221,"ĠtoÊĬn":3222,"ĠÉ¹Ã¦m":3223,"ĠmuËĲvz":3224,"ĠstÉĳÉ¹tÉªÅĭ":3225,"ĠuËĲps":3226,"ĠtÉ¹Éªp":3227,"ĠtoÊĬtÉĻl":3228,"ĠsÃ¦tÉĻÉ¹deÉª":3229,"ĠtÉªldÉĻ":3230,"ĠmÉªÊĥÉĻn":3231,"ĠbÉ¹eÉªv":3232,"ĠpÃ¦d":3233,"ĠpÉľËĲsÉĻnÉĻl":3234,"ÊĮmÊĮnd":3235,"ĠwuËĲps":3236,"ĠmÉĽsÉªd":3237,"ĠÊĮsliËĲp":3238,"Ã°ÉªÅĭ":3239,"ĠfÉĳÃ°ÉĻÉ¹z":3240,"ĠÉ¹ÉĳsÊĮmÊĮnd":3241,"ĠfÉľËĲÃ°ÉĻÉ¹":3242,"ĠkÊĮlt":3243,"ĠtÉĽÉ¹":3244,"ÊĴÉĽÉ¹":3245,"ĠfÉ¹ÉĽd":3246,"ĠpÉ¹aÉªv":3247,"ĠÉªmpÉ¹":3248,"ĠÉªndiÉĻnz":3249,"ĠÃ¦ksÉªdÉĻnt":3250,"di":3251,"Éªdli":3252,"ĠlaÉªkli":3253,"zdeÉª":3254,"ĠbÉ¹Ã¦nt":3255,"ĠÉ¹ÉªsÉľËĲt":3256,"ÉľËĲvd":3257,"ÊĥÉĳÉ¹lz":3258,"ĠwÉªljÉĻm":3259,"ĠtoÊĬni":3260,"ĠsÉĳl":3261,"ĠwÊĮzÃ°Éª":3262,"ÉªkÉĻ":3263,"ÉĻnÉªÅĭ":3264,"ĠkÉĶlÉªÅĭ":3265,"hÉĳÉ¹t":3266,"jÊĬ":3267,"iËĲf":3268,"ĠmÊĮs":3269,"ĠjeÉª":3270,"ĠswÉªÅĭ":3271,"ĠÉ¹eÉªzd":3272,"ĠÉªntÉĻÉ¹É¹ÊĮpt":3273,"ĠseÉªnt":3274,"ĠweÉªz":3275,"ĠkÉ¹Éªt":3276,"ĠbÉĻl":3277,"ĠmeÉªt":3278,"ĠwuËĲnd":3279,"ĠpÉĽÉ¡i":3280,"ĠkuËĲ":3281,"ĠÉĽmeÉª":3282,"ĠÉ¡É¹eÉªv":3283,"ĠÉªntÉ¹ÉĻd":3284,"ĠfaÉªnÉĻl":3285,"ĠbÉ¹iËĲf":3286,"ĠÉªÊĥuËĲ":3287,"ĠskÉĽÉ¹d":3288,"ĠhÉĽlpt":3289,"ĠsÊĮÃ°ÉĻÉ¹":3290,"ĠÉĶÉ¹É¡ÊĮn":3291,"ĠkoÊĬst":3292,"ĠsÉĽks":3293,"ĠlaÉªnz":3294,"ĠmÊĮd":3295,"ÉªfaÉª":3296,"ĠmÉªsÉªÅĭ":3297,"ĠpÉ¹ÉĻtÉĽkt":3298,"ĠkÃ¦Î¸É¹Éªn":3299,"ĠkÃ¦bÉªn":3300,"ĠskuËĲ":3301,"Éªbli":3302,"waÉª":3303,"ĠsÉªmpÉĻl":3304,"Ã¦liÉĻn":3305,"ĠfaÉªÉĻÉ¹É¹":3306,"ĠÉ¡ÊĬdbaÉª":3307,"ĠhÉĽlÉĻn":3308,"ĠmÊĮmiz":3309,"ĠsliËĲpÉªÅĭ":3310,"ski":3311,"ĠjÉĳÉ¹d":3312,"ĠÉ¹ÊĮb":3313,"ĠhoÊĬtÉĽl":3314,"ĠpÉ¹ÉĻfÉĽs":3315,"stÉĻn":3316,"ĠÊĥÉľËĲt":3317,"ĠkÊĮvÉĻÉ¹d":3318,"aÊĬÉĻÉ¹É¹":3319,"ĠstÉĽÉ¹z":3320,"ÉĽndÉĻnt":3321,"ĠbÉªÉ¡ÉĻÉ¹":3322,"ĠdÉ¹aÉªvÉªÅĭ":3323,"fiËĲld":3324,"ÉªvÉĻÉ¹":3325,"É¹aÉªt":3326,"ĠtÃ¦ks":3327,"ĠmÃ¦mÉĻ":3328,"oÊĬdz":3329,"ĠkÉĳnvÉĻÉ¹s":3330,"ĠtÃ¦l":3331,"ÊĥÉªÉ¹":3332,"ĠÎ¸ÉªÅĭks":3333,"ĠboÊĬl":3334,"jÉĻÉ¹":3335,"ĠlÉĳk":3336,"Ã°ÉĻÉ¹n":3337,"ĠÉ¹oÊĬlz":3338,"ĠstuËĲpÉªd":3339,"ĠsÊĮÃ°ÉĻÉ¹n":3340,"ĠmÉĻt":3341,"ÉĽndz":3342,"ĠstÉ¹ÉĽÅĭÎ¸":3343,"ĠÉ¹ÉĶÉªÉĻl":3344,"É¹Éªf":3345,"ĠÊĮdvÉĽnt":3346,"ĠhÉĳÉ¹dli":3347,"ĠÃ¦lÉªÉ¡zÃ¦ndÉĻÉ¹":3348,"bÉªt":3349,"ĠsÃ¦k":3350,"ĠskÉ¹uËĲ":3351,"Ã¦lÉĻs":3352,"ĠÉĻÉ¹É¹ÉĽst":3353,"fÉĶÉ¹md":3354,"ĠpÉĻlÉªt":3355,"ÉĶÉ¹Éªd":3356,"ĠfÉ¹aÉªt":3357,"ĠskÉªn":3358,"ÉĽkÊĥÉĻnz":3359,"ĠÉĽnÉªwÉĽÉ¹":3360,"ĠsÉĽntÉ¹ÉĻl":3361,"Ã¦ÅĭÉ¡":3362,"ĠfÉĳks":3363,"ĠstÉĽps":3364,"ĠÉĽmpti":3365,"ĠÉĽnÉĻÉ¹d":3366,"ĠvÉĽÉ¹iÉĻs":3367,"ĠsÉĻÉ¹v":3368,"ĠpÊĮp":3369,"ĠaÉªÉ¹iËĲn":3370,"ÉªtuËĲd":3371,"ĠfÉ¹aÉªd":3372,"ĠÉ¡ÊĬdnÉĻs":3373,"ĠkÉĻmpÃ¦n":3374,"sÉĻÉ¹":3375,"sÉĻns":3376,"ĠaÉªdÉĽnt":3377,"ĠÉĳpÉĻz":3378,"ĠflaÉªÉªÅĭ":3379,"ĠÉĽÅĭÉ¡":3380,"ĠÉªlÉĽkÊĥÉĻn":3381,"ĠnÉĶÉ¹Ã°ÉĻÉ¹n":3382,"ĠpÉĳpÉĻ":3383,"ĠbÉĽÉ¹i":3384,"ĠwÉªm":3385,"ĠsÃ¦ndwÉªt":3386,"ĠhÉĳlÉªd":3387,"ĠkÉ¹aÉªm":3388,"ĠmoÊĬstli":3389,"ĠÉªntÉĻÉ¹v":3390,"ĠsÉªmpli":3391,"Éªpt":3392,"ĠkÉĻÅĭk":3393,"ĠÉªÅĭkÉ¹iËĲs":3394,"ĠkÉĽm":3395,"ÉĽnsÉªv":3396,"ĠkÊĮst":3397,"ĠÉ¹ÉªmÉĳÉ¹":3398,"ĠsÃ¦tÉªsf":3399,"ĠkÉĻntÉªnjuËĲz":3400,"ĠÉĽst":3401,"ĠÉĶld":3402,"ĠtÉ¹Ã¦k":3403,"ftÉĻbÉĻl":3404,"ĠÉĽmpl":3405,"ĠsiËĲeÉªt":3406,"ÉľËĲni":3407,"ÊĥÉĽÉ¹mÉĻn":3408,"ĠÉĳnÉªst":3409,"ĠÊĮkÃ¦d":3410,"ĠmÉĳÉ¹kÉªt":3411,"ĠÉĻkeÉªÊĴÉĻn":3412,"ĠfoÊĬ":3413,"ĠbuËĲt":3414,"ĠÉĽskeÉªp":3415,"sli":3416,"iËĲÎ¸":3417,"ĠtÊĮk":3418,"ĠhÉĳl":3419,"ÊĴÊĮ":3420,"ĠÃ¦ktÉ¹ÉĻs":3421,"ÉĻkÉ¹Ã¦t":3422,"ĠspÉ¹ÉĽd":3423,"ĠbÊĮni":3424,"liÉĻn":3425,"ÉªvÉªd":3426,"ÉĻÉ¹dz":3427,"ĠÉ¡É¹Ã¦d":3428,"ĠÉ¹ÉªleÉªÊĥÉĻn":3429,"lÉªt":3430,"ĠpiËĲt":3431,"ĠklaÊĬd":3432,"ĠtwaÉªs":3433,"ĠpÉĽt":3434,"ĠmÃ¦ks":3435,"ĠlÊĮvz":3436,"ĠmÉªlÉĻtÉĽÉ¹i":3437,"ĠkÃ¦É¹ÉĻl":3438,"ĠkÃ¦sÉĻl":3439,"ĠkÉĻnstÉ¹":3440,"ÊĴÉľËĲmÉĻni":3441,"ĠdÉªvÉĽlÉĻpmÉĻnt":3442,"Ã¦pt":3443,"ĠÊĥÊĬ":3444,"ĠÉĳÉ¹É¡":3445,"ĠpleÉªt":3446,"ĠwÉªspÉĻÉ¹d":3447,"ĠstÉĶÉ¹m":3448,"ĠfaÉªtÉªÅĭ":3449,"ĠaÉªÃ¦m":3450,"ĠÊĮndÉĻÉ¹É¹":3451,"ĠÉĻÉ¹É¹aÉªvd":3452,"ĠÉªkw":3453,"ĠÉ¡Ã¦b":3454,"ĠstÉ¹ÊĮkt":3455,"ĠÊĮwÉĶÉ¹dz":3456,"ĠkÊĮn":3457,"vÉªÅĭ":3458,"ĠÉ¹ÉĽv":3459,"ĠÊĥeÉªp":3460,"ĠÉĽndÉªd":3461,"ĠtÉľËĲmz":3462,"ÊĥÉĳk":3463,"ĠfÉĶÉ¹md":3464,"juËĲl":3465,"ĠbÉ¹aÉª":3466,"ĠÉĽltiËĲ":3467,"ĠlaÉªts":3468,"ĠpÉĻlÉªtÉªkÉĻl":3469,"ĠkÉĳk":3470,"ĠniËĲdtÉĻ":3471,"ÉªbaÉª":3472,"ĠÉ¹Éªsk":3473,"ÉĽnts":3474,"fÉľËĲ":3475,"ĠflaÉªt":3476,"ĠdÉĳli":3477,"ĠtÉĽd":3478,"ĠÉªv":3479,"ĠseÉªk":3480,"ĠÊĮdÉ¹ÉĽs":3481,"ĠsÉľËĲvd":3482,"Éªkw":3483,"ĠwaÉªn":3484,"ĠÊĮÎ¸":3485,"ĠÊĥÉ¹":3486,"ÉĽld":3487,"ĠÉ¡É¹eÉªtÉĻÉ¹":3488,"ĠpleÉªst":3489,"ĠfiËĲm":3490,"ĠkÉĻmpliËĲtli":3491,"ĠdaÉªnÉĻs":3492,"ĠÊĮkÃ¦dÉĻmi":3493,"ĠÉĽmb":3494,"ĠÉ¡ÉªÉ¡":3495,"ĠslaÉªd":3496,"ĠhÃ¦pÉĻnÉªÅĭ":3497,"ĠsÉĻÉ¹pÉ¹aÉªzd":3498,"ĠÉĽpÉªs":3499,"ĠdÉ¹ÉĽst":3500,"Ã¦ntÉªk":3501,"ĠÉĽntÉĻÉ¹d":3502,"juËĲtÉªd":3503,"ĠÉĳntÊĬ":3504,"waÉªz":3505,"ĠsÃ¦nt":3506,"ĠkÉĻnsÉªdÉĻÉ¹d":3507,"ĠtÉªm":3508,"ĠmÉªz":3509,"ĠpÉľËĲpÉĻs":3510,"ÉªnÉĽÉ¹i":3511,"ĠfÉĽloÊĬz":3512,"ĠdÉªskÉ¹aÉªb":3513,"ĠtÉĻÉ¡ÉĽÃ°ÉĻÉ¹É¹":3514,"ĠbÉ¹Ã¦dfÉĻÉ¹d":3515,"ĠbÉĻluËĲn":3516,"ĠsÉĻb":3517,"ÊĥÉĶÉªs":3518,"ĠjuËĲkeÉª":3519,"ĠbÉĳÉ¹n":3520,"ĠloÊĬÉĻÉ¹":3521,"ĠÉĽkspleÉªn":3522,"ĠsÉĶftli":3523,"ĠmaÊĬntÉªn":3524,"ĠÊĮÎ¸ÉĶÉ¹Éªti":3525,"ĠdÉĽs":3526,"ĠdÊĮbÉĻl":3527,"ĠlÉªd":3528,"ÊĮbÉĻljuËĲdÊĮbÉĻljuËĲdÊĮbÉĻljuËĲ":3529,"pÉ¹Éªt":3530,"Ã¦stÉĻÉ¹":3531,"Ã¦É¹ÉĻnt":3532,"ĠstÉ¹ÊĮÉ¡":3533,"ĠluËĲk":3534,"ĠkÊĮntÉ¹iz":3535,"ĠmÉĽl":3536,"ĠaÉªt":3537,"Éĳki":3538,"ĠfÉĶlÉªÅĭ":3539,"ĠÎ¸É¹oÊĬt":3540,"ĠbÉªsaÉªdz":3541,"ĠduËĲti":3542,"juËĲtÉĻÉ¹":3543,"ĠÊĥiËĲp":3544,"ĠkÉĻmÉªti":3545,"ĠkÉĳnvÉĻÉ¹seÉªÊĥÉĻn":3546,"ĠÃ°ÊĮs":3547,"ĠkoÊĬl":3548,"ĠsÉĽm":3549,"É¡ÉĻn":3550,"ĠsaÉªÉĻnt":3551,"ĠbÉľËĲt":3552,"ĠskÉ¹iËĲm":3553,"ĠÎ¸É¹ÉĽt":3554,"ĠmÉĻÊĥiËĲn":3555,"ĠbeÉªk":3556,"ĠkÉĶfs":3557,"ĠdÉĽmÉĻkÉ¹Ã¦t":3558,"ĠbÉĶs":3559,"ĠÉ¡É¹Ã¦b":3560,"ĠbÉĳbi":3561,"ĠkeÉªt":3562,"ĠdÉĽsk":3563,"ĠsÉľËĲfÉªs":3564,"ĠÉªnvÉĳlvd":3565,"ĠÉĽÉ¹iÉĻz":3566,"oÊĬmÉĻ":3567,"ĠmÉĳdÉĻÉ¹n":3568,"É¹Éªm":3569,"ĠnÉĳd":3570,"ĠkÃ¦p":3571,"ÉľËĲsi":3572,"ĠÉĽlÉªfÉĻnt":3573,"ĠÉ¡É¹eÉªs":3574,"ĠhaÉªÉĻÉ¹":3575,"ĠpliËĲzd":3576,"ÊĴÉĻÉ¹É¹ÉĻs":3577,"ĠÉ¹ÉªmÉĽmbÉĻÉ¹É¹":3578,"ĠtaÉªni":3579,"ĠdÉĶ":3580,"ĠÉ¹eÉªl":3581,"ĠsmÉĳÉ¹t":3582,"tÉªd":3583,"ĠÉªk":3584,"ĠdÉ¹Ã¦É¡":3585,"ĠmiËĲnÉªÅĭ":3586,"ĠbÉĽtÉĻÉ¹É¹":3587,"ĠÉ¡lÉĶÉ¹i":3588,"ĠfÉĶlÉĻn":3589,"ĠkÉĻÅĭÉ¡":3590,"ĠÃ¦v":3591,"ĠÉĶÎ¸":3592,"ĠÉ¹Ã¦nd":3593,"ĠÃ¦ÅĭÊĥÉĻs":3594,"pÉĳnd":3595,"ĠÉ¹ÉªvÉĻÉ¹É¹":3596,"ĠÉ¡Ã¦Ã°ÉĻÉ¹":3597,"ĠÉªndÊĮst":3598,"ĠdÉĽfÉªnÉĻtli":3599,"ĠtÉľËĲt":3600,"ĠfeÉªl":3601,"ĠÉªnh":3602,"ĠÉĽksaÉªtÉªd":3603,"ĠÉ¹ÉªlÉªd":3604,"ĠvÃ¦ljuËĲ":3605,"ĠfÉĶÉ¹Éªst":3606,"ÊĴÉĽs":3607,"ĠÉ¡É¹Ã¦n":3608,"ĠwÉªntÉĻÉ¹":3609,"ĠÊĮkw":3610,"ĠbÉĽÉ¡":3611,"ĠÉĽnv":3612,"ĠsÉªtiz":3613,"ĠdÉªlaÉªt":3614,"ÉĶk":3615,"ÉĻlÉĻnt":3616,"ÉªÅĭli":3617,"ĠslÉªp":3618,"ÉĳÉ¹É¹aÉª":3619,"ÉĻÉ¹tuËĲn":3620,"ĠsÉĶÅĭz":3621,"ĠÉĽÉ¡":3622,"ĠloÊĬn":3623,"ĠklÃ¦p":3624,"ĠwÊĬdz":3625,"wÉľËĲÎ¸":3626,"ĠhaÊĬzÉªz":3627,"ĠtÉ¹Éªk":3628,"ĠbÉĳÃ°ÉĻÉ¹":3629,"ĠkÉľËĲt":3630,"ÊĥoÊĬz":3631,"ĠÉĳpÉĻÉ¹tuËĲn":3632,"ĠÉªlÉĻstÉ¹eÉªÊĥÉĻn":3633,"ĠpÊĮzÉĻl":3634,"ĠhÉĽvÉĻn":3635,"ĠÉľËĲn":3636,"ĠtaÉªÉ¡ÉĻÉ¹":3637,"É¡ÉĻ":3638,"Ã¦nst":3639,"pleÉªn":3640,"ĠlÉĶs":3641,"ĠpÉĽnsÉĻl":3642,"ĠÉĳÉ¹É¹":3643,"ĠpÉ¹ÉĻm":3644,"ĠpÉ¹Éªnt":3645,"ĠÉªnvÉĽstÉªÉ¡":3646,"ĠtaÊĬÉĻÉ¹":3647,"ÉªkoÊĬ":3648,"ĠstÃ¦ndz":3649,"ĠÉ¹Ã¦bÉªt":3650,"laÉªt":3651,"ÉªÉĻtli":3652,"ĠswÉªts":3653,"ĠsÉĻsaÉªÉĻti":3654,"ĠÉªmiËĲdÉªÉĻtli":3655,"ĠswÉªtsÉĻÉ¹lÉĻnd":3656,"ÉªÉĻv":3657,"ĠÊĮnaÊĬnst":3658,"plÉªk":3659,"ĠpÉ¹ÉĻvaÉªd":3660,"eÉªnt":3661,"ĠÊĮpÃ¦É¹ÉĻnt":3662,"ÉĽktÉªv":3663,"ÊĮlts":3664,"ĠiËĲzili":3665,"ĠÉ¡É¹uËĲps":3666,"ÊĴÉĻnsi":3667,"ĠÊĮvwÉªt":3668,"ĠhoÊĬli":3669,"ĠmeÉªhÊĮv":3670,"ĠdÃ¦nsÉªÅĭ":3671,"naÉªt":3672,"ÉĶÉ¹Éªk":3673,"ĠbÉĽnt":3674,"ĠlÉĳÉ¹É¹ÉĻ":3675,"ĠhÉªd":3676,"ĠnÉĳmÉªn":3677,"ĠmÉªstÉĻÉ¹É¹":3678,"ĠÉªnfluËĲ":3679,"ĠwÉĽÃ°ÉĻÉ¹É¹":3680,"ĠfÃ¦nsi":3681,"ĠmÉĽnÉªÉĻv":3682,"ĠmÉĶ":3683,"ĠfÉĽÉ¹i":3684,"ĠfÉªld":3685,"ÉĶÉªntÉªd":3686,"ĠfÉªÉ¡jÉĻÉ¹":3687,"ĠnÉĶÉ¹mÉĻl":3688,"ĠtÉĶÉ¹":3689,"ĠjuËĲhÊĮ":3690,"ĠÉ¹Éªst":3691,"ĠpÃ¦Î¸":3692,"ĠwÉĶks":3693,"ÉĻts":3694,"ĠÃ¦lbÉĻÉ¹t":3695,"ĠÉ¹ÉĽÉ¡jÊĬlÉĻÉ¹":3696,"mÉªÅĭ":3697,"ĠÃ°aÊĬ":3698,"ĠfuËĲl":3699,"ĠkiËĲpÉªÅĭ":3700,"ÊĴÊĮÅĭÉ¡ÉĻl":3701,"ĠdÊĮm":3702,"ĠstÉ¹oÊĬ":3703,"ĠkeÉªeÉªtiËĲ":3704,"ĠÊĮÊĥ":3705,"ĠtÃ¦sk":3706,"ĠspiËĲt":3707,"ĠÉĽkspiÉĻÉ¹ÉªÉĻns":3708,"ĠnÉĽsÉªsÉĻÉ¹É¹i":3709,"ĠkÊĮzÉĻn":3710,"ĠÉĽÅĭÉ¡eÉªd":3711,"wÉªn":3712,"É¹ÉªÊĥ":3713,"ĠdiËĲt":3714,"ĠluËĲt":3715,"vÉĻÉ¹z":3716,"ĠÉ¹ÉªmeÉªnd":3717,"ĠpÉĻteÉªt":3718,"ĠpÉ¹aÉªvÉĻt":3719,"ĠÊĮsÉªst":3720,"ĠsÉĶs":3721,"ĠÉĳfÉªsÉĻÉ¹":3722,"ĠpÊĮblÉªÊĥt":3723,"ĠÊĥÉªps":3724,"ĠtÃ¦p":3725,"ÉĳÊĴ":3726,"ÊĥÉĽl":3727,"ÉªpÉĻl":3728,"ĠdÉªklÉĽÉ¹d":3729,"ĠwÊĬlf":3730,"ĠÉ¡É¹ÊĮnt":3731,"ĠÉĽfÉĳÉ¹É¹aÉª":3732,"ĠlÃ¦p":3733,"aÉªÉĻÉ¹É¹":3734,"ÉĽti":3735,"ĠplÉĽnti":3736,"ĠÃ¦mp":3737,"ĠstiËĲl":3738,"ÉĻtÉªvz":3739,"kÉ¹Ã¦ft":3740,"ĠswÉªmÉªÅĭ":3741,"ĠÉªstÃ¦b":3742,"jÊĬp":3743,"ĠÉĳl":3744,"ĠtÊĮÅĭ":3745,"ĠfÉľËĲn":3746,"ĠÉ¡aÉªd":3747,"ĠÉªtÃ¦liÉĻn":3748,"ĠfÉ¹uËĲt":3749,"ĠflÃ¦Êĥ":3750,"ĠÉĳnÉĻÉ¹":3751,"ĠpÉ¹ÉĻduËĲst":3752,"ĠÉªÅĭkw":3753,"ĠlÉĳs":3754,"ĠlÉľËĲnd":3755,"ĠÉĶÉªl":3756,"ĠnÉĳtÊĮv":3757,"ĠpÉ¹aÊĬd":3758,"ĠmÉĽnÊĥÉĻnd":3759,"Ã¦nsÉªz":3760,"ĠÊĮÉ¡É¹iËĲd":3761,"ĠÊĮnn":3762,"ĠmÃ¦nÉĻÉ¹":3763,"ĠÉªndÉªp":3764,"ĠpÉ¹ÉĳsÉĽs":3765,"wÊĮt":3766,"ÊĴÉĽl":3767,"ÊĴÉĻs":3768,"ĠÊĮdmÉªn":3769,"ĠpÊĬld":3770,"ÊĥÃ¦mpiÉĻnÊĥÉªp":3771,"ĠÉĶfÉĻl":3772,"ĠsÉĽntÉĻÉ¹É¹":3773,"ĠnÉĶÉ¹Î¸wÉĽst":3774,"ĠÉĳbviÉĻsli":3775,"ÊĥÉĳklÉĻt":3776,"bÉĳdiz":3777,"ĠtÉĳÉ¹":3778,"ĠlÉªps":3779,"ĠÊĥÉĽl":3780,"ĠhÉĽdz":3781,"ĠfÉªlÉªp":3782,"ÉĻlÉĽst":3783,"ÉľËĲb":3784,"ĠÉªndÉªvÉªd":3785,"ĠpÃ¦lÉªs":3786,"ÉĶf":3787,"ÊĴoÊĬk":3788,"ĠhÃ¦dÉĻnt":3789,"ĠdÉªsaÉªd":3790,"ĠkÉªÅĭdÉĻm":3791,"ĠÉĶÉ¹É¡ÉĻn":3792,"sp":3793,"ĠÉ¹uËĲf":3794,"ĠpÉ¹ÉĻfÉĽÊĥÉĻnÉĻl":3795,"ÉĳÉ¡z":3796,"ĠjÊĮm":3797,"ĠplÉĽzÉĻnt":3798,"ĠÉĽvÉªdÉĻns":3799,"ĠlÉĶÅĭÉ¡ÉĻÉ¹":3800,"ĠdÉªÊĥ":3801,"ĠÉĳÉ¹d":3802,"ĠÉªndÉªk":3803,"ĠdÉªfÉĽns":3804,"ÊĴeÉªoÊĬ":3805,"ĠtÉĽkst":3806,"ĠdÃ¦mÉªd":3807,"ĠhjuËĲd":3808,"ĠdÊĮ":3809,"ĠhoÊĬst":3810,"ĠkÉĶÉ¹nÉĻÉ¹":3811,"ĠspÃ¦nÉªÊĥ":3812,"stÉĻÉ¹d":3813,"ÊĥÉĽstÉĻÉ¹":3814,"ĠpÉ¹eÉª":3815,"É¹ÉĻf":3816,"ĠÉĽkspÉĽktÉªd":3817,"ĠmoÊĬÊĥÉĻn":3818,"ĠÉĻbz":3819,"ĠseÉªvd":3820,"É¹iÉĻs":3821,"ĠÉĳfÉªsÉĻÉ¹z":3822,"ĠfÊĮnd":3823,"ĠnÉľËĲv":3824,"ĠÊĥÉĶÉ¹":3825,"ĠÉ¹ÊĮnz":3826,"ĠdÉªvÉªÊĴÉĻn":3827,"ĠskwiËĲ":3828,"É¹Éĳn":3829,"ĠtÉĽlÉªf":3830,"ĠbÉªheÉªv":3831,"ĠmÉĽdÉĻs":3832,"É¹ÉĽnd":3833,"ĠdaÊĬnstÉĽÉ¹z":3834,"ĠflaÊĬÉĻÉ¹":3835,"ĠsÉĽkÉ¹ÉĻt":3836,"ĠÊĮdm":3837,"ĠoÊĬk":3838,"ĠstÃ¦t":3839,"ĠÉ¹Éªn":3840,"ĠÉĽnÉĻmi":3841,"eÉªsÉĻn":3842,"ĠÊĮÃ°ÉĻÉ¹waÉªz":3843,"ĠÉ¹ÉªliËĲs":3844,"ĠmÉĳÉ¹tÉªn":3845,"ĠfÉªÉ¡jÉĻÉ¹z":3846,"ĠÉĽkstÉ¹":3847,"ĠbÉĶlz":3848,"ĠplÃ¦nz":3849,"ĠsÊĮpÉĻÉ¹":3850,"ĠpeÉªz":3851,"ĠÉĽmjuËĲ":3852,"ÉªtÉĻÉ¹":3853,"ĠstÉ¹aÉªk":3854,"ĠsÉľËĲvÉªsÉªz":3855,"ĠbÉ¹ÊĮÊĥ":3856,"ĠmaÊĬs":3857,"ĠstÃ¦f":3858,"ĠklÉªÉ¹li":3859,"ĠjuËĲÊĴuËĲÉĻl":3860,"ĠÉªÉ¡n":3861,"ĠklÉĳk":3862,"ĠpÉ¹ÉĳmÉªst":3863,"ĠpÉĽ":3864,"ĠaÉªÉĻÉ¹n":3865,"ĠkÉĻmpjuËĲtÉĻÉ¹":3866,"iËĲÉĻ":3867,"ĠstoÊĬl":3868,"ĠbÊĮtÉĻn":3869,"ĠdÉªstÉ¹Éªb":3870,"ĠnoÊĬtÉªst":3871,"ĠmÃ¦É¡nÉªt":3872,"ĠvÉªk":3873,"oÊĬnÉĻ":3874,"ĠfÉªÉ¡jÉĻÉ¹É¹":3875,"ĠÃ°Ã¦nÉĻ":3876,"ĠsÉĶÉ¹":3877,"ÊĥiËĲk":3878,"ĠstaÉªl":3879,"ĠdÉĶÉ¹ÉĻÎ¸i":3880,"ĠfÉĶlz":3881,"ÉĽÉ¹Éªli":3882,"ÊĴÉĽnÉĻÉ¹É¹ÉĻli":3883,"ÊĬwÉĻ":3884,"ĠdiËĲd":3885,"ÊĥÊĬ":3886,"ĠplÃ¦nt":3887,"ĠtÉ¹Ã¦kt":3888,"ĠmÃ¦nz":3889,"ĠmÃ¦É¡ÊĮz":3890,"ĠÉ¡ÊĮnz":3891,"ĠÉĳkjÊĬp":3892,"iÉĻz":3893,"ĠdÊĮt":3894,"ĠneÉªv":3895,"Ã¦nz":3896,"iËĲni":3897,"ĠblÉĽs":3898,"ĠkÉĶf":3899,"ĠaÊĬÉĻÉ¹sÉĽlvz":3900,"ĠspÉĶÉ¹ts":3901,"ĠtÉªÉ¹z":3902,"ĠÉĽli":3903,"ĠÉ¡w":3904,"ĠfÉľËĲm":3905,"ĠzuËĲ":3906,"ĠsneÉªk":3907,"ĠfÉĻÉ¹É¡Éªv":3908,"ĠÎ¸É¹oÊĬn":3909,"ĠtÊĮn":3910,"ÊĥÉªn":3911,"ÊĴÉĻÉ¹É¹i":3912,"ÉĽtÉĻ":3913,"ĠstÉ¹ÊĮk":3914,"ĠlÉªsÉĻnÉªÅĭ":3915,"ĠsÉĽkÉ¹ÉĻtÉ¹i":3916,"ĠwÉĽd":3917,"ÊĴÉªÉ¡":3918,"ĠtÉ¹ÊĮÅĭk":3919,"ĠstÉ¹ÉĶ":3920,"ĠsmÉªÎ¸":3921,"ĠkÉĽÉ¹fÉĻli":3922,"ĠwÉĽÉ¹ÉªÅĭ":3923,"ĠhÊĮntÉªÅĭ":3924,"É¹Éªpt":3925,"ĠpÉľËĲfÉĽktli":3926,"ĠhÉĳki":3927,"ĠÉ¹Ã¦s":3928,"ĠhÉªp":3929,"ĠblaÉªnd":3930,"ĠblÊĮdi":3931,"ĠstÉ¹ÉĽt":3932,"ĠkÉĶlz":3933,"ĠfÉĶÉ¹sÉªz":3934,"ĠpoÊĬni":3935,"ĠÉĽkstÉ¹ÉĻ":3936,"ĠÉªmpÉĳs":3937,"ÊĴÉªkÉĻl":3938,"ĠÎ¸Éªk":3939,"ĠtÉĽlz":3940,"ĠÉĽÉ¡zÉªst":3941,"ĠpÉĳpjÊĬlÉĻÉ¹":3942,"ĠfÉĻÉ¹É¹ÉĻn":3943,"ĠÉĽmÉĽmÉĽm":3944,"ĠlÉªvz":3945,"ĠÉĶstÉ¹eÉªliÉĻ":3946,"bÃ¦k":3947,"ĠÊĮst":3948,"ĠmuËĲvmÉĻnt":3949,"ĠÉ¡oÊĬldÉĻn":3950,"ĠkÉĳÉ¹dz":3951,"haÉª":3952,"ĠhaÉªt":3953,"ĠfÉĶlt":3954,"ĠkÉĻÉ¹É¹ÉĽkt":3955,"ĠÉ¡Ã¦Åĭ":3956,"ĠpÉ¹aÉªz":3957,"ĠÉĽnvaÉª":3958,"É¹ÉªÉĻl":3959,"ÉĶÉ¹ÉªÅĭ":3960,"ĠsÉĳb":3961,"ĠdÊĮÉ¡":3962,"ĠiËĲstÉĻÉ¹n":3963,"ĠdÉ¹ÉĽd":3964,"ĠsÉªts":3965,"ĠÉ¹iËĲÉĻlaÉªz":3966,"ĠniËĲÃ°ÉĻÉ¹":3967,"hoÊĬld":3968,"ĠhÉĶÉ¹n":3969,"ĠiËĲÉ¡ÉĻÉ¹":3970,"ĠmÉĻÉ¹É¹iËĲs":3971,"laÉªd":3972,"ĠtoÊĬst":3973,"ÉªmÉĻnt":3974,"ĠbeÉªsbÉĶl":3975,"ĠskuËĲlz":3976,"ĠÎ¸iÉĻÉ¹":3977,"eÉªtÉĻÉ¹z":3978,"juËĲmÉĻnt":3979,"ĠdÉªzaÉªn":3980,"ĠÉ¹ÉªmÉĳÉ¹kt":3981,"ĠtÃ¦k":3982,"ĠsÉĳÉ¹d":3983,"ĠÃ°eÉªd":3984,"ĠpÃ¦nts":3985,"ĠÉĽvÉªdÉĻnt":3986,"ĠmÃ¦É¹Éª":3987,"ĠÃ¦ftÉĻÉ¹wÉĻÉ¹dz":3988,"ĠsÉªkjÊĬÉ¹É¹Éªti":3989,"ĠmÉĽdÉĻsÉĻn":3990,"ĠmÉĻl":3991,"ĠwÊĮnd":3992,"ÉĻÉ¹É¹ÉĻs":3993,"ĠtaÊĬnz":3994,"ĠdÉĽÉ¹ÉĻ":3995,"ĠÊĮdÉªÊĥÉĻn":3996,"ĠÉĽnvaÉªÉ¹ÉĻn":3997,"iËĲkw":3998,"ĠstÉ¹iËĲm":3999,"ĠkÊĮmf":4000,"ĠbÉªÉ¡Éªnz":4001,"ĠbÃ¦É¹i":4002,"ĠluËĲs":4003,"ĠspoÊĬkÉĻn":4004,"ĠbÉ¹Éªli":4005,"ĠpleÉªÉĻÉ¹z":4006,"ĠpeÉªpÉĻÉ¹É¹":4007,"ĠskÉĳl":4008,"Ã¦ndÉĻ":4009,"nÉªk":4010,"eÉªpt":4011,"ĠmÊĮlt":4012,"ĠÊĥÃ¦d":4013,"ĠstÉĳk":4014,"ĠÉĶlt":4015,"ĠfÉªfÎ¸":4016,"ĠÉĽntÉĻÉ¹t":4017,"ÉĻÉ¹ÊĥÉªp":4018,"ĠkoÊĬd":4019,"ĠdÉĽp":4020,"ĠpÉ¹Éĳ":4021,"Éĳlf":4022,"ÉĽpÊĥÉĻn":4023,"ĠwuËĲf":4024,"ĠsÉĻpl":4025,"ĠÊĥÊĬÉ¡ÉĻÉ¹":4026,"ĠÉªmpÉ¹uËĲ":4027,"ÉĻnst":4028,"ĠÊĮveÉªl":4029,"juËĲÉĽs":4030,"ĠoÊĬpÉĻnÉªÅĭ":4031,"ĠsÉĽkÉĻndz":4032,"ĠpÊĬlz":4033,"ĠtÉĶt":4034,"ĠstÊĮm":4035,"ĠdÉªmÃ¦nd":4036,"ĠsuËĲz":4037,"ĠdÉĶÉ¹z":4038,"ĠmÃ¦lkÉĻm":4039,"ĠÉĽlÉĽlÉĽl":4040,"ĠfÉ¹aÉªdeÉª":4041,"ĠÉĳpÉĻzÉªt":4042,"pÉ¹Éª":4043,"wÉĳ":4044,"ÉªÉĻs":4045,"ĠkÉ¹iËĲt":4046,"Éĳns":4047,"ĠtiËĲmz":4048,"ĠdÉªskÊĮvÉĻÉ¹d":4049,"ĠpÉĳsÉªbli":4050,"ĠvÉľËĲÊĴÉĻn":4051,"ĠÉªmpÉĳsÉªbÉĻl":4052,"ĠbÉªli":4053,"ĠpÃ¦É¹ÉĻ":4054,"ĠtÉĽlÉªfoÊĬn":4055,"ĠsÊĮÅĭ":4056,"ĠiËĲd":4057,"ĠÉªmÉľËĲd":4058,"ĠsÉªvÉĻl":4059,"ĠhÉĽlpÉªÅĭ":4060,"ĠbÉªliËĲvd":4061,"kÉªÅĭ":4062,"Ã¦É¹":4063,"ĠsÉĶÉ¹s":4064,"ĠplÉĽÊĴÉĻÉ¹":4065,"ĠkÉĳntÃ¦kt":4066,"ĠsaÉªÉĻns":4067,"ĠkÉªsÉªz":4068,"ĠjÊĬÉ¹É¹ÉĻpiÉĻn":4069,"ĠdÉª":4070,"ĠlÉĻ":4071,"ĠÉ¡eÉª":4072,"ĠÉ¡Éªt":4073,"ĠkwÉĶlÉªti":4074,"ĠfÉĽn":4075,"ĠfeÉªv":4076,"ĠwÊĮÉ¹id":4077,"ĠfÉĶÉ¹st":4078,"Éªmz":4079,"ĠkÉ¹oÊĬm":4080,"ĠfaÊĬndÉªd":4081,"ĠfÃ¦ÊĥÉĻn":4082,"Î¸Éªn":4083,"ĠnaÉªf":4084,"ÉĳÉ¡oÊĬ":4085,"ĠÉ¹ÉĽkÉĻÉ¡naÉªz":4086,"ĠÉ¹ÉªfÉľËĲz":4087,"ĠfÉªkst":4088,"ÉĻÉ¹ts":4089,"ĠkeÉªd":4090,"ĠÊĥÉªk":4091,"ĠÊĥoÊĬn":4092,"ĠdÉ¹Ã¦É¡ÉĻn":4093,"ĠswÉªt":4094,"ĠkÉĳÅĭÉ¡":4095,"ĠstuËĲ":4096,"ĠplÃ¦t":4097,"iÉĻÉ¹ÉĻ":4098,"ĠpeÉªl":4099,"ĠluËĲsi":4100,"ĠsaÉªdz":4101,"ĠfÉĶÉ¹mjÊĬlÉĻ":4102,"ĠsÉĳk":4103,"ÊĴÉĽnt":4104,"ĠpeÉªpÉĻÉ¹z":4105,"ÊĥaÉªniËĲz":4106,"ĠÉĶldÉĻn":4107,"ĠÉĳpÉĻÉ¹tuËĲnÉªti":4108,"ĠtÉĳ":4109,"ĠnoÊĬÉªÅĭ":4110,"ÉªÉ¹iÉĻl":4111,"Éªvli":4112,"ĠwaÉªz":4113,"ĠbÉĽdÉ¹uËĲm":4114,"ĠhÉĳÉ¹m":4115,"ĠÉ¡É¹eÉªÉĻm":4116,"ĠpuËĲl":4117,"Éªlz":4118,"ĠhaÊĬÉĽvÉĻÉ¹É¹":4119,"ĠbÉªts":4120,"ĠkaÉªndÉĻ":4121,"ĠfeÉªsÉªz":4122,"ĠsÉľËĲkÉĻm":4123,"ĠÊĥaÊĬts":4124,"ÊĥaÉªnÉĻ":4125,"ĠsÉĻÉ¹É¹aÊĬnd":4126,"ÊĴÉĽÉ¹ÉĻld":4127,"ĠfiËĲmeÉªl":4128,"sÉĶ":4129,"ÊĥeÉªs":4130,"ĠÉĽksÉĻlÉĻnt":4131,"oÊĬp":4132,"ĠkÉªÅĭz":4133,"ÉªtÉªÅĭ":4134,"ÉĻtÉĻÉ¹":4135,"ĠpÉĳÉ¹l":4136,"ĠÉľËĲlÉªÉĻÉ¹":4137,"Éªni":4138,"ĠpiËĲpÉĻlz":4139,"ĠnaÉªnhÊĮndÉ¹Éªd":4140,"ĠÉ¡Éĳdz":4141,"ĠdÉĳlz":4142,"ĠmÉĻÉ¹É¹iËĲsÉĻlÉĽst":4143,"ĠtÉªkÉĻl":4144,"ĠÊĮnh":4145,"ĠpÉ¹ÉĳpÉĻÉ¹li":4146,"ĠpÉĻÉ¹tÉªkjÊĬlÉĻÉ¹li":4147,"ĠÊĮdmÉªnÉªst":4148,"ĠbÉĳn":4149,"ĠdÉªsÉªÊĴÉĻn":4150,"ĠÊĮdÉ¹ÉĽst":4151,"ĠleÉªbÉĻÉ¹":4152,"Ã¦ÅĭÉ¡ÉĻl":4153,"ĠÉĽfÉĻÉ¹t":4154,"ĠbÉ¹eÉªn":4155,"biÉĻ":4156,"ĠbloÊĬz":4157,"ĠfaÉªndÉªÅĭ":4158,"ÉªfÉªkeÉªÊĥÉĻn":4159,"ĠkÉ¹eÉªÉĳnz":4160,"ĠÉĽmplÉĶÉª":4161,"laÉªk":4162,"ĠwÃ¦n":4163,"ĠmÉĽÎ¸":4164,"ĠÉ¡ÉĶÉ¹d":4165,"ĠhÃ¦É¹Éªs":4166,"ÉªstÉªk":4167,"ĠÉ¡É¹oÊĬÉªÅĭ":4168,"ĠmaÉªkÉ¹ÉĻf":4169,"ĠkeÉªsÉªz":4170,"ĠwÉªmÉªnz":4171,"peÉª":4172,"ĠpÊĮn":4173,"ĠloÊĬd":4174,"ĠtÉ¹aÉªb":4175,"ĠwÉªspÉĻÉ¹z":4176,"ĠÉ¹ÉĽkÉĻÉ¡naÉªzd":4177,"ĠÉĻfÉªÊĥÉĻl":4178,"ĠfÃ¦nt":4179,"ĠwÉĶlz":4180,"ĠÉĻÊĥÊĬÉ¹":4181,"eÉªzd":4182,"ĠwÉĶÉ¹ÉĻn":4183,"ĠfeÉªnt":4184,"ĠbÉ¹ÉªliÉĻnt":4185,"fÉĳ":4186,"mÃ¦n":4187,"ÊĴÉľËĲni":4188,"ĠbÉ¹ÉªÅĭÉªÅĭ":4189,"ĠÉ¹ÉªpiËĲtÉªd":4190,"ÊĴÉĻns":4191,"ĠstÃ¦n":4192,"ĠbaÉªÉªbaÉª":4193,"eÉªniÉĻ":4194,"oÊĬtoÊĬ":4195,"ÉĽlÉĻpt":4196,"É¹ÉĻnz":4197,"ĠhÉĻm":4198,"ĠniËĲt":4199,"ĠÉĶst":4200,"ĠÊĮmeÉªzÉªÅĭ":4201,"ĠflÉĶÉ¹Éªd":4202,"ĠbÃ¦Î¸É¹uËĲm":4203,"ĠtaÉªtÉĻl":4204,"ĠÉªvÉĽnts":4205,"ĠpÉ¹ÉªpÉĽÉ¹d":4206,"ĠkjuËĲt":4207,"ĠhiËĲt":4208,"ĠduËĲd":4209,"ĠtÉ¹eÉªl":4210,"ĠÉªÅĭkluËĲdÉªd":4211,"ĠÃ¦Î¸":4212,"ĠlwÉĳÉ¹":4213,"ĠÃ¦ktÉªÅĭ":4214,"ĠpÃ¦É¹Éªs":4215,"ĠfÉĽÉ¹li":4216,"ÉªÉĻl":4217,"ÊĥÉĽs":4218,"ĠfoÊĬld":4219,"ÉªkÊĮl":4220,"ĠkeÉªp":4221,"iËĲkwÉĻlz":4222,"ĠsÉªnd":4223,"ÊĥÉĳÉ¹t":4224,"ĠsiËĲeÉªÉĳÉ¹":4225,"ÉĻtÉĶÉ¹i":4226,"ĠmÃ¦njuËĲ":4227,"ÊĴÉĽf":4228,"ĠÉ¹Éĳks":4229,"ĠhÃ¦l":4230,"ĠsÊĮmwÊĮt":4231,"ĠkÃ¦nÉĻd":4232,"ĠÉ¹uËĲlz":4233,"ĠtÉ¹eÉªnÉªÅĭ":4234,"ÊĴeÉªl":4235,"ĠkÊĮmftÉĻbÉĻl":4236,"ĠÉĽÉ¹kÉ¹Ã¦ft":4237,"ĠÉ¡ÊĮvÉĻÉ¹nÉĻÉ¹É¹":4238,"ĠdÉ¹ÉªÅĭkÉªÅĭ":4239,"ĠÉ¹ÊĮÊĥÉĻn":4240,"ĠÉ¹ÉªpÊĮblÉªk":4241,"ili":4242,"ÊĮÉ¡z":4243,"iËĲks":4244,"ĠbÉĽnd":4245,"ĠniËĲz":4246,"ĠstÉ¹iËĲ":4247,"ĠeÉªb":4248,"ĠfluËĲ":4249,"ĠsÉľËĲd":4250,"ĠkÃ¦ntÉĳn":4251,"ĠdÉªspl":4252,"ĠluËĲi":4253,"ĠÉĽkstÉ¹iËĲm":4254,"ĠdÉªstÉ¹ÉĶÉª":4255,"ĠÊĮpÃ¦É¹ÉĻntli":4256,"ĠhiÉĻÉ¹oÊĬ":4257,"ÉĳÉ¹m":4258,"É¹iÉĻ":4259,"ĠloÊĬkeÉªtÉªd":4260,"ĠwÃ¦É¡ÉĻn":4261,"ĠtÉĽÉ¹Éªt":4262,"ĠÉ¹ÉĽsk":4263,"ÊĮts":4264,"ĠfiËĲlz":4265,"ĠjÊĮÅĭÉ¡ÉĻÉ¹":4266,"ĠpÉ¹iËĲviÉĻs":4267,"ĠsÉĳks":4268,"ĠbÊĮÉ¡":4269,"ĠsÉĻksiËĲd":4270,"ĠlÉĶÉªÉĻÉ¹":4271,"iËĲvd":4272,"ĠsteÉªtmÉĻnt":4273,"ĠkÃ¦ts":4274,"ĠÉ¹ÉĽkÉĻÉ¹dz":4275,"ĠÊĮpÉªÉ¹ÉĻns":4276,"ĠÊĥoÊĬldÉĻÉ¹":4277,"ĠmÉªks":4278,"ĠfeÉªt":4279,"ĠwÉľËĲst":4280,"ĠtÉ¹ÊĮd":4281,"ÉĳnoÊĬ":4282,"ĠmÉĳdÉĻl":4283,"ĠpÉ¹ÉªnsÉĽs":4284,"ĠÉĽsÉĽsÉĽs":4285,"ÊĥÃ¦nÉĻl":4286,"ĠsÉľËĲÉ¹":4287,"ÉľËĲtÉªd":4288,"ĠkÉĻnsÉľËĲnd":4289,"ĠsÉĽlÉĻb":4290,"ĠsleÉªvz":4291,"ĠhÉªstÉĶÉ¹Éªk":4292,"ĠkÃ¦nz":4293,"ĠÉ¹ÉªmaÉªnd":4294,"É¡É¹ÉĽs":4295,"ĠkÊĮmfÉĻÉ¹t":4296,"É¹eÉªtÉªd":4297,"ĠkoÊĬk":4298,"ĠjuËĲt":4299,"ĠwÊĮtÉĻÉ¹":4300,"ĠÊĥÉĳÉ¹lÉĻt":4301,"ĠmaÉªkÉ¹ÉĻfoÊĬn":4302,"ÊĬÉ¹É¹i":4303,"ĠfÉ¹ÉĶst":4304,"ĠwÉªlÉªÅĭ":4305,"ĠbÉĽnÉªf":4306,"ĠdaÉªnÉĻsÉĶÉ¹":4307,"É¹Éªl":4308,"ĠhÉĳp":4309,"ĠmÊĮndeÉª":4310,"ĠÉ¡ÉĽst":4311,"ĠÉĶd":4312,"ĠÉ¹ÊĮs":4313,"ĠfÉ¹iËĲd":4314,"ĠskÉ¹iËĲn":4315,"ĠmÃ¦É¹Éªd":4316,"ĠÉ¹aÉªdÉªÅĭ":4317,"ĠdÉªÉ¡É¹iËĲz":4318,"mÉªÊĥÉĻn":4319,"ĠÉĽts":4320,"ĠpÉªÉ¹":4321,"ĠvÉĽs":4322,"ÉĽkts":4323,"jÊĬlÉĻs":4324,"ĠkÉĻnsÉľËĲn":4325,"ĠhÊĮvnÉĳt":4326,"ĠkÉĻndÉªÊĥÉĻn":4327,"ĠplÃ¦nts":4328,"ĠÉ¡É¹eÉªtÉªst":4329,"ĠsÉĽtÉĻld":4330,"ĠliËĲdÉªÅĭ":4331,"ĠnÉĳkt":4332,"ĠpÉ¹ÉĻpoÊĬz":4333,"ĠsÉľËĲkÉĻmst":4334,"iËĲti":4335,"ĠwÉªk":4336,"ĠslaÉªtli":4337,"ĠÉĻpÉªn":4338,"bÉĳks":4339,"ÉĶÎ¸":4340,"ĠÉĳÉ¹juËĲÉĽs":4341,"ĠbaÉªk":4342,"ÊĮbÉĻlz":4343,"ĠsteÉªÉªÅĭ":4344,"ĠskwiËĲz":4345,"bÉĶÉª":4346,"kÉªn":4347,"ÊĥoÊĬ":4348,"eÉªdz":4349,"ĠbÉ¹Ã¦nd":4350,"ĠdaÉªÉĻl":4351,"ĠkloÊĬsÉĻÉ¹":4352,"ĠskÉ¹Ã¦t":4353,"ĠÉĽvÉĻÉ¹É¹":4354,"ĠÉ¡ÉªÉ¡ÉĻlz":4355,"ÊĥÊĬn":4356,"ĠdÉĽz":4357,"ÊĥÉĳp":4358,"ĠlÃ¦k":4359,"ÉªteÉªÊĥÉĻn":4360,"juËĲÊĥÉĻn":4361,"ĠÊĮpÉĻÉ¹":4362,"eÉªniÉĻn":4363,"ĠÉ¹ÉªmeÉªn":4364,"ĠÉĽÉ¹pleÉªn":4365,"ĠmÉĽdÉªkÉĻl":4366,"ĠmaÊĬntÉªnz":4367,"ĠhÉĳlÉªdeÉª":4368,"aÉªÉĻns":4369,"É¡ÉĻÉ¹É¹":4370,"ĠlÉªÅĭk":4371,"Éĳti":4372,"ĠdÊĮzÉĻn":4373,"ĠÉ¹ÉªtaÉªÉĻÉ¹d":4374,"ĠmoÊĬtÉĻÉ¹":4375,"ĠkÊĮstÉĻm":4376,"ĠmiËĲl":4377,"ĠÊĮpÉ¹iËĲ":4378,"ĠseÉªfti":4379,"ĠoÊĬpÉĻnz":4380,"ĠkÃ¦É¹ÉĻlaÉªn":4381,"ĠkÃ¦nÉĻdÉĻ":4382,"ÊĬli":4383,"ĠmÉĳÉ¹d":4384,"ĠnÉĳlÉªd":4385,"ÉªvÉĻl":4386,"ĠfaÉªl":4387,"ĠdÉªfÉªkÊĮl":4388,"ĠÃ¦mb":4389,"ĠaÉªlÉĻndz":4390,"iËĲl":4391,"ĠÉĽÉ¹Éªk":4392,"ĠÊĥiËĲd":4393,"ĠÉ¹Ã¦Ã°ÉĻÉ¹É¹":4394,"ĠpÊĬÊĥt":4395,"ĠsaÉªlÉĻnt":4396,"ĠmÉĽksÉªkoÊĬ":4397,"ĠbaÊĬt":4398,"ĠboÊĬn":4399,"ĠbaÊĬns":4400,"ĠmÉªÊĥ":4401,"ĠwiËĲÊĥÊĮl":4402,"ÉĽÉ¹iz":4403,"ĠkiËĲps":4404,"ĠpiËĲkÊĮb":4405,"ĠskÉĽÉ¹sli":4406,"ĠflÉĶÉ¹ÉªdÉĻ":4407,"koÊĬ":4408,"kÃ¦st":4409,"sts":4410,"ĠpiËĲts":4411,"oÊĬtÉªd":4412,"ĠkÃ¦É¹iÉªÅĭ":4413,"ÉªÊĴÉĻnz":4414,"ĠsÉĶÉ¹d":4415,"É¡ÉĳÉ¹":4416,"ĠfÉĽst":4417,"Éªvz":4418,"ĠeÉªÊĴÉĻn":4419,"ĠÊĮsaÉªd":4420,"biËĲsiËĲ":4421,"ĠdÉªvÉĽlÉĻpt":4422,"ĠdÉĳlÉĻÉ¹iËĲkwÉĻlz":4423,"ĠhÃ¦ÅĭÉªÅĭ":4424,"ĠwÉĶÉ¹d":4425,"ĠÊĮvÉĶÉªd":4426,"ÉªtuËĲt":4427,"ĠpÉ¹ÉªvÉĽnt":4428,"ĠÉ¹uËĲÎ¸":4429,"ĠstÉĳps":4430,"ĠkÉ¹iËĲeÉªt":4431,"ĠfÉªÊĥÉªÅĭ":4432,"ÊĴÉĽstÉªd":4433,"ĠsaÉªnd":4434,"ĠnoÊĬp":4435,"ĠtuËĲÎ¸":4436,"ĠkÃ¦Êĥ":4437,"ÉĳdÉĻ":4438,"ĠÉĽvÉ¹ÉªwÉĽÉ¹":4439,"ĠÊĥoÊĬÉªÅĭ":4440,"ĠÉ¡É¹Ã¦ndp":4441,"ĠÎ¸É¹oÊĬÉªÅĭ":4442,"ĠkÃ¦mpeÉªn":4443,"ĠkÉĳnfÉ¹ÉĻns":4444,"ĠsÃ¦Åĭ":4445,"ĠdÃ¦lÉĻs":4446,"ÉĽnÉĻnt":4447,"ĠklaÉª":4448,"ĠÉĶÉ¹dÉĻÉ¹z":4449,"ĠÉĶÉ¹dÉĻÉ¹d":4450,"ĠmÉĳÉ¹É¡É¹":4451,"ĠkwaÉªÉĻtli":4452,"ĠÊĥÉªkÉĳÉ¡oÊĬ":4453,"ĠtÉĶÉ¹t":4454,"iËĲtÉĻ":4455,"ĠsÉªÅĭÉĻÉ¹":4456,"ĠÉ¹ÉªÅĭz":4457,"ĠÉ¡Éªft":4458,"ÉĽnz":4459,"ÉªneÉªÊĥÉĻn":4460,"ĠÉ¡oÊĬl":4461,"ĠspaÉªd":4462,"ĠfÉĽdÉĻÉ¹É¹ÉĻl":4463,"kÉĻl":4464,"Éªh":4465,"É¹ÉĽd":4466,"ĠdÉĻm":4467,"ÉªdÉĽnÊĥÉĻl":4468,"ĠbÉ¹ÊĬk":4469,"ĠtÉ¹uËĲps":4470,"ĠkÉĳntÉ¹":4471,"ĠÊĮveÉªlÉĻbÉĻl":4472,"ĠpiËĲkÊĮbuËĲ":4473,"ĠfÊĮs":4474,"ĠiËĲvÉĻl":4475,"ĠduËĲÉªn":4476,"ĠsÉĽpÉĻÉ¹É¹":4477,"ĠfÉ¹ÉĳÉ¡z":4478,"ĠpiËĲn":4479,"ĠÉĽssiËĲ":4480,"ĠÉĶÉ¹dÉĻÉ¹É¹":4481,"ĠkÊĬki":4482,"ĠtÉ¹Ã¦nspÉĶÉ¹t":4483,"keÉªs":4484,"ĠÃ¦nti":4485,"uËĲf":4486,"ÊĴÉªl":4487,"ÊĮndÉĻÉ¹":4488,"mÉĻnz":4489,"ĠÉ¡lÃ¦ns":4490,"ĠpÃ¦sÉªnd":4491,"ÉľËĲmÉªnd":4492,"ĠlÉªn":4493,"ĠstÉ¹ÉªÅĭ":4494,"ĠÊĮns":4495,"ĠkÉ¹ÉĶl":4496,"ĠdÉ¹ÉĳmÉĻ":4497,"ĠdÉªziËĲz":4498,"ĠwÉĳÊĥÉªÅĭtÉĻn":4499,"ĠsÉĻÉ¹vaÉªv":4500,"ĠkÉªm":4501,"ĠoÊĬb":4502,"ĠvÃ¦li":4503,"ĠsÊĮmÉĻÉ¹É¹":4504,"ĠtÉ¹eÉªs":4505,"ĠÉ¹ÉªspÉĳnd":4506,"ĠÎ¸É¹oÊĬz":4507,"ĠmÉĽtÉĻl":4508,"lÉĻÉ¹z":4509,"ĠÃ°iËĲ":4510,"ĠtoÊĬz":4511,"ĠpÉĻÉ¹É¹":4512,"ĠpaÊĬÉĻÉ¹É¹":4513,"ĠwÉĶÉ¹Éª":4514,"ĠÊĮpsÉĽt":4515,"ĠpÉ¹ÉĽ":4516,"ĠpÉ¹Éĳf":4517,"ĠkÃ¦s":4518,"ĠmÉĽnÊĥÉĻn":4519,"ĠdÊĮnoÊĬ":4520,"ĠsÉªstÉĻÉ¹z":4521,"ĠsÉĻksÉĽsfÉĻl":4522,"ĠblÃ¦ÅĭkÉªt":4523,"dÉĻn":4524,"ĠdaÉªv":4525,"oÊĬniÉĻ":4526,"oÊĬstÉĻ":4527,"ĠpÉ¹Éªs":4528,"ĠÊĮkÉĳm":4529,"ĠÉ¹Éªfl":4530,"ĠbÊĬÊĥ":4531,"ĠiËĲziÉĻÉ¹":4532,"ĠpoÊĬÉªt":4533,"ĠfÉĻÉ¹É¡ÉĳtÉĻn":4534,"ĠlÉĶÉ¹ÉĻ":4535,"ĠdÉĽmÉĻkÉ¹Ã¦tÉªk":4536,"ÊĴÉĽntli":4537,"jÉĳÉ¹d":4538,"ĠtÉĽnd":4539,"ÊĴÉªnd":4540,"Éĳts":4541,"ĠstÉĽdi":4542,"ĠspoÊĬstÉĻ":4543,"ĠÉľËĲs":4544,"ĠskÉ¹iËĲmz":4545,"ĠÉªlÉĽktÉªd":4546,"ĠÉ¹ÉªleÉªtÉªd":4547,"oÊĬlÉĻ":4548,"ĠÊĥÉĳpÉªÅĭ":4549,"ĠÉ¹ÉĽlÉĻtÉªv":4550,"ĠmÃ¦É¡ÊĮziËĲn":4551,"ÉĻÉ¹li":4552,"ĠÉĽÎ¸":4553,"ĠbÊĮm":4554,"ĠpÉĳm":4555,"ĠÎ¸Éªn":4556,"ĠfÉĶÉ¹d":4557,"ĠsÊĮmhaÊĬ":4558,"ĠkÉ¹ÉĽd":4559,"ĠbÉĳÉ¹b":4560,"ĠmÉªnÉªstÉĻÉ¹É¹":4561,"ĠÉ¹ÉªleÉªÊĥÉĻnÊĥÉªp":4562,"ĠkÉĻnstÉ¹ÊĮkÊĥÉĻn":4563,"ĠÉĽpÉªsoÊĬd":4564,"ÉªlÉĻ":4565,"iËĲdiËĲ":4566,"ĠÉĶfÉĻÉ¹":4567,"ĠfÉĳnd":4568,"ĠmÉĽmÉĻÉ¹É¹i":4569,"ĠbÉĽki":4570,"ĠÉ¹ÉĽvÉĻluËĲÊĥÉĻn":4571,"ĠÉĽksÉĻÉ¹s":4572,"É¹ÉĻld":4573,"ĠpÉĳli":4574,"ĠdÉ¹aÉªvÉĻÉ¹":4575,"ĠdeÉªtÉĻ":4576,"ĠsmaÉªlÉªÅĭ":4577,"ĠkÊĮneÉªd":4578,"hÉĻm":4579,"ĠÃ°aÉª":4580,"ĠÊĮwÉĽÉ¹":4581,"ĠbÉªÊĥ":4582,"ĠmÉª":4583,"ÊĴÉĻÉ¹d":4584,"ĠÊĥÊĬÉ¹li":4585,"ĠpÉ¹ÉĽzÉĻntli":4586,"ÉªkÉĻlz":4587,"ĠvÉĽn":4588,"ĠwÉĶnÉĻÉ¹":4589,"ÉªÊĥmÉĻnt":4590,"ĠtÉĶÉªl":4591,"ĠwÉªÉ¹d":4592,"ĠÉĽntÉĻÉ¹":4593,"ĠfiËĲlÉªÅĭz":4594,"ĠÊĮpÉ¹iËĲÊĥÉª":4595,"ĠweÉªtÉªd":4596,"ĠwÉĽb":4597,"ÉĶld":4598,"Éĳkt":4599,"ĠfÉĶt":4600,"ĠÊĮpÉ¹uËĲ":4601,"ĠeÉªnd":4602,"ĠdeÉªb":4603,"ĠhoÊĬmz":4604,"ĠdÉªtÉľËĲmÉªnd":4605,"ĠkÉĻmpÃ¦niÉĻn":4606,"ĠbÉ¹aÉªÉĻn":4607,"ĠjÊĮmi":4608,"ĠpÉªn":4609,"ĠwÉªtnÉĻs":4610,"ĠÉĶfÉĻÉ¹d":4611,"ĠpÉ¹ÉĽzÉĻns":4612,"ĠÊĮfÉĶÉ¹d":4613,"ĠhÉĶÉ¹si":4614,"ĠnÉĶÉ¹mÉĻli":4615,"ĠluËĲtÉĽnÉĻnt":4616,"ĠpjÊĬÉ¹":4617,"ĠvÉĽd":4618,"iËĲts":4619,"ĠÃ¦lÉªs":4620,"ĠmÃ¦tÉĻÉ¹z":4621,"ĠÃ¦Åĭk":4622,"ĠfÊĬli":4623,"ĠnuËĲkl":4624,"ĠmÃ¦sk":4625,"ĠÊĮlf":4626,"ĠmÉĳli":4627,"ĠnÉľËĲsÉĻÉ¹É¹i":4628,"ĠsÉªÉ¹iÉĻsli":4629,"ĠÊĮweÉªk":4630,"ĠÉªndÊĮstÉ¹i":4631,"ĠÉ¹Ã¦sbÉĽÉ¹i":4632,"ÊĮÉ¹":4633,"ĠkeÉªv":4634,"ĠÎ¸i":4635,"ĠlÉĽtÉĻÉ¹É¹":4636,"ĠflÃ¦É¡":4637,"ĠÉĽdm":4638,"Ã¦fÉªk":4639,"É¹ÉĻm":4640,"ĠbuËĲm":4641,"ĠmÉĽ":4642,"ĠmÉĻd":4643,"ĠpjuËĲ":4644,"ÊĴeÉªk":4645,"ĠÃ°Ã¦tÉĻl":4646,"ĠhÃ¦É¹ÉĻld":4647,"ĠkÃ¦É¹Éªd":4648,"ÉªstÃ¦n":4649,"ĠweÉªv":4650,"ĠkÉĳpi":4651,"ĠÃ¦vÉ¹Éªd":4652,"neÉªm":4653,"ĠeÉªk":4654,"ĠbÉĽÉ¹z":4655,"ĠoÊĬÊĥÉĻn":4656,"ĠÊĥaÊĬÉĻÉ¹":4657,"ĠstÉªks":4658,"ĠkleÉª":4659,"ĠsÉĽkÊĥÉĻn":4660,"ĠkeÉªÉĽm":4661,"ĠboÊĬts":4662,"ĠdÉªtÉĽktÉªv":4663,"É¹ÉªbÉĻl":4664,"ÊĴÉªnz":4665,"ĠplÃ¦stÉªk":4666,"ĠtÉ¹Ã¦v":4667,"ÉĳmÉªk":4668,"iËĲnoÊĬ":4669,"ĠhÉĶÉ¹eÉª":4670,"ĠtÊĬÉ¹n":4671,"ÊĴaÉªÉĻnt":4672,"ĠwÉĽdÉªÅĭ":4673,"ĠdoÊĬ":4674,"ĠmÉĶnt":4675,"ĠpÉªti":4676,"ĠspeÉªn":4677,"ĠiËĲtÉĻn":4678,"ĠÃ¦lÉĻn":4679,"ĠdaÉªÉªÅĭ":4680,"ĠpÃ¦sÉªÅĭ":4681,"ĠmÉľËĲdÉĻÉ¹":4682,"ĠÃ¦ktÉªvÉªti":4683,"ĠstuËĲdÉĻnts":4684,"ĠÊĮnfÉĶÉ¹t":4685,"fÉĳÃ°ÉĻÉ¹":4686,"toÊĬ":4687,"ĠÊĮsÉĽm":4688,"ĠmÃ¦nt":4689,"ĠtÉĶks":4690,"ĠÊĮtÉ¹Ã¦kt":4691,"ĠÎ¸ÉĶts":4692,"ĠdÉĳktÉĻÉ¹z":4693,"ĠtÉľËĲtÉĻl":4694,"ĠstÉľËĲ":4695,"ĠkaÉªndz":4696,"ĠfÃ¦mÉªliz":4697,"ĠÉĻlÉªmpÉªks":4698,"ÊĴeÉªsÉĻn":4699,"ĠÉ¹ÉĻm":4700,"ÊĥÉĻnÉĻtli":4701,"ĠwaÉªp":4702,"ĠbÃ¦ks":4703,"ĠbÉľËĲst":4704,"ĠnÃ¦É¹oÊĬ":4705,"ĠwÊĮndÉĻÉ¹É¹ÉªÅĭ":4706,"ĠÃ°ÉĽÉ¹wÉľËĲÉ¹":4707,"klÊĮh":4708,"ĠÉ¹ÉĳbÉªn":4709,"ĠÊĮsoÊĬsÉªeÉªÊĥÉĻn":4710,"lÉªk":4711,"ĠsÃ¦v":4712,"ÊĥÉĽst":4713,"ĠÊĮpÉĳlÉĻd":4714,"ĠÉĳÉ¹tÉªst":4715,"ĠdÉªÉ¹ÉĽktli":4716,"ĠtoÊĬtÉĻli":4717,"ĠÊĥoÊĬldÉĻÉ¹z":4718,"ĠkÊĬ":4719,"ĠoÊĬklÊĮh":4720,"ĠÉ¹ÉªÃ¦kt":4721,"ĠsÊĮnz":4722,"ÊĴÉĳbz":4723,"ĠkÉĳntÉ¹Ã¦kt":4724,"ĠtÉĳÉ¹É¡":4725,"ĠmÊĮ":4726,"ÉĳtÉĻ":4727,"aÊĬts":4728,"Éªmi":4729,"ĠbÉľËĲÉ¡":4730,"ĠplÃ¦nÉªÅĭ":4731,"ĠkÊĬkÉªÅĭ":4732,"ĠkÉĶÉ¹d":4733,"ĠkwÉªÉ¹":4734,"ÊĴÉªniÉĻ":4735,"ĠfÉ¹aÉªtÉĻnd":4736,"ĠmÉĳÉ¹É¡É¹ÉĻt":4737,"ÉªaÉª":4738,"stÉĻÉ¹É¹":4739,"ÊĥÃ¦l":4740,"ÊĥiËĲp":4741,"ÉľËĲÉ¹Éªd":4742,"ĠwiËĲlz":4743,"ÉªlÉĻti":4744,"ĠÉľËĲd":4745,"ĠsnÉªf":4746,"ĠmeÉªnli":4747,"ĠpÉĳz":4748,"ĠÉ¹iËĲsÉĻntli":4749,"ĠÉĽksaÉªtmÉĻnt":4750,"ĠbÉĽÉ¹id":4751,"ĠoÊĬklÊĮhoÊĬmÉĻ":4752,"ĠhÊĮÅĭ":4753,"ĠiËĲÃ°ÉĻÉ¹É¹":4754,"ĠstoÊĬnz":4755,"ĠpÉ¹oÊĬt":4756,"ĠsÉĽntÉĻns":4757,"mÉªnÉĻl":4758,"ĠpÉ¹ÉĳdÊĮkt":4759,"ĠÉ¹ÉªmÉĽmbÉĻÉ¹d":4760,"ĠpÉ¹ÉĻfÉĽsÉĻÉ¹":4761,"ĠboÊĬld":4762,"ÊĴÃ¦ks":4763,"eÉªdÉªd":4764,"ÊĮki":4765,"ĠÉªlÉªz":4766,"ĠpeÉªÊĥÉĻnt":4767,"ĠmoÊĬbÉĻl":4768,"ĠfÊĮÅĭk":4769,"ĠnÉªÉ¡":4770,"ĠÃ¦dÉĻmz":4771,"ĠÉĻbt":4772,"bÉªl":4773,"jÉĻl":4774,"ÉªÉĻn":4775,"ĠmÉĽÉ¹Éª":4776,"ĠiËĲkÉĻn":4777,"Ã¦nÊĥÉĻl":4778,"ĠÃ¦lf":4779,"ĠsmÉĶlÉĻÉ¹":4780,"ĠmÃ¦Î¸juËĲ":4781,"ĠtÉ¹ÊĮdÉªÊĥÉĻn":4782,"oÊĬÊĥÉĻn":4783,"ĠÉĽkspleÉªnd":4784,"ĠÉ¹ÉªfÉľËĲÉ¹ÉªÅĭ":4785,"ĠÉĳÉ¹Î¸":4786,"ĠviÉĻ":4787,"ĠÉ¡É¹Ã¦ndÃ¦d":4788,"ĠpaÊĬÉĻÉ¹fÉĻl":4789,"ĠbÉ¹Ã¦dli":4790,"ĠÊĮnnoÊĬn":4791,"ĠmÃ¦É¹ÉªlÉĻ":4792,"ĠkÉĳÅĭÉ¡É¹ÉĻs":4793,"ĠÉ¹aÉªz":4794,"ĠÊĥeÉªm":4795,"ĠdÉĳktÉĻÉ¹É¹":4796,"ĠdÉªÉ¹ÉĽktÉĻÉ¹":4797,"ĠkÉľËĲÉ¹ÉĻntli":4798,"ĠkÉ¹uËĲÉĻl":4799,"É¹ÉªpÊĥÉĻn":4800,"ĠboÊĬnz":4801,"ĠsÉĽpÉ¹":4802,"ĠmÉĳÉ¹ks":4803,"ĠstÊĮdid":4804,"ÉĻÉ¹v":4805,"ĠdÉ¹iËĲmz":4806,"ÉĻmiz":4807,"ĠskÉĶÉ¹":4808,"pleÉªs":4809,"ĠpÉĶÉªntÉªÅĭ":4810,"ĠkÉĳmpÉĻt":4811,"ÊĴÉĻlÉªs":4812,"ĠpÉĻÉ¹fÉĶÉ¹mÉĻns":4813,"ĠwÉªspÉĻÉ¹É¹ÉªÅĭ":4814,"aÉªÉĻÉ¹z":4815,"ĠsÉĶlt":4816,"ĠpÉľËĲt":4817,"ĠÉªtÉĻli":4818,"ÊĴÊĮstÉªs":4819,"ĠspÉªn":4820,"ĠÉªÅĭkluËĲdz":4821,"ĠbÉªkÊĮmÉªÅĭ":4822,"ĠmÉªkst":4823,"ĠpÉĳzÉªtÉªv":4824,"flaÉª":4825,"ĠÃ¦ÅĭÉ¡":4826,"ĠfÃ¦s":4827,"ĠbiËĲd":4828,"ĠsmuËĲ":4829,"ĠÊĮndÉĻÉ¹stÊĬd":4830,"ĠÉªnstÉĻnt":4831,"ĠhÉªlz":4832,"ĠsoÊĬd":4833,"lÉĻndz":4834,"ĠÉ¹ÉªzÊĮlts":4835,"ĠdÉ¹Éĳps":4836,"ĠsÃ¦ntÉĻ":4837,"ĠpiËĲtsÉĻ":4838,"ĠhÃ¦n":4839,"ÊĥÉĻnÉĻt":4840,"ÉĳdoÊĬ":4841,"ĠpÉľËĲsÉĻnz":4842,"ÊĴÉªmi":4843,"ĠpÉ¹ÉĳpÉĻÉ¹ti":4844,"ĠsÉľËĲkÉĻmstÃ¦nsÉªz":4845,"ĠsÉªÅĭÉ¡":4846,"ĠpÉªkÉªÅĭ":4847,"ĠtÉĽknÉĳlÉĻd":4848,"ĠÃ¦fÉ¹ÉªkÉĻ":4849,"ĠhÉĻÉ¹É¹":4850,"ĠdÊĮst":4851,"ĠlaÉªbÉ¹":4852,"ĠÉ¹ÉªplaÉª":4853,"liËĲn":4854,"lÉªÊĥt":4855,"ĠpÉĳÉ¹tnÉĻÉ¹":4856,"ĠfÉ¹ÉĽndli":4857,"ĠvÉĶÉªsÉªz":4858,"ĠÊĮdvÃ¦ns":4859,"ĠtÊĮf":4860,"ÉĻnÉĶÉª":4861,"ÊĴÃ¦m":4862,"ÉªÊĥÉĻl":4863,"ĠdÉ¹ÊĮÅĭk":4864,"oÊĬki":4865,"ĠÉĽkspÉ¹ÉĽÊĥÉĻn":4866,"ĠpÉĳÉ¹lÉĻmÉĻnt":4867,"stÃ¦nd":4868,"ĠbÉªd":4869,"ĠbÉĳÉ¹k":4870,"ÊĥaÉª":4871,"ĠÎ¸iËĲ":4872,"ĠfÉĶÉ¹mz":4873,"ĠlaÉªz":4874,"ÊĮvÉĻÉ¹É¹":4875,"ĠtÉľËĲk":4876,"ĠÉĻkÉľËĲ":4877,"ĠkÉĻlÉĽkt":4878,"ĠÊĮdvÃ¦ntÉªd":4879,"ĠÉĻpÉªniÉĻn":4880,"huËĲ":4881,"ĠfÉĽns":4882,"ĠÊĥeÉªks":4883,"ĠhÃ¦dÉªt":4884,"ÉªÉ¡ÉĻn":4885,"ĠÉ¡loÊĬ":4886,"ĠkÉľËĲÉ¹Éªd":4887,"ĠkÊĮmpÉĻniz":4888,"ĠÉ¹iËĲzÉĻnz":4889,"ĠpÉ¹iËĲfÉĽkt":4890,"ĠÉľËĲnÉªst":4891,"aÉªlz":4892,"ĠbÊĮz":4893,"ĠlÉªk":4894,"ÉĳÉ¹z":4895,"ÉĽtÉ¹ÉĻ":4896,"ĠbÉªÉ¡Éªst":4897,"ĠÉªlÉĻnÉĶÉª":4898,"ĠkÉĳÅĭk":4899,"ĠkÉ¹aÉªst":4900,"ĠÉ¹ÉĻmiËĲ":4901,"lÉĶ":4902,"ÉªeÉªtÉªd":4903,"eÉªbÉĻl":4904,"ĠÊĥÊĬk":4905,"ĠÉ¡É¹aÊĬ":4906,"ĠÊĮliËĲd":4907,"ĠtÉĻmeÉªt":4908,"ĠkÃ¦É¹ÉªktÉĻÉ¹z":4909,"ĠlÉªbÉĻÉ¹É¹":4910,"ĠkwÉĶÉ¹tÉĻÉ¹":4911,"jÉªÉ¹":4912,"ÊĴÉªÉ¹":4913,"Ã¦ts":4914,"ĠfÉĶÉ¹ÉĻn":4915,"ĠmaÉªl":4916,"ÉĻbÉĻÎ¸":4917,"ÉĳÉ¹É¹ÉĳÉ¹":4918,"ĠÉªÅĭkÊĮm":4919,"ĠpÊĬlÉªÅĭ":4920,"ĠfÉ¹iËĲkw":4921,"ĠswiËĲthÉĳÉ¹t":4922,"ĠÉ¹ÉªkwÉĽst":4923,"ĠmÉªÉ¹ÉĻÉ¹":4924,"ĠÉªlÉªzÉĻbÉĻÎ¸":4925,"Ã¦Î¸":4926,"ĠbÉĳdiz":4927,"ĠmeÉªÉĽn":4928,"ĠÉĽdwÉĻÉ¹d":4929,"ĠdÉªskÊĮs":4930,"ĠÉªstÃ¦blÉªÊĥt":4931,"ĠhÊĮt":4932,"ĠbÉªÉ¹":4933,"ĠbÉªsk":4934,"ÊĥeÉªm":4935,"ĠfÉĽt":4936,"ĠliËĲn":4937,"ĠhÉĽlps":4938,"ĠdÉªsÉ¡":4939,"ĠÊĮdvaÉªs":4940,"ĠpÉªlt":4941,"ÊĴÉªÉ¡sÉĶ":4942,"ĠÊĮlfÉ¡ÉĳÉ¹":4943,"buËĲ":4944,"É¹Ã¦d":4945,"ĠweÉªd":4946,"ĠkiËĲz":4947,"ĠsaÉªm":4948,"ĠmiÉĻ":4949,"ĠleÉªn":4950,"ĠpiËĲz":4951,"ĠklÃ¦":4952,"ĠÉ¹iËĲÉĻlaÉªzd":4953,"ĠhÉĳÉ¹ts":4954,"ĠÉ¹oÊĬdz":4955,"ĠÉĳÉ¹kÉĻns":4956,"ĠÉĽntÉĻÉ¹teÉªn":4957,"ĠbÃ¦n":4958,"ÉĻÉ¹É¹ÉĳÊĴ":4959,"ĠÉ¹aÉªtÉĻÉ¹":4960,"iËĲtÉªÅĭ":4961,"ĠdÉªlÉªÊĥÉĻs":4962,"ĠlÉĳÅĭÉ¡ÉĻÉ¹":4963,"ĠdÉªsÊĮpÉªÉ¹d":4964,"ĠskÉ¹iËĲmÉªÅĭ":4965,"ÉªlÉªÉ¹":4966,"ĠmeÉªnt":4967,"ĠfeÉªld":4968,"ĠbÉ¹eÉªkÉªÅĭ":4969,"ĠkÉĻmjuËĲnÉªk":4970,"ĠziËĲlÉĻnd":4971,"ĠÉĽksaÉªtÉªÅĭ":4972,"ĠfoÊĬks":4973,"ĠbuËĲts":4974,"bl":4975,"ĠwÉĽp":4976,"ĠhÊĮn":4977,"ĠnÉĽd":4978,"ĠÉĶÊĬwÉĻ":4979,"biÉĻn":4980,"ĠdÉ¹Ã¦ft":4981,"ĠsÉªlÉĽktÉªd":4982,"ĠtÉ¹Ã¦ktÉĻÉ¹":4983,"ĠnuËĲklÉªÉ¹":4984,"ĠtÊĬÉ¹nÉĻmÉĻnt":4985,"ÉĽlÉªd":4986,"ĠwÉªÊĥt":4987,"ĠveÉªk":4988,"ÉĻmÉªlÉªÉ¹":4989,"ĠklÉªf":4990,"ĠoÊĬvÉĻÉ¹l":4991,"ĠkÉĳmpl":4992,"ĠÉĽdi":4993,"ĠnÉĽtwÉľËĲk":4994,"ĠÉĽntaÉªÉĻÉ¹li":4995,"ĠsÊĮk":4996,"ĠneÉªÊĥÉĻnz":4997,"tiËĲk":4998,"ÉĶÉ¹iÉĻ":4999,"ĠvÉĽnt":5000,"ĠvÉľËĲt":5001,"ĠdeÉªli":5002,"ĠbÉªniËĲÎ¸":5003,"ĠÉĽndz":5004,"ĠmjuËĲzÉªkÉĻl":5005,"ĠjÉĳÉ¹dz":5006,"ĠdÉĽspÉĻÉ¹É¹":5007,"ĠÉªnfluËĲÉĻns":5008,"ÉĽkÉĻ":5009,"ĠÉ¹oÊĬlÉªÅĭ":5010,"Ã¦pi":5011,"ĠÉªnspÉĽkt":5012,"ĠkÊĬkiz":5013,"ĠÊĥaÊĬtÉªd":5014,"ĠpeÉªntÉªÅĭ":5015,"ĠÉ¹ÉªmuËĲvd":5016,"ĠpaÉªÉ¹ÉĻts":5017,"ĠmuËĲ":5018,"ĠÉĽmbiËĲ":5019,"ÉĻmÉĽnd":5020,"ĠmÉĽdÉĻl":5021,"kÉªnz":5022,"ÊĮft":5023,"ĠsÉĻf":5024,"ĠÉ¹uËĲd":5025,"ĠkÉ¹uËĲz":5026,"ÉĻbÉĻlz":5027,"ĠmjuËĲziÉĻm":5028,"ĠÉĶtÉĻm":5029,"hÃ¦nd":5030,"pÉĽktÉªd":5031,"ĠeÉªs":5032,"ĠsÉĻl":5033,"ÉĻlÉĳd":5034,"ĠtÉ¹aÊĬs":5035,"ĠbÉ¹ÊĮÃ°ÉĻÉ¹É¹":5036,"ĠkÉ¹Éĳk":5037,"ĠkwÉªt":5038,"ĠpÉĻÉ¹fÉĶÉ¹md":5039,"ĠÉ¡ÉĻnÉĻÉ¹":5040,"ĠhÊĮÉ¡":5041,"ĠÉ¹ÉªkwaÉªÉĻÉ¹":5042,"ĠdÉªskÉ¹aÉªbd":5043,"ĠloÊĬnli":5044,"ĠÉĽtsÉĽtÉ¹ÉĻ":5045,"ĠÉĳÉ¹kÉĻnsÉĶ":5046,"ĠÉĽt":5047,"ÊĥÊĬl":5048,"ĠpeÉªs":5049,"ĠbaÉªbÉĻl":5050,"ÊĴuËĲd":5051,"ĠÎ¸É¹uËĲaÊĬt":5052,"ĠjuËĲnÉªt":5053,"ÊĥÉĽÉ¹z":5054,"ĠdÉªlÉªvÉĻÉ¹":5055,"ĠnuËĲzpeÉª":5056,"ĠlÃ¦dz":5057,"ĠÉ¡É¹iËĲk":5058,"ĠlÉªtÉĻÉ¹É¹":5059,"hÃ¦m":5060,"ÊĮÉ¹oÊĬ":5061,"ÉľËĲk":5062,"ĠklÉĶÎ¸":5063,"ĠpÉ¹ÉªfÉľËĲ":5064,"ĠsÉªksÎ¸":5065,"ĠlÉĽv":5066,"ĠÊĮdÉĳp":5067,"ĠpÉĳÉ¹tÉªsÉªp":5068,"ĠdÉĶtÉĻÉ¹É¹":5069,"ĠÉ¹ÊĮÊĥÉĻ":5070,"ĠlÃ¦tÉĻÉ¹":5071,"ĠwÉĽpÉĻnz":5072,"bÊĬk":5073,"ĠmÉĽÉ¡":5074,"ÉĶÉ¹ÉĻ":5075,"ÊĴÉĻnd":5076,"ĠÉ¡É¹Ã¦m":5077,"ĠbÉ¹eÉªs":5078,"ĠdÉªzÉľËĲv":5079,"ĠbÉĳÉ¹ti":5080,"ĠkÃ¦É¹ÉªktÉĻÉ¹É¹":5081,"ĠlÉĳnt":5082,"ĠhÉĶÉ¹ÉªbÉĻl":5083,"ĠtaÉªdi":5084,"ĠÃ¦fÉ¹ÉªkÉĻn":5085,"mÉĽntÉĻl":5086,"aÉªÉĽn":5087,"ĠpÊĮmp":5088,"ÊĴÉĶÉªd":5089,"É¹iÉĻn":5090,"ĠhaÉªÉªst":5091,"ÊĴÃ¦kÉªt":5092,"ĠkÉĶÉ¹nÉĻÉ¹É¹":5093,"ĠbÉľËĲnÉªÅĭ":5094,"ĠneÉªbÉĻÉ¹hÊĬd":5095,"ĠpÃ¦É¹ÉĻÉ¡É¹Ã¦f":5096,"ĠsmuËĲÃ°":5097,"lÉĻz":5098,"ĠtÊĬt":5099,"ĠdwÉĽl":5100,"ĠÊĥÉĶn":5101,"ÉªnÉĻ":5102,"ÉĽkst":5103,"ÉĽkjuËĲt":5104,"ĠnuËĲm":5105,"ĠkeÉªeÉªÉĳÉ¹":5106,"ĠkÉĻntÉ¹oÊĬ":5107,"ĠfÉĻÉ¹É¹ÉĽvÉĻÉ¹":5108,"ĠsÉªÉ¡nÉªfÉªk":5109,"ĠÉĽdmÊĮnd":5110,"ĠhÉĽz":5111,"ĠÉªÊĥuËĲz":5112,"ÊĥeÉªn":5113,"ĠpÊĮnt":5114,"ĠÉ¹aÉªs":5115,"Éĳni":5116,"ĠspiËĲks":5117,"ĠpeÉªÉªÅĭ":5118,"ĠkÉĳmÉĻdi":5119,"ĠjuËĲsÉªz":5120,"ÉªoÊĬz":5121,"ÊĴÃ¦p":5122,"ĠhÉªÉ¹ÉªÅĭ":5123,"Ã¦ndÉĻÉ¹":5124,"ĠseÉªlz":5125,"ĠÃ¦nÎ¸":5126,"ĠswiËĲti":5127,"ĠaÉªdiÉĻz":5128,"ĠkÊĮtÉªÅĭ":5129,"ĠfoÊĬkÉĻs":5130,"ĠtÉ¹aÊĬsÉĻÉ¹z":5131,"ĠtÃ¦n":5132,"ĠtaÉªl":5133,"ĠheÉªd":5134,"ĠbÉĶst":5135,"ĠpÉĶÉªz":5136,"ĠÊĥaÉªn":5137,"É¹iËĲÉĻl":5138,"ĠtÉ¹Ã¦fÉªk":5139,"iËĲdÉªÅĭ":5140,"ĠsÉªÅĭk":5141,"ĠhÉĳli":5142,"ÉªÅĭki":5143,"ĠmoÊĬmÉĻnts":5144,"ĠpÉ¹ÉĻvaÉªdÉªd":5145,"ĠÉ¹ÉªspÉĳnsÉªbÉĻl":5146,"ĠbÊĮtÉĻÉ¹flaÉª":5147,"ĠÎ¸iÉĻÉ¹i":5148,"ĠÊĥÃ¦doÊĬ":5149,"ĠkiËĲn":5150,"ĠmÉĽmbÉĻÉ¹":5151,"ÉĻÉ¹É¹ÉĻns":5152,"ĠÊĮbÉ¹":5153,"ĠsÉªtÉªz":5154,"ĠÉ¹ÉªmÉĳÉ¹k":5155,"jÊĬleÉªtÉªd":5156,"ĠwiËĲkÉĽnd":5157,"ĠpÉĳsÉĻm":5158,"ĠsÉľËĲkÉĻs":5159,"ĠÉ¹ÉĽskjuËĲ":5160,"ĠÉĳt":5161,"É¹ÉªoÊĬ":5162,"ĠdÉªb":5163,"Ã¦noÊĬ":5164,"ĠpÉ¹ÉĽst":5165,"ĠkÃ¦É¹ÉĻt":5166,"ĠtÉ¹eÉªnz":5167,"ÉªÉ¡ÉĻÉ¹É¹":5168,"ĠdÉ¹ÉĶn":5169,"ĠsmaÉªld":5170,"ĠlÉľËĲnÉªÅĭ":5171,"ĠsplÉĽndÉªd":5172,"ĠkÉĳnsÉĻnt":5173,"ÊĴÊĮmpt":5174,"ĠÃ¦Î¸l":5175,"ĠlaÉªbÉ¹ÉĽÉ¹i":5176,"ÊĮÊĥÉĻn":5177,"ĠtÊĮmi":5178,"ĠdÉĽv":5179,"ĠbÊĮmp":5180,"ĠfÉªts":5181,"ĠÉªnÉĻs":5182,"ĠwÊĮtÉĽvÉĻÉ¹É¹":5183,"ÉªÉ¹i":5184,"plÉĻs":5185,"ĠmÉĳmiz":5186,"ĠstÃ¦ndÉĻÉ¹d":5187,"ĠfÉĳÉ¹mÉĻÉ¹":5188,"ĠsÉĽnÉĻt":5189,"ĠkÉĽmÉªkÉĻl":5190,"wÉĶÉ¹":5191,"ÊĮstÉĻÉ¹É¹Éªsk":5192,"É¹ÉªÉ¡":5193,"ĠpÃ¦nt":5194,"ĠvÉľËĲs":5195,"ĠkwÃ¦k":5196,"ÊĮkÊĥÉĻnz":5197,"jÊĬlÉĻÉ¹É¹":5198,"ĠmÉªki":5199,"ĠkjÊĬÉ¹É¹iÉĻs":5200,"ĠÉ¡Éªlti":5201,"ĠÉĽstÉªm":5202,"ĠkÉĻÅĭÉ¡É¹Ã¦t":5203,"ĠmÉĽÎ¸ÉĻd":5204,"ĠhÊĬk":5205,"ÊĥÉªt":5206,"ĠmoÊĬs":5207,"ĠÉ¡ÉĻÉ¹É¹ÉĳÊĴ":5208,"ĠstÊĮd":5209,"ĠmÉªstÉĻÉ¹É¹i":5210,"ÉªÅĭÉ¡w":5211,"ĠtÊĮkÉĻÉ¹":5212,"ĠstÊĮmÉĻk":5213,"daÊĬn":5214,"ĠÉ¡ÉĳÊĥ":5215,"ÊĮmf":5216,"ĠÉĽnÉĻmiz":5217,"ĠswÉĽt":5218,"ĠkÉĳmÉĽnt":5219,"ĠbÉ¹ÉªÅĭz":5220,"ĠÉĶÉ¹dÉªnÉĽÉ¹i":5221,"ĠpÉ¹ÉĻdÊĮkÊĥÉĻn":5222,"ĠpÉ¹ÉªnsÉªpÉĻl":5223,"ÊĥÃ¦p":5224,"Éªfts":5225,"ĠdÉªsm":5226,"ĠbÃ¦kw":5227,"ĠwÉĽntwÉľËĲÎ¸":5228,"ĠtaÉªps":5229,"ĠbÉĳksÉªz":5230,"ĠÉĻkÉľËĲd":5231,"ĠÊĥuËĲtÉªÅĭ":5232,"ĠkÃ¦ndi":5233,"ĠbÊĮnt":5234,"É¹oÊĬd":5235,"ĠmÉªnÉªs":5236,"ĠdaÉªÉĻm":5237,"ĠÉĳpÉĻÉ¹É¹eÉªÊĥÉĻn":5238,"ĠÉ¹ÉªpleÉªst":5239,"ĠdÉªstÉ¹ÉĶÉªd":5240,"ĠkÃ¦nzÉĻs":5241,"ĠkÉĽli":5242,"ĠÃ¦ndi":5243,"ĠÉ¹ÉĽÉ¹":5244,"ĠkÉ¹Ã¦ft":5245,"ĠnuËĲmÉĻn":5246,"ÉĶtÉĻÉ¹":5247,"ĠkÃ¦lk":5248,"ĠÃ¦sÉªd":5249,"ĠÉĽÅĭkÉľËĲÉ¹Éªd":5250,"ĠfeÉªlÉªÉ¹":5251,"É¹Ã¦m":5252,"ĠdÉĽst":5253,"ĠfÉĻmÉªlÉªÉ¹":5254,"ÉªdÉĻnts":5255,"ÉĻndÉªs":5256,"ĠplÉĳt":5257,"ĠkÃ¦ns":5258,"ĠweÉªvz":5259,"ÊĴÉªnÉĻli":5260,"ĠtÉĽÉ¹ÉªtÉĶÉ¹i":5261,"ĠbÉĶstÉĻn":5262,"ĠwÉªd":5263,"ĠvÉĶd":5264,"ĠkeÉªÉĽn":5265,"ÊĥÉĻÉ¹dz":5266,"faÉªv":5267,"ÊĴÉĻm":5268,"ĠmiËĲdiËĲ":5269,"ĠkÃ¦nÉĻn":5270,"ÊĥaÉªldz":5271,"ĠdÉªstÉľËĲb":5272,"ĠtÉ¹uËĲli":5273,"ĠÉ¹ÉªkÉĶÉ¹dÉªÅĭ":5274,"ĠhjuËĲm":5275,"ĠfiËĲldz":5276,"ĠÉ¡Ã¦Ã°ÉĻÉ¹d":5277,"ĠdÉªstÉ¹ÉªbjuËĲtÉªd":5278,"ĠdaÉªÉĻmÉĻnd":5279,"bÉĽl":5280,"seÉª":5281,"tÉ¹":5282,"ÉªuËĲ":5283,"ĠsÃ¦li":5284,"ĠpaÊĬd":5285,"ĠÊĥÃ¦":5286,"ÉĽmbÉĻÉ¹É¹":5287,"ĠspÉĻs":5288,"ÊĴiËĲbiËĲ":5289,"ĠÉ¹ÉªsÉĶÉ¹s":5290,"ĠkÉĳnd":5291,"ĠwÉĽpÉĻn":5292,"ĠÉªlÉĽktÉ¹Éªk":5293,"ĠÉĶÉ¹É¡ÊĮnÉªzeÉªÊĥÉĻn":5294,"ĠjÉĳ":5295,"ĠnÉªkÉĻl":5296,"ĠstÉĽpt":5297,"ĠveÉª":5298,"ĠdÉ¹ÊĮÉ¡z":5299,"ÊĴÉĳnÉĻÎ¸":5300,"ĠÉ¹ÉĽkÉĻn":5301,"ĠjuËĲsfÉĻl":5302,"ĠdeÉªvÉªs":5303,"ĠdÉĳÉ¹knÉĻs":5304,"ĠsplÃ¦Êĥ":5305,"ĠvÉªktÉĻÉ¹É¹i":5306,"ĠfÃ¦stÉĻÉ¹":5307,"ĠÉĽvÉªdÉĻntli":5308,"ĠÉĽmdÊĮbÉĻljuËĲ":5309,"ÉªnÉĻs":5310,"ĠsoÊĬvi":5311,"ĠfaÉªÉĻÉ¹d":5312,"keÉªn":5313,"ĠswiËĲd":5314,"jÊĬleÉªÊĥÉĻn":5315,"ĠÉªnvaÉªtÉªd":5316,"ĠkÉªlÉªÅĭ":5317,"ĠÉ¹ÉªpleÉªs":5318,"ĠneÉªbÉĻÉ¹z":5319,"ĠkÉĻlÊĮm":5320,"ĠtÉĽmpÉĻÉ¹É¹":5321,"ĠsÊĮltÉĻn":5322,"ÊĥoÊĬzÉĻn":5323,"ĠkÊĮneÉªdiÉĻn":5324,"ĠsÃ¦ks":5325,"ÉľËĲl":5326,"ÊĴiËĲd":5327,"ÊĴÉľËĲnÉĻl":5328,"ÉªtuËĲÊĥÉĻn":5329,"ĠhÃ¦bÉªt":5330,"ÉªÊĥÉĻnt":5331,"ÉĻzÉªÊĥÉĻn":5332,"ĠfeÉªsÉªÅĭ":5333,"ĠÉ¡É¹Ã¦ndfÉĳÃ°ÉĻÉ¹":5334,"ĠklÉªÉ¹z":5335,"ĠbÉ¹ÉªtÉĻn":5336,"ĠkÃ¦ndÉªd":5337,"ĠaÉªtÉĻmz":5338,"ĠÉªndÉªpÉĽndÉĻnt":5339,"fÉªÊĥ":5340,"ĠÉĳm":5341,"stÉĻÉ¹z":5342,"ĠmÉľËĲm":5343,"ÉĳnÉªk":5344,"ÉĶÉªntmÉĻnt":5345,"ĠpÊĬÊĥÉªÅĭ":5346,"ĠÃ¦É¡nÉĻs":5347,"ĠÊĮksÉĽptÉªd":5348,"ĠÉĻÉ¹É¹ÉĽstÉªd":5349,"ĠpÊĮpi":5350,"ĠÉªkwÉªp":5351,"ĠÉ¡Ã¦bÉ¹Éª":5352,"ĠkÉĳmpÉĻtÉªÊĥÉĻn":5353,"bÉĻz":5354,"ĠdÊĮb":5355,"ĠbÉĽÉ¹ÉªÅĭ":5356,"ÊĥeÉª":5357,"ĠnÉĳv":5358,"ĠÉ¡oÊĬst":5359,"ĠÊĮpÉ¹":5360,"ĠzoÊĬ":5361,"lÉªÅĭz":5362,"ĠÉªÅĭkÉ¹ÉĽd":5363,"ĠtÉĳmi":5364,"ĠÉ¹ÉªÅĭÉªÅĭ":5365,"ĠnÊĮts":5366,"ĠbÊĮnÃ¦nÉĻ":5367,"ĠmÉĻtÉªÉ¹iÉĻl":5368,"ĠbÉĶÉ¹":5369,"eÉªdi":5370,"ĠspaÉª":5371,"ÊĴiËĲtiËĲ":5372,"ĠhaÉªli":5373,"ĠbÉ¹Éªks":5374,"ĠlÉĽmi":5375,"ĠlÉªftÉªd":5376,"ĠÉªntÉĻÉ¹É¹ÊĮpts":5377,"ĠÉªnhÃ¦b":5378,"fÉĶl":5379,"ÊĥiËĲv":5380,"ÊĮmpÉĻn":5381,"ĠveÉªn":5382,"ĠdÉ¹oÊĬv":5383,"ĠÊĮtÃ¦t":5384,"ĠkÉªdÉªÅĭ":5385,"ĠkloÊĬsli":5386,"ĠÉĳnÉĻÉ¹É¹":5387,"ĠÃ¦É¹ÉĻndÉªs":5388,"ĠÉ¹ÉªpÊĮblÉªkÉĻn":5389,"ĠÉ¡É¹ÊĮnts":5390,"ÉĽÊĴÉĻÉ¹É¹":5391,"ĠdÊĮks":5392,"ĠhÃ¦nÉĻ":5393,"ÉĽÉ¹iÉĻn":5394,"ĠweÉªlz":5395,"ÉľËĲts":5396,"ĠÉ¡Ã¦li":5397,"ĠÉĻbzÉľËĲvd":5398,"ĠbÉªÊĥÉĻp":5399,"ĠtiËĲz":5400,"ĠfuËĲ":5401,"ĠlÉĳÉ¹":5402,"ĠÉĽmsiËĲ":5403,"ĠÉ¹aÉªzÉªÅĭ":5404,"ĠstÉľËĲn":5405,"ĠÊĮkÊĮmpÉĻn":5406,"ĠÉĻlÉªmpÉªk":5407,"teÉªk":5408,"waÉªl":5409,"ĠÃ¦É¹oÊĬ":5410,"ĠsaÉªnz":5411,"ĠÉ¹ÉªÉ¹":5412,"ĠtÉ¹ÉĽm":5413,"ÊĮvÉĻÉ¹É¹i":5414,"ÊĮls":5415,"ĠpÊĬÊĥÉªz":5416,"ĠbÉªldÉªÅĭz":5417,"ĠpÃ¦tÉĻÉ¹n":5418,"ĠÉ¹ÊĮÊĥt":5419,"ĠlÉªmÉªtÉªd":5420,"ÊĮÊĥt":5421,"ĠkÊĮvÉĻÉ¹É¹":5422,"ĠtoÊĬk":5423,"ĠdeÉªn":5424,"ÊĥÉªl":5425,"ĠtÉ¹ÊĮmp":5426,"viËĲn":5427,"ĠdÉªzaÉªÉĻÉ¹":5428,"ĠpoÊĬstmÉĻn":5429,"ĠÉ¹ÉĽfÉ¹ÉĻns":5430,"ĠpÉĽÅĭÉ¡w":5431,"ĠneÉªÊĥÉĻn":5432,"ĠaÉªsk":5433,"ÊĴeÉªÉĳÉ¹":5434,"ĠwÉªnÉªÅĭ":5435,"ĠpleÉªnz":5436,"ĠpÉ¹ÉĽp":5437,"ĠkÉĻnfÉĽd":5438,"ĠbÃ¦lÉĻns":5439,"ĠÉĶstÉ¹eÉªliÉĻn":5440,"ĠbÊĮl":5441,"Ã°i":5442,"ĠjuËĲkÉ¹":5443,"ĠÉ¹Ã¦Åĭ":5444,"ĠoÊĬd":5445,"ĠvaÉªs":5446,"ĠhÉľËĲts":5447,"ĠbleÉªm":5448,"ĠÊĮfÉĽÉ¹z":5449,"ĠkÉªsÉªÅĭ":5450,"ĠkÊĮvÉĻÉ¹z":5451,"ĠtÉĽmpÉ¹Éªt":5452,"ĠbÃ¦Åĭks":5453,"ĠpÃ¦kÉªd":5454,"ĠhÉªdÉĻn":5455,"ĠfÉĽstÉªvÉĻl":5456,"fÉĻÉ¹":5457,"ziÉĻÉ¹oÊĬ":5458,"ĠÉ¡eÉªnd":5459,"ĠiËĲkwÉĻl":5460,"ĠkÃ¦ÅĭÉ¡":5461,"ĠkleÉªm":5462,"ĠdÉ¹ÊĮÉ¡":5463,"ĠkÊĮÎ¸":5464,"ÊĴuËĲÉĻli":5465,"ĠdÉªzaÉªnd":5466,"ĠpÉĳÉ¹tiz":5467,"ĠwÉĶtÉĻÉ¹z":5468,"ĠsplÉªt":5469,"ĠwÃ¦k":5470,"ĠÉ¡Éªmi":5471,"ĠoÊĬnd":5472,"ĠklÉªp":5473,"ĠkÉ¹ÉĶst":5474,"ĠstÉ¹aÉª":5475,"ĠtÉ¹aÉªbz":5476,"ĠbÃ¦dli":5477,"ĠÉ¹aÉªdÉĻÉ¹":5478,"ĠpÊĮblÉªÊĥ":5479,"ĠpÃ¦kÉªstÃ¦n":5480,"ĠsmaÉªlz":5481,"ĠmÉªnÉªsoÊĬtÉĻ":5482,"ĠÊĮkÊĮmpÉĻni":5483,"ĠdoÊĬn":5484,"ÊĥÉĽÉ¹i":5485,"Ġpi":5486,"ÊĴÉĶÉªnt":5487,"ĠÊĮmjuËĲz":5488,"ĠiËĲts":5489,"juËĲdiËĲ":5490,"ĠwÉªljÉĻmz":5491,"ĠÉªntÉ¹ÉĻduËĲst":5492,"tuËĲ":5493,"ÉĻÉ¹sÉĻn":5494,"ÊĴÉĽÉ¹i":5495,"ĠhÉªnd":5496,"ĠÊĮbÉªlÉĻti":5497,"ĠkÉĳnsÉªkw":5498,"ĠpÉĳti":5499,"ĠstÉ¹iËĲts":5500,"ÉĽkjuËĲtÉªv":5501,"lÊĬk":5502,"É¹Éĳnt":5503,"iËĲÉĻn":5504,"ĠÃ¦Êĥ":5505,"É¡i":5506,"ĠpÉªst":5507,"ĠÉ¹ÉĽt":5508,"aÉªts":5509,"ĠÊĮpsaÉªd":5510,"ĠÉ¹uËĲmz":5511,"ĠÉªnvÉĳl":5512,"ÊĴeÉªjuËĲdiËĲ":5513,"ĠklaÉªmÉªÅĭ":5514,"ĠstuËĲdÉªoÊĬ":5515,"ĠsÉªÉ¡nÉĻl":5516,"zi":5517,"ĠfjÊĬÉ¹":5518,"ÉªkÉĳp":5519,"ÉĳpÉªkÉĻl":5520,"ĠklÉĽÉ¹":5521,"ĠÉªmpl":5522,"ĠÊĮdmÉªt":5523,"ĠÉ¹ÉĽstÉ¹Éĳnt":5524,"ĠbÉĽlt":5525,"ĠlÉĳkt":5526,"ĠsÉªvÉªÉ¹":5527,"ĠÊĮpÉĳÉ¹tmÉĻnt":5528,"ĠtÉĽnt":5529,"ĠdÊĮmp":5530,"ĠduËĲk":5531,"ÉªlÉªtiz":5532,"ĠspÉĽÉ¹":5533,"ĠkÉĻmb":5534,"ĠsniËĲz":5535,"ĠnÉªÉ¹ÉĻÉ¹":5536,"ĠÉ¹ÉªpÉĶÉ¹tÉªd":5537,"ĠlÃ¦dÉĻÉ¹":5538,"ĠÉªkÉĳn":5539,"ĠkÉ¹Éªk":5540,"ĠÉ¡eÉªn":5541,"ĠÉĳÉ¹md":5542,"ĠkÃ¦sÉĻn":5543,"ÉĳbÉĻ":5544,"ĠÉĽlÉªÉĻt":5545,"ĠtÉ¹aÉªÉĻl":5546,"ĠwÉľËĲkÉĻÉ¹z":5547,"ĠkaÉªndli":5548,"ĠlÉªsÉĻnd":5549,"ÊĴÊĮmpÉªÅĭ":5550,"ĠmÉĽksÉªkÉĻn":5551,"ĠwuËĲndÉªd":5552,"ĠmÉªÊĥÉªÉ¡ÉĻn":5553,"ĠkÉ¹ÉĽdÉªt":5554,"ÊĴÉªÉ¹Ã¦f":5555,"ÊĴÉĳnÉĻÎ¸ÉĻn":5556,"fÉľËĲd":5557,"ÉĽh":5558,"ĠÉĽmpÉĻÉ¹É¹":5559,"ĠÉ¡Éĳ":5560,"eÉªmi":5561,"ĠÉĳs":5562,"ĠhÉĽlÉªkÉĳp":5563,"ĠuËĲp":5564,"ĠÉĽkspÉĽÉ¹Éª":5565,"ĠkÊĮntÉ¹Éª":5566,"ÊĴoÊĬi":5567,"ĠdÃ¦njÉĻl":5568,"ĠpÉ¹ÉĳÉ¡É¹ÉĽs":5569,"ĠsÉĽpÉ¹ÉĻt":5570,"ÊĴÉªstÉĻÉ¹":5571,"ĠnoÊĬts":5572,"ĠÉ¹ÉªÉ¡É¹":5573,"ĠsoÊĬp":5574,"ĠkÉ¹aÊĬn":5575,"ĠkaÊĬns":5576,"ÊĴÉĶÉ¹Éªti":5577,"ĠkÉĻndÊĮkt":5578,"ĠdÃ¦ni":5579,"ĠÉĳksfÉĻÉ¹d":5580,"ĠsÉĽtÉĻlmÉĻnt":5581,"ĠÊĮstÉĳn":5582,"ĠdÉªfÉªkÊĮlti":5583,"ĠÊĮpÉ¹iËĲÊĥÉªeÉªt":5584,"ĠÉªkwÉªpmÉĻnt":5585,"ĠwÃ¦É¡":5586,"ĠtÉªÊĥ":5587,"ĠwÉªli":5588,"ĠbloÊĬÉªÅĭ":5589,"ÉĽÉ¡n":5590,"ĠtÉ¹Ã¦nsl":5591,"ĠpoÊĬp":5592,"ĠspÉ¹Ã¦Åĭ":5593,"ĠfÃ¦nÉªÅĭ":5594,"lÃ¦nd":5595,"laÉªnz":5596,"ĠkaÊĬt":5597,"ÉªsÉĻn":5598,"ĠÊĥÉĽd":5599,"ĠÊĥÉªft":5600,"juËĲÉĻ":5601,"ĠhÉľËĲz":5602,"ĠsÊĮmÎ¸Éªn":5603,"ĠpÉ¹ÉĽÊĥ":5604,"ĠÊĮnjuËĲ":5605,"ĠÉĽneÉªt":5606,"ÉĳlÃ¦n":5607,"ĠÃ¦dm":5608,"ĠdiËĲiËĲ":5609,"ĠÊĮfÉĽÉ¹":5610,"ĠwÉĳÊĥt":5611,"ĠsÉĽndÉªÅĭ":5612,"ĠkÉĳmpaÊĬnd":5613,"ĠpÉªloÊĬ":5614,"Ã¦nÉªk":5615,"ĠÉĶltÉĻ":5616,"ÉªlÉªÅĭ":5617,"ĠhÃ¦ndsÊĮm":5618,"ĠswÉĶl":5619,"ĠhoÊĬpÉªÅĭ":5620,"ĠÊĮdvÃ¦nst":5621,"ÉĳzÉªt":5622,"ĠÉ¡É¹Ã¦ndpÉĳ":5623,"ĠmiËĲdiËĲÉĻ":5624,"ĠsoÊĬviÉĻt":5625,"ĠpiÃ¦noÊĬ":5626,"ĠtÃ¦Åĭk":5627,"ÊĥÉĽkt":5628,"ĠlÉĳd":5629,"ÉªÉ¹iÉĻs":5630,"ĠÉ¹oÊĬp":5631,"ĠsÉĽts":5632,"ĠsliËĲpi":5633,"ĠliËĲdÉĻÉ¹É¹":5634,"ĠbÉªkÊĮmz":5635,"ĠbÉ¹iËĲÃ°ÉªÅĭ":5636,"ĠÉ¹eÉªsÉªÅĭ":5637,"ĠpÉ¹ÉªzÉĽnt":5638,"ĠsÊĮfÉĻÉ¹d":5639,"ĠÉªdÉªÉĻt":5640,"lÃ¦Êĥ":5641,"ÉĻÉ¡":5642,"ĠkÉªst":5643,"Êĥm":5644,"ÊĥÉªli":5645,"ĠÊĥÉĳk":5646,"ÉĻÉ¹É¹eÉªÊĥÉĻnz":5647,"ĠhoÊĬlz":5648,"ĠslÉĽpt":5649,"ĠhaÊĬshoÊĬld":5650,"ĠpÃ¦ti":5651,"ĠdÃ¦ts":5652,"ĠpÉ¹oÊĬÉ¡É¹Ã¦mz":5653,"ĠÊĮpÉ¹oÊĬpÉ¹Éª":5654,"ĠpÉ¹ÉĻpoÊĬzd":5655,"ĠdÉªÊĥÉªz":5656,"ĠnÉľËĲvÉĻs":5657,"ĠpÉ¹ÉĽÊĥÉĻs":5658,"stoÊĬn":5659,"ĠtÊĮm":5660,"ÊĥÉĻli":5661,"ĠpÉªÉ¡z":5662,"ĠÉ¡uËĲ":5663,"ĠplÃ¦nd":5664,"ĠÉªntÉĽndÉªd":5665,"jÊĬÉ¹É¹":5666,"ĠbeÉªsÉªkli":5667,"ĠpÉĻliËĲsmÉĻn":5668,"ĠsÊĮfÉĻÉ¹É¹ÉªÅĭ":5669,"ĠÉ¹Ã¦msi":5670,"ĠbÊĮnd":5671,"ÉªÅĭtÉĻn":5672,"ĠÉĽmÉªli":5673,"ÉªtÉĻn":5674,"ĠpÉ¹aÉª":5675,"ĠmÉªsÉĻs":5676,"ĠÉ¡É¹eÉªtli":5677,"ĠÉ¹ÉªlÃ¦ks":5678,"ĠdÉªvaÉªdÉªd":5679,"ĠmÃ¦stÉĻÉ¹É¹":5680,"ĠheÉªstÉĻ":5681,"ĠtÉĶÉªlÉªt":5682,"deÉªz":5683,"ĠtÃ¦m":5684,"ĠpaÊĬÉĻÉ¹z":5685,"ĠÉĽfÉĻÉ¹ts":5686,"ÊĴÉĳnsÉĻn":5687,"ĠpÉ¹ÉĽzÉªdÉĽnÊĥÉĻl":5688,"ĠkÊĮlÉĻÉ¹d":5689,"ĠdÉªÉ¹ÉĽktÉĻÉ¹É¹":5690,"ĠpÉĳnd":5691,"ĠpÉĻteÉªtoÊĬ":5692,"ĠkÉ¹oÊĬmÉĻÉ¹":5693,"ÊĥÊĮmz":5694,"ĠÉ¹ÊĮÉ¡":5695,"ÉªsÉĻ":5696,"ĠÊĥeÉª":5697,"ĠhÉľËĲÉ¹id":5698,"ĠÉ¡É¹Ã¦nt":5699,"ĠspÉĽkt":5700,"ĠwaÉªÉĻÉ¹":5701,"ĠÊĮmÉĽÉ¹ÉªkÉĻnz":5702,"ĠÉ¹ÉªkÉĶÉ¹dÉªd":5703,"ĠstÊĮdiz":5704,"ĠÉĶltÉĻÉ¡":5705,"sÉĻnt":5706,"ĠmÉľËĲsi":5707,"ĠsiËĲdiËĲ":5708,"ĠeÉªtÎ¸":5709,"ĠÎ¸aÊĬzÉĻndz":5710,"ĠskÉªp":5711,"ĠkÉĻmÉªÊĥÉĻn":5712,"ĠÊĮlÉĳÉ¹m":5713,"ĠteÉªlz":5714,"ĠliËĲÉ¡ÉĻl":5715,"ĠÉ¹Ã¦pt":5716,"ÊĴÉªsti":5717,"ĠmÉľËĲdÉĻÉ¹É¹":5718,"ĠÉ¹Ã¦pÉªdli":5719,"ĠpaÉªlÉĻt":5720,"ĠsaÉªÉĻntÉªsts":5721,"ĠsÉĶsÉªd":5722,"uËĲmd":5723,"ĠliËĲnz":5724,"ĠÊĮpÉĶÉªntÉªd":5725,"ĠpÉ¹ÉĽÉ¡n":5726,"ĠÉªntÉĽns":5727,"ĠÉĽlm":5728,"ĠkÉĻmÉľËĲ":5729,"ĠswÉªft":5730,"ĠhÉĳÉ¹dÉĻÉ¹":5731,"ĠliËĲdÉĻÉ¹":5732,"ĠpÉªÉ¡i":5733,"ĠstuËĲdÉĻnt":5734,"ĠbÉ¹iËĲfli":5735,"ĠÉªntÉĻÉ¹vjuËĲ":5736,"ĠtÊĬtÉĻ":5737,"É¹ÉĽÊĥÉĻn":5738,"Ã¦h":5739,"ĠkÉĽv":5740,"ĠÉ¡ÊĮl":5741,"ÉªsÉªz":5742,"ĠÉĳhÉĳ":5743,"ĠÊĮÉ¡li":5744,"ĠsÉĽvÉĻnÎ¸":5745,"ĠkÃ¦ntÊĮv":5746,"ĠÉ¹ÉªtaÉªÉĻÉ¹":5747,"Ã¦ntÉĻn":5748,"ĠbÉľËĲnd":5749,"ĠmÊĮÅĭkiz":5750,"ĠvÉĳljuËĲm":5751,"ĠÉĽldÊĮbÉĻljuËĲdÊĮbÉĻljuËĲdÊĮbÉĻljuËĲ":5752,"ĠluËĲkÉĻz":5753,"ĠaÉªskÉ¹iËĲm":5754,"ĠmoÊĬnz":5755,"ĠpÉĽnÊĥÉĻn":5756,"ĠÉªnÉªÊĥ":5757,"ĠstÉĽÉ¹":5758,"ĠvÉª":5759,"ÉĳnÉĻld":5760,"ĠÃ¦nz":5761,"ĠÊĮtl":5762,"ĠfaÉªndz":5763,"ĠÉĽntÉ¹ÉĻns":5764,"ĠÉĻblaÉªd":5765,"ĠtÉ¹iËĲtÉªd":5766,"ĠnÉĳmÉªneÉªtÉªd":5767,"ĠnuËĲzpeÉªpÉĻÉ¹":5768,"hÃ¦v":5769,"ĠwaÉªnz":5770,"ĠtuËĲn":5771,"ĠfÉľËĲÃ°ÉĻÉ¹É¹":5772,"ĠkÉĳmÉ¹Ã¦d":5773,"ĠmÉĳÉ¹ÊĥÉĻl":5774,"ĠluËĲzÉªÅĭ":5775,"ĠnÉª":5776,"ĠÉ¹Ã¦l":5777,"ĠmiËĲnwaÉªl":5778,"ĠkÉĻmpjuËĲt":5779,"ĠnÉĳvÉĻl":5780,"ĠklaÉªmÉĻt":5781,"ĠlÃ¦tÉªn":5782,"ĠtÉĽÉ¹ÉĻÉ¹":5783,"ĠstÉ¹ÊĮÉ¡ÉĻl":5784,"ĠwÊĮndÉĻÉ¹d":5785,"ĠÉĽksÉĻÉ¹saÉªz":5786,"vÉªd":5787,"sti":5788,"ĠleÉªm":5789,"ĠsÉĽnts":5790,"ĠÉĽkspÉĽnsÉªv":5791,"ĠpÉ¹ÉĻtÉĽkÊĥÉĻn":5792,"ĠbÊĬlÉªt":5793,"ĠdeÉªbjuËĲ":5794,"boÊĬt":5795,"mÉĳÉ¹":5796,"ÉĳwÉĻ":5797,"ĠmÉĻn":5798,"ĠmÊĮÊĥ":5799,"ĠÉªntÉĻf":5800,"ĠwÉĽÉ¹d":5801,"ĠweÉªl":5802,"ĠkÊĮps":5803,"ÊĴuËĲl":5804,"ĠdÉªvaÉªs":5805,"ĠÉªnsp":5806,"ĠÉ¹ÉªpÉĶÉ¹ts":5807,"ĠklaÊĬdz":5808,"ĠfÉ¹iËĲdÉĻm":5809,"ĠÉ¡É¹iËĲt":5810,"ÊĴÃ¦É¡":5811,"ĠpÉ¹aÉªd":5812,"ĠslÉªpt":5813,"ÊĴuËĲÉĻlz":5814,"ĠwÊĬdÉĻntÉĻv":5815,"ĠkÉĻlÉĽkÊĥÉĻn":5816,"ĠsÃ¦vÉªd":5817,"ĠwÉªÅĭz":5818,"ĠÉ¹ÉĽkt":5819,"ÉªtÉĻÉ¹z":5820,"ĠÎ¸ÊĮÉ¹oÊĬ":5821,"ĠsiËĲts":5822,"ÊĮsti":5823,"ĠÉªntÉľËĲ":5824,"ĠmÉªsÉªsÉªp":5825,"ĠfuËĲdz":5826,"ĠdÉªlÉªv":5827,"lÉĻsli":5828,"ĠkÉĻnsÉªdÉĻÉ¹":5829,"ĠÊĥaÊĬtÉªÅĭ":5830,"ÊĴÉªÉĳÉ¡É¹ÉĻfi":5831,"ĠkÉĳnfÉªdÉĻns":5832,"ĠdÉĶÅĭk":5833,"ĠpÉĻteÉªtoÊĬz":5834,"ĠmÉªt":5835,"ĠvÉĽÉ¹Éª":5836,"ĠsiËĲkw":5837,"ĠsoÊĬfÉĻ":5838,"ĠdÉªfÉĽnd":5839,"ĠÊĮtÃ¦kt":5840,"ĠaÉªvhÃ¦d":5841,"ĠnÉĶÉªzi":5842,"ĠkÉĻnsÉľËĲv":5843,"É¹aÉªsiËĲ":5844,"ĠÊĮnlaÉªk":5845,"ĠÉ¡É¹Ã¦ndmÊĮÃ°ÉĻÉ¹":5846,"ĠneÉªvi":5847,"ĠÉ¡Ã¦bÉ¹ÉªÉĽlÉĻ":5848,"ĠfÉ¹iËĲz":5849,"ĠkÃ¦nsÉĻÉ¹":5850,"ĠmÃ¦p":5851,"É¹ÉĻbÉĻl":5852,"ĠoÊĬldÉªst":5853,"ĠÉ¹ÉªliËĲf":5854,"ĠlÉĶz":5855,"ĠÃ¦ksÉĽs":5856,"ĠÉĽskeÉªpt":5857,"ĠsÃ¦tÉªsfaÉªd":5858,"ĠÉĳÉ¹É¡juËĲ":5859,"ĠkeÉªti":5860,"ĠÎ¸iÉĻtÉĻÉ¹":5861,"ĠÉ¹Ã¦lf":5862,"mÉªtÉªd":5863,"Ã°ÉľËĲ":5864,"ÊĴiz":5865,"ĠÉ¹aÊĬt":5866,"Éªdz":5867,"ĠduËĲi":5868,"ĠfliËĲt":5869,"ĠbÃ¦stÉĻÉ¹d":5870,"ĠÊĮndÉĻÉ¹n":5871,"ĠpÉĶÉªntÉªd":5872,"ĠfÉĶls":5873,"ĠdÉªlaÉªtÉªd":5874,"ĠbÉĶÉ¹dÉĻÉ¹":5875,"ĠdÉĶtÉĻÉ¹z":5876,"ĠÉªfÉĽkts":5877,"ĠÉ¹ÉªkÉĶÉ¹dÉĻÉ¹":5878,"ĠmÊĬÉ¹":5879,"ĠÉ¹ÉĳlÃ¦n":5880,"ĠsoÊĬfi":5881,"ĠÉ¡É¹oÊĬs":5882,"ĠskÉĽd":5883,"ĠÉĻvÉĻÉ¹":5884,"Ã¦mÉĻ":5885,"ĠziÉĻÉ¹":5886,"ĠÉªmÉªd":5887,"ĠÉ¡lÊĮv":5888,"ĠsnÃ¦p":5889,"ĠsÉĶÉ¹ts":5890,"ĠsaÉªts":5891,"ĠsÉªstÉĻmz":5892,"ĠhÉĽvili":5893,"ĠÉ¹ÉĽpÉ¹ÉªzÉĽntÉĻtÉªvz":5894,"ĠÉ¡lÃ¦sÉªz":5895,"ĠÉªÅĭkÉ¹iËĲst":5896,"ĠlÃ¦mp":5897,"ĠÉªmÉªteÉªts":5898,"ÊĥÃ¦lÉªnd":5899,"ĠÊĮndÉĻÉ¹niËĲÎ¸":5900,"ĠbÊĮdi":5901,"ĠmÉªÎ¸":5902,"ÊĴÊĮÅĭk":5903,"ÉªtuËĲ":5904,"ĠÉĳÉ¹ts":5905,"ĠmaÉªÉ¡É¹":5906,"ĠÊĮnaÊĬns":5907,"ĠtÉ¹eÉª":5908,"ĠklÉªk":5909,"ĠÉĽlÉªv":5910,"ĠskwÉĳd":5911,"ĠÊĮmÊĮÅĭst":5912,"ĠÉ¹iËĲsÉĻnt":5913,"ĠskÉĳlÉĻÉ¹ÊĥÉªp":5914,"wÉĽ":5915,"É¹ÉªmÉĻn":5916,"ĠmÃ¦nd":5917,"ĠpÃ¦nd":5918,"ÊĴÉªs":5919,"ÊĴÉªÅĭÉ¡":5920,"ÊĴÉĳli":5921,"ĠstÊĮt":5922,"ĠÉªntÉĽlÉªd":5923,"ĠskÊĮl":5924,"ĠmÉĶÉ¹n":5925,"ĠÊĮtÉĽnd":5926,"ĠfaÉªnÃ¦nÊĥÉĻl":5927,"ÊĥÉªldÉ¹ÉĻnz":5928,"ĠmÉĳÉ¹vÉĻl":5929,"ĠÉĽkstÉĽnt":5930,"ĠhÃ¦mÉĻÉ¹":5931,"ĠÉ¹oÊĬmÃ¦ntÉªk":5932,"ĠwÉĶÉ¹nÉªÅĭ":5933,"ĠpÉ¹uËĲvd":5934,"ĠstÉ¹ÉĶbÉĽÉ¹i":5935,"dÉ¹":5936,"mÉĳÉ¹k":5937,"ĠwÉªÅĭ":5938,"ĠwoÊĬk":5939,"ĠÊĥÉĳÉ¹k":5940,"ÉĻÉ¹É¹eÉªt":5941,"ĠÉĳÉ¹É¹aÉªsiËĲ":5942,"ĠÉ¹ÉªmeÉªnz":5943,"ĠpÉĳÉ¹tli":5944,"ĠmÉĳÉ¹kt":5945,"ĠkaÊĬntiz":5946,"ĠlÃ¦ndÉªÅĭ":5947,"ĠdÉ¹ÉĶz":5948,"ĠlÉĽsÉĻnz":5949,"ĠÉ¹ÉªvÉĻÉ¹z":5950,"ĠpÉ¹ÉªzÉĽntÉªd":5951,"ĠskwiËĲlz":5952,"fÉ¹":5953,"fÃ¦kt":5954,"ÉªnÉĻnt":5955,"Ã¦ki":5956,"ÉĳmÉĻz":5957,"ĠfjuËĲn":5958,"ĠluËĲÉªs":5959,"ÊĥÉĻÉ¹É¹ÉĻli":5960,"ĠfÉĳloÊĬz":5961,"ĠÉ¡ÊĮvÉĻÉ¹nÉĻÉ¹":5962,"ĠkÉĻÉ¹É¹iËĲÉĻ":5963,"ĠÉĽmpaÉªÉĻÉ¹":5964,"ĠbÉ¹ÉĶdkÃ¦st":5965,"ĠÉĶÎ¸ÉĻÉ¹É¹":5966,"ĠÉªÅĭkwaÉªÉĻÉ¹d":5967,"ĠspaÉªdÉĻÉ¹":5968,"ĠÉĽntÉĻÉ¹teÉªnmÉĻnt":5969,"ÉĶÉ¹ÉªÉĻl":5970,"ÊĥeÉªÉĳÉ¹":5971,"ĠmÊĮl":5972,"ĠÉ¹ÉĶs":5973,"ĠsÉĽÊĥÉĻn":5974,"ĠtÉ¹Ã¦ks":5975,"ĠmÉĶÉ¹t":5976,"ĠpÉĽÉ¹ÉĻnt":5977,"ĠÉ¹ÉªkwaÉªÉĻÉ¹d":5978,"ĠÊĥeÉªkÉªÅĭ":5979,"ĠÊĮkweÉªnt":5980,"ĠÊĮkÉĳmpl":5981,"fÉ¹ÉĽnd":5982,"aÉªÉªÅĭ":5983,"ĠÃ¦pÉĻlz":5984,"ĠkaÊĬz":5985,"ĠtiËĲn":5986,"ĠbeÉªt":5987,"ÉĻltÉĻn":5988,"ÊĴÉĽÎ¸":5989,"ĠÉĶÉª":5990,"ÉĽnÉĻ":5991,"ĠstoÊĬv":5992,"ĠpÉ¹ÉĻn":5993,"ÉªstÉ¹i":5994,"Éĳps":5995,"ĠspaÉªt":5996,"ĠspÉªl":5997,"ĠskiËĲm":5998,"ÉĳsÉĻf":5999,"ĠliËĲsÉĻ":6000,"Ã¦mpÉĻlz":6001,"ĠpÃ¦tÉ¹Éªk":6002,"ĠbÉĽli":6003,"ĠbÉ¹iËĲÃ°":6004,"ĠÉ¹eÉªnÉªÅĭ":6005,"Ã¦skÉĻ":6006,"ĠfÉªzÉªkÉĻl":6007,"ĠÉ¡É¹Ã¦djuËĲ":6008,"ĠÉªmpÉ¹uËĲv":6009,"ĠsÉĳ":6010,"ĠmÉľËĲt":6011,"ĠÉĽmoÊĬtiËĲz":6012,"ĠÉ¹ÉªwÉĶÉ¹d":6013,"ÉªmÉĻnts":6014,"ÉªliÉĻnz":6015,"ĠleÉªtli":6016,"ĠpÃ¦É¹ÉĻl":6017,"ĠmÉªstÉªÉ¹iÉĻs":6018,"ĠÉ¹ÉĽpÉ¹ÉªzÉĽntÉªd":6019,"ĠÉ¹ÉªÉ¡ÉĳÉ¹dÉªd":6020,"ĠÊĮliËĲdÉªn":6021,"ÉľËĲÉ¹ÉªÅĭ":6022,"ĠÉ¹ÉªviËĲ":6023,"ĠÉĽksÉªk":6024,"ĠskÉĳÉ¹":6025,"ĠfÉĻÉ¹bÉªd":6026,"ĠbeÉªb":6027,"ĠmaÉªnz":6028,"ĠwÉªsÉĻl":6029,"ĠÉ¹ÉªspÉĳnsÉĻbÉªlÉªti":6030,"ĠbÉªlÉĶÅĭz":6031,"ĠdÉĽzÉĻÉ¹t":6032,"ĠmÉªsÉªsÉªpi":6033,"ĠsÉĳlÉªd":6034,"ĠmaÊĬ":6035,"ĠmuËĲd":6036,"ĠlÊĮvÉĻÉ¹":6037,"ĠfÉĶÉ¹k":6038,"ĠÊĥiËĲt":6039,"ĠÃ¦tÉªt":6040,"ĠwÉĽlÎ¸":6041,"ĠbÉ¹aÉªd":6042,"ĠfloÊĬ":6043,"ÊĴuËĲlÉª":6044,"ĠpÉªknÉªk":6045,"ĠdÉªstÉªÅĭkt":6046,"ĠÉĽÉ¡zÉĽkjuËĲtÉªv":6047,"ĠliËĲf":6048,"ĠsÉĽtÉªÅĭ":6049,"ĠkÊĮlÉĻÉ¹É¹ÉªÅĭ":6050,"ĠlaÉªtnÉªÅĭ":6051,"ÉªndÉĻ":6052,"ĠsÉľËĲvÉĻnts":6053,"ĠbÃ¦tÉĳlÉĻ":6054,"ĠkliËĲnÉªÅĭ":6055,"ÊĴeÉªdÊĮbÉĻljuËĲdÊĮbÉĻljuËĲdÊĮbÉĻljuËĲz":6056,"ĠkÉĻmpÃ¦niÉĻnz":6057,"ĠklaÉªÉĻnt":6058,"ĠtÉĳÉ¹É¡Éªt":6059,"ĠhÉĽzÉªt":6060,"ĠÉªnÉĻsÉĻnt":6061,"ĠnÉĽf":6062,"ÊĴli":6063,"ĠwÊĮtd":6064,"É¹ih":6065,"ĠwÊĬdÉĻn":6066,"bÉĻÉ¹n":6067,"ĠflÊĮd":6068,"ĠÉ¹ÉªfjuËĲzd":6069,"ÊĥiËĲks":6070,"ĠpÉ¹iËĲviÉĻsli":6071,"ĠvÉĳlÉĻnt":6072,"ĠstoÊĬlÉĻn":6073,"ĠkÉ¹ÉĳkÉĻd":6074,"ĠÃ¦vÉĻn":6075,"eÉªÊĴÉĻn":6076,"ĠtÉĽndÉĻÉ¹":6077,"ĠmjuËĲs":6078,"ĠpÉ¹Éªd":6079,"ÊĴÉªp":6080,"ÊĴÉĶÉªs":6081,"ÉªtÉĻÉ¹É¹":6082,"ĠÊĮpl":6083,"ĠÊĮdÊĮlt":6084,"ĠÉ¹ÉªdÉªk":6085,"ĠspÉĽndÉªÅĭ":6086,"ĠkÉĻÅĭkluËĲd":6087,"ĠdÉĽpjuËĲti":6088,"ĠÉ¡ÉªtÉĳÉ¹":6089,"ĠÊĮnhÃ¦pi":6090,"ĠÉĳÉ¹Î¸ÉĻÉ¹":6091,"ĠkÉĽt":6092,"ĠÉ¹ÉĶÉ¹":6093,"juËĲk":6094,"ÊĮzÉªl":6095,"ĠklÉĶz":6096,"ĠlÉĽtÉªÅĭ":6097,"ĠmÃ¦ÅĭÉ¡":6098,"ĠbÃ¦ÅĭÉ¡":6099,"ĠdÊĮbÉĻljuËĲdÊĮbÉĻljuËĲdÊĮbÉĻljuËĲ":6100,"ĠspÉªÉ¹Éªts":6101,"ĠÉªntÉ¹ÉĻduËĲs":6102,"ĠÃ¦É¹ÉĻ":6103,"ĠtÃ¦b":6104,"ĠbÊĮtÉĻnz":6105,"ĠmÉĽnz":6106,"ĠlÊĮvÉªÅĭ":6107,"ĠmaÉªnÉĻÉ¹":6108,"ÉĶsÉªti":6109,"ÊĴÃ¦ki":6110,"ĠÉ¹ÉªfÉľËĲd":6111,"ĠmÉĳnt":6112,"ĠpÉ¹Éĳmpt":6113,"ĠdÉªspaÉªt":6114,"ĠkloÊĬzÉªz":6115,"ĠÉĽkstÉ¹iËĲmli":6116,"joÊĬ":6117,"ÉĶÉªl":6118,"É¡É¹oÊĬ":6119,"ĠnÉĽÉ¡":6120,"ĠfÉ¹eÉªm":6121,"ĠbÉ¹ÊĮzÉªl":6122,"ĠdÉ¹ÊĮm":6123,"ĠpÉĻÉ¹mÉªÊĥÉĻn":6124,"ĠsmÃ¦Êĥ":6125,"ĠfiËĲfÉĻ":6126,"ĠkÉĶzÉªz":6127,"ÊĴÉĽnÉĻs":6128,"ĠÉªnstÉĻns":6129,"ĠdÉªstÉ¹Éªkts":6130,"ĠvÉªktÉªm":6131,"ĠkÃ¦Î¸lÉªk":6132,"ĠnÉĳnsÉĻns":6133,"ĠÊĮtÉĽmpts":6134,"ĠbeÉªkÉĻÉ¹":6135,"ĠÊĮdmÉªnÉªstÉ¹eÉªÊĥÉĻn":6136,"wÉĽstÉĻÉ¹n":6137,"bÉĶÉ¹n":6138,"feÉªs":6139,"ÊĮps":6140,"ÉĻÉ¹É¹Éªk":6141,"ĠÃ¦p":6142,"oÊĬvÉĻÉ¹":6143,"ĠdÊĮl":6144,"É¡Éªst":6145,"ĠpÉªp":6146,"ĠÉ¹Ã¦Åĭk":6147,"ĠÉĽfeÉªdiËĲ":6148,"ĠkÉĻnÉĽkÊĥÉĻn":6149,"ĠlÉĶÉ¡":6150,"uËĲzi":6151,"ĠÉ¹ÉªfjuËĲz":6152,"ĠpÃ¦sÉªd":6153,"ĠbÉĳnd":6154,"ĠÉ¡Ã¦bÉĻÉ¹":6155,"ĠpÉĶzd":6156,"ÊĥÃ¦mpiÉĻnÊĥÉªps":6157,"ĠiËĲÉ¡ÉĻÉ¹li":6158,"ĠsÉĻksiËĲdÉªd":6159,"ĠÉ¹ÉªsÉĶÉ¹sÉªz":6160,"sÉªz":6161,"ĠdÉĳÉ¹t":6162,"ĠmÉĽÊĴÉĻÉ¹":6163,"ÊĴÉĽktÉªd":6164,"ĠpÉ¹ÉĻ":6165,"ĠpÉ¹ÉĽd":6166,"ĠÉ¡ÉĳtÉĻn":6167,"ĠskÉĽÉ¹i":6168,"ĠÉ¡É¹eÉªtfÉĻl":6169,"ĠmaÉªti":6170,"ĠhÉĳst":6171,"ĠlÃ¦ndÉªd":6172,"ĠmÃ¦stÉĻÉ¹z":6173,"ĠspÉĳts":6174,"ĠtÉªkÉªt":6175,"ĠpÉ¹ÉĻduËĲsÉĻÉ¹":6176,"ĠÃ¦É¹ÉĻndÉªsmÉĻnt":6177,"ĠÊĮpÉ¹oÊĬpÉ¹ÉªÉĻt":6178,"fÉĽÉ¹":6179,"mi":6180,"ĠbÊĮf":6181,"É¡uËĲ":6182,"ĠÉ¹Ã¦k":6183,"ĠpÉ¹uËĲf":6184,"ĠeÉªÊĴÉĻ":6185,"ĠÃ¦lÉªks":6186,"ĠpÉĳÉ¹tn":6187,"ĠdÉ¹ÉªvÉĻn":6188,"ĠÉĳpÉĻÉ¹É¹ÉĻ":6189,"ĠliËĲdz":6190,"ĠsÉªstÉĻÉ¹É¹":6191,"ÊĴÊĮmboÊĬ":6192,"ĠaÉªtÉĻm":6193,"ĠkÊĮÎ¸iËĲd":6194,"ĠÉ¹ÉªÉ¡É¹ÉĽt":6195,"ĠÃ¦ld":6196,"skoÊĬ":6197,"ÉªdiËĲ":6198,"ĠstÉĽf":6199,"Éªlv":6200,"ĠvÃ¦st":6201,"ĠskÉ¹Éªpt":6202,"ĠhoÊĬpt":6203,"ĠfÃ¦ktÉĻÉ¹É¹i":6204,"ĠkÉĻndÉªÊĥÉĻnz":6205,"ĠÊĮsÉªstÉĻnt":6206,"ĠÊĮnjuËĲÊĴuËĲÉĻl":6207,"tÉªm":6208,"eÉªld":6209,"ĠsÉª":6210,"ĠjÊĮp":6211,"ÊĴÉľËĲsi":6212,"Ã¦tÉĻÉ¹d":6213,"ĠÎ¸ÊĮm":6214,"ĠnoÊĬbÉĻl":6215,"eÉªtÉĻÉ¹É¹":6216,"ĠstÊĮft":6217,"ÊĬÉ¹É¹ÉĻl":6218,"ÉĽmÉªk":6219,"ÉĽntÉĻÉ¹É¹i":6220,"ĠkwÉĶnt":6221,"ĠÊĮfÉĽkÊĥÉĻn":6222,"ĠkÉĻmpliËĲtÉªd":6223,"ĠÉªnhÃ¦bÉªt":6224,"lÊĬkÉªÅĭ":6225,"sÉĻnz":6226,"É¹oÊĬz":6227,"ĠhÉªts":6228,"ĠbÉªs":6229,"ÊĥÉªÉ¹z":6230,"ÉľËĲst":6231,"ĠwÉªz":6232,"Ã¦nÉĻn":6233,"ĠÊĮbs":6234,"É¹oÊĬt":6235,"ÅĭÉ¡ÉĻÉ¹É¹":6236,"É¹Éªts":6237,"pÉĻÉ¹É¹eÉªÊĥÉĻn":6238,"ĠÊĥÉĶÉ¹tli":6239,"ĠsÊĮbs":6240,"ĠstÉĳÉ¹É¹ÉªÅĭ":6241,"ĠÉĽksplÉĶÉ¹":6242,"ĠlÉĽmÉĻn":6243,"ĠtÊĮnÉĻl":6244,"pÉªÉ¹":6245,"vÉªn":6246,"ĠtÉªn":6247,"ĠhÉĻz":6248,"ĠfÉĻs":6249,"ĠpÉĽd":6250,"ĠhÉªk":6251,"ĠsÉĽÉ¹ÉªmÉĻn":6252,"ÊĮsÉªfÉªk":6253,"ĠjuËĲzÉĽtÉĻ":6254,"ĠdÉªstÉĻnt":6255,"ĠnaÉªsli":6256,"ĠpÉĻlaÉªt":6257,"ĠbÉĳmbÉĻz":6258,"ĠdÉªtÉľËĲ":6259,"ĠlÉĶÉ¹ÉĻns":6260,"ĠpÉ¹ÉªzÉĻnÉĻÉ¹z":6261,"ĠÃ¦vÉĻnuËĲ":6262,"ĠsÊĮs":6263,"ĠbÉ¹Éªk":6264,"É¡ÉĻs":6265,"ĠaÉªÉ¹ÉªÊĥ":6266,"ĠÉªnÊĥÊĬÉ¹":6267,"ĠbÉ¹ÉĽst":6268,"ĠbÉ¹eÉªks":6269,"ĠÊĮbÃ¦nd":6270,"ĠskeÉªl":6271,"ĠswiËĲp":6272,"ĠtÉľËĲki":6273,"ĠpÃ¦É¹ÉĻt":6274,"ĠsÉĽlÉªÅĭ":6275,"ĠsÊĮbst":6276,"ÊĴiËĲnÉĻ":6277,"ĠdÉªsÊĮpÉĶÉªntÉªd":6278,"ĠdÉ¹ÉĽdfÉĻl":6279,"sÉªkÉĻl":6280,"wÉĳÉ¹É¹":6281,"É¹ÉĽÊĥÉĻnÉĻl":6282,"É¹Éªnt":6283,"É¹Éªks":6284,"Ã¦É¹ÉĻ":6285,"ĠkÉªn":6286,"ĠÉ¹Éĳt":6287,"ĠÉ¹ÉĽnt":6288,"ĠbiËĲp":6289,"ĠplÊĮnd":6290,"ĠÊĮneÉªbÉĻl":6291,"ÉĶÉ¹tÉªd":6292,"ĠhÃ¦ndÉªd":6293,"ĠkÉĻnteÉªn":6294,"ĠwÉľËĲldz":6295,"ĠlÉĽsÉĻn":6296,"ĠmÃ¦mi":6297,"ĠtÉ¹Ã¦vÉĻlÉªÅĭ":6298,"ĠkÉĻÅĭÉ¡É¹ÉĽÊĥÉĻnÉĻl":6299,"ĠplÃ¦tfÉĶÉ¹m":6300,"É¹ÉĻz":6301,"ĠdÃ¦":6302,"ĠfeÉªk":6303,"ĠpÊĬd":6304,"ĠÉĶdi":6305,"ĠoÊĬhaÉª":6306,"ÊĮvd":6307,"ĠkÉ¹Ã¦b":6308,"ĠÊĮmÉĽnd":6309,"ĠpÉĽni":6310,"ĠÉĳÉ¹kÉªt":6311,"ĠkÊĮdÉĽt":6312,"ĠhÉĻznÉĳt":6313,"ĠbÊĮbÉĻlz":6314,"ĠjÉĶn":6315,"ĠÉ¹ÉªpÉ¹":6316,"ĠÊĮpÉªÉ¹z":6317,"ĠtÉ¹Ã¦d":6318,"ĠwÉĽnzdeÉª":6319,"ĠkÉ¹oÊĬ":6320,"Ã¦lÉªtiz":6321,"ĠfloÊĬt":6322,"ÊĴÉĳni":6323,"ĠÊĮdvaÉªz":6324,"ĠbÉĳbÉĻ":6325,"ĠlaÊĬdli":6326,"ĠÉ¹ÉªbÉĽkÉĻ":6327,"ĠmÊĮsÉĻnt":6328,"ĠskÉ¹uËĲd":6329,"ĠmÉªzÊĬÉ¹É¹i":6330,"ĠstÉ¹oÊĬk":6331,"ĠtÉĶÉ¹n":6332,"ĠtÃ¦É¡":6333,"ĠpÊĮsÉªfÉªk":6334,"ĠsteÉªk":6335,"ĠstÃ¦m":6336,"ĠstÃ¦ntÉĻn":6337,"ĠfÉ¹eÉªz":6338,"ĠÉ¹ÉªÃ¦lÉªti":6339,"ĠÉĽnÎ¸":6340,"ĠÉĳhÉĻ":6341,"ĠÉªlnÉĻs":6342,"ĠhÃ¦pÉªnÉĻs":6343,"ĠvoÊĬkÉĻlÉªzeÉªÊĥÉĻn":6344,"ĠsÃ¦kÉ¹Éªf":6345,"ĠÉĳÉ¹É¹ÉĳÉ¹É¹ÉĳÉ¹":6346,"ĠÊĮÊĥeÉªmd":6347,"ĠdiËĲteÉªlz":6348,"ĠÉĽnvaÉªÉ¹ÉĻnmÉĽntÉĻl":6349,"ĠmÃ¦njuËĲfÃ¦kt":6350,"ĠvÉĽsÉĻl":6351,"bÊĮ":6352,"bÉ¹Éªd":6353,"fÉĻn":6354,"fÉªÉ¹":6355,"ĠsÉĽÉ¹":6356,"ĠdÉĶn":6357,"ĠÉ¡ÉĽsts":6358,"ĠwÉªÉ¡":6359,"ĠbaÉªÉĳÉ¡É¹ÉĻfi":6360,"ĠÉ¹oÊĬld":6361,"ĠÉĽnÉªhaÊĬ":6362,"ĠtÉ¹aÉªÃ¦ÅĭÉ¡ÉĻl":6363,"ÊĮÅĭks":6364,"ĠbÉĽdz":6365,"ĠÉĻÉ¹É¹aÉªvÉĻl":6366,"ĠpÉ¹ÉĻfÉĽsÉĻÉ¹É¹":6367,"ÉĻÉ¹k":6368,"ĠkoÊĬn":6369,"ĠdÉĽ":6370,"ĠbaÊĬ":6371,"ÊĴÉĳÉ¹":6372,"ÊĴÉªb":6373,"ĠstuËĲl":6374,"ĠpiËĲd":6375,"ĠbÃ¦b":6376,"ĠmÉĳmÊĮz":6377,"ĠstiËĲm":6378,"ĠÉ¹ÉªduËĲs":6379,"ÊĥÉĻsli":6380,"ĠhaÊĬzÉªÅĭ":6381,"ĠbÉĶÉªf":6382,"ĠpÉ¹ÉĽÊĥÉĻÉ¹":6383,"ĠtÉľËĲkÉªÊĥ":6384,"ĠlÉªbÉĻÉ¹É¹ÉĻl":6385,"hÊĬl":6386,"Ġts":6387,"ĠÉĽmÉĽs":6388,"ÊĴÉĳÊĥ":6389,"ÉĻmÉĻnts":6390,"ĠbÉ¹uËĲt":6391,"oÊĬkÉĻ":6392,"ĠÃ¦nÉĻ":6393,"ĠkÉ¹iËĲks":6394,"ĠhÊĮndÉ¹Éªdz":6395,"ĠpaÉªp":6396,"ĠÉ¹ÉĳhÊĬl":6397,"ĠÉ¹aÉªfÉĻl":6398,"ĠpÉĽnsÉªlv":6399,"ĠlÃ¦ftÉĻÉ¹":6400,"ÊĴÉĽlÉĻs":6401,"ĠkÃ¦É¹ÉĻlaÉªnÉĻ":6402,"ĠsnÉªfs":6403,"ĠkÉĻnfÉĽdÉĻÉ¹É¹":6404,"ĠoÊĬhaÉªoÊĬ":6405,"ĠÃ¦stÉĻÉ¹É¹ÉªskÊĮstÉĻÉ¹É¹Éªsk":6406,"ÉĻlÉĽs":6407,"tiËĲtiËĲ":6408,"ĠlÉĽn":6409,"ĠÊĥaÉª":6410,"ĠtÉ¹ÉĳpÉªkÉĻl":6411,"pleÉª":6412,"ĠÉªmoÊĬ":6413,"ĠÃ¦lÉªÉ¡":6414,"ĠkÉĻmpÉĽÉ¹d":6415,"ĠbeÉªsÉªs":6416,"ĠkÊĮts":6417,"ĠsiËĲzÉĻnz":6418,"ĠfÉªÅĭÉ¡ÉĻÉ¹É¹":6419,"ĠÉªndÉªpÉĽnd":6420,"ĠÉĳkjÊĬpaÉªd":6421,"ĠsÉĶl":6422,"ĠdÉĽÉ¹Éª":6423,"ĠlÉªliÉĻn":6424,"ĠbiËĲst":6425,"ĠbiËĲnz":6426,"ĠkÃ¦b":6427,"ĠspÉĳÉ¹k":6428,"ÉªÉ¡ÉĻÉ¹":6429,"ĠÉĽliËĲeÉª":6430,"ĠkÉĻmÉªtÉªd":6431,"ĠkÉĻnteÉªnz":6432,"ĠdÉªskÉ¹ÉªpÊĥÉĻn":6433,"ĠmaÉªndz":6434,"ĠdÉªnÉĻÉ¹É¹":6435,"ĠÉĽksplÊĮn":6436,"ĠbÃ¦ndÉªd":6437,"ĠlÉªkw":6438,"ĠÉĶltÉľËĲn":6439,"ÊĴÃ¦ksÉĻn":6440,"ĠÉªnspÉĽktÉĻÉ¹":6441,"fÉªk":6442,"kÉĶÉ¹n":6443,"Î¸ÉĻ":6444,"ĠÊĥÃ¦É¡":6445,"ĠspÊĮnd":6446,"ĠspÊĮÉ¡":6447,"ĠÎ¸ÉľËĲzdeÉª":6448,"ĠsneÉªks":6449,"ĠÉªnfl":6450,"ĠplÃ¦nÉªt":6451,"ĠÉªnsÉªdÉĻnt":6452,"ĠÉ¹ÉªtÉľËĲnz":6453,"ĠÉĻfÉªÊĥÉĻli":6454,"ĠvaÉªÉĻlÉĻns":6455,"ĠÉ¹eÉªlweÉª":6456,"ĠwÉªkÉªd":6457,"ĠiËĲkÉĻnÉĳmÉªk":6458,"ĠdÉĽspÉĻÉ¹É¹ÉĻt":6459,"ĠÉ¹ÉªdÉªkjÊĬlÉĻs":6460,"bÉ¹ÉĻ":6461,"ĠhÉĳn":6462,"ĠdÉĽt":6463,"ĠpaÊĬ":6464,"ÊĴÃ¦z":6465,"Î¸É¹iËĲ":6466,"ĠÉ¹Ã¦É¡":6467,"ĠtÉĽlÉªÉ¡":6468,"ÉĳsÉĻ":6469,"ĠfÉªlÉĳsÉĻf":6470,"ĠsaÊĬndÉªd":6471,"ĠsuËĲnÉĻÉ¹":6472,"ĠnoÊĬtÉªd":6473,"ĠÉĳksÉªd":6474,"ÊĥiËĲki":6475,"ĠÉĽnvaÉªÉ¹ÉĻnmÉĻnt":6476,"ÊĥÊĬleÉªÊĥÉĻnz":6477,"ĠdÉĶÅĭki":6478,"ĠkÊĮÎ¸iËĲdÉ¹ÉĻl":6479,"poÊĬ":6480,"ĠtÉĻÉ¹É¹":6481,"ĠpÊĮt":6482,"ĠÉ¡Éĳn":6483,"ÊĴÊĮs":6484,"ÊĴÉĽkÊĥÉĻn":6485,"ĠsiËĲl":6486,"Éĳmp":6487,"ĠÊĮtÃ¦ks":6488,"ĠkeÉªks":6489,"ĠÉĽkspÉĻd":6490,"ĠpÉ¹ÉĽzÉĻnts":6491,"ĠbeÉªsÉªk":6492,"ĠkÉ¹ÉªstÉĻf":6493,"ĠpÉĻzÉĽÊĥÉĻn":6494,"ĠvÉªzÉªtÉĻÉ¹z":6495,"ĠbÃ¦skÉªtbÉĶl":6496,"ĠÊĮÎ¸ÉĶÉ¹Éªtiz":6497,"ĠpÊĮnÉªÊĥmÉĻnt":6498,"ĠlÉªÅĭkÉĻn":6499,"ÉĻÉ¹veÉªÊĥÉĻn":6500,"ĠpÉ¹ÉĽÉ¡nÉĻnt":6501,"ĠpÉĽnsÉªlveÉªniÉĻ":6502,"ĠsÊĮni":6503,"ĠjÉĶl":6504,"É¡ÉĻÉ¹z":6505,"ĠÉ¹ÊĮm":6506,"ĠÉ¡oÊĬt":6507,"ĠsiËĲÉĽl":6508,"ĠÉĽfsiËĲ":6509,"ĠÊĮsuËĲm":6510,"ĠsteÉªdiÉĻm":6511,"ĠhÃ¦mÉĻltÉĻn":6512,"ĠÉ¹ÊĮbÉĻÉ¹":6513,"ĠloÊĬkeÉªÊĥÉĻn":6514,"ĠpÉ¹aÉªmÉĻÉ¹É¹i":6515,"ĠskÉĳtlÉĻnd":6516,"ĠviÉĻkÉĻl":6517,"ĠmoÊĬsli":6518,"ĠÉªÅĭkÉ¹ÉĽdÉªbÉĻl":6519,"ĠkÊĮntÉ¹ÉªsaÉªd":6520,"ĠfjuËĲnÉĻÉ¹É¹ÉĻl":6521,"hoÊĬl":6522,"ÊĬks":6523,"ĠÃ¦plÉªk":6524,"ĠfoÊĬtÉĻ":6525,"ÊĮmÉĽÉ¹Éªk":6526,"ĠÉĽnÉĽn":6527,"ĠÉ¡É¹Ã¦t":6528,"ĠÉ¡É¹eÉªp":6529,"ĠeÉªliËĲn":6530,"ÊĴÉĻnÉĻl":6531,"Ã¦pÉªÅĭ":6532,"ĠmiËĲtÉĻÉ¹z":6533,"ĠkÃ¦mbÉĻl":6534,"ĠÉ¡ÉĳÉ¹dz":6535,"ĠstÉ¹ÉĶÅĭÉ¡ÉĻÉ¹":6536,"ĠkiËĲÎ¸":6537,"ĠvÃ¦lÉĻnt":6538,"ĠdÉĳkjuËĲmÉĻnt":6539,"ĠÉ¹ÉĽsÉĻlÉªÅĭ":6540,"ĠkÉĳtÉªd":6541,"ĠÉªntÉĻÉ¹É¹ÊĮptÉªd":6542,"ĠheÉªdÉĻn":6543,"ÊĥÉĻnts":6544,"ÉĻnstÉ¹":6545,"ÊĴaÉªz":6546,"ÉĽnÊĥÉĻnz":6547,"ĠnoÊĬwÉĽÉ¹":6548,"ĠÃ¦tÉªtuËĲd":6549,"ĠeÉªÉĽm":6550,"ĠflÊĮÅĭ":6551,"ĠÉ¹oÊĬb":6552,"ĠstÉ¹Ã¦t":6553,"ĠbÃ¦bÉĻl":6554,"ĠÃ¦ktÉªd":6555,"ÉĻkÉĻl":6556,"ĠdÊĮbÉĻljuËĲeÉªt":6557,"Ã¦zÉĻm":6558,"ÊĴÉĽÎ¸É¹oÊĬ":6559,"ÊĮli":6560,"ĠÊĥÉĽÉ¹Éª":6561,"ÉªstÉĻns":6562,"ĠÉªnteÉªk":6563,"uËĲnz":6564,"ÊĥaÉªlds":6565,"aÉªlaÉªt":6566,"ĠÉ¹ÉªlaÉªÉĻns":6567,"ĠkÉĻmpoÊĬz":6568,"ĠÃ¦nsÉĻÉ¹É¹":6569,"ĠkÉªdn":6570,"ĠbÊĬÊĥÉªz":6571,"ĠpÊĬÉ¹li":6572,"ĠmÃ¦É¡nÉĽtÉªk":6573,"ĠsiËĲzd":6574,"ĠlÉĶÉªÉĻl":6575,"ĠkuËĲpÉĻÉ¹":6576,"ĠÎ¸É¹ÉĽtÉĻnd":6577,"ĠdÉªbeÉªt":6578,"ĠpaÊĬdÉĻÉ¹":6579,"ĠÉªnhÃ¦bÉªtÉĻnts":6580,"bÃ¦t":6581,"hjuËĲ":6582,"kiÉĻ":6583,"ĠpÃ¦kt":6584,"ĠtuËĲzdeÉª":6585,"ĠÊĮplaÉª":6586,"ĠÊĮnÉĽks":6587,"ĠÉ¡É¹ÉĽÉ¡":6588,"ĠkwoÊĬt":6589,"ĠÊĮtÉĽndÉªd":6590,"ĠdÉªzni":6591,"ĠwÉªni":6592,"ĠvÉªzÉªtÉªd":6593,"ĠkÉĻnfÉľËĲ":6594,"ĠsiËĲtÉªd":6595,"ĠlÉªmÉªt":6596,"ĠmÉªzÉ¹ÉĻbÉĻl":6597,"ĠnÃ¦nsi":6598,"ĠÉ¡Éĳs":6599,"ĠÉĶÉ¹Éªd":6600,"ĠÎ¸Éĳ":6601,"ĠwÉªÊĥÉªz":6602,"ĠtuËĲb":6603,"ĠkÉĳmplÉªk":6604,"ĠÉªnvaÉªt":6605,"ĠkÉĳnÊĥÉĻs":6606,"ĠhÉĳnd":6607,"ĠpÉĶÉ¹tÉĻÉ¹":6608,"ĠtÉĽmpt":6609,"ĠÊĥÉĳps":6610,"ĠbÃ¦ÅĭÉªÅĭ":6611,"ĠmÃ¦sÊĮt":6612,"ĠtÃ¦lÉĻnt":6613,"ĠfÃ¦ntÃ¦stÉªk":6614,"ĠtÉªÊĥuËĲ":6615,"ĠkÉĽvÉªn":6616,"ÊĮld":6617,"ĠtÉĳks":6618,"ĠdÉĳt":6619,"ĠlÉĽkt":6620,"ĠÎ¸ÊĮndÉĻÉ¹":6621,"ĠÉ¡oÊĬlz":6622,"vÉĻÉ¹É¹ÉªÅĭ":6623,"biz":6624,"ĠtwÉªÅĭk":6625,"ĠkÉ¹Ã¦p":6626,"ĠÊĮmbÉ¹":6627,"ÉĻpÃ¦s":6628,"ĠkÉĻnsÉªst":6629,"ÊĮÉ¡É¹iËĲ":6630,"ĠhÉĳÉ¹ti":6631,"ĠkoÊĬÉĳp":6632,"ĠstÃ¦nli":6633,"stÃ¦ndÉªÅĭ":6634,"ĠspÉĻsÉªfÉªk":6635,"ĠhÉĽlÉªkÉĳptÉĻÉ¹":6636,"ĠÉĽnÎ¸uËĲzi":6637,"sÉªts":6638,"ÉĶÉ¹st":6639,"ĠhÃ¦Åĭk":6640,"ÉĻÉ¹É¹ÉĻn":6641,"ĠwaÉªnd":6642,"ÉĳlÉªk":6643,"ĠdÉªsÊĮÉ¡É¹iËĲ":6644,"ĠpÉĻÉ¹sw":6645,"ÊĥÉĻÉ¹É¹ÉªÅĭ":6646,"ĠÉĽÉ¡zÉĶst":6647,"ĠhÉĳÉ¹vi":6648,"ĠÉªmpÉĶÉ¹tÉĻns":6649,"ĠkÉĻnfjuËĲ":6650,"ĠtÉĽmpÉĻl":6651,"ĠmÉľËĲdÉĻÉ¹d":6652,"ĠpÉ¹ÉªpÉĽÉ¹":6653,"ĠbÉĽnÉªfÉªt":6654,"ĠbÃ¦kwÉĻÉ¹dz":6655,"ĠnÉªÉ¹Éªst":6656,"ĠdÃ¦l":6657,"ĠmjuËĲt":6658,"ĠÉ¡eÉªl":6659,"juËĲÉĻl":6660,"ĠaÊĬl":6661,"ĠtÉ¹aÉªÊĮmf":6662,"ÊĥaÉªldhÊĬd":6663,"ĠjuËĲnÉªfÉĶÉ¹":6664,"ÉªskoÊĬ":6665,"ĠÉªmÉªteÉªtÉªÅĭ":6666,"ĠhÉĳlÉªdeÉªz":6667,"ĠbÉľËĲtÉĻn":6668,"ĠÉľËĲsjÊĬlÉĻ":6669,"ĠÉªkÉĳnÉĻmi":6670,"ÊĬÅĭ":6671,"ĠjÊĬÅĭ":6672,"ĠtuËĲm":6673,"ĠtwÉĽntiÉĻÎ¸":6674,"ĠÉĽsp":6675,"ĠbÃ¦blÉªÅĭ":6676,"ĠÉ¹ÉªmeÉªnÉªÅĭ":6677,"ÉĽpÉĻÉ¹d":6678,"ĠbÉªb":6679,"ĠnÉªÉ¹baÉª":6680,"ĠdeÉªzi":6681,"ĠÉ¡Ã¦sp":6682,"ĠÉĽkstÉĽndÉªd":6683,"ĠwÉĶÉ¹ÉªÉĻÉ¹z":6684,"ĠdÉªtÉľËĲmÉªn":6685,"beÉª":6686,"staÉªn":6687,"Ã¦É¡z":6688,"ĠkoÊĬm":6689,"ĠmÉĽntÉĻl":6690,"ĠnÉĳnÉĻ":6691,"ĠstÉĳÉ¹d":6692,"ÊĥuËĲsÉªts":6693,"deÉªl":6694,"ĠjuËĲnÉªts":6695,"ĠbluËĲz":6696,"ÊĮktÉªv":6697,"ÉªktÉªd":6698,"wÉľËĲks":6699,"ĠnÃ¦pi":6700,"ĠneÉªtÉªvz":6701,"ĠÉªnvÉĽstÉªÉ¡eÉªÊĥÉĻn":6702,"ĠfeÉªvÉĻÉ¹É¹":6703,"ĠbÉĶÉªfÉ¹ÉĽnd":6704,"ÊĥaÉªldsneÉªm":6705,"ĠtÃ¦t":6706,"ĠtÉªÉ¹":6707,"ĠmÊĬ":6708,"ĠpeÉªt":6709,"Î¸s":6710,"ĠwÉªsk":6711,"ĠstÉ¹Éªkt":6712,"ĠmiËĲd":6713,"ĠbaÉªÉªÅĭ":6714,"ÉĻtÉªks":6715,"ĠskÉĶÉ¹d":6716,"ĠkÉĻnÉĽktÉªd":6717,"ĠsniËĲk":6718,"ĠdÉªzÉľËĲt":6719,"aÉªkÉĻl":6720,"ĠskwiËĲk":6721,"ĠmÉªdnaÉªt":6722,"ĠkÉĻnsÉªdÉĻÉ¹É¹ÉĻbÉĻl":6723,"ĠÉ¹ÉĽpÉ¹ÉªzÉĽntÉĻtÉªv":6724,"ÉĽÉ¹ÉªtÉªd":6725,"ĠmÃ¦É¹iÉĻn":6726,"ĠvÉªktÉĻÉ¹":6727,"ĠsÉĻplaÉª":6728,"ĠsuËĲzÉĻn":6729,"ĠhÉªstÉĶÉ¹ÉªkÉĻl":6730,"ĠfÊĮÅĭkÊĥÉĻn":6731,"ĠÉªntÉĻfÉªÉ¹":6732,"ĠspÊĮÉ¡ÉĽti":6733,"ĠfoÊĬtÉĻÉ¡É¹Ã¦f":6734,"heÉª":6735,"waÉªd":6736,"ĠÉĽvÉĻn":6737,"ĠmeÉªzi":6738,"ĠnoÊĬkiÉĻ":6739,"ĠstÉľËĲd":6740,"ĠtuËĲlz":6741,"ĠvÉĶÉª":6742,"ĠÉľËĲnd":6743,"ĠwÉªlsÉĻn":6744,"ĠbÃ¦É¡z":6745,"ĠsÉľËĲvÉĻnt":6746,"ĠÉ¹ÉªfÉ¹":6747,"ĠbÉľËĲÎ¸ÉĻ":6748,"ĠdÉ¹ÉĽsÉªÅĭ":6749,"ĠsÉĻpÉĶÉ¹tÉªd":6750,"ĠÃ¦ktÉªvÉªtiz":6751,"ÊĥÉªÉ¹ÉªÅĭ":6752,"ĠÉªntÉĻÉ¹nÉĽt":6753,"ĠkÉĶsts":6754,"ĠÉĽkspÉĽktÉªÅĭ":6755,"ĠdÉĽlÉªk":6756,"ĠmÉľËĲk":6757,"ĠdÉ¹iËĲ":6758,"ĠbÉĽ":6759,"ÊĥÉĳt":6760,"É¡Éªv":6761,"ÉªÅĭÃ¦m":6762,"ĠiËĲÉ¡ÉĻl":6763,"ĠsteÉªÊĥÉĻnz":6764,"ÉĻsiËĲ":6765,"eÉªkÉĻÉ¹":6766,"ĠsoÊĬf":6767,"ĠpliËĲ":6768,"ĠbÉªÉ¡ÊĮn":6769,"ĠÉ¡ÉĳdÉĻs":6770,"ĠÉĳÉ¹tÉªsts":6771,"ĠbÉĽlz":6772,"ĠkloÊĬzÉªÅĭ":6773,"ĠÉªntÉĻÉ¹vjuËĲz":6774,"ĠdÊĮÉ¡lÉĻz":6775,"ĠÉĶdiÉĻns":6776,"Ã¦É¹Éªti":6777,"ĠdÊĮÅĭk":6778,"ĠjÊĮk":6779,"ĠnÉĶÉ¹d":6780,"ĠlÊĮm":6781,"ĠlÉªz":6782,"ĠÉĽmf":6783,"ĠÃ¦ndÉ¹uËĲ":6784,"kwÉĶÉ¹t":6785,"ĠvÉĽt":6786,"Éĳmi":6787,"iËĲtoÊĬ":6788,"ÉĳkÉ¹ÉĻs":6789,"ĠÉ¡lÃ¦nst":6790,"ĠwaÉªlst":6791,"ĠkÉĻmpiËĲtÉªd":6792,"ĠkÉľËĲli":6793,"ĠklaÉªmd":6794,"ĠtÉ¹iËĲtmÉĻnt":6795,"ĠÉ¹Ã¦bÉªts":6796,"ĠÉĳlÉªv":6797,"ĠlÉĽvÉĻlz":6798,"ĠpÉĶÉªzÉĻn":6799,"ĠÉĶltÉĻÉ¡ÉĽÃ°ÉĻÉ¹":6800,"ĠÊĮnÉĽkspÉĽktÉªd":6801,"eÉªÉĻ":6802,"ĠsÃ¦Åĭk":6803,"ĠpÉªnt":6804,"ĠlÉªli":6805,"Ã°ÉĻlÉĽs":6806,"ĠÉªnn":6807,"ĠsÉĽs":6808,"vÉĻÉ¹d":6809,"ĠplÉĽÊĴÉĻÉ¹É¹":6810,"ĠnaÉªnÎ¸":6811,"ĠÉ¡ÉľËĲlfÉ¹ÉĽnd":6812,"ĠstÉĳpÉªÅĭ":6813,"ĠÃ¦nÉªmeÉªtÉªd":6814,"ĠpÉ¹ÉĳvÉªnsÉªz":6815,"ĠdÉªsÊĮpÉªÉ¹":6816,"ĠvaÉªÉĻlÉĻnt":6817,"ĠnÉĽsÉªsÉĽÉ¹Éªli":6818,"ĠkÉ¹ÉªtÉªs":6819,"ĠdÉªlaÉªtfÉĻl":6820,"ĠpÉĽÅĭÉ¡wÉªn":6821,"ĠsiÉĻÉ¹Éª":6822,"ĠbÉĳÉ¹d":6823,"ÊĥÉªs":6824,"ĠnÉĽst":6825,"ĠpÃ¦Åĭk":6826,"ĠaÉªÉĻ":6827,"ĠaÉªÉĻÉ¹lÉĻnd":6828,"ĠÉ¹ÉĽn":6829,"ÉªsÉªt":6830,"ĠvaÉªt":6831,"ĠÊĮmjuËĲzd":6832,"ĠswÉĽpt":6833,"ĠpoÊĬÉªm":6834,"ĠpÉ¹ÉªtÉĽndÉªÅĭ":6835,"ĠpÉªÅĭki":6836,"ĠÉªmpÉ¹ÉĽÊĥÉĻn":6837,"ĠbÉĳÉ¹bÉĻÉ¹É¹ÉĻ":6838,"ĠÊĥaÉªnÉªÅĭ":6839,"viËĲnÉª":6840,"wÉĶk":6841,"ĠtuËĲl":6842,"ĠÉ¡ÉĽtn":6843,"ĠwÉĶntÉªÅĭ":6844,"ĠtwaÉªlaÉªt":6845,"ĠkÉĳÉ¹pÉªt":6846,"ĠsÉĳÉ¹oÊĬ":6847,"ĠluËĲp":6848,"ĠdÉªskÊĮvÉĻÉ¹É¹i":6849,"ĠkaÊĬntÉªÅĭ":6850,"ĠÉªlÉĽktÉ¹Éĳn":6851,"ĠÉ¡ÉĳÉ¹Î¸":6852,"ĠdÉªsÉ¡ÊĮst":6853,"ĠkÉ¹ÉªkÉªt":6854,"bÃ¦nd":6855,"pÉĻ":6856,"ÉªÉĻ":6857,"ĠÃ¦bi":6858,"Ġdi":6859,"ĠmjuËĲ":6860,"ĠliËĲp":6861,"ĠÉĽmpiËĲ":6862,"ĠÎ¸iËĲf":6863,"ÉĽlz":6864,"ĠstÃ¦k":6865,"ĠblÃ¦st":6866,"ĠpÉĻÉ¹suËĲ":6867,"ĠsÊĮnÊĥaÉªn":6868,"ĠsteÉªbÉĻl":6869,"ĠÊĮÅĭkÊĮm":6870,"ĠsÊĮmwÊĮnz":6871,"ĠseÉªvÉªÅĭ":6872,"ĠtÉ¹Ã¦nsfÉľËĲ":6873,"ĠÉ¹ÉªtÉľËĲnÉªÅĭ":6874,"ĠkÉ¹ÉĶsÉªÅĭ":6875,"ĠfÉĻÉ¹É¹ÉĻÉ¹":6876,"ĠkÊĮdÉĻl":6877,"ĠÉ¡É¹Ã¦ni":6878,"ĠÊĮdmÉªtÉªd":6879,"fÉĶÉ¹s":6880,"ĠfoÊĬtoÊĬ":6881,"ĠpÊĮd":6882,"ĠÉ¡eÉªts":6883,"ÉĶÉ¹iz":6884,"ĠkÃ¦É¹ÉĻn":6885,"aÉªmz":6886,"eÉªsi":6887,"É¹ÉªÅĭks":6888,"É¹uËĲd":6889,"ĠfÉ¹ÉĽndÊĥÉªp":6890,"ĠkÃ¦tÊĮl":6891,"ĠpÉĳlÉĻtÉªks":6892,"ĠvÉªktÉªmz":6893,"ĠpÉĳlÉªsiz":6894,"ĠvoÊĬts":6895,"ĠkÉĳtÉĻn":6896,"ĠmÉªÊĥÉĻnÉĽÉ¹i":6897,"ĠÊĮsÉĽmbli":6898,"ĠtÉ¹ÊĮdÉªÊĥÉĻnÉĻl":6899,"ĠÉªntÉľËĲpÉ¹Éªt":6900,"ĠkÉ¹ÉĳkÉĻdaÉªl":6901,"ÊĮmÉĽÉ¹ÉªkÉĻn":6902,"wi":6903,"ÉĶÉªt":6904,"ĠsÉĶt":6905,"ĠmÉĽÉ¹":6906,"Éªnst":6907,"ĠvÉĻÉ¹É¹":6908,"ĠtÉ¹ÉĽÊĴÉĻÉ¹":6909,"ĠbÉ¹uËĲ":6910,"ĠmeÉªÉĻÉ¹":6911,"Ã¦lkÉĻn":6912,"ÊĴiËĲaÉªÉĽn":6913,"jÊĬleÉªt":6914,"ĠkÉĳnv":6915,"oÊĬlt":6916,"ĠfÃ¦kts":6917,"ĠÉ¹ÉªvjuËĲ":6918,"ĠhjuËĲmÉĻnz":6919,"ĠkÉĳnstÉĻnt":6920,"ĠbÉªlÉĶÅĭd":6921,"ĠkÉĻÅĭkluËĲ":6922,"ĠÊĮdÉĳptÉªd":6923,"ĠkÉ¹ÉªstÉĻfÉĻÉ¹":6924,"bÉĳÉ¹k":6925,"ĠkÉĻpÃ¦s":6926,"ĠtoÊĬd":6927,"ĠmÉĽlt":6928,"ĠloÊĬlÉĻ":6929,"ĠhÃ¦k":6930,"ĠstÉªf":6931,"ĠtÉ¹Ã¦p":6932,"ĠhuËĲÉĽvÉĻÉ¹":6933,"ÉĽndÉĻ":6934,"ÊĴuËĲÉªÊĥ":6935,"ĠdÉĶÉ¹ÉĻ":6936,"ÉªnsÉĻn":6937,"ĠwÉĶÉ¹z":6938,"ĠdÉªskÊĮÊĥÉĻn":6939,"ĠdÉ¹Éªft":6940,"ĠÉ¹ÉªzÉľËĲv":6941,"ĠbÉĶÉ¹dÉĻÉ¹z":6942,"ĠpÉ¹iËĲst":6943,"ĠmÉĻkd":6944,"ĠhÉĽlÎ¸i":6945,"ĠdÉĳnÉĻldz":6946,"ĠÉĳnÉªstli":6947,"ĠtaÉªlÉĻÉ¹":6948,"ĠkÉĻlÊĮmbiÉĻ":6949,"ĠÉªnÊĥÊĬÉ¹É¹ÉĻns":6950,"ĠÉĳÉ¹kÉªtÉĽkt":6951,"ĠlÉªkwÉªd":6952,"ĠvÉĻÉ¹É¹aÉªÉĻti":6953,"wÉĶtÉĻÉ¹":6954,"Ã¦É¹oÊĬ":6955,"ĠtÉĳd":6956,"ĠsÉªÉ¡ÉĻÉ¹É¹":6957,"ĠbÉªÉ¹d":6958,"ĠfÉĳs":6959,"ÉªkÊĥÉĻn":6960,"ĠsleÉª":6961,"ĠkÉĳnfl":6962,"ĠkÃ¦tÉªÉ¡":6963,"ĠsÉªlv":6964,"ĠstÉªkÉªÅĭ":6965,"ĠjÉĶÉ¹kÊĥÉĻÉ¹":6966,"ĠfÉĳÉ¹mÉĻÉ¹z":6967,"ĠtÉ¹Éªb":6968,"ĠkÉĻÉ¹É¹iËĲÉĻn":6969,"ĠlÉªtÉĻÉ¹":6970,"ĠpoÊĬlÉĻnd":6971,"ĠpoÊĬlÉªÊĥ":6972,"ĠfiËĲdÉªÅĭ":6973,"ĠsmoÊĬkÉªÅĭ":6974,"ĠhÊĮmÉªÅĭ":6975,"ĠsÃ¦tÉªsfÃ¦kÊĥÉĻn":6976,"ĠÉĻkeÉªÊĴÉĻnÉĻli":6977,"ĠstÃ¦tÉĻs":6978,"ĠsÉªÉ¡nÉªfÉªkÉĻnt":6979,"ĠsÉªtÉªzÉĻnz":6980,"ĠÊĥeÉªps":6981,"hÃ¦t":6982,"iÉĻnt":6983,"jÉĻÉ¹É¹":6984,"ĠkÉª":6985,"ĠdÉľËĲt":6986,"ĠbeÉªd":6987,"ÊĥÉĽn":6988,"ĠÉ¡É¹Éª":6989,"ĠÉ¹Éªh":6990,"ĠpleÉªts":6991,"ĠskÉªl":6992,"ĠmÊĮtÉĻÉ¹d":6993,"ĠhÉĽdÉªd":6994,"ĠwÉªsÉĻlÉªÅĭ":6995,"ĠpeÉªntÉªd":6996,"ĠÃ¦lÉªÉ¡zÃ¦ndÉĻÉ¹z":6997,"ĠmÊĮltÉªpÉĻl":6998,"ĠkÉĻmÉľËĲÊĥÉĻl":6999,"ÉĳkÉ¹ÉĻsi":7000,"ĠsiÉĻÉ¹ÉªÉĻl":7001,"ÊĮÉ¹uËĲ":7002,"ĠdoÊĬs":7003,"ĠÎ¸iËĲm":7004,"ĠpiËĲÉĽs":7005,"ĠbÃ¦kt":7006,"ĠdÃ¦dz":7007,"ĠaÉªdiËĲ":7008,"ĠÊĮkjuËĲzd":7009,"ĠdÉªpÉĽndz":7010,"ĠÃ¦nsÉĻÉ¹z":7011,"ÊĮktÉªd":7012,"ĠÉĶtÊĮm":7013,"ĠkÉĳmÉĻnli":7014,"ĠÉ¡É¹oÊĬÎ¸":7015,"ĠkÉªkÉªÅĭ":7016,"ĠpÉĶÉ¹ÊĥÉĻn":7017,"ĠpiËĲtÉĻÉ¹z":7018,"tÊĬ":7019,"ĠjÃ¦m":7020,"ĠÉ¹ÉĽm":7021,"ĠstaÊĬt":7022,"ĠsiËĲÉĽf":7023,"ÉĽÉ¹iÉĻ":7024,"ĠdÉ¹Ã¦Åĭk":7025,"iËĲvz":7026,"ĠkÉĻnsÊĮlt":7027,"aÉªÉĻÉ¹É¹ÉªÅĭ":7028,"ĠÉĳnlaÉªn":7029,"ĠsuËĲÉªsaÉªd":7030,"ĠÉªmpÃ¦kt":7031,"bÉ¹ÊĮÊĥ":7032,"ĠfÉ¹Ã¦nsÉªskoÊĬ":7033,"ĠkÉĳÉ¹tÉĻÉ¹":7034,"ĠÃ¦É¹oÊĬz":7035,"ÊĴÉĽsÉªkÉĻ":7036,"ĠmÉĶÉ¹Éªs":7037,"ĠÉªstÃ¦blÉªÊĥ":7038,"ĠfÉľËĲnÉªt":7039,"ĠÊĮmÉĽndmÉĻnt":7040,"leÉª":7041,"ĠkÉĽl":7042,"ĠtÊĮb":7043,"ĠdÉ¹ÉªÅĭks":7044,"ĠfaÊĬ":7045,"ĠfÉĽÃ°ÉĻÉ¹":7046,"ÉĻÉ¹É¹eÉªtÉªd":7047,"ĠwÉªÎ¸":7048,"ĠÃ¦ni":7049,"ĠaÉªlmÉĻÉ¹":7050,"ĠzÃ¦k":7051,"ĠÉĻÉ¹É¹oÊĬz":7052,"ĠhÉĽdkwÉĶÉ¹t":7053,"aÉªvd":7054,"ĠdÉªstÉªÅĭÉ¡w":7055,"ĠtÉĽnÉªs":7056,"ĠdÉªzÃ¦stÉĻÉ¹":7057,"ĠbÉĳÉ¹z":7058,"ĠjuËĲslÉĻs":7059,"ĠÉ¹ÉªpiËĲt":7060,"ĠstÉĶÉ¹z":7061,"ÊĥÉĽkÉªÅĭ":7062,"ĠbÃ¦ndz":7063,"ĠkÉĻmÃ¦ndÉĻÉ¹":7064,"ĠkÃ¦bÉªnÉĻt":7065,"É¹aÉªtÉĻÉ¹":7066,"ĠÉĳÉ¹É¡juËĲmÉĻnt":7067,"ĠÉĽkstÉ¹ÉĶÉ¹d":7068,"ĠÃ¦lfÉĻb":7069,"ĠÊĮmbÉ¹ÉĽlÉĻ":7070,"ĠvÉĶÉªÉªd":7071,"zaÉªÉĻti":7072,"ÉĻÉ¹p":7073,"ĠkÉªkt":7074,"ĠdiËĲv":7075,"ÉĻneÉªÊĥÉĻn":7076,"ĠloÊĬdz":7077,"ÊĴmÉĻnts":7078,"ĠoÊĬl":7079,"ĠÊĥÉ¹iËĲ":7080,"ÉĻmÉĻs":7081,"ĠkwiËĲnz":7082,"ĠswÉĽÉ¹":7083,"ĠnÉĽvÉĻÉ¹Ã°ÉĻlÉĽs":7084,"ĠsnÃ¦k":7085,"ĠsiËĲnjÉĻÉ¹":7086,"ĠkÉĻmpoÊĬzd":7087,"ĠdÉªpÉ¹ÉĽÊĥÉĻn":7088,"ĠpÉľËĲsÉĻnÉĻli":7089,"ĠÃ¦kÊĥÉĻnz":7090,"ĠdaÉªnÉªÅĭ":7091,"ĠvÉªktÉĶÉ¹iÉĻ":7092,"ĠdÉĽmÉĻnstÉ¹":7093,"ĠpÉ¹ÉĳspÉĽkt":7094,"ĠmÉªÉ¹li":7095,"ĠÃ¦ÅĭzaÉªÉĻti":7096,"Ã¦lÉĻsÉªs":7097,"ĠÉĽpÉªsoÊĬdz":7098,"bÃ¦É¡":7099,"bÉĽlt":7100,"sÉĶÅĭ":7101,"ĠkeÉªtiËĲ":7102,"ĠnÃ¦st":7103,"ĠÉ¹oÊĬst":7104,"ĠwÉªÉ¹i":7105,"ĠsiËĲdÊĮbÉĻljuËĲdÊĮbÉĻljuËĲdÊĮbÉĻljuËĲ":7106,"ĠhaÊĬd":7107,"ĠblÉĽst":7108,"ĠeÉªaÉª":7109,"ĠmÃ¦nÉĻÉ¹É¹":7110,"ĠdÉªsÉªp":7111,"pÉ¹ÉĽs":7112,"ĠÊĮfÉĽktÉªd":7113,"ÊĮmpi":7114,"ĠÊĮlÉĶÅĭsaÉªd":7115,"ĠstÉªki":7116,"ĠlÉªstÉªd":7117,"ÊĴÉªtÉĻbÉĻlz":7118,"ĠkÉ¹ÉªmÉªnÉĻl":7119,"ĠpoÊĬÉªtÉ¹i":7120,"ĠtÉĻmeÉªtoÊĬ":7121,"ÊĴÃ¦É¡wÉĳÉ¹":7122,"ĠnÉĽÉ¡ÉĻtÉªv":7123,"ĠÉĽkspÉĻdÉªÊĥÉĻn":7124,"ĠkÉĻnfÉľËĲmd":7125,"ĠkÉĻnfjuËĲÊĴÉĻn":7126,"taÊĬn":7127,"ĠÉ¡É¹Éªm":7128,"ĠÉªnÉĶÉ¹":7129,"ĠfÉ¹Ã¦nt":7130,"ĠkÃ¦d":7131,"ĠklÉªnt":7132,"ĠkÊĮb":7133,"ĠmÉĳmÉĻ":7134,"ĠÊĮtÉĻÉ¹É¹ÉĻns":7135,"ĠÃ¦sks":7136,"ĠÎ¸Ã¦ÅĭkfÉĻl":7137,"ĠÉ¡lÉĽn":7138,"ĠtÉĽnÉĻsiËĲ":7139,"ĠpÉĳps":7140,"ĠÉªnstÉªtuËĲt":7141,"ÊĴÉĽnÉĻÉ¹É¹eÉªÊĥÉĻn":7142,"ĠÉĳÉ¹tÉªkÉĻl":7143,"ĠwÉĶlt":7144,"ĠlÉªvÉĻÉ¹":7145,"ĠmÃ¦Î¸Éªm":7146,"ĠpÉ¹ÉĻsiËĲdÉªd":7147,"ĠsÉĳlÉĻm":7148,"ĠaÉªdÉĽntÉªfaÉª":7149,"ĠÉ¡É¹Ã¦bz":7150,"ĠÉĶstÉ¹iÉĻ":7151,"ĠÉĻbteÉªnd":7152,"ĠjuËĲkÉ¹eÉªn":7153,"ĠmÉĻkdÉĳnÉĻld":7154,"ĠiÉĻÉ¹ÉĻ":7155,"ĠtÉªz":7156,"ĠtÃ¦d":7157,"ĠlÉªp":7158,"ÉĳÉ¹n":7159,"ĠÉ¹eÉªnz":7160,"ÉªtÉªz":7161,"ÉĻmd":7162,"ĠhaÊĬÉĻÉ¹d":7163,"ĠspÉĽs":7164,"ÉªmÉĻm":7165,"ĠzÉªp":7166,"ĠkaÊĬbÉĶÉª":7167,"ĠpÉªkjuËĲl":7168,"ĠÉĳbviÉĻs":7169,"ĠpÉĳsÉĻbÉªlÉªti":7170,"ĠsaÊĬÎ¸iËĲst":7171,"ĠkÉĻnfjuËĲzd":7172,"ĠtÉĽstÉªÅĭ":7173,"ĠsÊĮfÉĻÉ¹":7174,"ĠtÉªkÉªts":7175,"ĠnÉĳkÉªÅĭ":7176,"ĠÉªlÉĻstÉ¹eÉªtÉªd":7177,"ĠÉ¡ÉĶÉ¹dÉĻn":7178,"ĠtÉ¹Ã¦vÉĻld":7179,"ĠdiËĲiËĲbiËĲ":7180,"ĠÊĮtlÃ¦ntÉªk":7181,"ÊĴÉªÅĭÉ¡ÉĻl":7182,"ĠÊĮÅĭkÊĮmftÉĻbÉĻl":7183,"ĠpÉªkjuËĲlÉªÉ¹":7184,"wÉªk":7185,"ĠbÉªf":7186,"É¡eÉªt":7187,"ĠpaÉªn":7188,"ĠpÉ¹iËĲt":7189,"ĠlÊĮÉ¡":7190,"ĠÉĽmdÊĮbÉĻljuËĲdÊĮbÉĻljuËĲdÊĮbÉĻljuËĲ":7191,"ÉľËĲÉ¹":7192,"ĠÉ¡É¹oÊĬnz":7193,"ĠwÉĽnÉĽvÉĻÉ¹":7194,"ÉªÊĥÉªÅĭ":7195,"ÊĴuËĲli":7196,"ĠkaÉªndnÉĻs":7197,"ÊĴÉªnÉªÉ¹ÉªÅĭ":7198,"ĠwÉªndz":7199,"ĠmÉĽmÉĻÉ¹É¹iz":7200,"ĠleÉªbÉĻl":7201,"ĠdÊĮbÉĻljuËĲdÊĮbÉĻljuËĲ":7202,"ĠfÉ¹Ã¦nsÉªs":7203,"ĠklÃ¦sÉªz":7204,"ĠlÉªbÉĻÉ¹":7205,"ĠÉ¡ÉĳÉ¹bÉªd":7206,"ĠÉĶÉ¹É¡ÉĻnaÉªzd":7207,"ĠsÉĽpÉĻÉ¹É¹eÉªtÉªd":7208,"ĠzoÊĬi":7209,"ĠmaÉªÉ¡É¹eÉªÊĥÉĻn":7210,"ĠkÉĻÅĭkluËĲdÉªd":7211,"ĠtÉĳl":7212,"ÉĳÎ¸":7213,"ÊĥoÊĬk":7214,"ĠjÊĮnd":7215,"ĠfÃ¦b":7216,"nts":7217,"ÊĴÊĬÉ¹É¹i":7218,"ĠÎ¸É¹Éª":7219,"ĠÊĥÉĽlf":7220,"ÉªÉ¹iÉĻ":7221,"ĠkÃ¦É¹":7222,"ĠtÉ¹eÉªnd":7223,"ĠwÊĬdÉĻv":7224,"eÉªÊĥÉĻns":7225,"ÉĶÉ¹dÉĻÉ¹":7226,"ĠÉĽvÉ¹ÉªbÉĳdiz":7227,"ĠÉĽkspÉĽns":7228,"ĠnÉĶÉ¹Î¸iËĲst":7229,"ĠkÉĳntÉĽst":7230,"ĠkÉĳnstÉªtuËĲÊĥÉĻn":7231,"ĠÉ¹ÉĽzÉĻluËĲÊĥÉĻn":7232,"ĠnÃ¦pkÉªn":7233,"ĠÉĳpÉĻÉ¹É¹eÉªÊĥÉĻnz":7234,"ĠmÉªsteÉªkÉĻn":7235,"ĠpÉ¹ÉĳfÉªt":7236,"ĠpÉ¹ÉĳdÊĮkts":7237,"ĠÊĥÉĽÉ¹Éªf":7238,"zÉĻl":7239,"ĠlaÉªÉĻnz":7240,"ĠÃ¦zÉªtÉªz":7241,"ĠkÃ¦v":7242,"ĠkÉĻmiËĲd":7243,"ĠfiËĲst":7244,"ĠÉ¡luËĲ":7245,"ĠÉĽÉ¡zÃ¦mpÉĻlz":7246,"ÊĴÉĳnz":7247,"ĠÊĮÅĭkÉĳn":7248,"ĠkÉĳntÉĽnts":7249,"ĠÉ¹ÉªduËĲst":7250,"ĠhÉľËĲtÉªÅĭ":7251,"ĠfÉ¹Ã¦Åĭki":7252,"ĠÉ¡É¹eÉªps":7253,"ĠkÊĮdÉĽts":7254,"ÊĥÉªÉ¹fÉĻl":7255,"ĠdÉªmÃ¦ndÉªd":7256,"ĠÊĮdmÉªnÉªstÉ¹eÉªt":7257,"ĠstÊĮtÉªst":7258,"lÉªm":7259,"laÉªnd":7260,"ÊĮÊĥÉªÅĭ":7261,"ĠtÉĳt":7262,"ÉĽÉ¹oÊĬ":7263,"ĠhÃ¦loÊĬ":7264,"ĠvÉªÊĴÉĻn":7265,"ĠpÉ¹eÉªz":7266,"ÉªfÉĻli":7267,"ĠklÃ¦ps":7268,"É¹ÉªkÊĮlt":7269,"ĠsÉĽkÊĥuËĲÉĻl":7270,"ĠtaÉªÉĻÉ¹":7271,"ĠtaÉªÉĻÉ¹z":7272,"ĠÉĽntÉ¹i":7273,"ĠbÉľËĲdÉĻn":7274,"ĠÃ¦bsÉĻns":7275,"ÊĴuËĲnjÉĻÉ¹":7276,"ĠfÉªÉ¹s":7277,"ĠÉªsteÉªt":7278,"ĠneÉªvÉĻl":7279,"ĠsÉĻÉ¹É¹aÊĬndÉªd":7280,"ĠliËĲnÉªÅĭ":7281,"ĠkÃ¦É¹ÉĻts":7282,"ĠÉĽksplÊĮneÉªÊĥÉĻn":7283,"fÉĻlz":7284,"piËĲd":7285,"siËĲz":7286,"ÉĻÉ¡É¹Ã¦f":7287,"ĠdÉĽnt":7288,"ĠdÉĽns":7289,"ĠnÉĽ":7290,"tiËĲd":7291,"ĠpÉĶÉ¹d":7292,"Ã¦nÉĻz":7293,"ÉªfÉªs":7294,"ĠfleÉªm":7295,"ĠlÉĽÃ°ÉĻÉ¹":7296,"ĠÊĮndÉĻÉ¹É¡É¹aÊĬnd":7297,"ĠkÉĳvÉªd":7298,"ĠÊĮÅĭkl":7299,"ĠfÉªÊĥÉĻÉ¹":7300,"ĠliËĲdÉĻÉ¹z":7301,"ĠmÉªstÉ¹ÉĻs":7302,"ĠÉ¡Ã¦É¹i":7303,"ĠÉ¹eÉªnboÊĬ":7304,"ĠÃ¦É¡É¹ÉªkÊĮlt":7305,"ÊĴuËĲkeÉªtÉªd":7306,"ÊĴÉªpt":7307,"ĠsleÉªvÉĻÉ¹É¹i":7308,"ĠfuËĲlÉªÊĥ":7309,"ĠdaÉªÉĻlÉĽkt":7310,"ĠfÉĻÉ¹bÉªdÉĻn":7311,"ĠsÃ¦kÉ¹ÉªfaÉªs":7312,"ĠÉĽnÉĽnÉĽn":7313,"ĠhÉĽndÉĻÉ¹":7314,"ĠÉĽlz":7315,"ĠÉĽÅĭkw":7316,"ĠbÃ¦m":7317,"ĠbjuËĲt":7318,"ÉĻniËĲz":7319,"ÉĻnbÉľËĲÉ¡":7320,"ÉĳtÉªk":7321,"ĠÊĥÊĮv":7322,"ĠsteÉªtÉªd":7323,"ĠstÃ¦mp":7324,"ĠÉĽksÉĽpÊĥÉĻn":7325,"ĠbÉ¹Éĳk":7326,"ĠhaÉªÊĮn":7327,"ĠkÉĳmÉĽnts":7328,"ĠsÉªÅĭsÉĶÅĭ":7329,"ĠlÃ¦stÉªd":7330,"ÉªskjuËĲ":7331,"ĠbÉľËĲk":7332,"ÊĮmpÊĥÉĻn":7333,"ĠpÉ¹ÉªzÉĻnÉĻÉ¹":7334,"ĠsÉĽtÉĻlmÉĻnts":7335,"ĠÊĮsoÊĬsÉªeÉªtÉªd":7336,"ĠkeÉªpÉĻbÉĻl":7337,"lÉĻm":7338,"meÉªd":7339,"wÉĳn":7340,"ĠbÊĮst":7341,"ĠbÉĽs":7342,"ĠbÊĮks":7343,"ĠstÉĽÉ¹d":7344,"ĠÉ¹uËĲÉªnd":7345,"ĠkÉĻnÃ¦l":7346,"ĠkÉĳÅĭ":7347,"ĠstÉªkÉĻÉ¹z":7348,"ĠmÉªdst":7349,"ĠkÊĮvÉĻÉ¹É¹ÉªÅĭ":7350,"ĠsÉĶftwÉĽÉ¹":7351,"ĠseÉªfli":7352,"ĠmÉĻÉ¹É¹iËĲÉĻ":7353,"ĠÉ¡É¹iËĲs":7354,"ĠsÉĳbÉ¹Éªn":7355,"ĠlÉªtÉĻÉ¹É¹ÉĻli":7356,"ĠkÉĳmÉ¹Ã¦dz":7357,"ĠziÉĻÉ¹oÊĬt":7358,"ĠsÉĽÉ¹ÉªmÉĻni":7359,"vÉĻloÊĬ":7360,"ĠsÊĮnd":7361,"ĠbÉªliÉĻn":7362,"ĠpÉĶ":7363,"ĠÉ¡Ã¦m":7364,"ÊĴÉĽsi":7365,"ÊĮmeÉªÊĥÉĻn":7366,"ÉĳtoÊĬ":7367,"ĠsiËĲtiËĲ":7368,"ĠÉĽns":7369,"ĠÉªntÉĽnÊĥÉĻn":7370,"ĠeÉªv":7371,"ĠflÉĽÊĥ":7372,"ĠÉ¹oÊĬlÉĻnd":7373,"ĠhaÉªÉĻÉ¹d":7374,"ĠteÉªbÉĻlz":7375,"ĠdÉªfiËĲt":7376,"ĠkaÊĬÉĻÉ¹d":7377,"ĠkÉĳliËĲ":7378,"ĠbÉªldÉĻÉ¹":7379,"ĠÉĳfÉªsÉĻÉ¹É¹":7380,"ĠÉĳnvÉĻloÊĬ":7381,"ÉªÉ¡neÉªÊĥÉĻn":7382,"ĠkloÊĬÃ°ÉªÅĭ":7383,"ĠbÊĮÉ¹oÊĬ":7384,"ĠbÊĮkÉªt":7385,"ĠbÉĳnÉªt":7386,"ÊĥeÉªmbÉĻÉ¹":7387,"fÉªl":7388,"wÉªl":7389,"ĠtÉªb":7390,"ĠhÉªs":7391,"ÊĥÉªst":7392,"ĠmÉĳk":7393,"ĠpoÊĬk":7394,"ĠÉ¡Ã¦st":7395,"ÉªsÉªti":7396,"ĠÊĥÃ¦mp":7397,"ĠbiËĲz":7398,"ĠsÊĮmbÉĳdiz":7399,"ĠÉ¡É¹eÉªd":7400,"ÉĽstÉªd":7401,"ĠkÉ¹aÉªs":7402,"ĠnuËĲn":7403,"ĠÉĻÉ¹É¹eÉª":7404,"ĠbÉªlz":7405,"ĠkÉĳmÉªn":7406,"ĠÊĮndÉĻÉ¹stÃ¦ndÉªÅĭ":7407,"ĠÎ¸É¹ÊĮst":7408,"ÊĥÃ¦h":7409,"ĠpÉĳpjÊĬlÉĻÉ¹É¹":7410,"ĠkwÉĶÉ¹tÉĻÉ¹z":7411,"ĠbÉĻluËĲnz":7412,"ĠÉĻbzÉľËĲv":7413,"ĠbÉªheÉªvjÉĻÉ¹":7414,"ĠÉĽÉ¡zÉªstÉĻns":7415,"ĠÊĮdÉªÊĥÉĻnÉĻl":7416,"ĠsaÉªmÉĻn":7417,"ĠnuËĲmÉĻÉ¹É¹ÉĻs":7418,"ÊĴÉĻmÉªn":7419,"ĠÉĽmpÉĻÉ¹É¹ÉĻÉ¹":7420,"ÉĻÉ¹b":7421,"eÉªÉ¡oÊĬ":7422,"ĠkeÉªn":7423,"ĠdÉªÅĭ":7424,"ĠpuËĲd":7425,"ÊĴoÊĬl":7426,"ÉĳÉ¹É¹i":7427,"ĠÊĥÉľËĲ":7428,"ĠstÉĽÉ¹ÉªÅĭ":7429,"ÉªkeÉªtÉªd":7430,"ĠpÉ¹ÉĽÉ¹":7431,"ĠÉ¡É¹Ã¦f":7432,"ĠkliËĲ":7433,"ĠÉªntÉªm":7434,"ĠnaÉªntiËĲnÎ¸":7435,"ĠbleÉªk":7436,"ĠdÉ¹aÊĬn":7437,"É¹oÊĬm":7438,"Ã¦si":7439,"ĠstÉ¹ÉĽs":7440,"ĠbÉªtÉĻÉ¹":7441,"ÉĳksaÉªd":7442,"ĠÉĽndÉĽvÉĻÉ¹":7443,"ĠkÉĳÉ¹p":7444,"ĠdÉªÉ¹ÉĽkÊĥÉĻnz":7445,"ĠÉ¹ÉªleÉªÊĥÉĻnz":7446,"ĠjuËĲvhÃ¦d":7447,"ĠkÃ¦tÉĻÉ¹p":7448,"ĠsÉªmbÉĻl":7449,"ĠlÃ¦ndz":7450,"ÊĥÃ¦É¹Éªti":7451,"ĠsuËĲpiÉĻÉ¹Éª":7452,"ĠkwÉĶÉ¹tÉĻÉ¹É¹":7453,"ĠÉĽÅĭkaÊĬnt":7454,"ĠÉ¹Ã¦tnÉĻÉ¹":7455,"ĠÉĽlÉªfÉĻnts":7456,"ĠÉªmpÉ¹ÉĽs":7457,"ĠÉ¹ÉªspÉĳndÉªd":7458,"ĠÉ¡ÊĮlf":7459,"ĠÉĽkstÉ¹ÉĶÉ¹dÉªnÉĽÉ¹i":7460,"ĠhÉĽndÉĻÉ¹sÉĻn":7461,"ĠdÉĳmÉªn":7462,"ĠbuËĲd":7463,"Ã°d":7464,"ĠÉ¹aÉªn":7465,"ĠoÊĬt":7466,"Ã¦nsk":7467,"ĠklÉĳÉ¹k":7468,"ĠhÉĽlplÉĻs":7469,"ĠdiËĲeÉª":7470,"ĠtÉ¹aÉªÉªn":7471,"ĠfiËĲvÉĻÉ¹":7472,"ĠbÉªlÊĮvd":7473,"ĠdÉªskÊĮvÉĻÉ¹":7474,"ĠwiËĲvhÃ¦d":7475,"ĠfÉªÉ¡ÉĻÉ¹d":7476,"ĠbiËĲtÉªÅĭ":7477,"ĠmÉĻÉ¹É¹iËĲ":7478,"ĠdiËĲpli":7479,"ĠsuËĲpÉ¹iËĲm":7480,"ĠÉĻpoÊĬzd":7481,"ĠfeÉªÎ¸fÉĻl":7482,"ĠhÉĳloÊĬ":7483,"ĠkÃ¦nsÉĻÉ¹É¹":7484,"ĠÉ¡lÊĮvz":7485,"ĠÊĥÃ¦É¡bÉĳÉ¹k":7486,"ĠÃ¦lfÉĻbÉĽt":7487,"ĠnÃ¦sti":7488,"iËĲliÉĻ":7489,"ĠbÃ¦Êĥ":7490,"ÊĥÉªf":7491,"ntaÉªm":7492,"ÊĴÉĽm":7493,"ĠÉªtÉĻd":7494,"ĠsiËĲst":7495,"ÉªvÉªti":7496,"Ã¦kjuËĲ":7497,"ĠkÃ¦f":7498,"ĠtÉ¹ÉĻmÉĽnd":7499,"iËĲtÉĻÉ¹z":7500,"ĠÊĮsÉĶlt":7501,"ÉĳkÉĻ":7502,"ĠkÉĻmÉªt":7503,"ĠpÉĻÉ¹suËĲt":7504,"ĠdiËĲsÉĻnt":7505,"jÊĬÉ¹i":7506,"ĠdÉªvÉĶÉ¹st":7507,"ÊĴeÉªÉĽf":7508,"ÉĳvÉĻ":7509,"ĠbÃ¦tÉĻÉ¹É¹i":7510,"ÊĴÉĶÉªÉªÅĭ":7511,"ĠÊĮÉ¡É¹iËĲmÉĻnt":7512,"ĠÉ¹ÉªvÉĳl":7513,"ĠÉĽkspÉ¹ÉĽst":7514,"ĠpÃ¦nÎ¸":7515,"ĠhÉĶÉ¹ÉĻÉ¹":7516,"ĠskÉ¹Ã¦m":7517,"ĠsaÉªÉĻntÉªfÉªk":7518,"ĠÉĶÎ¸ÉĻÉ¹":7519,"ĠdÉĻmÉĽst":7520,"ĠwÉĽbs":7521,"ĠlÉªtÉĻÉ¹É¹Éªt":7522,"ÊĮÎ¸":7523,"ĠbaÊĬn":7524,"ĠnÉĽÉ¹":7525,"ĠÊĮvÉĻn":7526,"ĠÃ¦tmÉĻs":7527,"ĠpÉ¹ÉĳÉ¡":7528,"ĠtÉ¹ÉĽ":7529,"ĠlÃ¦b":7530,"ĠklÉªn":7531,"ĠfaÉªÉĻÉ¹z":7532,"ÊĮdÉĽlf":7533,"ĠbÃ¦É¹":7534,"ĠbeÉªl":7535,"ĠkÉĻnÉĽkt":7536,"ĠfÉªlÊĮdÉĽlf":7537,"ĠdÉªvÉľËĲÉ¹ÉªÅĭ":7538,"ĠnÃ¦sk":7539,"ĠdÉĽÎ¸s":7540,"ĠklÉªÉ¹d":7541,"ĠÉªmpeÉª":7542,"ĠkÉªlÉĻÉ¹":7543,"ĠoÊĬvÉĻÉ¹É¹ÉĶl":7544,"ĠÉªsl":7545,"ĠtÉĽmpÉĻÉ¹":7546,"ĠpÉ¹ÉĻvÉªÊĴÉĻn":7547,"ĠkÃ¦ndÉĻl":7548,"ĠfÉĶÉ¹mÉĻÉ¹li":7549,"ĠmeÉªteÉª":7550,"ĠdaÉªnÉĻsÉĶÉ¹z":7551,"ĠvÃ¦ljuËĲÉĻbÉĻl":7552,"ĠbÉĽÉ¡d":7553,"hÉĻv":7554,"lÊĮn":7555,"vjuËĲ":7556,"ÉĻks":7557,"ĠÃ¦ÅĭÉ¡ÉĻl":7558,"ĠneÉªl":7559,"tiËĲz":7560,"ĠpuËĲp":7561,"ĠÊĥÉĽÉ¹d":7562,"ĠvÃ¦s":7563,"ĠtÉ¹Ã¦m":7564,"ĠÉ¡É¹Ã¦v":7565,"ĠwÉĽÉ¹ÉĽvÉĻÉ¹":7566,"ĠmeÉªÉĻÉ¹É¹":7567,"ĠÃ¦njuËĲÉĻl":7568,"ĠÉ¹ÉªtÉ¹iËĲt":7569,"ĠÉĽmÉĽmhÉĻm":7570,"ĠÉªnstÉĻntli":7571,"ĠÉªnstÉªÅĭkt":7572,"ĠÉªnsÉªstÉªd":7573,"ĠaÉªsÉĻk":7574,"ÊĥiËĲfs":7575,"ĠÃ¦ktÉªvÉªst":7576,"ĠhÊĮsbÉĻndz":7577,"ĠnÉĳdz":7578,"ĠdÉ¹Ã¦É¡d":7579,"ĠÉ¹uËĲÎ¸vÉĻn":7580,"ĠkÉĳmplÉĽks":7581,"ĠtoÊĬkÉªoÊĬ":7582,"ĠdÉĽÉ¹Éªk":7583,"ÊĥÉªm":7584,"ĠmÉĽnd":7585,"ĠpÉĽÉ¹i":7586,"ĠpÉĽÉ¹Éª":7587,"vÉĻÉ¹t":7588,"ĠpiËĲp":7589,"ĠoÊĬnÉĻÉ¹":7590,"ĠdÉĳliz":7591,"ĠhaÉªweÉª":7592,"ĠkÉĻntÉ¹Éªb":7593,"ĠmjuËĲzÉªÊĥÉĻn":7594,"ĠpÃ¦É¹ÉªÊĥ":7595,"ĠbÉĳÉ¹oÊĬ":7596,"ĠÉ¡ÉĳÉ¹dÉĻnz":7597,"ĠbÉ¹iËĲd":7598,"ĠkÉĳmjuËĲnÉªst":7599,"ĠkÉĻnvÉªnst":7600,"ĠÃ¦lbÉĻmz":7601,"ĠÉĽldÉĻÉ¹":7602,"ĠÊĥÊĬdÉĻnthÉĻv":7603,"ĠÉªnstÉ¹ÊĮkÊĥÉĻnz":7604,"ĠpÉ¹ÉªntÉªd":7605,"ĠiËĲdÉªÎ¸":7606,"ĠmjuËĲsÃ¦b":7607,"ĠsoÊĬfiÉĻ":7608,"ÊĥÃ¦htÉĻ":7609,"ĠfÉªlÊĮdÉĽlfiÉĻ":7610,"iËĲÊĴÉĻ":7611,"ĠsÉĻluËĲÊĥÉĻn":7612,"ĠmÉĻm":7613,"ĠmÉľËĲs":7614,"É¡ÉĳÉ¹t":7615,"ĠfÊĮ":7616,"ĠfÉªÉ¹d":7617,"ĠÉ¡ÊĮm":7618,"Ã¦tÉªkli":7619,"ĠÉ¹ÉĶ":7620,"ĠtÉ¹ÊĮks":7621,"ÉĳmÉĻn":7622,"iËĲdÉªd":7623,"ptÉĻn":7624,"ĠÉ¹uËĲÉªn":7625,"ĠbÉªlbÉĶÉ¹d":7626,"ĠÉĽkspÃ¦nd":7627,"ĠkÉĻnuËĲ":7628,"ĠÉĽntÉĻÉ¹É¹ÉªÅĭ":7629,"ĠÉĳÉ¹mÉªtÉªd":7630,"ĠvÉªzÉªbÉĻl":7631,"ĠneÉªlz":7632,"ĠfÉĶÉ¹tÉªskjuËĲ":7633,"ĠÊĮwÉĶÉ¹dÉªd":7634,"ĠkÉĳnstÉĻntli":7635,"ÊĴÉĶÉªnÉªÅĭ":7636,"ĠÉ¡wÉĳd":7637,"ĠpiËĲnÊĮt":7638,"ĠbÉ¹eÉªslÉªt":7639,"ÊĴÃ¦peÉªzi":7640,"ĠÎ¸ÊĮÉ¹oÊĬli":7641,"ĠmÊĬz":7642,"ĠbaÊĬnsi":7643,"fÉĶÉ¹t":7644,"aÉªÉĻ":7645,"É¹ÉªÅĭk":7646,"ĠpoÊĬn":7647,"ÉĽÉ¹ÉĻp":7648,"ĠÉ¹ÉĽnd":7649,"ĠsiËĲÉĽm":7650,"oÊĬzÉªÅĭ":7651,"ĠkÉĳmbÃ¦t":7652,"ĠmÉªni":7653,"ĠsÉľËĲvÉªÅĭ":7654,"juËĲteÉªÊĥÉĻn":7655,"ĠdÉªleÉª":7656,"ĠÉªnsÉªst":7657,"ĠstÉ¹ÉĶÅĭli":7658,"ĠÉ¹ÊĮÊĥÉªÅĭ":7659,"ĠÉªntÉĻÉ¹s":7660,"ĠhÉªpoÊĬ":7661,"ĠvÉĽsÉĻlz":7662,"ĠsÉĳbÉ¹ÉªniËĲni":7663,"ÉĶfs":7664,"ĠkÉľËĲs":7665,"ĠdiËĲz":7666,"ĠdiËĲn":7667,"ĠaÉªaÉª":7668,"ĠhiËĲlz":7669,"ĠsteÉªz":7670,"ÉªzeÉªÊĥÉĻnz":7671,"juËĲmÉĻnts":7672,"ĠÉ¹ÉªÃ¦kÊĥÉĻn":7673,"ĠlaÉªsÉĻns":7674,"eÉªmÉĻn":7675,"ĠÊĮnpl":7676,"ĠlÃ¦É¹i":7677,"Ã¦mi":7678,"É¹uËĲmz":7679,"Ã¦ÊĥÉĻ":7680,"ĠdÉªsÉªÊĴÉĻnz":7681,"ĠÎ¸ÉľËĲsti":7682,"ÉĳksÉªm":7683,"ĠÉ¹uËĲt":7684,"oÊĬdÉªd":7685,"ĠfÉĳÉ¹Ã°ÉĻÉ¹":7686,"ĠtÉľËĲmÉªnÉĻl":7687,"ĠkÉĳntÉĽkst":7688,"ĠsaÊĬÎ¸wÉĽst":7689,"ĠhÃ¦ts":7690,"ÊĥÉªkÉªnz":7691,"ĠkÉĳps":7692,"ĠbÊĬlÉªts":7693,"ĠtÉĽÉ¹Éªbli":7694,"ĠfÉ¹ÉĽdÉĻÉ¹É¹Éªk":7695,"ĠÉªmpÉ¹ÉĽst":7696,"ĠnÉĳdÉªd":7697,"ĠÉ¹Ã¦ndÉĻm":7698,"ĠbÉªskÉªt":7699,"ĠpÉªpÉªnÉĻ":7700,"ĠhÉĽdkwÉĶÉ¹tÉĻÉ¹z":7701,"ÉªbÉĻÉ¹É¹":7702,"ĠhÊĮmz":7703,"ĠbjuËĲ":7704,"ÊĴÉĽt":7705,"ĠnoÊĬl":7706,"ĠbiËĲbiËĲsiËĲ":7707,"ĠÉ¡ÊĬdz":7708,"ĠdÉ¹ÉĶÉ¹":7709,"ĠÉĽlÉĽf":7710,"iËĲpÉĻÉ¹":7711,"ĠÃ¦lÉĻb":7712,"ĠÉ¹iËĲdz":7713,"ĠfeÉªsd":7714,"ÊĴÉĽnÉĻÉ¹É¹ÉĻs":7715,"ĠbÉĽÉ¹li":7716,"ĠmÉĳskoÊĬ":7717,"ĠÉ¹ÉªvÉĽnd":7718,"ĠsÃ¦mjuËĲl":7719,"ĠbÉĶÉ¹ÉªÅĭ":7720,"ĠkjÊĬÉ¹É¹Éª":7721,"ĠbÉªskÉªts":7722,"ĠdÊĮbz":7723,"ĠnÉĽfjuËĲ":7724,"ĠÉªnÉĶÉ¹mÉĻs":7725,"hiËĲ":7726,"lÉĶÅĭ":7727,"mÉĻÉ¹É¹":7728,"sÉªl":7729,"ĠdÉĽÉ¹d":7730,"ĠÉĽmÉĻ":7731,"ĠiËĲstÉĻÉ¹":7732,"liÉĻnz":7733,"ĠmaÉªnÉĻs":7734,"ĠkleÉªmd":7735,"Ã¦ndÉĻl":7736,"ĠkwÉĶÉ¹":7737,"ĠÉªmÉªÉ¡":7738,"ĠÊĮtÉľËĲni":7739,"ĠpÉľËĲÊĴÉĻn":7740,"ĠfÉªlmz":7741,"ĠÉ¹ÉªfÉ¹Éªd":7742,"ĠmÃ¦sÉªv":7743,"ĠÉ¹ÉªÉ¡ÉĳÉ¹dÉªÅĭ":7744,"ĠÉ¹Ã¦tÉĻl":7745,"ĠÉ¹Ã¦pÉªd":7746,"ĠsÉªdni":7747,"ĠÉªÅĭkÉ¹iËĲsÉªÅĭ":7748,"ĠÉĽltiËĲz":7749,"ĠÉ¹Ã¦ndÉĳlf":7750,"ĠdÉªspleÉª":7751,"ĠsÉĻfÉªÊĥÉĻnt":7752,"ĠjuËĲnÉªfÉĶÉ¹m":7753,"ĠdÊĮÅĭkÉĻn":7754,"bÉľËĲd":7755,"pi":7756,"sm":7757,"É¹eÉªtÉªÅĭ":7758,"ÉĽÊĥÉĻnz":7759,"ÊĥÊĮm":7760,"ĠmÉĶl":7761,"ĠpÃ¦ndÉĻ":7762,"ÉĶÉ¹pÉĻÉ¹É¹":7763,"ĠÉ¹aÉªv":7764,"ĠsiËĲlÉªÅĭ":7765,"ĠwÉľËĲÃ°i":7766,"Ã¦kÊĥÉĻnz":7767,"ĠÉ¹oÊĬsÉĻ":7768,"ĠhÃ¦ndk":7769,"ĠÊĮltÉªm":7770,"uËĲluËĲ":7771,"ĠdiËĲlÉªÅĭ":7772,"ĠÃ¦kts":7773,"ĠfaÊĬndeÉªÊĥÉĻn":7774,"ĠwÉĶÉ¹ÉĻnt":7775,"Ã¦Åĭkt":7776,"ĠpÉľËĲmÉĻn":7777,"ĠmÉĳÉ¹bÉĻlz":7778,"uËĲsi":7779,"ĠjÉĽlÉªÅĭ":7780,"ĠjÉĶÉ¹sÉĽlvz":7781,"ĠtÉ¹Ã¦nsfÉľËĲd":7782,"ĠkÉĳnsÉĽpt":7783,"ĠpÉ¹Ã¦ktÉªkli":7784,"ĠsmÉĽlz":7785,"ĠÉĳpÉĻÉ¹É¹eÉªtÉªÅĭ":7786,"ĠkÉ¹ÉªtÉªkÉĻl":7787,"ĠfÉľËĲmli":7788,"ĠfÉ¹iËĲkwÉĻntli":7789,"ĠpÊĬdÉªÅĭ":7790,"ĠÉªndÉªpÉĽndÉĻns":7791,"kÉĻlz":7792,"lÃ¦s":7793,"ÉªÉĽÉ¹":7794,"ÊĮsk":7795,"ĠsuËĲd":7796,"ĠdÉĽb":7797,"ÉĻlt":7798,"ĠlwÉĳÉ¹É¹":7799,"ÉĶÉ¹m":7800,"ĠfÉ¹aÉª":7801,"ĠnÉĳtÉĻÉ¹":7802,"ĠfaÉªlz":7803,"ĠskiËĲ":7804,"eÉªniÉĻs":7805,"ĠhaÉªÉĻÉ¹É¹":7806,"ĠdÉªfiËĲtÉªd":7807,"ĠÉ¹ÉªsÉĽpÊĥÉĻn":7808,"ĠÉĽdÉ¹Éªk":7809,"ĠÉ¹ÉªlaÉª":7810,"ĠÉ¹ÉĽkÉĻmÉĽnd":7811,"ĠÉ¡Ã¦É¹ÉĻn":7812,"ÊĥÃ¦nsÉªz":7813,"ĠÉĽÉ¡zÃ¦mÉªn":7814,"ÊĥÃ¦ptÉĻÉ¹É¹":7815,"ĠwÉªntÉĻÉ¹É¹":7816,"ĠÉ¹ÊĮbÉªÊĥ":7817,"ĠÉ¡lÉĶÉ¹iÉĻs":7818,"ĠmÉĳÉ¹vÉĻlÉĻs":7819,"ĠhÊĬd":7820,"ĠleÉªzi":7821,"ĠÉ¹eÉªm":7822,"ĠÊĥeÉªd":7823,"ĠduËĲtiz":7824,"ĠtÉ¹oÊĬ":7825,"ĠspÉĶÉªl":7826,"ĠhoÊĬps":7827,"ĠflÉªp":7828,"ÉĻzeÉªÊĥÉĻn":7829,"ĠÊĮndÉĻÉ¹k":7830,"ĠfjuËĲd":7831,"ĠkÉĳz":7832,"ĠbÉľËĲnt":7833,"ĠnÃ¦É¹":7834,"ĠÉªntÉ¹ÉĽsts":7835,"ĠsÉĽlz":7836,"ĠkÉĻnsÉªdÉĻÉ¹É¹eÉªÊĥÉĻn":7837,"ĠfÉ¹Ã¦ÅĭklÉªn":7838,"ĠmoÊĬtÉĻÉ¹s":7839,"ĠbÊĮÉ¡z":7840,"ÊĴÉľËĲnÉĻlÉªst":7841,"ĠdÉĽlÉªkÉĻt":7842,"ĠmÉľËĲkjÊĬÉ¹i":7843,"É¡ÉªvÉªÅĭ":7844,"ĠnÃ¦skÊĮn":7845,"ĠÃ°ÉĽÉ¹Éª":7846,"Ã¦É¹ÉĻs":7847,"ÊĥaÊĬ":7848,"ĠÉ¡eÉªzd":7849,"ktÉĻÉ¹":7850,"ĠbiËĲsiËĲ":7851,"ÊĮstÉĻmd":7852,"ĠÊĮniËĲz":7853,"ĠseÉªlÉĻÉ¹":7854,"ĠdeÉªlaÉªt":7855,"ĠtÉĶs":7856,"ĠÃ¦dvÉĻÉ¹t":7857,"ĠpeÉªÊĥÉĻnts":7858,"ĠkÉĳmbÉªn":7859,"ĠsÉĶÉªl":7860,"ĠlÉĶnd":7861,"ĠbÉľËĲlÉªn":7862,"ĠtÉĳps":7863,"ĠpÃ¦ÊĥÉĻn":7864,"ĠpÃ¦É¹ÉĻd":7865,"ĠpÉľËĲsÉĻnÃ¦lÉªti":7866,"ĠleÉªÉªÅĭ":7867,"ĠÉ¹ÉªkÊĮvÉĻÉ¹d":7868,"ĠdÉ¹ÉĳpÉªÅĭ":7869,"ĠstiËĲvÉĻnz":7870,"ĠÉ¡É¹iËĲf":7871,"ĠjoÊĬÉ¡ÉĻÉ¹":7872,"ĠmÊĮsÉĻlz":7873,"ĠsÉªÅĭÉ¡ÉĻlz":7874,"ĠwÃ¦É¡ÉĻnz":7875,"ĠsÊĮspÉĽkt":7876,"aÉªp":7877,"oÊĬÉĻ":7878,"ĠkÉĽnt":7879,"ĠdaÉªz":7880,"ĠmÊĮf":7881,"ĠlÉĳb":7882,"ÉĶÉ¹iÉĻn":7883,"ÊĴÉĻnts":7884,"ÊĴÉĽli":7885,"ĠÉªnfÉĶÉ¹m":7886,"ĠbiËĲts":7887,"ĠwÉľËĲm":7888,"É¹iËĲv":7889,"ĠÊĮpÉĶÉªntmÉĻnt":7890,"ĠtÉ¹ÊĮbÉĻlz":7891,"ĠdÉªsÉĽ":7892,"ĠÊĮlÃ¦skÉĻ":7893,"ĠÊĮndÉĻÉ¹teÉªk":7894,"ĠkÉĽÉ¹d":7895,"ĠkÉĳlÉĻÉ¹É¹":7896,"ĠÉĳnÉĻÉ¹z":7897,"ĠeÉªmiz":7898,"ĠsÉĻpÉĶÉ¹tÉªÅĭ":7899,"ĠmÃ¦É¡nÉªfÉªs":7900,"ĠkÉĻntÉ¹oÊĬld":7901,"ĠdÉĽÉ¹ÉªÉĻs":7902,"ĠkÉĻmiËĲdiÉĻn":7903,"sÉªk":7904,"iËĲstÉĻÉ¹n":7905,"ĠkuËĲp":7906,"ĠbÊĬt":7907,"ĠÉĽmbÉ¹":7908,"ÊĮtlÊĮn":7909,"ĠtÉ¹Éĳt":7910,"tiËĲnÉĻ":7911,"ÉĻnsiz":7912,"ĠÉĶfÉĻÉ¹É¹ÉªÅĭ":7913,"ĠÉĽlÉĻn":7914,"ĠÉªlÉĶÉªs":7915,"ĠheÉªl":7916,"ĠdÉĶÉ¹weÉª":7917,"ĠlÉĶft":7918,"ĠhÉªtÉªÅĭ":7919,"ĠÉ¹iËĲzÉĻnÉĻbÉĻl":7920,"ÊĥÃ¦mpiÉĻnz":7921,"ĠsuËĲtkeÉªs":7922,"ĠpÉ¹ÉªpÉĽÉ¹ÉªÅĭ":7923,"ĠwaÉªnÉªÅĭ":7924,"ĠÊĮÊĥÉĶÉ¹":7925,"jÉªÉ¹oÊĬld":7926,"ĠswiËĲdÉĻn":7927,"ĠkÃ¦ÅĭÉ¡ÊĮÉ¹uËĲ":7928,"ĠkÉĻÅĭkluËĲÊĴÉĻn":7929,"ĠÊĮÅĭklÉªÉ¹":7930,"ÉªÉĻÉ¹":7931,"ĠtÉĻÉ¹É¹Éª":7932,"ĠhÉĽm":7933,"ĠjÊĮki":7934,"ÉĻnÉĻns":7935,"ĠÉĶsÊĮm":7936,"ĠvjuËĲz":7937,"ĠbÉ¹uËĲm":7938,"ĠlÃ¦ÅĭÉ¡":7939,"ĠÉĽlÉªmÉĻnts":7940,"Éªliz":7941,"ÉĽfsiËĲ":7942,"ÉĽnsÉĻn":7943,"ĠkÉĻnst":7944,"ĠspiËĲkÉĻÉ¹":7945,"ĠkÉĳntÉĽnt":7946,"ĠÉĽksploÊĬ":7947,"ĠbÉĽld":7948,"ĠÃ¦spÉĽkt":7949,"ĠhÉĶÉ¹Éªd":7950,"ĠsiËĲkÉ¹Éªts":7951,"ĠsÉªmpÉĻÎ¸i":7952,"ĠÉªndÊĮstÉ¹ÉªÉĻl":7953,"ĠstuËĲÉĻÉ¹t":7954,"ĠtÉĻmeÉªtoÊĬz":7955,"ĠdÉªlÉªvÉĻÉ¹d":7956,"ĠstÉ¹Ã¦tÉĻd":7957,"ĠkÉĻpÃ¦sÉªti":7958,"ĠlÉªbÉĻÉ¹ti":7959,"ĠtÉ¹ÉĻmÉĽndÉĻs":7960,"faÉªd":7961,"ĠhÉĽh":7962,"ĠjÉĳÅĭ":7963,"ĠnÉĳks":7964,"ĠpÉĻn":7965,"ĠlÉľËĲ":7966,"ĠÊĥÉĽlt":7967,"ĠwÉªp":7968,"ĠtuËĲt":7969,"ĠÊĮnÉĶÉª":7970,"ĠtÉ¹ÉĽnt":7971,"ĠtÉ¹Ã¦Êĥ":7972,"iËĲzÉª":7973,"ÉĳkoÊĬ":7974,"ĠhÊĮÅĭÉ¡":7975,"ĠaÉªdÉĻl":7976,"ĠÃ¦lkÉĻ":7977,"ĠhÉĳÅĭ":7978,"ĠstiËĲlÉªÅĭ":7979,"ĠÉĽkspleÉªnz":7980,"ĠpÉ¹ÉĻtÉĽktÉªd":7981,"ĠdÉªstÉ¹ÊĮkÊĥÉĻn":7982,"ĠpÉĳkÉªts":7983,"ĠziËĲbÉ¹ÉĻ":7984,"ĠsaÉªkl":7985,"ĠsÉªnÉĻm":7986,"ĠskÉ¹ÊĮb":7987,"ĠaÉªdÉĽntÉªfaÉªd":7988,"ĠÃ¦nÎ¸ÉĻni":7989,"ĠwÃ¦kÉĻÉ¹":7990,"ĠÊĮkÊĮmpÉĻnid":7991,"ĠtÉ¹ÉªbjuËĲt":7992,"ĠÃ¦ÅĭÉ¡ÉĻÉ¹":7993,"skuËĲl":7994,"ĠheÉªtÉªd":7995,"ÊĥÊĮÉ¡":7996,"ĠmÉªliÉĻnz":7997,"ĠjiËĲld":7998,"ĠpeÉªÊĥÉĻns":7999,"ĠlÉĶÉ¹i":8000,"ÉĶÉ¹f":8001,"ĠiËĲÉĻn":8002,"ĠÊĥÉĽÉ¹ÉªÅĭ":8003,"ĠÉªzÉ¹iËĲÉĻl":8004,"ĠstÃ¦tÉªk":8005,"ÉªneÉªtÉªd":8006,"ĠbiËĲf":8007,"eÉªdÉĻÉ¹":8008,"ĠbÉ¹uËĲn":8009,"ĠklÉĳzÉªt":8010,"ÉĳlÉªtÉĻn":8011,"ĠdÉ¹aÉªd":8012,"ĠkÉĶÉ¹Éªs":8013,"ĠÉĽndÉªÅĭ":8014,"ĠaÉªdiÉĻl":8015,"ĠÉ¡lÉªm":8016,"ĠÉ¡ÉĳdÃ¦m":8017,"ĠbÃ¦tÉĻÉ¹É¹iz":8018,"ĠwÉªnÉĻÉ¹":8019,"ĠniËĲl":8020,"ĠÃ¦kjÊĬÉ¹":8021,"ĠhÊĮntÉĻÉ¹":8022,"ĠpÉĻtÉĽnÊĥÉĻl":8023,"ĠÉªdÉªÊĥÉĻn":8024,"ĠstÉ¹ÊĮÉ¡lÉªÅĭ":8025,"ĠtÉľËĲtÉĻlz":8026,"ĠÉ¡aÉªdÉĻns":8027,"ĠfÊĮndz":8028,"ĠfÉ¹ÉĶsti":8029,"ĠÉĽkspÉĽÉ¹ÉªmÉĻnt":8030,"ĠtÉĻÉ¹É¹ÉªfÉªk":8031,"fÉªt":8032,"ÊĬkt":8033,"ĠwÉĽnd":8034,"ÉĶks":8035,"ĠfÉªd":8036,"ĠkaÉªt":8037,"ĠiËĲkwÉĻli":8038,"É¹iËĲnÉĻ":8039,"eÉªkeÉª":8040,"ĠmÉĶÉ¹ÉĻl":8041,"siËĲaÉª":8042,"Ã¦ÊĥÉĻnd":8043,"ĠlÉĶÅĭÉ¡Éªst":8044,"ĠbÉªliËĲf":8045,"biËĲÉĽs":8046,"ÉĻbÉªlÉªtiz":8047,"ĠÉ¹ÉªsÉªstÉĻns":8048,"ÉĳÉ¡n":8049,"ĠhoÊĬpfÉĻli":8050,"bÉ¹eÉªk":8051,"ĠÉªÉ¹eÉªs":8052,"É¹ÉªnlÉĶ":8053,"ĠÉ¹eÉªzÉªÅĭ":8054,"ĠpÃ¦nÉªk":8055,"ĠsÃ¦lÉĻÉ¹É¹i":8056,"ĠÉªnstÉ¹ÉĻmÉĻnt":8057,"ĠsoÊĬdÉĻ":8058,"ĠsniËĲzÉªz":8059,"hÃ¦vtÉĻ":8060,"ĠdÉĻmÉĽstÉªk":8061,"ĠkÉĶÉ¹ÉªspÉĳnd":8062,"ĠtÉªÉ¡ÉĻÉ¹":8063,"ĠkaÉªz":8064,"ÊĴÉĳmÉĻz":8065,"ĠfÉĶÉ¹hÉĽd":8066,"ĠbiËĲm":8067,"ĠfÉ¹oÊĬz":8068,"ĠfÉ¹ÉĶÉªd":8069,"ĠÉ¡É¹Éĳ":8070,"ĠÉ¡É¹Ã¦ntÉªd":8071,"ĠspaÉªk":8072,"ĠtwÉªnz":8073,"ÉĶÉ¹ts":8074,"bÉĻÉ¹ts":8075,"ĠflÉĽd":8076,"ĠdeÉªl":8077,"ĠÉĽlÉªmÉĻnt":8078,"ĠÉªliËĲ":8079,"ĠsÉªkÃ¦ndÉĻÉ¹":8080,"ĠtaÉªÉ¡ÉĻÉ¹z":8081,"ÉĳÉ¡ÉĻ":8082,"ĠsÉĽnsÉªtÉªv":8083,"bÉ¹ÊĬk":8084,"ÊĥÉĳÉ¹mÉªÅĭ":8085,"ĠpÉ¹ÉĻfÉĽÊĥÉĻn":8086,"ĠdÉªmÉĳkÉ¹ÉĻsi":8087,"ĠmÃ¦É¡nÉªts":8088,"ĠstÊĮdiÉªÅĭ":8089,"ĠÊĥÉĳÉ¹pli":8090,"ĠÉĻfÉªÊĥÉĻlz":8091,"ĠswÉªÅĭÉªÅĭ":8092,"ĠÉ¹eÉªlÉ¹oÊĬd":8093,"ÊĴoÊĬkÉªÅĭ":8094,"ĠfjÊĬÉ¹É¹i":8095,"ĠhÉĽzÉªteÉªtÉªd":8096,"ĠklÉªntÉĻn":8097,"vÉªs":8098,"ÉĻweÉª":8099,"uËĲk":8100,"ĠkÉĳb":8101,"ĠmoÊĬd":8102,"ĠpÉĽl":8103,"ĠjuËĲÉĽn":8104,"ĠmiËĲntaÉªm":8105,"É¹iËĲd":8106,"ÉªpÊĬÉ¹":8107,"ĠbÉªtÉ¹eÉª":8108,"ĠÊĮtÉĻÉ¹d":8109,"ĠtÉĶkÉªn":8110,"ĠkÃ¦tÉĻl":8111,"ĠfÊĬtst":8112,"ĠÉĽntÉĻÉ¹z":8113,"ĠpÃ¦sÉªz":8114,"ĠdÉªÉ¡ÉªÅĭ":8115,"ĠkÉĳmjuËĲnz":8116,"ĠkÉĻmjuËĲnÉªtiz":8117,"flaÉªz":8118,"ĠÉ¹ÉĽÉ¡jÊĬl":8119,"ĠÉĽmbÃ¦É¹ÉĻs":8120,"ĠfeÉªvÉ¹Éªt":8121,"ĠmÊĮsk":8122,"ÉªÉ¹iÉĻlz":8123,"ĠsÃ¦ksÉĻni":8124,"ĠdÉĽbi":8125,"ĠlwÉĳÉ¹É¹ÊĮtlÊĮn":8126,"ĠlwÉĳÉ¹É¹ÊĮtlÊĮntiËĲk":8127,"boÊĬz":8128,"Ã¦ld":8129,"ĠbÉĳs":8130,"ĠbÉ¹iËĲt":8131,"ĠmÉªnt":8132,"ĠhiËĲp":8133,"ĠvÊĮl":8134,"aÉªdz":8135,"ĠÊĮbÊĮnd":8136,"ĠÊĮbÉĶÉ¹d":8137,"ĠÉľËĲl":8138,"ÉĶÉªld":8139,"ĠÉĶfÉĻli":8140,"ÊĴÉªnÉªÉ¹":8141,"ĠdÉĽdli":8142,"ĠdÊĮki":8143,"ĠÉĻfÉĽns":8144,"ĠdaÉªnÊĮsti":8145,"ĠpeÉªnfÉĻl":8146,"ĠbÉ¹ÉĶdweÉª":8147,"ĠheÉªstili":8148,"ĠÊĮsoÊĬsÉª":8149,"ĠbÃ¦kslÃ¦Êĥ":8150,"ĠkÉĻmbaÉªnd":8151,"ĠjoÊĬÉ¡ÉĻÉ¹t":8152,"jÉĶÉ¹":8153,"kjuËĲ":8154,"vÉĻ":8155,"ĠdÉªÉ¡n":8156,"ĠÉĽÉ¹Éªn":8157,"ĠbjÊĬÉ¹":8158,"ĠniËĲs":8159,"ĠpeÉªnz":8160,"ÉĶÉ¹ÊĥÉĻn":8161,"ÊĴÉªtÉĻl":8162,"ĠhÃ¦b":8163,"ÉĽmÉĻn":8164,"ĠjÊĬÉ¹É¹oÊĬ":8165,"ĠmaÉªÉĻ":8166,"ÉĳnÉĻmÉĻs":8167,"ĠeÉªÉĽnd":8168,"ĠflaÉªz":8169,"ĠÃ¦dÉªÅĭ":8170,"ĠmuËĲvmÉĻnts":8171,"ĠstÉĳÉ¹tÉĻld":8172,"ĠziÉĻÉ¹oÊĬwÊĮn":8173,"ĠfaÉªÉĻÉ¹É¹ÉªÅĭ":8174,"ĠsÉªsÉĻÉ¹z":8175,"ĠbÉĶÉ¹dÉĻn":8176,"ĠmÉĽsÉªnd":8177,"ĠlaÊĬdÉĻÉ¹":8178,"ĠvÉľËĲb":8179,"ĠklaÉªÉĻnts":8180,"ĠwÉªdoÊĬ":8181,"Ã°ÉľËĲlÉĻndz":8182,"ĠÉĶltÉľËĲnÉĻtÉªv":8183,"ĠnÉĽÃ°ÉľËĲlÉĻndz":8184,"kÉĳm":8185,"ÉĻbi":8186,"ĠhÉĶnt":8187,"ĠmÉĽsi":8188,"ÉĳÉ¹md":8189,"ĠÉªnfÉĶÉ¹md":8190,"ĠÉĶkw":8191,"ĠÉ¹ÉĽ":8192,"ÉªnÉĻt":8193,"ĠbiËĲn":8194,"ÉĽntÉĻli":8195,"ÉĻsÉªs":8196,"ĠklÉĳÉ¹É¹ÉĻ":8197,"ĠmeÉªlz":8198,"ĠweÉªvÉªÅĭ":8199,"ĠaÉªdiËĲz":8200,"oÊĬsÉªs":8201,"ĠnÉĽklÉĻs":8202,"ĠkÉĻnteÉªnd":8203,"ĠnÊĮÎ¸Éªn":8204,"ĠsnÃ¦t":8205,"ĠÉĽvÉ¹ÉªÎ¸ÉªÅĭz":8206,"ĠdeÉªvi":8207,"ĠÉ¹ÉĳkÉªt":8208,"ĠbÉ¹iËĲÃ°z":8209,"ĠtÉ¹ÊĮbÉĻld":8210,"ĠmÃ¦sÉªd":8211,"ĠÉªfÉĽktÉªv":8212,"ĠmÉªkÃ¦n":8213,"ĠdÉĽlÉªÉ¡":8214,"ĠÉªmpÉ¹uËĲvd":8215,"ĠsÉĻÉ¹É¹aÊĬndÉªÅĭ":8216,"ĠÉĻÊĥÊĬÉ¹d":8217,"ĠÉ¹ÉªmÉĳÉ¹kÉĻbÉĻl":8218,"ĠpÉĳÉ¹tnÉĻÉ¹z":8219,"ĠÊĮbÃ¦ndÉĻnd":8220,"ĠÉªnnÉªt":8221,"bjuËĲd":8222,"teÉª":8223,"É¹Ã¦nt":8224,"ĠtÃ¦":8225,"ĠdeÉªtÉªÅĭ":8226,"ĠneÉªk":8227,"ĠpÉªkÉĻl":8228,"ĠlÊĮÅĭ":8229,"ĠÉ¡Éĳlf":8230,"ĠwÉľËĲÊĥÉªp":8231,"ĠhÉľËĲÉ¹Éª":8232,"ĠlÃ¦nt":8233,"ĠklÉªÉ¹ÉªÅĭ":8234,"ĠskuËĲp":8235,"ĠtwÉªst":8236,"ĠmÃ¦nÉĻÉ¹z":8237,"Ã¦Êĥi":8238,"ĠbÃ¦pt":8239,"ĠkÉĳÉ¹n":8240,"ĠhÉĽdÉªÅĭ":8241,"ĠÉĽdÉªn":8242,"ĠÉĳpÊĥÉĻn":8243,"ĠdÉªlÉªbÉĻÉ¹É¹":8244,"ĠjÉĽlz":8245,"ĠÉªÉ¹Ã¦n":8246,"ĠpÉ¹ÉªnsÉªp":8247,"ĠdÉªstÉ¹ÉĽs":8248,"ĠpÉĻÉ¹tÉªkjÊĬlÉĻÉ¹É¹":8249,"ĠdÉªsÊĮpÉĶÉªntmÉĻnt":8250,"ĠbÊĮnÃ¦nÉĻz":8251,"ĠmÉĻtÉªÉ¹iÉĻlz":8252,"ĠÉ¡É¹ÊĮntÉªÅĭ":8253,"ĠhÃ¦É¹ÉªsÉĻn":8254,"ĠpÉ¹ÉªsaÉªs":8255,"ĠkÊĮbÉĻd":8256,"ĠkÉ¹aÉªsÉªs":8257,"hÉĳl":8258,"meÉª":8259,"wiËĲd":8260,"ÉªjÉĻ":8261,"ĠtÃ¦ps":8262,"ĠdeÉªnz":8263,"ÊĥmÉĻn":8264,"ĠfoÊĬt":8265,"ĠnÉĽl":8266,"ĠÉ¡eÉªz":8267,"ĠÉ¡ÉĻÉ¹É¹Éª":8268,"ÉľËĲlz":8269,"ÉľËĲÉ¹ÉĻnt":8270,"ĠÉ¹ÉĽvÉĻÉ¹É¹":8271,"ÉĽlÉĻÉ¹":8272,"ÉĻmÃ¦nt":8273,"ĠkÃ¦Åĭ":8274,"ĠklÉĶÉ¹":8275,"aÊĬzd":8276,"ĠbliËĲdÉªÅĭ":8277,"ĠkÉĳlÉĻni":8278,"ĠÉ¡É¹iËĲnbÉĽlt":8279,"ĠkÉĻnfÉĽs":8280,"ĠdÉªÉ¹ÉĽktÉĻÉ¹z":8281,"ĠsiËĲkÉªÅĭ":8282,"ÊĴiËĲnz":8283,"ĠpÉĽnÉªt":8284,"ĠmÉĻÉ¹É¹iËĲn":8285,"ĠtaÊĬÉĻÉ¹É¹":8286,"ĠpÉ¹ÉªzÉľËĲv":8287,"ĠÊĮkÉĶÉ¹dÉªÅĭli":8288,"ĠÉªnvÉĽstmÉĻnt":8289,"ĠkÊĮzÉĻnz":8290,"ĠÉ¹Ã¦ndÉĶl":8291,"ĠÉĶstÉ¹iÉĻn":8292,"ĠmÉªaÊĬ":8293,"ĠvÉĽnÉªz":8294,"ĠwÉªtnÉĻsÉªz":8295,"ĠÊĮtÉ¹Ã¦ktÉªv":8296,"ĠveÉªkeÉªÊĥÉĻn":8297,"ĠkaÊĬnsÉĻlz":8298,"ĠdÉªlÉªvÉĻÉ¹É¹i":8299,"ĠmÃ¦Î¸ÉªmÃ¦t":8300,"bÃ¦s":8301,"moÊĬ":8302,"ĠÃ¦É¹Éªz":8303,"ĠmoÊĬn":8304,"ĠpÉªs":8305,"ÊĴeÉªnz":8306,"ĠÉ¹Ã¦d":8307,"ÉĽneÉª":8308,"ĠmaÉªs":8309,"ĠvoÊĬk":8310,"ĠvÉªns":8311,"ĠÉĽksiËĲd":8312,"ĠklÃ¦m":8313,"ĠÉľËĲbÉĻn":8314,"ĠÉªntÉľËĲnÉĻl":8315,"ĠwÉĽÉ¹Ã¦z":8316,"ĠziÉĻÉ¹oÊĬz":8317,"É¹ÉªsÉªti":8318,"ĠluËĲw":8319,"ĠdaÉªÉĻt":8320,"ĠÊĮfÉĽkt":8321,"ĠeÉªtiËĲnÎ¸":8322,"ĠjÊĮÅĭÉ¡":8323,"ĠsÉĽnsÉªbÉĻl":8324,"eÉªpÉĻÉ¹z":8325,"ĠhÉĳÉ¹wÊĬd":8326,"ÊĥÃ¦pÉĻl":8327,"ĠwÉªnz":8328,"ĠsÃ¦ndi":8329,"bÉľËĲÉ¡ÉĻÉ¹":8330,"ĠkÉĳpÉªz":8331,"ĠhÉĳspÉªt":8332,"ĠÊĮwaÉªl":8333,"ĠvÃ¦nÉªÊĥt":8334,"ĠÉĽkspiÉĻÉ¹ÉªÉĻnst":8335,"vÉªlÉªd":8336,"ĠkÉ¹aÊĬdÉªd":8337,"ĠmÉĻÊĥiËĲnz":8338,"ĠÉĶtÉĻmÉĻbi":8339,"ĠmÉľËĲmÉĻÉ¹d":8340,"bÊĮÉ¹ÉĻ":8341,"ĠmÉĻkdÉĳnÉĻldz":8342,"ĠÉĽdÉªnbÊĮÉ¹ÉĻ":8343,"ĠvÉĽnÉªzweÉª":8344,"bd":8345,"fÊĬt":8346,"nÉĳm":8347,"pÉĳt":8348,"tÊĮb":8349,"eÉªoÊĬ":8350,"ĠheÉªz":8351,"ĠlÉĶn":8352,"ÉĻtÉĻÉ¹z":8353,"ĠskÃ¦tÉĻÉ¹d":8354,"ĠÉĶfÉĻÉ¹z":8355,"ĠfÉľËĲt":8356,"ĠswÊĮÅĭ":8357,"ĠjuËĲniËĲk":8358,"ĠÊĮkÊĮstÉĻmd":8359,"ĠkÉĳlÉªn":8360,"ĠÉªnfÉĻnt":8361,"ĠeÉªmÉĽn":8362,"ĠjuËĲnÉªvÉľËĲsÉªtiz":8363,"ÊĴiËĲnaÉªn":8364,"ĠmaÊĬntÉªd":8365,"ĠÉ¹ÉĽpjuËĲteÉªÊĥÉĻn":8366,"ĠtÉĽsts":8367,"ĠdÉĳdÉĻz":8368,"ĠdaÊĬtlÉĻs":8369,"ĠmjuËĲnÉªsÉªpÃ¦lÉªtiz":8370,"ĠsiËĲdz":8371,"ĠÉľËĲlÉªÉĻÉ¹É¹":8372,"ĠÉĽmplÉĶÉªd":8373,"ĠÉ¹ÊĮsÉĻl":8374,"ĠÊĮkÉĳmÉĻd":8375,"ĠviÉĻkÉĻlz":8376,"ĠÃ¦É¹ÉĻb":8377,"ĠdÊĮbÉĻljuËĲdÊĮbÉĻljuËĲiËĲ":8378,"ĠdiËĲeÉªÉĽn":8379,"ĠkjÊĬÉ¹É¹ÉªÉĶsÉªti":8380,"ĠnÃ¦skÊĮnÉĶÉ¹ÉĻ":8381,"pÃ¦k":8382,"veÉª":8383,"ĠÃ¦ÊĥÉªz":8384,"stÉªk":8385,"É¹Éªnd":8386,"ĠsÊĮÅĭk":8387,"ĠbÉ¹Éªsk":8388,"ÊĥÉĻlz":8389,"ĠfÉ¹Éªd":8390,"ĠÉ¹ÊĬÉ¹É¹ÉĻl":8391,"ĠmiËĲlz":8392,"juËĲÉĻs":8393,"ĠvÉĻÉ¹":8394,"aÉªnmÉĻnt":8395,"ĠÊĮplaÉªd":8396,"ĠpÉ¹aÉªzÉªz":8397,"iËĲdi":8398,"ĠbÉ¹Ã¦s":8399,"aÊĬndÉªd":8400,"ĠtwÉªn":8401,"ĠwÉªlÉĻnt":8402,"ĠtiËĲtiËĲtiËĲ":8403,"ÊĴuËĲÉ¹ÉĻ":8404,"ĠÉ¹uËĲld":8405,"ĠÊĮdÊĮlts":8406,"ĠkÉĻnviËĲnÉª":8407,"ĠsÊĮnsÉĽt":8408,"ĠleÉªdÉªb":8409,"ÊĮpÊĥÉĻn":8410,"ĠsÉªlk":8411,"ĠtÉ¹iËĲti":8412,"ĠÃ¦ntÉªsÉªp":8413,"ĠÉ¹ÉªkÉĶl":8414,"ĠÉ¹ÉªkÊĮvÉĻÉ¹":8415,"ĠÃ¦bd":8416,"ÊĴiËĲnÉªÉĻs":8417,"ĠwaÉªdli":8418,"ĠkÉĳnfÉªdÉĻnt":8419,"ĠÉ¹oÊĬmÃ¦ns":8420,"ĠÉ¹ÊĮfli":8421,"ĠtÉĽknÉªkÉĻl":8422,"ĠsÉĻspÉªÊĥÉĻn":8423,"ĠseÉªnts":8424,"ĠÉĳÉ¹É¹ÉĽf":8425,"ĠÊĮpÉ¹uËĲvd":8426,"ĠiËĲkÉĻnÉĳm":8427,"hÃ¦mÉªd":8428,"ĠkÉĳndÊĮkt":8429,"ĠveÉªÉ¡":8430,"ĠbÃ¦ÅĭÉ¡l":8431,"ĠÉĶkwÉĻÉ¹d":8432,"lÉĻn":8433,"ĠtoÊĬl":8434,"Éĳft":8435,"ĠhÉĽÉ¹ÉªtÉªd":8436,"ĠboÊĬz":8437,"ĠbÊĮÅĭk":8438,"ÊĥkÉĻm":8439,"ĠjaÊĬ":8440,"ĠpoÊĬt":8441,"ĠlÉĽnd":8442,"ĠÉ¡Éªni":8443,"ÉĶÉ¹É¡":8444,"ÉĽlÉªÅĭ":8445,"ÉªfÉ¹Ã¦nt":8446,"ĠnuËĲt":8447,"ĠpleÉªÉĻÉ¹É¹":8448,"ĠÊĮlaÊĬz":8449,"ĠÉĽndÊĬÉ¹":8450,"ĠkÉĳÉ¹bÉĻn":8451,"ĠkÉĽÉ¹z":8452,"ĠwÉĶÉ¹nd":8453,"ĠmoÊĬl":8454,"ĠdaÉªÉĻÉ¡n":8455,"ĠsÉĽliÉĻ":8456,"ĠnoÊĬtÉĻbÉĻl":8457,"ĠÉĳÉ¹tÉªkÉĻlz":8458,"ĠÎ¸Ã¦ÅĭksÉ¡ÉªvÉªÅĭ":8459,"ĠnÃ¦tÊĮli":8460,"ÊĥÉĻÉ¡":8461,"ĠdÉ¹aÉªvÉĻÉ¹z":8462,"ĠmoÊĬtÉªv":8463,"ĠteÉªsts":8464,"ĠfÃ¦ni":8465,"ĠÉªnstÉ¹ÉĻmÉĻnts":8466,"ĠtÉªpÉªkÉĻl":8467,"ĠsÉĻbst":8468,"ĠkÉĶfÉªÅĭ":8469,"Ã¦É¹ÉĻtÉªv":8470,"ĠfoÊĬldÉªd":8471,"ĠÉľËĲnÉªstli":8472,"ĠvÉľËĲsÉªz":8473,"ĠdÉªstÉľËĲbd":8474,"ĠkÃ¦ndÉªdeÉªt":8475,"ĠkÉĻnsÉľËĲvÉĻtÉªv":8476,"Ã¦lkÉĻnÉĻl":8477,"ĠÉ¡wÉĳdÃ¦lkÉĻnÉĻl":8478,"ĠjÊĮÅĭÉ¡Éªst":8479,"ÊĥkÉĻmteÉª":8480,"nÉĳlÉªd":8481,"oÊĬÊĥÉª":8482,"ĠtÉĽÉ¹i":8483,"ĠtÉªÅĭk":8484,"ĠhiÉĻÉ¹oÊĬz":8485,"ĠfÉªtÉªd":8486,"ĠpÉĶÉ¹ÉªÅĭ":8487,"ĠlÉªfts":8488,"ĠÉ¡uËĲs":8489,"ÊĴÊĮn":8490,"ĠÉªnÉĻÉ¹":8491,"ĠwÉľËĲmz":8492,"ĠÉ¹aÉªtÉĻÉ¹z":8493,"ĠkluËĲ":8494,"ĠkleÉªmz":8495,"ĠÉ¡ÊĬdnaÉªt":8496,"ĠÉĽlboÊĬ":8497,"ĠniËĲdÉĻnt":8498,"ĠÊĮlÉĽks":8499,"ĠÉªnvÉªteÉªÊĥÉĻn":8500,"ĠboÊĬlÉªÅĭ":8501,"ĠfjuËĲÉĻl":8502,"ĠÉ¹ÉªliËĲvd":8503,"É¹ÉªsÉĻn":8504,"ĠmaÉªkÉ¹ÉĻs":8505,"ĠmÉĳÉ¹bÉĻl":8506,"ĠkÉĳlÊĮm":8507,"ĠbÉĳtÉĻlz":8508,"ĠbÉªznÉĻsmÉĻn":8509,"ĠÉ¹Éĳki":8510,"ĠbÉ¹iËĲz":8511,"ĠÉ¡É¹aÊĬndz":8512,"ĠÉ¹ÉªsiËĲvÉªÅĭ":8513,"ĠÉ¹aÉªÉĻn":8514,"ĠtaÉªtÉĻlz":8515,"ĠkeÉªkeÉªkeÉª":8516,"ĠpÊĮzÉĻld":8517,"ĠdÉĳkjuËĲmÉĻnts":8518,"ĠÉªÊĥuËĲd":8519,"ĠsÉĽmÉªt":8520,"ĠslÉªpÉĻÉ¹z":8521,"ĠbÉľËĲÉ¡ÉĳÉ¡n":8522,"ĠÉ¡loÊĬbÉĻl":8523,"ĠÊĮbÉ¹ÉĶd":8524,"ĠÉ¡É¹Ã¦djuËĲeÉªtÉªd":8525,"ĠtÉĽlÉªÉ¡É¹Ã¦m":8526,"ĠkÉĳliËĲÉ¡z":8527,"ĠpoÊĬniz":8528,"ĠkÉĳmbÉªneÉªÊĥÉĻn":8529,"ĠÉĽksploÊĬÊĴÉĻn":8530,"ĠmaÉªkÉ¹ÉĻsÉĳft":8531,"ĠbÉľËĲÉ¡ÉĳÉ¡nÉªfÉ¹Ã¦nt":8532,"pÊĬt":8533,"É¹ÉĶÉª":8534,"ĠhÊĮmp":8535,"ĠlÃ¦bÉ¹":8536,"ĠslÃ¦m":8537,"ĠfloÊĬz":8538,"ĠÉĽsdÊĮbÉĻljuËĲdÊĮbÉĻljuËĲdÊĮbÉĻljuËĲ":8539,"Ã¦Êĥt":8540,"ÉĻÉ¹É¹ÉĻbli":8541,"jÊĬÉ¹É¹ÉĻ":8542,"ĠkÃ¦mÉĻl":8543,"ĠmaÉªkÉ¹oÊĬ":8544,"uËĲziÉĻÉ¹oÊĬ":8545,"ĠhÉĳÉ¹bÉĻÉ¹":8546,"ĠkÉĻnsÉªdÉĻÉ¹É¹ÉªÅĭ":8547,"ĠkÃ¦mpÉĻs":8548,"ĠhÉĶkÉªnz":8549,"ĠbÃ¦leÉª":8550,"ĠÊĮtÉĽmptÉªd":8551,"ĠÉ¹ÉªmÉĳÉ¹ks":8552,"ĠÊĥÉĽltÉĻÉ¹":8553,"ĠmÉĻlÉªsÉĻ":8554,"ÊĥeÉªsÉªÅĭ":8555,"ĠneÉªkÉªd":8556,"ĠbÃ¦ÅĭÉ¡lÊĮd":8557,"ÊĥÉĻÉ¡iËĲz":8558,"mÉĶnt":8559,"puËĲl":8560,"ÊĥiËĲt":8561,"ĠjÉĻÉ¹":8562,"ĠpÉªts":8563,"ĠÃ¦ndÉ¹":8564,"ÊĴÉĻbÉĻl":8565,"Î¸ÉĻn":8566,"ĠfÉ¹Ã¦kt":8567,"ĠplÊĮÉ¡":8568,"ÉªÉ¹iÉĻÉ¹":8569,"ĠbaÉªsÉªkÉĻl":8570,"ĠbÉ¹uËĲz":8571,"ĠseÉªlÉªÅĭ":8572,"ĠnuËĲd":8573,"ĠdÉªsÉ¡É¹":8574,"ĠswÉªs":8575,"ĠÉ¡luËĲm":8576,"ĠhÉĽlpfÉĻl":8577,"ĠkÉĳnÊĥÉĻn":8578,"ĠkÉĻmpleÉªnt":8579,"ĠfÉ¹eÉªsÉĻÉ¹z":8580,"ĠkÉ¹ÉªstÉĻl":8581,"ĠsÉĻspÉĽkt":8582,"ÉĽstÉĻÉ¹z":8583,"ĠÉªvÃ¦kjuËĲ":8584,"ĠpÉ¹ÉĽpÉĻÉ¹É¹eÉªÊĥÉĻn":8585,"ĠÊĮÅĭkÉĳnÊĥÉĻs":8586,"ĠfÊĬtstÉĽps":8587,"ĠÃ¦st":8588,"ĠÃ¦pt":8589,"ĠÉĽkw":8590,"É¡ÉĳÉ¹d":8591,"ĠfoÊĬnz":8592,"ĠpÊĮf":8593,"ĠleÉªs":8594,"ĠlÉĽst":8595,"ĠlaÉªtÉªd":8596,"ÊĴÉĳ":8597,"ĠtÉĻdeÉªz":8598,"ĠÉ¹eÉªts":8599,"ÉªnÉĻl":8600,"ĠplÊĮm":8601,"ĠtwÉªt":8602,"ĠmÉĶÉ¹É¡":8603,"ĠÉĳli":8604,"ĠkÊĬdÉĻv":8605,"ĠoÊĬnÉĻÉ¹z":8606,"ĠstÉ¹eÉªn":8607,"ĠteÉªlÉĻÉ¹":8608,"ĠÊĮknÉĳlÉªd":8609,"ĠwiËĲkli":8610,"ĠÉ¡Ã¦spt":8611,"ÊĴÉľËĲhÉĳÉ¹t":8612,"ĠkoÊĬp":8613,"ĠÊĥÉĳÉ¹ks":8614,"ĠnÉľËĲsÉªÅĭ":8615,"ĠsuËĲpÉĻÉ¹É¹Éªnt":8616,"ĠÊĮkaÊĬnts":8617,"ĠÉ¹ÉĽfÉ¹ÉĻnt":8618,"ĠkÉĽnÉĻdi":8619,"ĠklÃ¦pÉªÅĭ":8620,"ĠÊĮsÉªstÉĻns":8621,"ĠklÃ¦É¹Éªs":8622,"ĠpÃ¦ntÉªÅĭ":8623,"ĠswiËĲdÉªÊĥ":8624,"ĠtÉ¹ÉĽmblÉªÅĭ":8625,"ĠÉ¹ÉªtaÉªÉĻÉ¹mÉĻnt":8626,"ĠÉĽÉ¡zÉĶstÉªd":8627,"ĠsiËĲtiËĲÉĽks":8628,"ĠÊĮnplÉĽzÉĻnt":8629,"ĠwÉĽs":8630,"ĠbÉĽÎ¸":8631,"ĠmeÉªmi":8632,"ĠpÉĽk":8633,"ĠliËĲnÉĻ":8634,"ĠhÃ¦Î¸":8635,"ĠnoÊĬbÉĳdiz":8636,"Éªlt":8637,"ĠspÉªt":8638,"ĠÉªntÉªÉ¡":8639,"ĠskÉªlz":8640,"ĠsÊĮmÎ¸ÉªÅĭz":8641,"ÊĮÅĭkt":8642,"ĠpÉĳÉ¹lÉĻÉ¹":8643,"ĠeÉªdiËĲ":8644,"ĠwÉľËĲldwaÉªd":8645,"ĠfÉªlÉªÅĭ":8646,"ĠmiËĲtÉªÅĭz":8647,"ÉĽÉ¹Éªti":8648,"ĠkÉĻmpÃ¦É¹ÉĻtÉªv":8649,"ĠhÉĳÉ¹v":8650,"ĠsÉľËĲkÉĻlz":8651,"ĠklÃ¦sÉªk":8652,"ĠpoÊĬÉªmz":8653,"ĠsÃ¦dli":8654,"ĠkÉ¹Ã¦kÉĻÉ¹":8655,"ĠÉªmiËĲdÉªÉĻt":8656,"ĠfiËĲmeÉªlz":8657,"ĠfÉĶÉ¹Éªsts":8658,"ĠfÉªlÉªpiËĲnz":8659,"ĠbiËĲdz":8660,"ÉªtuËĲÊĥÉĻnÉĻl":8661,"meÉªl":8662,"uËĲki":8663,"ĠfÉĻt":8664,"ĠÉ¡Ã¦n":8665,"ÉĻÉ¹É¹ÉĽk":8666,"ĠpÉ¹aÉªÉĻÉ¹":8667,"ĠdÉ¹uËĲsi":8668,"ĠÉ¹ÉªmoÊĬt":8669,"ĠÊĮtÉĻÉ¹li":8670,"oÊĬdoÊĬ":8671,"ĠbÉĽdÉ¹ÉĻl":8672,"ĠbÉĽdtaÉªm":8673,"ĠkaÊĬntÉªd":8674,"ĠspiËĲkÉĻÉ¹z":8675,"ÉªÅĭÉ¡oÊĬ":8676,"ĠdÉ¹aÉªvz":8677,"ĠpÉĻzÉĽs":8678,"ĠpÉĻzÉĽst":8679,"ĠfÉĶÉ¹tÉ¹ÉĻs":8680,"ĠdÉ¹ÉĽsÉªz":8681,"ĠmÃ¦lÉĻÉ¹É¹i":8682,"ĠskÉĳtÉªÊĥ":8683,"ĠÊĮÊĥÉĳti":8684,"ĠpÉ¹oÊĬtÉĽst":8685,"ĠnÉªÉ¡l":8686,"ĠÊĮpÉ¹ÉĳksÉªm":8687,"ĠÉ¹ÉªviËĲld":8688,"ÊĴuËĲlÉªÉĽt":8689,"ĠjÉĶnz":8690,"ĠziÉĻÉ¹oÊĬtuËĲziÉĻÉ¹oÊĬ":8691,"ĠoÊĬtm":8692,"ĠlÃ¦ntÉĻÉ¹n":8693,"hÊĮnt":8694,"ĠwuËĲp":8695,"ÉĶÉªn":8696,"ĠdeÉªts":8697,"ĠbÊĮv":8698,"É¡ÉĻlz":8699,"ĠpÉĽp":8700,"ĠÉĽmeÉªdiËĲ":8701,"Ã°ÉĻn":8702,"ĠÉ¡ÊĮ":8703,"ÊĴÊĬÉ¹":8704,"ĠÉ¹ÉĽpt":8705,"ĠÊĥÉªÉ¹":8706,"ĠÃ°ÉĽÉ¹l":8707,"ÊĮns":8708,"ĠÊĥiËĲld":8709,"ĠÊĥiËĲts":8710,"ĠvÉĳÉ¹":8711,"vÉĻÉ¹n":8712,"ĠwÉĶndÉĻÉ¹":8713,"ĠtÉ¹Ã¦nsk":8714,"ĠÉĶÉ¹z":8715,"ĠbÉ¹Éĳnz":8716,"ĠÉªntÉĽnd":8717,"ĠÉªntÉĻneÉªÊĥÉĻn":8718,"ĠÊĮmbÃ¦s":8719,"ĠflÊĬÉ¹":8720,"ĠÉĽseÉª":8721,"ĠzoÊĬn":8722,"ĠÉªmoÊĬÊĥÉĻn":8723,"ĠluËĲiËĲzÉª":8724,"ĠsmÉĶlÉªst":8725,"ĠÉĳbz":8726,"ĠÉ¹ÉĽstÉªÅĭ":8727,"ĠfÉĳÉ¹mÉĶÉ¹":8728,"ĠwÉĶltÉĻÉ¹":8729,"É¹ÉĻpÉĳlÉªtÉĻn":8730,"ĠsÃ¦dÉĻl":8731,"ĠkÉĳnsÉĻÉ¹t":8732,"ĠpleÉªnli":8733,"ĠdÉĽnvÉĻÉ¹":8734,"ĠfÉªkÊĥÉĻn":8735,"Ã¦ÅĭÉ¡ÉĻld":8736,"ĠkÉĳkÉ¹ÉĻn":8737,"ĠdÉªÉ¹Éªst":8738,"ĠsÉĽlÉĻbÉ¹eÉªt":8739,"ĠkÉĻmjuËĲnÉªkeÉªÊĥÉĻn":8740,"ĠÊĮmjuËĲzmÉĻnt":8741,"ĠsiËĲdiËĲÉĽs":8742,"ĠkliËĲnd":8743,"ĠkÉĳlÉĻÉ¹É¹ÉĳdoÊĬ":8744,"ĠpÉĻnÉªns":8745,"ĠluËĲwiËĲz":8746,"ĠbÉĽdÉ¹ÉĻlbjuËĲd":8747,"ĠÊĮmbÃ¦sÉĻd":8748,"sdÉĻn":8749,"ÉªÉĳlÉĻd":8750,"ĠÃ¦pÉªt":8751,"ĠhÊĮl":8752,"ĠsÊĮp":8753,"ÊĥÉªd":8754,"ĠmÉĽk":8755,"ÉĻlti":8756,"ĠaÉªk":8757,"ĠÉ¹ÉªstÉ¹":8758,"ÉªleÉªÊĥÉĻn":8759,"ÉĻmÃ¦tÉªk":8760,"ĠÉĽfbiËĲ":8761,"ĠspÉĽÊĥÉĻli":8762,"ÉĽndoÊĬ":8763,"ĠkÉ¹ÉĽpt":8764,"ĠÊĮmÉªd":8765,"ĠoÊĬvÉĻÉ¹h":8766,"ĠpÉ¹ÉªvÉªlÉªd":8767,"Ã¦ktÉªd":8768,"ĠÉªlÉªm":8769,"ĠdiËĲk":8770,"ĠÉ¹uËĲÉªnz":8771,"ĠbÉĽti":8772,"ĠÉªmpÊĮls":8773,"ĠmÉĽtÉ¹ÉĻpÉĳlÉªtÉĻn":8774,"ĠhaÉªdÉ¹":8775,"ĠjuËĲnÉªvÉľËĲsÉĻl":8776,"ĠfÉĽÉ¹wÉĽl":8777,"ĠlaÉªvli":8778,"ĠpÉ¹ÉªtÉĽndz":8779,"ĠkÉĶÉ¹pÉĻÉ¹É¹eÉªÊĥÉĻn":8780,"ĠÉ¡É¹Ã¦ndmÉĳz":8781,"ĠklÊĮbz":8782,"ĠÉ¡Ã¦lÉªz":8783,"ĠnÉĽti":8784,"ĠslaÉªtÉªst":8785,"ĠÉĻpoÊĬn":8786,"ĠÉ¹ÉĽlÉĻtÉªvz":8787,"ĠÉ¹ÉĽfjuËĲd":8788,"ĠÉĳpÉĻzÉªÊĥÉĻn":8789,"ĠdiËĲteÉªl":8790,"ĠÃ¦mbjÊĬl":8791,"ĠkÉĻmpjuËĲtÉĻÉ¹z":8792,"ĠmoÊĬtÉĻÉ¹saÉªkÉĻl":8793,"ĠÃ¦É¹ÉªzoÊĬnÉĻ":8794,"ĠbÃ¦ÅĭÉ¡lÊĮdÉĽÊĥ":8795,"ĠoÊĬtmiÉĻl":8796,"ĠluËĲiËĲzÉªÃ¦nÉĻ":8797,"haÉªm":8798,"lÉĻÉ¹É¹":8799,"noÊĬn":8800,"wuËĲ":8801,"ĠeÉªn":8802,"ĠsÃ¦b":8803,"ĠpÉ¹iËĲm":8804,"ĠluËĲn":8805,"ĠaÉªÉªaÉª":8806,"ĠÊĥÃ¦ft":8807,"ĠstÉ¹Éªp":8808,"ÉĽtÉĻÉ¹":8809,"ĠbiËĲtÉĻn":8810,"ĠfÉ¹aÉªz":8811,"ÉªluËĲ":8812,"ĠÊĮpiËĲl":8813,"ĠsoÊĬloÊĬ":8814,"ĠaÊĬtÉĻÉ¹":8815,"ĠÉĶÉ¹k":8816,"ĠoÊĬvÉĻÉ¹kÊĮm":8817,"ĠÉ¹iËĲÉªn":8818,"ĠfÉĳÉ¡":8819,"ĠleÉªtÉªst":8820,"ĠtÉľËĲb":8821,"ÊĥÉĻÉ¹É¹iz":8822,"ĠdÉªvaÉªn":8823,"ĠdÉĳlf":8824,"ĠnÃ¦v":8825,"ĠpÊĬsi":8826,"ĠsuËĲki":8827,"ĠdÉªnaÉª":8828,"ĠbÉľËĲdi":8829,"ÊĥÉĻÉ¡ÉĻl":8830,"ĠvÉªzÉªtÉĻÉ¹":8831,"ĠkÉĻnvÉªns":8832,"ĠÉªlÉĽktÉ¹ÉªsÉªti":8833,"ĠkÉ¹Ã¦Êĥt":8834,"ĠsÉĻspÉĽktÉªd":8835,"ĠsÉĳlv":8836,"ĠÉ¡É¹eÉªvli":8837,"ĠpÉ¹ÉĻmÉªÉ¹":8838,"ĠpÉ¹ÉĻmoÊĬt":8839,"ĠÊĥÉĽlz":8840,"ĠÉĽÉ¡zÉªstÉªÅĭ":8841,"ĠÊĥÃ¦doÊĬz":8842,"ĠsÉĳkÉĻÉ¹":8843,"ĠbÉĽnÉªfÉªts":8844,"ĠkÉ¹ÉĶlÉªÅĭ":8845,"ĠhÉĳliwÊĬd":8846,"ĠpÉ¹aÉªÉĶÉ¹Éªti":8847,"ĠÊĮbsÉĶÉ¹":8848,"ĠtwÉªÅĭkÉĻl":8849,"ĠkÉĳnÊĥÉĻns":8850,"noÊĬ":8851,"sl":8852,"ĠpeÉªm":8853,"ĠpÃ¦p":8854,"ĠÉ¡Ã¦p":8855,"ÊĴÉªd":8856,"ÉĽnst":8857,"ĠÎ¸ÉĽÉ¹ÉĻp":8858,"ÉªnÉªti":8859,"ĠÊĮnÃ¦lÉĻsÉªs":8860,"ĠÉĶÉ¹n":8861,"ĠfleÉªmz":8862,"ĠkÉĳmÉªk":8863,"ĠpÉĳÉ¹ks":8864,"ĠsiËĲnz":8865,"ĠpÉĳpkÉĶÉ¹n":8866,"ĠdÉªvoÊĬtÉªd":8867,"ĠnÉĶÉ¹Î¸wÉĽstÉĻÉ¹n":8868,"ĠkÉ¹iËĲeÉªÊĥÉĻn":8869,"ĠmÊĮnÉªpÊĬÉ¹":8870,"ĠskwÉľËĲl":8871,"ĠsÉĽnseÉªÊĥÉĻn":8872,"ĠsÉªkstiËĲnÎ¸":8873,"ĠkoÊĬÉĶÉ¹d":8874,"ĠÉĽÉ¡zÃ¦mÉªneÉªÊĥÉĻn":8875,"ĠsÉĻÉ¹pÉ¹aÉªzÉªÅĭ":8876,"ĠvÉªzÉªtÉªÅĭ":8877,"ĠpÉ¹Ã¦ktÉªkÉĻl":8878,"ĠkÉĽmÉªstÉ¹i":8879,"ĠpÉĽpÉĻÉ¹":8880,"ĠÉĻÊĥÊĬÉ¹É¹ÉĻns":8881,"ĠpÉ¹ÉĻpoÊĬzÉĻl":8882,"ĠkÊĮstÉĻmÉĻÉ¹":8883,"ĠdÉªfÉªkÊĮltiz":8884,"ĠpÉ¹ÉĽÊĥÉĻÉ¹É¹":8885,"bÉªliËĲv":8886,"ĠkÉĳnflÉªkt":8887,"ĠÃ¦tmÉĻsfÉªÉ¹":8888,"tÉĻnz":8889,"ÉªÃ°":8890,"ĠhÉĳÉ¹k":8891,"ÊĥÃ¦nts":8892,"ĠpÉĽÉ¹z":8893,"ÊĴoÊĬn":8894,"ÉĻÉ¹É¹ÉĻnt":8895,"ÉĽmpl":8896,"ĠvÉªn":8897,"ĠsÊĮmÉªt":8898,"ĠÊĮnb":8899,"ftaÉªm":8900,"ĠtwiËĲt":8901,"ĠdÉ¹aÊĬnd":8902,"Ã¦sÉĻl":8903,"ĠdÉªsÉĽnt":8904,"ĠÊĮlaÉªÉĻns":8905,"ĠhoÊĬmwÉľËĲk":8906,"ĠÃ¦laÉªz":8907,"É¹ÉĻnts":8908,"ĠÉĽkspÉľËĲt":8909,"ĠkÉĶzÉªÅĭ":8910,"ÉĳÉ¡i":8911,"ĠlaÉªtli":8912,"ĠfÉĶÉ¹mÉĻÉ¹É¹":8913,"ĠkÉĻmpÃ¦":8914,"ĠsÉĽldÉĻm":8915,"ĠsÉĽlwÉªn":8916,"ĠkÉ¹iËĲeÉªtÉªÅĭ":8917,"ĠkÉĳlÉĻn":8918,"ĠbÉĽlÉĻ":8919,"ĠtÉ¹Éªks":8920,"ĠbÉ¹ÉªÉ¡":8921,"ĠfÉĽdÉĻÉ¹É¹eÉªÊĥÉĻn":8922,"ĠkÉ¹ÉªtÉªks":8923,"ĠloÊĬdÉªd":8924,"ĠkÊĮstÉĻmÉĻÉ¹z":8925,"ÊĴÉªpÊĥÉĻn":8926,"ĠsiËĲÉĽleÉª":8927,"ĠnÉĽÉ¹Ã¦m":8928,"ĠÉ¹eÉªmÉĻnd":8929,"ĠkÉĻnstÉªt":8930,"ĠpÉĻnÉªnsjÊĬlÉĻ":8931,"hÉªl":8932,"É¹eÉªnd":8933,"ĠnÉªnt":8934,"Î¸i":8935,"ĠbiËĲk":8936,"ĠÉĽksÉĽs":8937,"ĠwaÉªs":8938,"Éĳlz":8939,"ĠpleÉªÉ¡":8940,"ÊĴuËĲz":8941,"ĠÃ¦ftÉĻÉ¹wÉĻÉ¹d":8942,"oÊĬsÉĻ":8943,"ĠtÉĽnÎ¸":8944,"ÊĴÉĽktÉªv":8945,"ĠfaÉªÉĻÉ¹mÉĻn":8946,"ĠÉĳnÉĻÉ¹d":8947,"ĠÉ¡ÊĮvÉĻÉ¹nmÉĻnts":8948,"ÊĥiËĲmÉĻ":8949,"ÊĴÉĶÉ¹dÉĻn":8950,"ĠpoÊĬstÉªd":8951,"ĠsÉĽlfÉªÊĥ":8952,"ĠÉĶÉ¹É¡ÊĮnÉªzeÉªÊĥÉĻnz":8953,"ĠkÉ¹aÉªmz":8954,"ĠflaÉªts":8955,"ĠÉ¡Ã¦Ã°ÉĻÉ¹É¹ÉªÅĭ":8956,"ĠbaÊĬnsÉªz":8957,"ĠpjuËĲpÉĻlz":8958,"ĠkleÉªvÉĻÉ¹É¹ÉªÅĭ":8959,"ĠnÉªÉ¡oÊĬÊĥÉª":8960,"ĠÉĻbteÉªn":8961,"ĠdÉĽvÉĻl":8962,"hÃ¦tÉĻn":8963,"ĠÉĳnvÉĻloÊĬp":8964,"ÉĶÉ¹pÉĻÉ¹É¹eÉªtÉªd":8965,"ĠhÃ¦ndkÉĻÉ¹t":8966,"ĠÉ¡lÉªmps":8967,"iËĲps":8968,"iËĲÊĥÉĻ":8969,"skÉªn":8970,"ĠtoÊĬdz":8971,"ĠbÊĮbÉĻl":8972,"ÊĥmÉĻnt":8973,"ÊĥÉĶk":8974,"ĠfeÉªz":8975,"ÉªÅĭks":8976,"ÉªdÉĽntÉĻli":8977,"ĠfÉ¹ÊĮst":8978,"ĠpÉ¹ÉĽm":8979,"ĠpÉ¹Ã¦m":8980,"ĠkÃ¦ÊĴuËĲÉĻl":8981,"ĠpiËĲÉĽm":8982,"ĠbÉ¹uËĲs":8983,"ĠÉªntÉĽnt":8984,"ĠslaÉªs":8985,"ĠÊĮmÃ¦ndÉĻ":8986,"ÉĶts":8987,"ĠÃ¦nÊĮl":8988,"ĠÉĽlaÉªÉĽn":8989,"ĠjuËĲzÉªz":8990,"ĠÉ¹uËĲts":8991,"ĠÉ¡liËĲ":8992,"ĠbÉªhÃ¦f":8993,"ÊĴÉĻÉ¹É¹iz":8994,"ĠÉªnfÉĽkÊĥÉĻn":8995,"ĠkÉĳntÉ¹Éªb":8996,"ĠdÊĮkoÊĬtÉĻ":8997,"ĠswiËĲts":8998,"ĠviËĲaÉª":8999,"ĠviËĲÉĻt":9000,"ĠkÉªtÉĻn":9001,"ĠÉ¹oÊĬzi":9002,"ĠdÉªspÉĽÉ¹":9003,"ĠspÉ¹ÉªÅĭz":9004,"ĠsuËĲtÉĻbÉĻl":9005,"ĠÉĳksaÉªd":9006,"ĠmÉĶnstÉĻÉ¹z":9007,"ĠtÃ¦ksÉªz":9008,"ĠpÉ¹oÊĬtÉĽsts":9009,"ĠmÉĽÉ¹ÉªmÉĻn":9010,"ĠsÉªtÉªzÉĻn":9011,"ĠdÉĽstÉªni":9012,"ĠÊĮdmÉªnÉªstÉ¹eÉªtÉªv":9013,"ĠÊĮniËĲzi":9014,"ĠlÃ¦ÅĭÉ¡É¹Éªd":9015,"ÊĥÉªoÊĬ":9016,"ĠfÉª":9017,"ĠpÉĽts":9018,"ÉªÅĭÉªÅĭ":9019,"ĠÉ¹ÉĽvÉĻn":9020,"ĠÉĶlm":9021,"ĠÉ¹ÉªfÉĶÉ¹m":9022,"ÉªlÉªn":9023,"ĠvÉ¹uËĲm":9024,"eÉªsiËĲ":9025,"ĠklÉĶd":9026,"ĠwÉĽÉ¹ÉĻÉ¹":9027,"Ã¦ktÉªv":9028,"ĠsmÃ¦k":9029,"ĠÉªndÊĮld":9030,"jÊĬlÉĻÉ¹z":9031,"ĠÉªnvÉĽntÉªd":9032,"ĠsÉĽntÉĻÉ¹z":9033,"ĠÉĽÉ¡zÉªstÉªd":9034,"ĠbiËĲÉªÅĭz":9035,"ĠdÉªskÊĮst":9036,"ÊĴeÉªeÉªt":9037,"ĠÉ¹ÉªzÉĳlvd":9038,"ĠseÉªvÉªÅĭz":9039,"ĠÉ¹ÉĳkÉªÅĭ":9040,"ĠÃ¦kÉĻd":9041,"ĠÉĳktÉĻp":9042,"ĠÊĮksÉĽl":9043,"ĠlÉĶÉ¹ÉĽnz":9044,"ĠpÉ¹ÉªzuËĲm":9045,"ĠbÉªlÉĶÅĭÉªÅĭ":9046,"ĠÊĮpÉªÉ¹ÉĻnsÉªz":9047,"ĠkÉĳÉ¹tuËĲn":9048,"ĠmÉĳnÉĻÉ¹k":9049,"ĠkÃ¦É¹ÉªktÉĻÉ¹É¹Éªst":9050,"ĠtÃ¦pÉĻÉ¹É¹ÉĽk":9051,"ĠdÉĻmÉªn":9052,"ĠkÉĳmplÉªkeÉªtÉªd":9053,"ĠmÉĻmÉĶÉ¹ÉªÉĻl":9054,"ÉĻtiËĲd":9055,"ÉĽÅĭ":9056,"ÉĽft":9057,"ÉĶft":9058,"ĠkÉľËĲv":9059,"ÊĥÃ¦m":9060,"ÊĥÃ¦nt":9061,"ĠnÉªp":9062,"ĠnÃ¦É¡":9063,"ÊĴÊĮÉ¡":9064,"ÉĻÉ¹É¹ÉĻt":9065,"ĠfÉ¹ÉĶd":9066,"ĠlaÉªftaÉªm":9067,"É¹iz":9068,"ĠÉľËĲz":9069,"É¹uËĲt":9070,"ĠstÉ¹ÉĻtiËĲd":9071,"ĠzÉĽn":9072,"ĠÉªmÉĽns":9073,"ĠÉªÅĭklaÉªnd":9074,"ĠkÉĻmpÉĽt":9075,"ĠÃ¦nsÉĻÉ¹É¹ÉªÅĭ":9076,"ĠleÉªbÉĻÉ¹É¹":9077,"ĠbÉĳmz":9078,"ĠÊĥÉĶÉ¹ts":9079,"ĠÉªnsÊĮlt":9080,"bÉ¹ÉĽd":9081,"ĠbÃ¦tmÃ¦n":9082,"uËĲmÉĻ":9083,"ĠÉĶtoÊĬ":9084,"ĠfÊĮkÉªn":9085,"ĠfÊĬtbÉĶlÉĻÉ¹":9086,"ĠÉ¹oÊĬlÉĻÉ¹":9087,"ĠlÉĳÅĭÉ¡ÉĻÉ¹É¹":9088,"ĠkÉĻmÃ¦ndÉĻÉ¹É¹":9089,"ĠpÃ¦nÉĻl":9090,"ĠpÉ¹ÉĳsÉªk":9091,"ĠteÉªsti":9092,"ĠwuËĲndz":9093,"ĠaÉªdÉĽntÉªti":9094,"ĠhÉĳlÉĻnd":9095,"ÉĳnseÉª":9096,"ĠkÊĬkt":9097,"ĠÉ¹ÉªkwaÉªÉĻÉ¹mÉĻnts":9098,"ĠfÉªlÉĳsÉĻfi":9099,"ĠvÃ¦lÉĻntaÉªn":9100,"ĠwÉªÎ¸dÉ¹":9101,"sÊĮn":9102,"weÉªt":9103,"Éªj":9104,"aÉªoÊĬ":9105,"ĠbÉĳd":9106,"ĠmeÉªz":9107,"ĠlaÊĬnd":9108,"ĠlÉªnd":9109,"ĠbiËĲoÊĬ":9110,"ĠÉĶÉ¹fÉĻn":9111,"ĠklÃ¦n":9112,"ĠskÃ¦n":9113,"ÉªÊĥÉĻ":9114,"aÉªzÉĻn":9115,"ĠÉĳf":9116,"ĠblÉĳnd":9117,"ĠpÉĻÉ¹mÉªtÉªd":9118,"ĠmÃ¦st":9119,"ĠsmÊĮÉ¡":9120,"ĠlÉĽstÉĻÉ¹":9121,"ĠswÉĶÉ¹":9122,"ĠnaÉªtm":9123,"ĠkÉĳnweÉª":9124,"ÊĴÉĽnz":9125,"ĠkÉĻnspÉªÉ¹":9126,"ĠwÊĬmÉĻnz":9127,"ĠhÉĽÉ¹oÊĬ":9128,"ĠpÉĻzÉªÊĥÉĻnz":9129,"hoÊĬhoÊĬ":9130,"ĠdÃ¦Êĥt":9131,"ĠdÃ¦nst":9132,"ĠsÃ¦mpÉĻl":9133,"ĠkjuËĲb":9134,"ĠspuËĲnz":9135,"ĠÉ¹ÉªmuËĲvz":9136,"ĠpÉ¹aÉªsÉªz":9137,"ĠÉ¹ÉĽslÉĻÉ¹":9138,"ĠsÉĻplaÉªz":9139,"ĠdÉªeÉªÉ¡oÊĬ":9140,"ĠjuËĲtÉĶ":9141,"ĠkÉĳntÉ¹ÉĽÉ¹i":9142,"ĠsoÊĬdiÉĻm":9143,"ĠmeÉªnteÉªn":9144,"ĠÃ¦lkÉĻhÉĳl":9145,"mÃ¦stÉĻÉ¹":9146,"aÉªf":9147,"ÊĥdÊĮbÉĻljuËĲdÊĮbÉĻljuËĲdÊĮbÉĻljuËĲ":9148,"ĠfeÉªd":9149,"ĠleÉªz":9150,"ĠtÉĻbÃ¦k":9151,"ĠÎ¸Ã¦t":9152,"ĠÊĥeÉªv":9153,"ĠÊĥÉĽf":9154,"ĠÉªzÉĻb":9155,"ĠbiËĲl":9156,"ĠvÉĽnd":9157,"É¹ÉªdeÉª":9158,"ĠkÃ¦É¹oÊĬl":9159,"iËĲdoÊĬ":9160,"É¹ÉªÅĭtÉĻn":9161,"Ã¦ljuËĲ":9162,"piËĲs":9163,"ĠÉĽvÉ¹ÉªdeÉª":9164,"ĠÊĮlÉľËĲt":9165,"ĠdiËĲoÊĬ":9166,"ĠÉªndÉªd":9167,"ĠliËĲpt":9168,"ĠkÉĳnsÉĻl":9169,"ĠÉĽdwÉĻÉ¹dz":9170,"ĠtÉľËĲmÉªn":9171,"ĠkÉĻnsiËĲld":9172,"ĠÎ¸É¹ÉĽd":9173,"ĠÉĶtÉĳnÉĻmÉĻs":9174,"ĠtÉ¹Éªps":9175,"ĠnoÊĬvÉĽmbÉĻÉ¹É¹":9176,"ĠpÉ¹ÉĳpÉĻÉ¹tiz":9177,"ĠÉĽvÉ¹ÉªwÊĮnz":9178,"ĠkÉĻnvÉľËĲtÉªd":9179,"ĠtÉĽÉ¹ÉªfaÉªd":9180,"ĠsÉªmpÉĻÎ¸":9181,"ĠÉĽldÉĻÉ¹li":9182,"ĠpÊĮpÉªt":9183,"ĠstÉ¹aÉªkÉªÅĭ":9184,"ĠkÉĳntÉ¹Ã¦st":9185,"ĠkÉĳnsÉĻntÉ¹eÉªt":9186,"ĠpÉ¹ÉĽpÉĻÉ¹É¹eÉªÊĥÉĻnz":9187,"ĠfjÊĬÉ¹É¹iÉĻs":9188,"ĠvÉªÉĽnÉĻ":9189,"ĠtÃ¦blÉĻt":9190,"ĠÉ¹ÉªhÉľËĲs":9191,"ĠstÊĮtÉªstÉªks":9192,"ĠwÉĽbsaÉªt":9193,"ĠfÉ¹oÊĬzÉĻn":9194,"ĠnÉªntÉĽndoÊĬ":9195,"bÉĳÉ¹":9196,"duËĲ":9197,"É¹ÉĶÉªt":9198,"stÉĳÉ¹":9199,"ĠsÃ¦":9200,"ĠdÉĽÉ¹ÉªÅĭ":9201,"ĠÉ¡Éªfts":9202,"ĠvÉĳn":9203,"É¹iËĲz":9204,"ĠhÃ¦dtÊĬ":9205,"ĠkÉ¹ÉĽst":9206,"ĠÉĳsk":9207,"ĠtiËĲsiËĲ":9208,"É¹oÊĬb":9209,"ĠpÉ¹Éªk":9210,"ĠpÉ¹ÉªfÉľËĲd":9211,"ĠÊĮtmoÊĬst":9212,"ĠbÉªw":9213,"ĠdaÉªpÉĻÉ¹":9214,"ĠlaÉªtÉĻÉ¹":9215,"É¹Éªsts":9216,"ĠsÉªlÉĽkt":9217,"Ã¦mpÉĻ":9218,"uËĲsÉĻÉ¹":9219,"ĠÉ¡ÊĮvÉĻÉ¹nÉĽs":9220,"ĠfÉ¹iËĲli":9221,"ĠkÉĻlÉĽktÉªd":9222,"ĠbÊĬlÊĥÉªt":9223,"ĠÃ¦É¡ÉĻni":9224,"ĠÊĥÉ¹aÉªn":9225,"ĠsuËĲzi":9226,"ĠfÃ¦ntÉĻsi":9227,"ĠhÉĶÉ¹eÉªÊĥÉĻ":9228,"ĠbÉĳÉ¹kÉªÅĭ":9229,"ĠpÉªstÉĻl":9230,"ĠÊĮstÉĳnÉªÊĥmÉĻnt":9231,"ĠswÉªftli":9232,"ĠfloÊĬtÉªÅĭ":9233,"ĠÉĽvÉĻnz":9234,"ĠÃ¦lÉĻbÃ¦mÉĻ":9235,"ĠmÃ¦É¡nÉªfÉªsÉĻnt":9236,"ĠviËĲÉĻtnÉĳm":9237,"ÊĮÅĭÉ¡":9238,"uËĲÊĴÉĻn":9239,"ĠtÉĳk":9240,"ĠtÉ¹Éªn":9241,"ĠniËĲn":9242,"ĠpÉªd":9243,"ÊĴÉĻdi":9244,"ĠhÉªnt":9245,"ĠstÉĶl":9246,"ĠÊĮnm":9247,"ĠhÃ¦dli":9248,"ĠbÉ¹eÉªnz":9249,"ĠklÉªks":9250,"ÉĻtÉĻÉ¹É¹":9251,"Ã¦mÉĻn":9252,"oÊĬniÉĻn":9253,"ĠoÊĬnÉĻÉ¹É¹":9254,"psÉĻn":9255,"ĠÉĽlf":9256,"ÊĴuËĲliÉĻ":9257,"ĠÊĮlaÉªk":9258,"ĠÃ¦ktÉĻÉ¹z":9259,"ĠÉªndoÊĬn":9260,"ĠÉ¹Ã¦ft":9261,"ĠnÃ¦li":9262,"ĠkÉĻmpiËĲt":9263,"ĠhÃ¦fweÉª":9264,"ĠhÉĶÉ¹sÊĥuËĲ":9265,"ĠvÉªzÉªts":9266,"ĠfÉªnÉªÊĥÉªÅĭ":9267,"ĠdÉªfÉ¹ÉĻnsÉªz":9268,"ĠtÉ¹eÉªdÉªÅĭ":9269,"ĠspÉĽlÉªÅĭ":9270,"ÉªfaÉªÉªÅĭ":9271,"ĠsaÉªÉĻntÉªst":9272,"ĠÃ¦ÅĭÊĥÉĻsli":9273,"ĠÉªndÉªkeÉªt":9274,"ĠpÉĻÉ¹É¹eÉªd":9275,"ĠwÉĶÉ¹ÉªÉĻÉ¹":9276,"ĠmÉªj":9277,"ĠÉĽlÉªveÉªtÉĻÉ¹":9278,"ĠtiËĲneÉªd":9279,"ĠÉªliËĲÉ¡ÉĻl":9280,"ĠhÉľËĲÉ¹ÉªkeÉªn":9281,"lÉªÉ¡":9282,"meÉªts":9283,"poÊĬl":9284,"peÉªpÉĻÉ¹z":9285,"sÉªÅĭ":9286,"ÊĮbi":9287,"ĠtaÊĬÉĻÉ¹z":9288,"ÊĥÃ¦d":9289,"ĠÉĽksh":9290,"ĠaÊĬtÉĻ":9291,"ÅĭkÉĻ":9292,"ĠÉ¡É¹oÊĬz":9293,"ĠspÉ¹eÉª":9294,"ÉªÉ¡li":9295,"ĠeÉªbiËĲsiËĲ":9296,"ĠmÃ¦ps":9297,"ĠÉ¹iËĲk":9298,"pÉ¹ÉĻn":9299,"ĠÉªnveÉªÊĴÉĻn":9300,"ĠÉĽÉ¹laÉªnz":9301,"ĠmÃ¦ts":9302,"ĠkÉĻntÉ¹":9303,"ĠtÉľËĲks":9304,"ĠÉĽlswÉĽÉ¹":9305,"ĠkaÊĬntÉĻÉ¹É¹":9306,"ĠstiËĲmÉĻÉ¹":9307,"ĠloÊĬÉĻÉ¹d":9308,"ĠÎ¸É¹Ã¦Êĥ":9309,"ĠbÉĶÉ¹dÉªÅĭ":9310,"oÊĬmi":9311,"ĠsaÉªÉĻnsÉªz":9312,"ĠkÉĻmpleÉªn":9313,"ĠÊĥÉĳts":9314,"ĠkÃ¦ndÉĻlz":9315,"ĠÉ¡É¹Ã¦sp":9316,"ĠiËĲÉĽlÉĽl":9317,"ĠbÊĮtÉĻÉ¹flaÉªz":9318,"ĠvoÊĬtÉªd":9319,"ĠÉ¹ÉªbÉĻn":9320,"ÊĴuËĲkeÉªÊĥÉĻnÉĻl":9321,"ĠpÉ¹ÉĻvaÉªdÉªÅĭ":9322,"ĠdÉªstÉ¹ÉªbjuËĲÊĥÉĻn":9323,"ĠsÉĶÉ¹sÉªz":9324,"ĠbÊĮÉ¡i":9325,"ĠsÉĽlÉĻbÉ¹eÉªtÉªd":9326,"ĠÉ¹ÉĽvÉĻluËĲÊĥÉĻnÉĽÉ¹i":9327,"ĠpÊĮmpkÉªn":9328,"ĠdwÉĽlÉªÅĭz":9329,"ĠÃ¦dmÉĻÉ¹É¹eÉªÊĥÉĻn":9330,"ĠÊĮnaÊĬnsmÉĻnt":9331,"ĠÊĮkÉĳmplÉªÊĥt":9332,"ĠpÉ¹ÉĻnaÊĬnst":9333,"ĠbjÊĬÉ¹É¹oÊĬ":9334,"ÉĻhoÊĬ":9335,"skÉ¹Éªpt":9336,"ĠkjuËĲti":9337,"ĠtoÊĬnz":9338,"ĠsÉĻst":9339,"ÊĥÉĽks":9340,"ĠlÉĽnt":9341,"ĠÉ¡juËĲ":9342,"ĠiËĲs":9343,"ĠstaÉªlz":9344,"Ã¦nÉªti":9345,"ĠvÉªs":9346,"ĠvaÉªz":9347,"É¹Éªdli":9348,"ĠÉĶÉ¹t":9349,"ĠlÊĬkÉªn":9350,"Ã¦ndÉ¹ÉĻ":9351,"ĠwÉªlÉªs":9352,"ĠnuËĲtÉĻn":9353,"ĠhaÉªÊĮ":9354,"ĠÊĮtÉ¹":9355,"ĠkeÉªbÉĻl":9356,"ĠdÉªvÉĶÉ¹s":9357,"ĠdÉªpÉĽnd":9358,"ĠbÉĳÉ¹sÉªl":9359,"ĠwÉĳÊĥÉĻÉ¹z":9360,"ĠdÉªleÉªd":9361,"ĠbÉĽnz":9362,"ĠfÉªftiËĲnÎ¸":9363,"ĠÉ¹ÉªzÉªst":9364,"ĠiËĲvz":9365,"ĠfaÉªts":9366,"ĠkÊĬdÉĻntÉĻv":9367,"ĠtÉ¹Ã¦nsfÉĶÉ¹m":9368,"ĠwÉĽstÉĽn":9369,"ĠkÉ¹ÉªstÉª":9370,"ĠÉªseÉª":9371,"ĠÉªliËĲnÉĻÉ¹É¹":9372,"ĠÉĽskÉĶÉ¹t":9373,"ĠkÉĶstuËĲm":9374,"ĠÃ¦É¡i":9375,"ĠkÉĳmpÉ¹ih":9376,"ĠfÃ¦nz":9377,"ĠmÉľËĲÉ¹eÉª":9378,"ĠtÉ¹Éªki":9379,"ĠkÉľËĲtÉĻn":9380,"ĠflÃ¦Êĥt":9381,"ĠkÉĳntÉ¹ÉĻv":9382,"ĠpjuËĲpÉĻl":9383,"ĠÉ¹ÉªÃ¦ktÉªÅĭ":9384,"ĠfÉ¹iËĲkwÉĻnt":9385,"ĠÊĮbÉ¹ÊĮpt":9386,"ĠÃ¦Î¸liËĲts":9387,"ĠkÉĽtÉĻl":9388,"ĠpÉ¹ÉĻÉ¡É¹ÉĽs":9389,"ĠmiËĲdiÉĻm":9390,"ĠÃ°ÉĽÉ¹Éªz":9391,"ĠÊĮpÉ¹ÉĳksÉªmÉĻtli":9392,"ĠtÉĻbÃ¦koÊĬ":9393,"mÉªl":9394,"neÉªt":9395,"É¹aÉªd":9396,"stÉĻ":9397,"ĠwÉĳs":9398,"ĠsÉĳm":9399,"ĠdÉªks":9400,"ĠdÉĽlt":9401,"ĠdÊĮmi":9402,"ĠnÃ¦k":9403,"ĠÉ¡ÊĮs":9404,"ĠÉªnÊĮ":9405,"ĠstiËĲp":9406,"ÉĽmÉªn":9407,"ÉªlÉĻÉ¹É¹":9408,"ĠlaÉªd":9409,"ÉĻmÉĽntÉĻl":9410,"ĠÉĽnvi":9411,"ĠhaÊĬsk":9412,"ĠwÊĬdhÃ¦vtÉĻ":9413,"ĠskÉĽl":9414,"ĠhoÊĬseÉª":9415,"ĠÉĶfÉĻÉ¹É¹":9416,"ÊĮdÉĶÉ¹":9417,"ĠÉĽvÉĻluËĲÊĥÉĻn":9418,"ĠÉªmjuËĲn":9419,"ÉĽfÉĽl":9420,"ĠhÊĮÊĥ":9421,"ĠnÉĶÉ¹ÉĻ":9422,"ĠÉĽkspoÊĬzd":9423,"ĠliËĲoÊĬ":9424,"ĠliËĲnd":9425,"ĠkÉĻntÉĽmpt":9426,"ĠÊĮkÉĶÉ¹d":9427,"ĠpÉľËĲp":9428,"ĠÉĽntÉĻÉ¹É¹":9429,"ĠwÉĳÊĥÉĻÉ¹":9430,"ĠmaÉªnÉĻÉ¹z":9431,"ĠmÉªsteÉªks":9432,"ĠsÉĽvÉĻntiËĲnÎ¸":9433,"ĠniËĲÃ°ÉĻÉ¹É¹":9434,"ĠhÉĶlt":9435,"ÊĥÉªkÉĳsÉĻ":9436,"ĠtÉ¹ÊĮstÉªd":9437,"ĠkÃ¦Î¸i":9438,"bÉĽÉ¹iz":9439,"ĠbÉĶld":9440,"ĠÉ¹ÉªbÉĽl":9441,"ĠkwÉĶlÉªfaÉªd":9442,"ĠÉ¹iËĲsÉĽs":9443,"ĠÉĽkspiÉĻÉ¹ÉªÉĻnsÉªz":9444,"ĠsÉĽnÉĻtÉĻÉ¹":9445,"ĠÉľËĲlÉªÉªst":9446,"ĠtÃ¦ksi":9447,"ĠseÉªkÉ¹Éªd":9448,"ĠÎ¸É¹ÉĽtÉĻnÉªÅĭ":9449,"ĠÉ¹ÉªneÉªmd":9450,"ĠtuËĲÎ¸bÉ¹ÊĮÊĥ":9451,"ĠdeÉªbjuËĲd":9452,"ĠÉ¡É¹aÊĬlz":9453,"ĠÉ¹ÉªpÉ¹ÉĻd":9454,"ĠeÉªÉĽmwaÉª":9455,"ĠÉ¹aÉªvÉĻl":9456,"ĠsÉĽmÉªtÉĽÉ¹i":9457,"ĠÃ¦mbjÊĬlÉĻns":9458,"ĠwÉĽstÉĽnÉ¹ÉĻ":9459,"dÉĻ":9460,"uËĲmz":9461,"ĠkÉĽÉ¹i":9462,"ĠhÉĽns":9463,"ĠdeÉªm":9464,"ĠloÊĬl":9465,"ĠlÉªndÉĻ":9466,"ĠÉ¡É¹Éªp":9467,"ĠÉ¡É¹Éªf":9468,"ĠÉ¹ÉĶÉ¹z":9469,"ÉĻÉ¹É¹ÉĻlz":9470,"ĠwÉªski":9471,"ÊĮndi":9472,"ĠdÉªdÉĻn":9473,"ĠÉĽnÊĥÊĬÉ¹":9474,"ĠÉ¡É¹ÊĮm":9475,"iËĲziËĲz":9476,"ĠÊĮbjuËĲs":9477,"Éĳlv":9478,"ÉĶÉªbaÉª":9479,"ĠÊĮmeÉªz":9480,"ĠmeÉªpÉĻl":9481,"É¹uËĲp":9482,"ĠteÉªps":9483,"ĠswÉĳmp":9484,"ĠÉªndiËĲ":9485,"pÉĻÉ¹t":9486,"ĠÉĽÉ¹ÉĻÉ¹":9487,"ĠliËĲk":9488,"ĠÉ¹ÉªlÊĮkt":9489,"ĠÉ¹ÊĮnweÉª":9490,"ĠpÉľËĲl":9491,"ĠÉĳbst":9492,"ĠliËĲdÉĻÉ¹ÊĥÉªp":9493,"ĠfÉĶÉ¹tiËĲnÎ¸":9494,"ĠdÉªtÉ¹ÉĶÉªt":9495,"ĠbÉľËĲnÉĻÉ¹d":9496,"ĠkÉĻmÃ¦ndÉªd":9497,"ĠpoÊĬlÉĻÉ¹":9498,"ĠfÉªksÉªÅĭ":9499,"ĠweÉªkÉªÅĭ":9500,"ĠÉĻkeÉªÊĴÉĻnz":9501,"ĠklaÊĬnz":9502,"ĠÉ¹ÉªmaÉªndz":9503,"ĠÉ¹ÉªflÉĽktÉªd":9504,"ĠÊĮpÉ¹uËĲvÉĻl":9505,"ÊĴÉªstÉĻÉ¹d":9506,"ÊĴÉªsl":9507,"ĠbÊĮfÉĻloÊĬ":9508,"ĠÉĽnÎ¸uËĲziÃ¦zÉĻm":9509,"ĠdÉ¹iËĲmd":9510,"ĠpÉľËĲmÉĻnÉĻnt":9511,"ÉĻlteÉªniÉĻs":9512,"ĠÉĽksiËĲdÉªÅĭli":9513,"kÊĮt":9514,"mÉĽnt":9515,"wÊĬmÉĻn":9516,"É¹ÊĮnt":9517,"oÊĬks":9518,"eÉªÊĴÉĻ":9519,"ĠkÉľËĲn":9520,"ĠheÉªs":9521,"ĠdÃ¦f":9522,"ÊĥÉĻntli":9523,"ĠmÉªm":9524,"ĠmÉĳs":9525,"ĠlÊĮmp":9526,"ĠfÉ¹eÉª":9527,"ĠfÉ¹iËĲk":9528,"ĠvÃ¦nd":9529,"ĠplÃ¦ntÉªd":9530,"ÉªfaÉªz":9531,"ĠÉĶÉ¹tÉĻn":9532,"ĠbÉ¹Ã¦z":9533,"ĠwaÉªpt":9534,"ĠseÉªld":9535,"ĠkÉ¹aÊĬt":9536,"pÉĻld":9537,"ĠkÉĶÊĥÉĻsli":9538,"ĠÃ¦dz":9539,"ĠbÉªtÉ¹eÉªd":9540,"ÊĥuËĲt":9541,"ĠÃ¦lÉĻ":9542,"ĠstÃ¦ndÉĻÉ¹dz":9543,"ĠpÃ¦É¹ÉĻm":9544,"ĠbÉĳÉ¹É¡":9545,"ĠlÃ¦ndl":9546,"ĠlÉĽsli":9547,"ĠÉªnseÉªn":9548,"É¹ÉªzÉĻm":9549,"ĠÉ¹ÉªvÉľËĲs":9550,"ĠÉĻÉ¹É¹aÉªvÉªÅĭ":9551,"ĠÉ¡Ã¦lÉĻp":9552,"oÊĬvÉĻ":9553,"ĠdÉªklÉĽÉ¹":9554,"ĠdÉĽfÉªnÉªÊĥÉĻn":9555,"ĠsÉĽmÉªn":9556,"ĠkÉľËĲtÉªs":9557,"ĠdÉªskÊĮsÉªÅĭ":9558,"ĠsaÉªmÉĻlteÉªniÉĻs":9559,"ĠÉĽstÉªmeÉªtÉªd":9560,"ĠÉªnspaÉªÉĻÉ¹d":9561,"ĠpÃ¦É¹ÉĻlÉĽl":9562,"ĠpÉ¹Éĳmptli":9563,"ĠÃ¦pÉ¹ih":9564,"ĠsÊĮbstÉªtuËĲt":9565,"ĠÉ¡É¹Ã¦tÉªtuËĲd":9566,"ĠÉªmpeÉªÊĥÉĻnt":9567,"ĠbÉĽdÉ¹ÉĻlbjuËĲdÉĻÉ¹":9568,"ĠtÃ¦pÉĻÉ¹É¹ÉĽkÉĶÉ¹dÉĻÉ¹":9569,"ĠbÉĳÉ¹sÉªloÊĬnÉĻ":9570,"kÉ¹oÊĬ":9571,"wÉªÃ°":9572,"oÊĬÎ¸":9573,"ĠnaÉªd":9574,"ĠpÃ¦m":9575,"ĠÉĽmtiËĲ":9576,"ĠÉ¹oÊĬn":9577,"Ã°ÉĻm":9578,"ĠstÉ¹Éª":9579,"ĠÊĮnÉªnt":9580,"ĠklÃ¦t":9581,"ĠwaÉªvz":9582,"ĠÉĳnd":9583,"ÉĳÉ¹doÊĬ":9584,"ĠflÊĮt":9585,"ĠhÉĽlmÉªt":9586,"ĠÉĽlÉĻ":9587,"ÊĴuËĲÉĻt":9588,"ÊĮbÉĳd":9589,"ÉĻpÉĳn":9590,"ĠlÉĶÉ¡z":9591,"ĠÉ¹ÉªzÉĽm":9592,"laÉªf":9593,"ĠmÉĽdÉĻlz":9594,"ÉªfÉªkeÉªÊĥÉĻnz":9595,"ĠÉ¹eÉªsÉªz":9596,"ĠÉĽksklÊĮmeÉªÊĥÉĻn":9597,"ĠsÉªÉ¡nÉªt":9598,"ĠtÉ¹Ã¦pt":9599,"ĠsÉĻspÉªÊĥÉĻs":9600,"ĠblÉĽsÉªÅĭ":9601,"ĠtuËĲÎ¸p":9602,"ĠkÉĳnsÉªkwÉĻns":9603,"ĠÃ¦plÉªkeÉªÊĥÉĻn":9604,"ĠsÉªÉ¡ÉĻÉ¹É¹ÉĽt":9605,"ĠdÉªsÉªplÉªn":9606,"ĠÉ¹ÉªvÉĳlvÉĻÉ¹":9607,"ĠÊĮndÉĻÉ¹kÉľËĲÉ¹ÉĻnt":9608,"ĠsÉªnÉĻmÉĻ":9609,"ĠÉĽfbiËĲaÉª":9610,"ĠÉ¹ÉĽvÉĻnuËĲ":9611,"mÉªk":9612,"nuËĲ":9613,"wÉĻn":9614,"É¹ÉªÉĶl":9615,"eÉªÊĥÉĻs":9616,"ĠkjuËĲs":9617,"ĠhÊĮb":9618,"ĠmoÊĬld":9619,"ĠmÉĽÉ¹Éªt":9620,"ĠnÉĻs":9621,"ĠÃ¦ndÉĻÉ¹sÉĻn":9622,"ĠstÃ¦b":9623,"ĠstÉªÅĭk":9624,"ĠÉĳÉ¹kt":9625,"ĠmaÉªld":9626,"ĠÃ¦tÉªk":9627,"ĠbÊĮtÉĻÉ¹É¹":9628,"ĠpÉ¹ÉĽÉ¹z":9629,"ĠÊĮnÉĽmpl":9630,"ĠbÉ¹oÊĬz":9631,"ĠblÃ¦ks":9632,"Ã¦lps":9633,"ĠÊĮsÃ¦s":9634,"ĠhÃ¦ndi":9635,"ĠdiËĲÉĽneÉª":9636,"ĠÉ¹uËĲtiËĲn":9637,"ÉľËĲtÉĻn":9638,"ĠhÉĽdeÉªk":9639,"Ã¦ntÉĻ":9640,"ĠnaÉªsÉĻÉ¹":9641,"ĠsneÉªl":9642,"ĠkÉĻnsuËĲm":9643,"ĠkÉĻnsÉªsts":9644,"jÊĬÉ¹É¹ÉĻn":9645,"ĠdaÉªÉĻÉ¹É¹i":9646,"ÉĻkÉĻlz":9647,"ĠÊĮÅĭkÉĻlz":9648,"ĠfÃ¦ktÉĻÉ¹z":9649,"ĠfaÉªÉĻÉ¹pleÉªs":9650,"ĠÉªnsÉĽkts":9651,"ĠvÉªdÉªoÊĬz":9652,"ĠÉ¹ÉĽzÉªdÉĻns":9653,"ĠÉ¹ÉĽfÉĻÉ¹É¹":9654,"ĠtÃ¦kÉĻl":9655,"ĠfeÉªtÉĻl":9656,"ĠskwiËĲzÉªz":9657,"ĠmÉªÊĥÉĽl":9658,"ĠlÊĮvÉĻÉ¹z":9659,"ĠbÉĽÅĭÉ¡":9660,"ĠkÃ¦tÉªÉ¡ÉĻÉ¹É¹i":9661,"ĠkÃ¦tÉĻÉ¹pÉªlÉĻÉ¹":9662,"ĠÉĶtÉĻmÉĻbiÉĻl":9663,"ĠdÉªsÉ¡É¹eÉªs":9664,"ĠbÉªwÉªld":9665,"meÉªt":9666,"ÊĮÊĥÉªz":9667,"uËĲmÉªn":9668,"ĠtÉĳÉ¹t":9669,"ĠÉªÉ¹Éªt":9670,"ĠsÉªÉ¡":9671,"ĠbÉªst":9672,"ĠÉ¹Éĳm":9673,"ĠÉ¹Ã¦ns":9674,"ĠÊĥÊĮd":9675,"ĠstÉªm":9676,"juËĲÉªn":9677,"ĠfÉ¹ÉĽdi":9678,"ĠvÊĮn":9679,"ĠsiËĲs":9680,"ĠÊĮpd":9681,"ĠskÉĽt":9682,"ĠwÉĽÉ¹ÉĻpÉĳn":9683,"ĠblÉĳ":9684,"ĠkwÉªÉ¡li":9685,"ĠoÊĬvÉĻÉ¹t":9686,"ĠÉĽlÉªs":9687,"ĠÃ¦dv":9688,"ĠniËĲdÉĻl":9689,"ĠmÉªsÊĮndÉĻÉ¹":9690,"ĠmÉĳmz":9691,"ĠswÉĳp":9692,"ĠsÉĽkÉĻndÉĻÉ¹É¹i":9693,"ĠÉ¹Ã¦sk":9694,"ĠdÉªfÉ¹ÉĻntli":9695,"ĠÉĳfÉªsÉªz":9696,"ÊĥÉĳÉ¹m":9697,"ĠÃ¦ksÉĻnt":9698,"ĠvÃ¦ljuËĲz":9699,"ĠÉ¹oÊĬzÉªz":9700,"ĠÉ¡Ã¦lÊĮks":9701,"ĠÃ¦lÉªÉ¡zÃ¦ndÉĻÉ¹É¹":9702,"ĠkÉĳnstÉĻbÉĻl":9703,"ĠpÉ¹ÉĽsÉªÅĭ":9704,"ĠnÃ¦ni":9705,"ĠskÉ¹eÉªp":9706,"ĠÊĥÊĬÉ¡ÉĻÉ¹É¹":9707,"ĠbÉĳÉ¹nÉĻm":9708,"ĠbÉĳÃ°ÉĻÉ¹É¹ÉªÅĭ":9709,"ĠÉªnvÉĽstÉªÉ¡eÉªt":9710,"ĠstÉľËĲlÉªÅĭ":9711,"ĠmÉĳntÉ¹ÉªÉĶl":9712,"ĠbÉ¹Ã¦zÉªliÉĻn":9713,"faÉª":9714,"faÉªt":9715,"fÊĮk":9716,"wiËĲ":9717,"wÉĻz":9718,"Ã¦pÉĻl":9719,"ÊĴeÉªmi":9720,"ĠÉªnÉĶd":9721,"ĠstÃ¦É¡":9722,"ĠbiËĲsts":9723,"ĠfÉ¹Ã¦É¡":9724,"ĠsiËĲiËĲ":9725,"ÉĻsÉªz":9726,"ĠtwÉªstÉªd":9727,"ĠkÉĶÉªn":9728,"ĠtwÉĽntifaÉªv":9729,"ĠoÊĬvÉĻÉ¹bÉĶÉ¹d":9730,"ĠkÉĳÉ¹É¡oÊĬ":9731,"juËĲzÉªÅĭ":9732,"ĠpleÉªsÉªÅĭ":9733,"ĠpÉĳÉ¹sÉĻn":9734,"ĠfjuËĲmÉĶÉ¹":9735,"ÊĴÉĽnjuËĲÉªn":9736,"ĠfÉĶÉ¹mÃ¦t":9737,"ĠmÉªlÉĻÉ¹":9738,"ĠdÉªnaÉªd":9739,"ĠkÉ¹Éªsp":9740,"ĠmÉĽdÉªt":9741,"ĠkÉĻloÊĬn":9742,"ÉªntoÊĬ":9743,"ĠnÉĳÅĭÉ¡":9744,"ĠhÃ¦mbÉľËĲÉ¡ÉĻÉ¹":9745,"ĠvÃ¦leÉª":9746,"ĠpÉĶÉ¹k":9747,"ĠkÉ¹Ã¦kÉĻÉ¹z":9748,"ĠpÉ¹ÉĻmoÊĬtÉªd":9749,"ĠÉªndÉªkeÉªtÉªd":9750,"ĠtÊĮnz":9751,"ĠkÉĻnsÉľËĲnÉªÅĭ":9752,"ĠoÊĬbeÉª":9753,"ĠmÉĽÊĴÉĻÉ¹z":9754,"ĠÊĮsÉĽmbÉĻld":9755,"ĠÉĽksÉªkjuËĲÊĥÉĻn":9756,"ĠÉªzÉĻbÉĽl":9757,"ĠnÉĻsÉĽs":9758,"lÉªts":9759,"nÉĻz":9760,"ÉªÉªÅĭ":9761,"É¹ÊĮn":9762,"aÉªeÉª":9763,"aÉªiËĲv":9764,"ĠÃ¦bÉĻÉ¹":9765,"ĠweÉªn":9766,"ĠhÉĻ":9767,"ĠdaÊĬnt":9768,"ĠbÉĽÉ¹Éª":9769,"ĠbÉĽndÉªÅĭ":9770,"ĠfÃ¦k":9771,"ĠpoÊĬz":9772,"ĠpÉľËĲd":9773,"ĠlÉĳks":9774,"ĠliÉĻn":9775,"ĠÉ¡ÉĶÉ¹":9776,"ĠÉ¡ÊĮt":9777,"ĠÉ¡ÉªÉ¹":9778,"ÉľËĲz":9779,"ĠÃ°Ã¦tÉĻd":9780,"ĠoÊĬz":9781,"ĠÊĥeÉªn":9782,"ÉªkeÉªÊĥÉĻn":9783,"ĠÉĶltÉĻÉ¹":9784,"ĠÉĳÉ¹n":9785,"ÉªstÉĻnt":9786,"ĠlÃ¦Åĭ":9787,"aÊĬnz":9788,"ĠslÉªm":9789,"ĠeÉªiËĲ":9790,"ĠmÃ¦nhÃ¦tÉĻn":9791,"ĠÊĮsÉĽs":9792,"iÉĻÉ¹i":9793,"ÊĥuËĲÉĻs":9794,"ĠhÃ¦pÉªli":9795,"ĠsnuËĲp":9796,"ĠdÉªvaÉªd":9797,"ĠbÉªliËĲvz":9798,"ĠvÉĶÉªsÉªÅĭ":9799,"ĠÉªlÉĽvÉĻnÎ¸":9800,"ÊĴÉĻÉ¹É¹eÉªtÉĻÉ¹":9801,"ĠwÉªnÉĻÉ¹z":9802,"ĠnuËĲzpeÉªpÉĻÉ¹z":9803,"ĠkÃ¦É¹iz":9804,"ĠdÉªtÉĽkt":9805,"ĠkÃ¦mpÉªÅĭ":9806,"ĠtÉĽstÉªd":9807,"flÉĽks":9808,"ĠkÉĻnvÉĽnÊĥÉĻn":9809,"ĠwaÉªldli":9810,"ĠlÉªmÉªts":9811,"ĠstuËĲdÉªoÊĬz":9812,"ĠÉ¹Ã¦ts":9813,"ĠpÊĮzÉĻlz":9814,"ĠÉĳpÉĻÉ¹É¹eÉªtÉªd":9815,"ĠsÃ¦lÉĻd":9816,"ĠpÉĳkÉªtbÊĬk":9817,"ĠhÊĮmbÉĻl":9818,"hÉĳÉ¹tÉªd":9819,"ĠbÉĳÃ°ÉĻÉ¹d":9820,"ĠmÃ¦É¡ÊĮziËĲnz":9821,"ÊĴiËĲdÊĮbÉĻljuËĲdÊĮbÉĻljuËĲdÊĮbÉĻljuËĲ":9822,"ĠhÉªnduËĲ":9823,"ĠkÉĳnsÉªkwÉĻnsÉªz":9824,"ĠÊĮstÉĳnÉªÊĥt":9825,"ĠsiËĲkwÉĻl":9826,"ĠÊĮkweÉªntÉĻns":9827,"ĠÉªmoÊĬÊĥÉĻnz":9828,"ĠÉªslÉĳm":9829,"ĠmÉĶÉ¹É¡Éªd":9830,"ĠsuËĲpÉĻÉ¹É¹ÉªntÉĽndÉĻnt":9831,"bÉĶÉªz":9832,"lÃ¦st":9833,"meÉªk":9834,"É¹Éªv":9835,"ĠÊĮÅĭÉ¡":9836,"ĠbÉĽvÉĻÉ¹":9837,"ÊĥÉĶ":9838,"ĠmaÊĬnd":9839,"ĠpÉĳd":9840,"ÊĴÉĽd":9841,"ÊĴÃ¦b":9842,"ĠÉĶk":9843,"ĠÊĥÊĮn":9844,"aÉªtÉĻld":9845,"ldÉĻ":9846,"ĠspÉĳÉ¹":9847,"ĠspÉªÉ¹":9848,"ĠklÊĮt":9849,"ÉªmÉĻn":9850,"ĠlÉĽtÉªs":9851,"ĠtiËĲÊĥÉľËĲt":9852,"ĠdÉ¹eÉªk":9853,"É¹oÊĬp":9854,"ĠdÉªsÉĽndÉªd":9855,"ÊĴÉĻnÉĻs":9856,"ĠÉĽÉ¹ÉĻnd":9857,"ĠliËĲÉ¡z":9858,"ĠkÉĻnÉĽtÉªk":9859,"ĠkÉĻnsÊĮmpÊĥÉĻn":9860,"ĠpÉľËĲsi":9861,"fÉĶÉ¹mz":9862,"ĠdÉªpÉĽndÉªÅĭ":9863,"ĠdÉªzaÉªÉĻÉ¹d":9864,"ĠkaÊĬnts":9865,"ĠÃ¦ntaÉª":9866,"ĠniËĲÉ¡É¹oÊĬ":9867,"É¹aÉªvÉĻÉ¹":9868,"kÊĮmÉªÅĭ":9869,"ĠdÉªÉ¡ÉĻÉ¹":9870,"ĠÃ¦shoÊĬl":9871,"ÊĥÊĮklÉªÅĭ":9872,"ĠmÉªÉ¹ÉĻkÉĻl":9873,"ĠmÃ¦kÉªn":9874,"ĠwÉĶÉ¹nÉĻÉ¹":9875,"ĠÉĳpÉĻÉ¹É¹eÉªt":9876,"ĠfÉªzÉªks":9877,"ĠÊĮlaÊĬÉªÅĭ":9878,"ĠÉ¹ÉªstÉ¹Éªkt":9879,"ĠÊĮtÉ¹Ã¦ktÉªd":9880,"ĠeÉªsiËĲ":9881,"ĠhÉĳÉ¹tili":9882,"ĠÉĽmpiËĲaÉªiËĲv":9883,"ĠfÉĽÃ°ÉĻÉ¹z":9884,"ĠlÉĶÉ¹ÉĽnzoÊĬ":9885,"ĠÉĽmpiËĲaÉªiËĲvÉĻmÃ¦nt":9886,"É¹Éĳd":9887,"ÉĽÉ¹Éªs":9888,"ĠtÃ¦kt":9889,"ÊĥÉªks":9890,"ĠmÉĽst":9891,"ĠfÃ¦l":9892,"ĠÉ¡Ã¦É¡":9893,"ĠÉ¡eÉªzÉªÅĭ":9894,"ÊĴÉĻlz":9895,"ÊĴÉĽpÉĻÉ¹d":9896,"ĠstÉĽm":9897,"ĠÉ¡oÊĬsts":9898,"ĠvÉĶn":9899,"ÉĽsÉĻ":9900,"ĠlÃ¦v":9901,"ĠÉľËĲnÉªÅĭ":9902,"ĠmÉĶÉ¹É¡ÉĻn":9903,"ĠblÉªÅĭk":9904,"ĠeÉªÉĽfsiËĲ":9905,"ĠÃ¦nÉªvÉľËĲs":9906,"ĠhÃ¦ndiz":9907,"ĠbÃ¦É¹ÉĻl":9908,"ĠÊĮlÃ¦s":9909,"ÊĥuËĲÉªÅĭ":9910,"ĠÉªndÉªÉ¡n":9911,"ĠkÉĳmli":9912,"oÊĬdi":9913,"ĠkÉĻntÉĽnt":9914,"stÉ¹ÉĶÅĭ":9915,"ĠsÉľËĲvz":9916,"ĠhÉĳÉ¹tli":9917,"ĠÃ¦nts":9918,"ĠÉªmpÉªÉ¹iÉĻl":9919,"ĠstÉªkÉĻÉ¹":9920,"ĠÉ¡ÉĳÉ¹diÉĻn":9921,"ĠsÉľËĲkÉªt":9922,"ĠniËĲÊĥÉĻ":9923,"ĠÉ¹eÉªdÉª":9924,"ĠÉ¹eÉªdÉªeÉªÊĥÉĻn":9925,"ĠkÉĶÉ¹nÉĻÉ¹z":9926,"ĠfÉ¹Ã¦Åĭkli":9927,"ĠkÉĳpÉĻÉ¹":9928,"ĠspÉĳtÉªd":9929,"ĠdÉªspoÊĬz":9930,"ĠpÉĳts":9931,"ĠsÉªkjÊĬÉ¹d":9932,"ĠvaÉªÉĻlÉªn":9933,"ĠpÉĻÉ¹fÉĶÉ¹mÉªÅĭ":9934,"ĠÉ¹ÉĽsÉªp":9935,"ĠmÉĽlÉĻdi":9936,"ĠÉ¹ÉªpiËĲtÉªdli":9937,"ĠsÉªndi":9938,"ĠmÃ¦skoÊĬki":9939,"ĠfÃ¦sÉĻnd":9940,"ĠmÉĽÎ¸ÉĻdz":9941,"ĠtÉĽmpÉĻÉ¹É¹ÉĽÉ¹i":9942,"ĠstÉ¹aÉªps":9943,"ĠfÉĻsÉªlÉªtiz":9944,"ĠÉªlÉĽktÉ¹ÉĳnÉªk":9945,"ĠbÉ¹uËĲnoÊĬ":9946,"ĠÉ¡ÉĻÉ¹É¹ÉªlÉĻ":9947,"ĠkÉĻnÉĽtÉªkÉĻt":9948,"ĠÉĽÉ¹ÉĻ":9949,"ĠmÉªÅĭÉ¡":9950,"ĠnÃ¦s":9951,"ĠaÉªÉĻÉ¹":9952,"ĠÉ¹ÉĶÉ¹i":9953,"ĠÎ¸ÉĶÉ¹":9954,"ĠÊĥÉªvÉĻÉ¹":9955,"ÊĮnz":9956,"ĠlaÉªÉĻÉ¹":9957,"ĠÊĮnp":9958,"ĠkÃ¦ps":9959,"ĠbaÉªbaÉª":9960,"ĠspÉªld":9961,"Ã¦dÉĻn":9962,"Ã¦ndoÊĬ":9963,"ĠkÉ¹Éĳn":9964,"ĠsleÉªt":9965,"ĠslÉªÅĭki":9966,"ĠbloÊĬn":9967,"ĠsÉľËĲf":9968,"ĠdÉĳÅĭ":9969,"ĠÃ¦laÉªd":9970,"ĠsteÉªtmÉĻnts":9971,"ĠÉĽÉ¡zÉªt":9972,"ĠfaÉªnÃ¦ns":9973,"ĠsÉªmpl":9974,"ĠskwÉĳÊĥ":9975,"ÉªÉ¡neÉªtÉªd":9976,"ĠsiËĲmÉĳn":9977,"ĠpÉĶlÉªn":9978,"ĠflÃ¦ts":9979,"ĠsÊĮlf":9980,"ĠkÉľËĲtÉĻnz":9981,"ĠnÉĳmÉªneÉªÊĥÉĻn":9982,"ĠbaÊĬnsÉªÅĭ":9983,"ĠÉľËĲslÉĻ":9984,"ĠbÊĮndÉĻl":9985,"ĠlÉªvÉĻÉ¹puËĲl":9986,"ĠtÉªbÉªts":9987,"ÊĥÉªmni":9988,"ĠlÉĶndÉ¹i":9989,"ĠvÉĽnÉªzweÉªlÉĻ":9990,"ĠhÉĻwaÉª":9991,"jÉĻÉ¹É¹i":9992,"vÉĻs":9993,"oÊĬb":9994,"ĠtÊĮnd":9995,"ĠsÉĳn":9996,"ĠjÃ¦z":9997,"ĠfÉªÉ¹z":9998,"ĠnÉĶt":9999,"ĠjuËĲÉĽf":10000,"ĠÎ¸Ã¦Åĭkt":10001,"ĠÊĥÉĳkt":10002,"ĠtuËĲnÉĻ":10003,"aÉªnÉªÅĭ":10004,"ĠpÉ¹ÉĽÉ¹i":10005,"ÉªfÉªkli":10006,"ĠhÉªÉ¹oÊĬ":10007,"ÉĳpÉĻ":10008,"ĠskÉ¹iËĲt":10009,"ĠhoÊĬplÉĻs":10010,"ÉĽkÉĻl":10011,"ĠweÉªvd":10012,"ĠzuËĲm":10013,"ĠsmÉľËĲ":10014,"ĠsÉªtkÉĳm":10015,"ĠÉªndÉªst":10016,"ĠdÉªfaÉªnd":10017,"ĠnÉĶÉ¹weÉª":10018,"ĠkÉĻnteÉªnÉªÅĭ":10019,"ĠfÉĶÉ¹mÉĻl":10020,"ĠsÉĶÉ¹tÉªd":10021,"ĠÉĻbs":10022,"ĠjÉĽld":10023,"ĠwÉªsÉĻlz":10024,"ĠskwÉľËĲlz":10025,"ĠdÉĽdÉªkeÉªtÉªd":10026,"ĠbÃ¦tÉĻlz":10027,"ĠhÉĳÉ¹Êĥ":10028,"ĠdeÉªvÉªdz":10029,"ĠpÉĳÉ¹kÉªÅĭ":10030,"ĠfÉªÉ¹fÉĻl":10031,"ĠÉ¹ÉĽkÉĻÉ¡naÉªzÉªz":10032,"ĠbuËĲÎ¸":10033,"ĠlÉªmz":10034,"ĠkÉĳnstÉªtuËĲÊĥÉĻnÉĻl":10035,"ĠÉ¡Éªlt":10036,"ÊĴaÉªÉĻnts":10037,"ÊĥÃ¦tÉĻÉ¹É¹ÉªÅĭ":10038,"ĠskÉ¹Ã¦p":10039,"ĠhÉĶÉ¹nz":10040,"ĠmÃ¦njuËĲskÉ¹Éªpt":10041,"ĠhÉĻÉ¹É¹aÉªzÉĻn":10042,"ĠkÉĻlÉĽktÉªÅĭ":10043,"ĠklÉªfÉĻÉ¹d":10044,"ĠlÉªtÉĻÉ¹É¹ÉĽÉ¹i":10045,"ĠÉ¡É¹Ã¦mi":10046,"ĠÉ¡É¹Ã¦mÉĻÉ¹":10047,"ĠswÉĶloÊĬ":10048,"ĠÉ¹Ã¦É¡Éªd":10049,"ĠkÉĻmpoÊĬzÉĻÉ¹":10050,"ĠstÉ¹Éªktli":10051,"É¡ÉĳÉ¹tÉĻn":10052,"ĠpÉ¹ÉªnsÉªpÉĻlz":10053,"bÉľËĲn":10054,"dÉĶÉ¹":10055,"ÉĽÉ¡z":10056,"ĠkÉĳd":10057,"ĠhÉĳm":10058,"ĠsÉĳÉ¹k":10059,"ĠdÉĻÉ¹":10060,"ĠfiËĲn":10061,"ĠneÉªd":10062,"ĠpÊĮÅĭk":10063,"ĠlÉªÎ¸":10064,"ĠÉ¡Éĳb":10065,"ÉľËĲÊĴÉĻn":10066,"ĠÉ¹eÉªp":10067,"ĠÊĥeÉªpt":10068,"ÉĽldiËĲ":10069,"ĠstÉªÉ¹ÉªÅĭ":10070,"ÉĽtÉªks":10071,"ĠmaÉªnÉªÅĭ":10072,"vÉĻÉ¹ti":10073,"ĠÊĮnw":10074,"ĠpiËĲl":10075,"ĠbÉ¹ÉĽt":10076,"ĠklÉĽm":10077,"ĠwaÉªÉĻÉ¹z":10078,"ĠskÉ¹iËĲ":10079,"ĠtwÉĽlf":10080,"ĠkÉ¹uËĲs":10081,"ĠÊĮmeÉªzd":10082,"ĠfleÉª":10083,"ĠflÉĽm":10084,"ĠpÉ¹Éªm":10085,"ĠtÉ¹aÉªÃ¦ÅĭÉ¡":10086,"ĠswÉĳn":10087,"ĠswÃ¦m":10088,"ĠsÉªÅĭkÉªÅĭ":10089,"ĠÉ¹iËĲjuËĲn":10090,"pÉ¹ÉĻm":10091,"ĠliËĲÉĳn":10092,"ÊĴÉªneÉªÊĥÉĻn":10093,"ĠkÉĻmpÉĽld":10094,"ĠdÉ¹Éªl":10095,"ĠdÉªzÉľËĲtÉªd":10096,"bÉĶlt":10097,"ĠskwÉĳ":10098,"ĠkoÊĬÉªns":10099,"ĠbÃ¦Î¸tÊĮb":10100,"ĠfÉĶÉ¹tnaÉªt":10101,"ĠtÉĽmpÉĻlz":10102,"ÊĴÉľËĲmÉĻnz":10103,"ĠbÉľËĲnz":10104,"ĠÉ¡É¹eÉªÊĥÉĻs":10105,"ĠnÉľËĲsÉªz":10106,"ĠlÉĶÉ¹dz":10107,"ĠkÉĳmpÉĻns":10108,"ĠvoÊĬtÉªÅĭ":10109,"ĠpÉ¹aÉªmÉĽÉ¹Éªli":10110,"ĠlÉªftÉªÅĭ":10111,"ĠÉ¹ÊĮbÉªÅĭ":10112,"ĠÉªÉ¡nÉĶÉ¹":10113,"ĠpÉ¹ÉĻpoÊĬzÉĻlz":10114,"ĠÉĽntÉĻÉ¹pÉ¹":10115,"ĠjuËĲkÉ¹eÉªniÉĻn":10116,"ĠswÉĶloÊĬd":10117,"ĠskÉªpÉĻÉ¹":10118,"ĠÉªnspÉĽkÊĥÉĻn":10119,"ĠskÉ¹uËĲdÉ¹aÉªvÉĻÉ¹":10120,"ĠpeÉªtÉ¹Éª":10121,"ĠkÉªndÉĻÉ¹":10122,"ĠÊĥÃ¦mpuËĲ":10123,"ĠpÉ¹ÉªsaÉªsli":10124,"ĠbiËĲoÊĬbiËĲ":10125,"ĠÃ¦nÉªvÉľËĲsÉĻÉ¹É¹i":10126,"beÉªst":10127,"ĠwÉĳb":10128,"eÉªeÉª":10129,"ĠteÉªm":10130,"ĠtÊĮÉ¡":10131,"ĠdeÉªtÉªd":10132,"ĠbÉĳl":10133,"ĠpÉ¹Éªsk":10134,"ÉľËĲÊĥÉĻn":10135,"ÉĽnÊĥÉĻli":10136,"ĠstÉªt":10137,"ĠvÉĽst":10138,"ĠÊĮnbÉªliËĲv":10139,"ĠÉĽksÉĽp":10140,"ĠkÃ¦soÊĬ":10141,"ĠÉĶÉ¹Î¸":10142,"ÊĴÊĮstÉªn":10143,"ĠwÉĽlnoÊĬn":10144,"ĠspÉĽk":10145,"ÉªmÉĽntÉĻÉ¹É¹i":10146,"ĠÉĶfÃ°":10147,"ĠÉªlÉĽkÊĥÉĻnz":10148,"ĠÊĮdÃ¦pt":10149,"ĠpÉĳÉ¹tÉªd":10150,"ĠbeÉªsÉĻn":10151,"ĠmaÉªnÉĶÉ¹Éªti":10152,"ĠÉĳÉ¹mÉĻÉ¹":10153,"ĠÉĳÉ¹miËĲn":10154,"ĠÉ¹ÉĽstÉªd":10155,"ĠÉ¹ÉĽstlÉĻs":10156,"ĠÉ¹ÉªzuËĲmd":10157,"ÊĴÉľËĲk":10158,"ĠkÉĻlÃ¦ps":10159,"ĠkÃ¦É¹iÉĻÉ¹":10160,"É¹aÉªbz":10161,"ĠÉªntÉĻÉ¹feÉªs":10162,"ĠlÉĳli":10163,"ĠÉĶÉ¹ÉªÉ¡ÉĻn":10164,"ĠÉ¹ÉªvjuËĲz":10165,"ĠÉ¹ÉĽpÉ¹ÉªzÉĽnts":10166,"ĠkwiËĲns":10167,"ĠÉªnstÉ¹ÊĮkt":10168,"ĠblÃ¦ÅĭkÉªts":10169,"ĠfÉªkÊĥÉĻnÉĻl":10170,"ĠÉªntÉ¹ÉĻdÊĮkÊĥÉĻn":10171,"ĠwÊĮndÉĻÉ¹É¹":10172,"ĠsÉªndÉªÉ¹":10173,"ĠsÉĶÉ¹dz":10174,"ĠsÉĻÉ¹vaÉªvd":10175,"ĠkÉĳmplÉªmÉĻnt":10176,"ĠmÉªÎ¸ÉĳlÉĻd":10177,"ĠmÃ¦ÅĭÉ¡ÉĻniËĲz":10178,"ĠsÊĮbsÉªkw":10179,"ĠlÉĽmÉĻneÉªd":10180,"ĠwÉªskÉĳns":10181,"ĠaÉªdiËĲÉĽs":10182,"ĠiËĲkÉĻnÉĳmÉªks":10183,"ĠÉĳktÉĻpÉĻs":10184,"ĠÉªndiËĲÃ¦nÉĻ":10185,"hÉĽl":10186,"ĠbÉĽndz":10187,"ĠÉĽmÉªÉ¡":10188,"aÊĬÉĻÉ¹d":10189,"ÊĴÉĽkÊĥÉĻnz":10190,"eÉªtÉĻn":10191,"ÉªneÉªtÉªÅĭ":10192,"ĠfÉ¹ÉĽt":10193,"ĠtÉ¹ÉĶ":10194,"ĠklÉĽvÉĻÉ¹É¹":10195,"ĠkÉ¹ÊĮÊĥ":10196,"ĠÉĳst":10197,"ĠdÉ¹ÊĮmz":10198,"ĠdÉ¹ÉĻmÃ¦tÉªk":10199,"ĠbÃ¦z":10200,"ĠhaÉªp":10201,"ÊĴÉĻntiËĲnÉĻ":10202,"ĠswÉªÅĭz":10203,"ĠkeÉªmbÉ¹Éªd":10204,"ĠpÉĳÉ¹sÉĻl":10205,"ĠkÉĻnsÉªstÉªd":10206,"ĠdÉªskÉĻnt":10207,"ĠÉ¹ÉĽdili":10208,"ĠkÉĳlÉªnz":10209,"ĠÉ¹ÉªzaÉªnd":10210,"ĠÉ¹ÉªpiËĲts":10211,"ĠhjuËĲÉ¡oÊĬ":10212,"ĠÉ¹ÉªdÊĮkÊĥÉĻn":10213,"ĠfÉĳÉ¹mÉªÅĭ":10214,"ĠkÉĻnfÉ¹ÊĮnt":10215,"hÉĽdÉªd":10216,"ĠpÉĳvÉĻÉ¹ti":10217,"ĠpoÊĬlz":10218,"ĠsÉĽptÉĽmbÉĻÉ¹É¹":10219,"ĠweÉªstÉªd":10220,"ĠsaÉªkÉĳlÉĻd":10221,"ĠseÉªlÉĻÉ¹z":10222,"ĠbÉĽkÉªt":10223,"ĠsÉĽksi":10224,"ĠboÊĬlt":10225,"ĠbeÉªkÉĻn":10226,"ĠkÉĻÉ¹É¹ÉĽktli":10227,"ĠskÉĳlÉĻÉ¹z":10228,"ĠtÉ¹eÉªlÉĻÉ¹":10229,"ĠÉ¹ÉĽskjuËĲd":10230,"ĠstÉĽdili":10231,"ĠÉ¹ÉĽÉ¹li":10232,"ĠdÉªstÉªÅĭktli":10233,"ĠÃ¦lÉªÉ¡eÉªtÉĻÉ¹":10234,"ĠtÉĳksÉªk":10235,"ĠpÉĻÉ¹sweÉªd":10236,"ÊĥÉĽnÉĽf":10237,"ĠdÉªstÉªÅĭÉ¡wÉªÊĥt":10238,"ĠÉĽkspÉĽnsÉªz":10239,"ĠhÃ¦loÊĬiËĲn":10240,"ĠmÊĬzlÉªm":10241,"ĠÉ¡Ã¦É¹ÉĻntiËĲ":10242,"ĠwÉĽndi":10243,"ĠdiËĲoÊĬjuËĲ":10244,"ĠtwÉĽlfÎ¸":10245,"ĠwÉªskÉĳnsÉªn":10246,"bÉĽlÉĻ":10247,"hÃ¦n":10248,"nÊĮt":10249,"ĠtiËĲd":10250,"ĠtaÉªz":10251,"ĠsÊĮv":10252,"ĠbaÊĬd":10253,"ÊĥÉĶÉ¹":10254,"ÊĥaÉªz":10255,"ĠjoÊĬn":10256,"ĠaÉªbÉ¹":10257,"ĠÉĶÉªÅĭk":10258,"ĠÉ¹aÉªm":10259,"ĠoÊĬÉªn":10260,"ĠwÊĮtÉĻv":10261,"ĠsÉĽÉ¡":10262,"ÉªzÉĻmz":10263,"ĠmiËĲts":10264,"ĠÉ¹Éªpt":10265,"ĠvÃ¦mp":10266,"ĠklÊĮ":10267,"ĠflÊĮÊĥt":10268,"ĠoÊĬvÉĻÉ¹hÉĽd":10269,"oÊĬkiËĲ":10270,"ĠpeÉªst":10271,"ĠÉ¹ÉªsaÉªt":10272,"ĠkÉĽÉ¹lÉĻs":10273,"ĠkÉĻnsÉĽnt":10274,"ÉĻfÉ¹":10275,"ĠÉ¡É¹Ã¦ndsÊĮn":10276,"ĠhÃ¦ftÉĻÉ¹":10277,"ĠdÉªpÉ¹ÉĽst":10278,"ÊĥiËĲti":10279,"ÊĥÃ¦ft":10280,"ĠvoÊĬkÉĻlaÉªzÉªÅĭ":10281,"ĠÉªsÉĽnÊĥÉĻl":10282,"ĠsloÊĬp":10283,"ĠmÉĳdÉĻlz":10284,"ÊĴÉĽsts":10285,"ÉĽskoÊĬ":10286,"ĠtaÉªtli":10287,"ĠdÉªspoÊĬzd":10288,"ĠÉľËĲÎ¸kw":10289,"ĠÉĽmpaÉªÉĻÉ¹É¹":10290,"ĠbÉĶÉªlÉªÅĭ":10291,"ĠpÉĳkeÉªmÉĻn":10292,"ĠÉĽÉ¹pÉĶÉ¹ts":10293,"ĠvÉĳlkeÉªn":10294,"ĠsÉĽlfd":10295,"ĠneÉªbÉĻÉ¹É¹ÉªÅĭ":10296,"ĠsÉĻÉ¹vaÉª":10297,"ĠÉĻkeÉªÊĴÉĻnÉĻl":10298,"ĠfÉ¹uËĲts":10299,"ĠÉªÉ¡nÉĻÉ¹É¹ÉĻnt":10300,"ĠwÉªkÃ¦m":10301,"ĠÉ¹ÉªflÉĽkt":10302,"ĠswÉĽtÉĻÉ¹":10303,"ĠÉªnvÉĳlv":10304,"ÊĴÉĳÊĥjuËĲÉĻ":10305,"ĠwÉĶndÉĻÉ¹É¹ÉªÅĭ":10306,"ĠkÉĻnspÉªÉ¹ÉĻsi":10307,"ĠfiËĲnÉªks":10308,"bÉĽÉ¹":10309,"bÊĮs":10310,"hÃ¦Åĭ":10311,"loÊĬz":10312,"lÉªnz":10313,"É¹ÊĮpt":10314,"ĠsÉĳd":10315,"ĠdaÊĬ":10316,"ÊĥÉĽd":10317,"ÉĻlÉĽkt":10318,"ĠpÊĮl":10319,"ÉľËĲÉ¹ÉĻl":10320,"ÊĴÉĳÉ¡":10321,"Î¸É¹oÊĬ":10322,"ĠÃ°Ã¦tÉªt":10323,"ĠhÃ¦sÉĻn":10324,"ĠÊĥÉªn":10325,"ĠÊĥÉĽpÉĻÉ¹d":10326,"ĠhÉªÃ°ÉĻÉ¹":10327,"ĠstÉªÉ¹":10328,"ĠvÉĶlt":10329,"ĠsiËĲbÉ¹ÊĬk":10330,"ĠsoÊĬlz":10331,"ĠtÉ¹uËĲp":10332,"ĠaÊĬtl":10333,"ĠnaÊĬÉĻd":10334,"ĠkluËĲz":10335,"ĠskoÊĬld":10336,"ĠdaÊĬnz":10337,"ĠeÉªl":10338,"ĠoÊĬnz":10339,"ĠflÉľËĲ":10340,"ÊĮdÉĳdÉĻ":10341,"ĠoÊĬvÉĻÉ¹wÉĽl":10342,"ÊĮbaÊĬts":10343,"ÊĥuËĲeÉªÊĥÉĻnz":10344,"ÊĮfi":10345,"ĠdiËĲÉĽf":10346,"ĠÉĽmÉĽmeÉªt":10347,"ĠsÉĽntÉĻnsÉªz":10348,"ĠsÉªmpt":10349,"ÉªÅĭkÊĥÉĻn":10350,"ĠlÃ¦ndsk":10351,"iÉĻÉ¹ÉªÉĻ":10352,"ĠbÉĶÉ¹dz":10353,"ĠkÉĻnfÉľËĲm":10354,"ĠsaÉªlÉĻntli":10355,"ĠsÉĻksÉĽÊĥÉĻn":10356,"ĠmÉĳdÉªst":10357,"ĠÉªÅĭÉ¡lÉªÊĥmÉĻn":10358,"ĠmÃ¦sÉĻk":10359,"ĠpÉ¹ÉĳmÉªsÉªz":10360,"ĠmÊĮsÉĻl":10361,"ĠÊĥÉľËĲts":10362,"ĠkÊĮstÉĻmz":10363,"ĠÊĥÉ¹aÉªnz":10364,"ĠfÃ¦nsid":10365,"ĠskwiËĲlÉªÅĭ":10366,"ĠtÉĽÉ¹ÉªtÉĶÉ¹iz":10367,"ĠbÉ¹ÊĬklÉªn":10368,"ĠÉ¹ÉªflÉĽkÊĥÉĻn":10369,"ĠpÉĳÉ¹tÉªsÉªpeÉªtÉªd":10370,"ĠdÉªsmÉªst":10371,"ĠnÉªkÉĻlÉĻs":10372,"ĠmÉľËĲdÉĻÉ¹É¹ÉĻÉ¹":10373,"ĠleÉªmÉĻ":10374,"ĠÊĮbsÉľËĲd":10375,"ĠkÉĻnfÉĽdÉĻÉ¹É¹ÉĻsi":10376,"ĠÉªmoÊĬÊĥÉĻnÉĻl":10377,"ĠdÉªsÉ¡ÊĮstÉªÅĭ":10378,"ĠbjuËĲtÉªfÉĻli":10379,"ĠÃ¦kÉĻdÉĽmÉªk":10380,"ĠnaÉªtmÉĽÉ¹":10381,"ĠtuËĲÎ¸peÉªst":10382,"ĠkÉªndÉĻÉ¹É¡ÉĳÉ¹tÉĻn":10383,"ĠkÃ¦soÊĬÉĽÉ¹i":10384,"foÊĬnz":10385,"hÉĻn":10386,"neÉªmd":10387,"slÃ¦Êĥ":10388,"ĠbÉĻÉ¹É¹":10389,"ĠnÉĽp":10390,"ĠpÊĮÎ¸":10391,"ĠjuËĲÊĬwÉĻ":10392,"ĠhiËĲÃ°ÉĻn":10393,"ÊĥÉĻnÉªÅĭ":10394,"ĠsiËĲsaÉªd":10395,"ĠwÉĶld":10396,"ĠÊĮpÉ¹aÉªt":10397,"ĠÊĮniÉĻn":10398,"ĠlÃ¦l":10399,"ĠskÉľËĲt":10400,"ĠkÉ¹Ã¦kt":10401,"ĠkwÉªd":10402,"ĠmÃ¦nÉªf":10403,"ĠsÉªknÉĻs":10404,"ĠpÉĻÉ¹suËĲd":10405,"É¹ÉªtsÉĻÉ¹":10406,"ĠkÉĳÉ¹k":10407,"ĠÎ¸ÉĶtfÉĻl":10408,"ĠÉ¹iËĲoÊĬ":10409,"ĠÉĽÉ¡zÉªsts":10410,"ĠtÉĽnÊĥÉĻn":10411,"ĠkÉĻntÉĽst":10412,"ĠkÉĻntÉĽntÉªd":10413,"ĠsnÊĮÉ¡":10414,"ĠÉĽntaÉªtÉĻld":10415,"ĠÉĳpÊĥÉĻnz":10416,"ĠÎ¸É¹ÉĽts":10417,"ĠdÃ¦nsÉĻÉ¹":10418,"ÊĴÉªmn":10419,"ÊĴiËĲni":10420,"ĠkÉĶÉ¹ÉĻs":10421,"ĠpeÉªntÉªÅĭz":10422,"ĠkÉĳmpÉĻzÉªÊĥÉĻn":10423,"ĠbÉĶÉ¹Éªs":10424,"ĠmÃ¦Î¸juËĲz":10425,"É¹aÉªbd":10426,"ĠÊĮnfÉĽÉ¹":10427,"ĠtoÊĬbi":10428,"ĠmÉĽÉ¹ÉªlÃ¦nd":10429,"ĠÉ¡loÊĬb":10430,"ĠdeÉªnÉĻ":10431,"ĠdeÉªnÉªÊĥ":10432,"ĠstÉ¹ÉĶbÉĽÉ¹iz":10433,"ĠstÉĽfÉĻni":10434,"ĠkÉĻnfÉĽdÉĻÉ¹É¹ÉĻt":10435,"ĠtÉ¹ÉĽÊĴÉĻÉ¹z":10436,"ĠfoÊĬtoÊĬz":10437,"ĠnaÊĬÉĻdeÉªz":10438,"haÊĬz":10439,"mÉªÎ¸":10440,"ÉªÉĳn":10441,"oÊĬkt":10442,"oÊĬlz":10443,"ĠtÃ¦nd":10444,"ĠpaÊĬt":10445,"ĠÉĽmi":10446,"aÊĬsi":10447,"ÊĴÉĶÉ¹":10448,"ÉĳÉ¹ti":10449,"ĠÊĥÉªntoÊĬ":10450,"ĠwÉªÊĥÉªÅĭ":10451,"ĠnoÊĬÊĥÉĻn":10452,"ĠstÉ¹iËĲmz":10453,"ĠwiËĲt":10454,"ÉªvÉĻnt":10455,"ÉĽsÉªs":10456,"ĠpiËĲpiËĲ":10457,"ĠaÊĬtfÉªt":10458,"ĠbÉ¹ÊĮm":10459,"ĠwÉĽnÉĽvÉĻÉ¹É¹":10460,"ĠkÉ¹Éĳp":10461,"ĠÊĮmÉ¹ÉªtsÉĻÉ¹":10462,"ĠpleÉªÉªn":10463,"ĠtÉĶst":10464,"ĠlÉĶÅĭd":10465,"ĠÉ¹iËĲdÉĻÉ¹z":10466,"ĠmÊĮÃ°ÉĻÉ¹fÊĮk":10467,"ĠbÉĳksÉªÅĭ":10468,"ĠmÉĶÉ¹nÉªÅĭz":10469,"ĠÉĽntÉ¹":10470,"ĠpiËĲsfÉĻl":10471,"ĠtÉĳpÉªk":10472,"ĠkÉĻmpÉĽÉ¹":10473,"ĠÉĽkstÉĽnsÉªv":10474,"ĠbÉĳÉ¹ts":10475,"ĠhÉĶltÉªd":10476,"ĠpÃ¦kÉªt":10477,"ĠpÉ¹oÊĬÉ¡É¹Ã¦mÉªÅĭ":10478,"ĠÉ¡Ã¦lÉĻnt":10479,"ĠÉ¹ÉĳbÉªnsÉĻn":10480,"ĠdÉ¹ÉĶÉªÅĭÉ¹uËĲm":10481,"ĠspÉĽld":10482,"ĠsÉĻspÉĽndÉªd":10483,"ĠpÉ¹ÉĻtÉĽktÉªÅĭ":10484,"ĠbÉĽÉ¡ÉªÅĭ":10485,"ĠhoÊĬstÉªd":10486,"ĠoÊĬkdeÉªl":10487,"ÊĴÉĻnsiz":10488,"ĠsiËĲkwÉĻns":10489,"ĠhÉĳstÉªd":10490,"ĠdÉªÉ¡nÉªti":10491,"ĠziÉĻÉ¹oÊĬziÉĻÉ¹oÊĬziÉĻÉ¹oÊĬ":10492,"ĠbÉĳÉ¹É¡Éªn":10493,"ĠkwiËĲnslÉĻnd":10494,"jaÉª":10495,"kÉĳÉ¹":10496,"sÉĽnt":10497,"wÉĽÉ¹i":10498,"ÉªÉªst":10499,"aÉªÉĻl":10500,"Ã¦É¹i":10501,"uËĲÉĻ":10502,"ĠhaÉªn":10503,"ĠhÉĽk":10504,"ĠseÉªd":10505,"ĠdwÉĶÉ¹":10506,"ĠbÉĳk":10507,"ĠfÉªst":10508,"ĠnÃ¦m":10509,"ĠhÃ¦É¹ÉªÅĭtÉĻn":10510,"ĠÊĥÉĳnt":10511,"ĠbiËĲbiËĲ":10512,"ÉªlÉĻÉ¹z":10513,"ĠplaÊĬ":10514,"ĠplÉªm":10515,"ÉĳnÉªkÉĻ":10516,"ÉĳmuËĲ":10517,"ĠÉ¡É¹ÊĮmpi":10518,"Ã¦dÉĻ":10519,"ĠÉ¡ÊĬdneÉªt":10520,"ÉªÊĥÉĻnd":10521,"ĠslÃ¦k":10522,"ĠsliËĲps":10523,"ĠflÉªnt":10524,"ĠoÊĬvÉĻÉ¹teÉªk":10525,"ĠÉĽlÉªÉ¡":10526,"ÉĻdÉĶÉ¹":10527,"ĠmÃ¦É¹":10528,"ĠÉ¹oÊĬsi":10529,"ĠmÉªsÉĻl":10530,"ÊĮloÊĬ":10531,"ĠdiËĲÉĽs":10532,"ĠkÉĳmpÉ¹ÉĻm":10533,"ĠhÉĽdhÊĮnt":10534,"ÉĻbÉ¹":10535,"ĠpÉĳÉ¹ÊĥÉĻl":10536,"ĠkÉĳnÉĻÉ¹":10537,"ĠfÉĳÉ¹mz":10538,"Ã¦Åĭz":10539,"ĠkÉĳli":10540,"ĠwÉªndsÉĻÉ¹":10541,"ĠfÉĶÉ¹mÉªÅĭ":10542,"ĠkÃ¦mÉ¹ÉĻz":10543,"ĠmÉĳÉ¹Î¸ÉĻ":10544,"ĠÉĳpÉĻ":10545,"ÉĳvoÊĬ":10546,"ĠÉ¹ÉªpÉĽÉ¹":10547,"ĠhaÉªdÉ¹ÉĻ":10548,"ĠÉ¹aÉªdz":10549,"ĠklÃ¦sÉªkÉĻl":10550,"ĠbÉĳbz":10551,"ĠÃ¦ksÉªdÉĽntÉĻli":10552,"ĠfÉªtÉªÅĭ":10553,"ĠbÉľËĲnÉĳÉ¹d":10554,"klÃ¦s":10555,"ĠÉ¹Éĳbd":10556,"ĠÉ¹ÉĳbÉĻÉ¹É¹i":10557,"ĠtÉªklÉªÅĭ":10558,"ĠmÃ¦ksÉªmÉĻm":10559,"ĠmÉĽlbÉĻÉ¹n":10560,"ĠstÉĳkÉªÅĭz":10561,"pÉ¹Éªnts":10562,"ĠwÉĶÉ¹dÉĻn":10563,"ĠkÉĳÅĭkÉ¹iËĲt":10564,"ĠÉ¹ÉªkwaÉªÉĻÉ¹mÉĻnt":10565,"ĠhÉĳstÉĻl":10566,"ĠfÉĻsÉªlÉªti":10567,"ĠdiËĲviËĲdiËĲ":10568,"ĠÃ¦kjÊĬÉ¹ÉĻt":10569,"ĠhÃ¦bÉªts":10570,"ĠziÉĻÉ¹oÊĬwÊĮnziÉĻÉ¹oÊĬ":10571,"ĠÃ¦pÉªtaÉªt":10572,"ĠÉªnÉĶdÉªbÉĻl":10573,"kÃ¦sÉĻl":10574,"stÉĽd":10575,"ĠwÃ¦ks":10576,"ÉĶÉ¡":10577,"ĠseÉªs":10578,"ĠdÉªkt":10579,"ĠboÊĬst":10580,"ÊĥviËĲ":10581,"ÊĥÃ¦ks":10582,"ĠmÉĶs":10583,"ĠmÉĳlÉªk":10584,"Ġfi":10585,"ĠpÉĶnt":10586,"Ã¦nÎ¸":10587,"ÉªnÉĽntÉĻl":10588,"ĠmaÉªÃ¦mi":10589,"ĠkÃ¦z":10590,"ĠspÃ¦Åĭk":10591,"ĠmÉĶÉ¹oÊĬvÉĻÉ¹":10592,"ÉĽndÉĻÉ¹É¹":10593,"ĠslÃ¦p":10594,"ĠtÉĽli":10595,"ÊĴuËĲdi":10596,"ĠkÉĻmpÉ¹":10597,"ĠjuËĲzÉĻÉ¹z":10598,"ĠkÉĳmÉĻ":10599,"aÉªvÉªÅĭ":10600,"ÉĽÉ¹ÉªkÉĻl":10601,"ÉĻkl":10602,"ĠdÉªskÉ¹aÉªbz":10603,"ĠmÉĳÉ¹É¡":10604,"ĠÉªnstÉªtuËĲÊĥÉĻn":10605,"ÊĮÊĥÉĻ":10606,"ĠÉ¹ÉªzÉĽnt":10607,"ĠiËĲvlÉªn":10608,"ĠsaÊĬÎ¸iËĲstÉĻÉ¹n":10609,"ĠÉĽÉ¡zÃ¦mÉªnd":10610,"ĠsÉĻpÉĶÉ¹tÉĻÉ¹z":10611,"ĠbÃ¦Åĭz":10612,"ĠdÉĳdz":10613,"ĠmjuËĲnÉªsÉªpÉĻl":10614,"ĠsÃ¦mi":10615,"ĠÉ¡Ã¦lÉĻÉ¹É¹i":10616,"ĠwÉĶndÉĻÉ¹d":10617,"ÅĭkwÉĽst":10618,"ÉĳÉ¡É¹ÉĻfÉĻÉ¹":10619,"ĠÉ¹ÉĽzÉĻl":10620,"ĠskÉĽÉ¹s":10621,"ĠdÉĽnÉªs":10622,"ĠjuËĲÉĽseÉª":10623,"ĠfoÊĬkÉĻst":10624,"ĠpÉľËĲpÉĻsÉªz":10625,"ĠhÉĽvÉĻnz":10626,"ĠflÃ¦ÊĥÉªÅĭ":10627,"ĠÉĽmplÉĶÉªmÉĻnt":10628,"ĠÉ¹ÊĮsÉĻlÉªÅĭ":10629,"ĠÃ¦lfÉ¹Éªd":10630,"ĠÉ¹ÉªkwÉĽstÉªd":10631,"ĠÉĳtoÊĬ":10632,"ĠnÉĳvÉĻhoÊĬ":10633,"ĠÃ¦dmÉľËĲÉ¹ÉĻl":10634,"ĠÉªnÉªÊĥÉĻli":10635,"ĠkÉĻmpjuËĲtÉĻÉ¹É¹":10636,"ĠÉĽksÉªkjuËĲtÉªd":10637,"ĠwÉĽlÎ¸i":10638,"ĠÊĮplÉĶz":10639,"ĠstÃ¦mps":10640,"ĠsÉĽÉ¹ÉĻz":10641,"ĠbÉĽsiz":10642,"ĠkÉĻntÉ¹ÉªbjuËĲt":10643,"ĠleÉªdÉªbÉľËĲd":10644,"ĠÊĮmeÉªzmÉĻnt":10645,"ĠbÉľËĲnÉĻÉ¹doÊĬ":10646,"ÊĴÉĽpÉĻÉ¹di":10647,"ĠÉĽÉ¹ÉĻpleÉªn":10648,"bÃ¦sk":10649,"fÃ¦ÊĥÉĻnd":10650,"hÉªÉ¹":10651,"iÉĻmz":10652,"iËĲÊĴÉĻn":10653,"stÉ¹iËĲm":10654,"ĠkÉĳks":10655,"ĠsÊĮlt":10656,"ĠdÃ¦mp":10657,"ÊĥiËĲvd":10658,"ÊĥdaÊĬn":10659,"ĠmÉĶd":10660,"ĠfoÊĬz":10661,"ĠlÉĽÉ¹":10662,"ÉªdeÉªl":10663,"ĠÉĳÉ¹É¹eÉª":10664,"ĠÃ¦zÉĻÉ¹b":10665,"ĠplÉĽd":10666,"ĠpÉ¹oÊĬn":10667,"ĠskeÉªtÉªÅĭ":10668,"ÉªÊĥÉĻntli":10669,"ĠtiËĲpÉĳt":10670,"ĠkÉĶÉªnz":10671,"ĠdeÉªnti":10672,"ÊĴuËĲliÉĻn":10673,"ÊĮbaÊĬt":10674,"ĠmÉªnÉªstÉ¹i":10675,"ĠÉĽÉ¹d":10676,"ĠwÉĶÉ¹f":10677,"ĠtaÉªf":10678,"ĠfaÉªnÉªst":10679,"ĠlaÉªthaÊĬs":10680,"ÉªbÉªÊĥÉĻn":10681,"ĠfÉĶÉ¹meÉªÊĥÉĻn":10682,"ĠkÃ¦mÉĻÉ¹É¹ÉĻn":10683,"ĠfÉªnÉĳmÉªn":10684,"ĠmÉªlz":10685,"ĠdÉªzi":10686,"ĠÉĳÉ¹mstÉ¹ÉĶÅĭ":10687,"ĠkÃ¦ptÉªvz":10688,"ĠÉ¹ÉªpiËĲtÉªÅĭ":10689,"ĠÉ¹ÉªkÊĮvÉĻÉ¹É¹i":10690,"ĠmÉĳÉ¹kÉĻs":10691,"ĠdÉªkÊĥÉĻn":10692,"ĠÉªliËĲnÉĻÉ¹z":10693,"ĠkÉĳswÉľËĲÎ¸":10694,"ĠÉ¹aÉªfl":10695,"ĠdÉ¹iËĲmÉªÅĭ":10696,"É¹ÉĽsÉªv":10697,"ĠÉ¡É¹oÊĬnÉªÅĭ":10698,"ĠÉªkweÉªÊĴÉĻn":10699,"ĠÉ¹ÉĽÉ¡jÊĬlÉĻÉ¹li":10700,"ĠsÉĳbÉªÅĭ":10701,"ĠÉ¹ÉªmaÉªndÉªd":10702,"ĠkoÊĬkoÊĬ":10703,"ĠdaÉªÉĻlÉĽkts":10704,"ĠstÉ¹ÉªÅĭz":10705,"ĠÉ¹ÉĽlÉĻtÉªvli":10706,"ĠmÉĽÊĴÉĻÉ¹d":10707,"ĠÉĻkÉľËĲz":10708,"ĠdÉĽstÉªneÉªÊĥÉĻn":10709,"ĠswiËĲpÉªÅĭ":10710,"ĠÉªntÉĻfÉªÉ¹ÉĻns":10711,"ĠsÉªlviÉĻ":10712,"ĠeÉªvÉªeÉªÊĥÉĻn":10713,"ĠÉªmpÉ¹ÉĽsÉªv":10714,"ĠÊĥÊĮnÉĽl":10715,"fÉĻnd":10716,"hÉĶÉ¹n":10717,"pÊĬÉ¹":10718,"pÃ¦Î¸":10719,"siz":10720,"wÉľËĲd":10721,"ĠwÉĳl":10722,"uËĲÎ¸":10723,"ĠhwÉĳn":10724,"ĠhÉĶts":10725,"ĠdÉĽÉ¹i":10726,"ĠjÃ¦Åĭk":10727,"ÊĴoÊĬz":10728,"ÊĴÉĽndÉĻÉ¹":10729,"ÉĽni":10730,"ĠwÉªÉ¡ÉĻl":10731,"juËĲli":10732,"ĠÉ¹ÉªÅĭk":10733,"ĠsÊĮmdeÉª":10734,"ĠÉĽnÉĽfÉĽl":10735,"ĠblÉĶs":10736,"ĠkwÉĶÉ¹i":10737,"ĠfliËĲ":10738,"ĠflÃ¦É¡z":10739,"ĠtÉĽlÉªt":10740,"ĠÊĮsuËĲmd":10741,"iËĲvÉĻl":10742,"ĠkÊĮs":10743,"ĠÉ¹oÊĬps":10744,"ÊĮbz":10745,"ÉªÊĥÉĻnsi":10746,"ÊĥÉĻÉ¹oÊĬki":10747,"ĠoÊĬldfÃ¦ÊĥÉĻnd":10748,"ĠkÉĳmÉĽntÉªd":10749,"pÉĻÉ¹É¹ÉªÅĭ":10750,"ĠÉªnvÉĽnt":10751,"eÉªlÉĻ":10752,"ĠsnoÊĬÉªÅĭ":10753,"ĠwoÊĬntÊĮv":10754,"ĠÉ¹Ã¦Î¸":10755,"ĠnÃ¦ÊĥÉĻn":10756,"ĠÃ¦nÉªmeÉªÊĥÉĻn":10757,"ĠÉ¹ÉĽkÉĻm":10758,"ĠsÉªlÉĽkÊĥÉĻn":10759,"ÉĽbÉĻlz":10760,"ÊĴÃ¦kjÊĬleÉªtÉªd":10761,"ĠiËĲvÉĻ":10762,"ĠkoÊĬbÉĶlt":10763,"ĠpÉ¹ÉĳmÉªnÉĻnt":10764,"ĠvÉªlÉĻn":10765,"ĠdÉªtÃ¦t":10766,"ĠÉĽÉ¡zÃ¦mÉªnz":10767,"ÊĴÉĽstÉªÅĭ":10768,"ĠpÉĽnÉªz":10769,"ĠhÊĮntÉĻÉ¹z":10770,"ĠdÉªspjuËĲt":10771,"ĠÉ¹ÉĽpÉ¹ÉªzÉĽntÉªÅĭ":10772,"ĠÉ¹ÉĽkÉĻÉ¡nÉªÊĥÉĻn":10773,"ĠsÉĻksÉĽsfÉĻli":10774,"ĠpÉªlz":10775,"ĠpÉ¹ÉĻsÉĽÊĥÉĻn":10776,"ĠsÉĽlfk":10777,"ĠsuËĲts":10778,"ĠvaÉªÉĻlÉĻntli":10779,"ĠsÉĻÉ¹É¹ÉĽndÉĻÉ¹":10780,"ĠtÉªpÉªkli":10781,"ĠÉªvÃ¦ljuËĲ":10782,"ĠpÉ¹ÉĻmoÊĬÊĥÉĻn":10783,"ĠmÉĶÉªst":10784,"ĠfÉĽÉ¹iz":10785,"ĠÊĮnnÉĽsÉªs":10786,"ĠpÊĮnÉªÊĥ":10787,"ĠÉĶdÉªoÊĬ":10788,"ĠkÉĻnsÉľËĲnz":10789,"ĠÉĽÎ¸nÉªk":10790,"ĠtÉ¹Ã¦vÉĻlz":10791,"ÊĥeÉªmbÉĻÉ¹É¹":10792,"ĠkÉĻndÊĮktÉĻÉ¹":10793,"ĠmÉĶÉ¹tÉĻl":10794,"ĠÊĮkweÉªntÉªd":10795,"ĠkÉĳnÊĥÉĻsnÉĻs":10796,"ĠpÉĻÉ¹sweÉªdÉªd":10797,"ĠÉĽspoÊĬz":10798,"ÉĻÉ¡É¹Ã¦fÉªkÉĻl":10799,"ĠÉ¡É¹Ã¦vÉªti":10800,"ĠkwÉĶÉ¹ÉĻl":10801,"ĠjuËĲÉĽnsiËĲ":10802,"ĠbÊĮvÉĽÉ¹iÉĻ":10803,"ĠÊĮbÉ¹ÊĮptli":10804,"ĠÉ¹ÉªbÉĽliÉĻn":10805,"ĠÉĳndÉ¹eÉª":10806,"ĠnÉĻsÉĽsÉªti":10807,"ĠpÊĮÎ¸ÉĽtÉªk":10808,"ĠhÉĽdhÊĮntÉĻÉ¹z":10809,"bÉĳt":10810,"fuËĲ":10811,"faÉªÉĻÉ¹":10812,"maÉªnd":10813,"pÉĶÉªnt":10814,"É¹ÊĮk":10815,"ĠkÉªnd":10816,"ĠtÉĽs":10817,"ĠsÉĻn":10818,"ĠdoÊĬtoÊĬ":10819,"É¡waÉª":10820,"ĠÉ¡ÉĳÉ¡":10821,"ÉľËĲkÉĻm":10822,"Ã¦tÉ¹Éªk":10823,"ĠiËĲÉ¡ÉĻlz":10824,"ÉªdÉĻ":10825,"ĠÊĥÉĳn":10826,"ÉĽloÊĬ":10827,"ĠmiËĲk":10828,"ĠbaÉªnd":10829,"ĠwÉĽlÊĥ":10830,"ĠbÉ¹Ã¦k":10831,"ĠlÃ¦si":10832,"ĠÊĮbÉ¹iËĲv":10833,"ĠspÉĽÉ¹d":10834,"ĠkliËĲv":10835,"ĠfaÉªld":10836,"ĠkÉ¹ÊĬk":10837,"ÉĳÉ¹di":10838,"ĠmeÉªkÊĮp":10839,"pleÉªnz":10840,"ĠhaÉªnd":10841,"ĠÉĻÉ¹É¹iËĲnÉĻ":10842,"ĠÉ¡liËĲm":10843,"ĠmÉªnÉªmÉĻm":10844,"ĠÉĽneÉªbÉĻl":10845,"Éªnzi":10846,"ĠÊĮmÉĽÉ¹ÉªkÉĻz":10847,"ĠÉ¹aÊĬndz":10848,"ĠmÃ¦É¡iz":10849,"ĠdÉĳÉ¹wÉªn":10850,"ĠsÉĽlÉĻÉ¹":10851,"ĠkÃ¦ptÉªv":10852,"ĠkÃ¦ptÉªnz":10853,"ĠmÉĽtÉ¹oÊĬ":10854,"ÉĶÉªdz":10855,"ĠwÉªnÉĻÉ¹É¹":10856,"ĠklÃ¦spt":10857,"ĠwaÉªfz":10858,"ĠsÉĽndz":10859,"ĠkÉĻnsÉªdÉĻÉ¹É¹":10860,"ĠÊĮnduËĲ":10861,"ĠdiËĲpÉĻÉ¹":10862,"ÊĥÉªpt":10863,"ĠÉĽkskluËĲs":10864,"ĠsnoÊĬmÉĻn":10865,"ĠsiËĲkÉ¹Éªtli":10866,"ĠdÉªvÉĽlÉĻpÉªÅĭ":10867,"ĠmÉªnÉªstÉĻÉ¹z":10868,"ĠbaÉªtÉªÅĭ":10869,"ĠmÉĶnstÉĻÉ¹É¹":10870,"ĠmÉªÊĥÉĻnÉĽÉ¹iz":10871,"ĠbÉ¹iËĲfkeÉªs":10872,"ĠmÉªzÉĻÉ¹É¹i":10873,"ĠÊĮpÉ¹uËĲv":10874,"ĠÃ¦ÅĭkÉĻÉ¹":10875,"ĠziËĲlÉĻndÉĻÉ¹z":10876,"É¹ÉªÉ¡eÉªÊĥÉĻn":10877,"ĠspÉĻsÉªfÉªkli":10878,"ĠÉ¹ÉĽfÉ¹ÉĻnsÉªz":10879,"ĠpÉĽÅĭÉ¡wÉªnz":10880,"ĠtÉ¹Ã¦nsleÉªtÉªd":10881,"ĠtÊĮmbÉĻl":10882,"ĠmÊĮÊĥÉĽti":10883,"ĠhÉªkÊĮps":10884,"ĠfoÊĬtÉĻÉ¡É¹Ã¦fz":10885,"ĠsuËĲpiÉĻÉ¹ÉªÉĻÉ¹":10886,"ĠtÉ¹oÊĬfi":10887,"ĠÊĮnÉĶÉªÉªÅĭ":10888,"ĠsÉĻbstÃ¦nÊĥÉĻl":10889,"ĠÉĶÉ¹kÉªst":10890,"haÊĬzÉªz":10891,"ĠplÉªmÉĻÎ¸":10892,"ĠÃ¦zÉĻÉ¹baÉªd":10893,"ĠhÉĶtsÃ¦lps":10894,"bÉªÉ¡":10895,"fti":10896,"fÉ¹i":10897,"hÊĮm":10898,"mÊĮÃ°ÉĻÉ¹":10899,"steÉªt":10900,"É¹ÉªÎ¸":10901,"eÉªlÉªÅĭ":10902,"ĠtÉªpt":10903,"ĠdÊĬÉ¹":10904,"ĠdÃ¦É¡":10905,"ĠjjaÉª":10906,"É¡ÉľËĲl":10907,"ĠpÊĮls":10908,"ĠlÉªb":10909,"ÊĴÉªv":10910,"ÊĴjÊĬÉ¹É¹ÉĻn":10911,"ĠÉ¹Ã¦mp":10912,"Éªdi":10913,"juËĲmz":10914,"ĠtÉ¹Ã¦mp":10915,"ĠtÉ¹ÊĮÅĭks":10916,"ÊĴÊĮstÉĻs":10917,"ĠwÉĽlfÉĽÉ¹":10918,"ĠeÉªp":10919,"ÊĴiËĲÉĳÉ¹":10920,"ĠkÉĻmÉĽnst":10921,"ĠzÉĽkÉĻl":10922,"ĠhÃ¦ndÉªÅĭ":10923,"ĠÉªndÉªf":10924,"ĠheÉªvÉĻn":10925,"ĠÉĽÉ¡zÃ¦d":10926,"ĠfÉĳÉ¹Ã°ÉĻÉ¹É¹":10927,"ĠkÉĽÉ¹toÊĬ":10928,"ĠfaÉªnÉĻlz":10929,"ĠÊĮntÊĬ":10930,"ĠbÉľËĲmÉªÅĭ":10931,"ĠpÉ¹ÉĽzÉªdÉĻns":10932,"ĠdaÉªÉĻ":10933,"ĠÊĥÃ¦loÊĬ":10934,"ÊĴeÉªÉĽn":10935,"ĠpÃ¦stÉĻÉ¹":10936,"ĠbÉĳÉ¹l":10937,"ĠtaÊĬnÊĥÉªp":10938,"ĠmÃ¦di":10939,"ĠskwÉľËĲt":10940,"ĠbÉĳz":10941,"ĠÃ¦bsÉĻnt":10942,"ĠklaÉªmz":10943,"ĠkÉĶÉ¹pÉ¹ÉĻl":10944,"ĠÉ¹aÉªÉªdeÉªl":10945,"ĠbÃ¦Åĭkw":10946,"ĠkÉĻnvÉªkÊĥÉĻn":10947,"ĠsuËĲpÉĻÉ¹st":10948,"ĠhÉĽnz":10949,"ĠvÉľËĲÊĴÉĻnz":10950,"ĠstÉĽpÉªÅĭ":10951,"ĠmÉĳnÉªkÉĻ":10952,"ĠkÉĻntÉªnjuËĲÉªÅĭ":10953,"ĠsÉĽnjÉĶÉ¹":10954,"ĠpaÉªlÉĻts":10955,"ĠÉ¹ÉªzÊĮltÉªd":10956,"ĠÉ¡É¹Ã¦nbi":10957,"ĠÉªndÉªkeÉªtÉªÅĭ":10958,"ĠskwiËĲl":10959,"ÊĥÉĳÉ¹ts":10960,"ĠtÉ¹eÉªsÉªz":10961,"ÊĮÉ¹oÊĬni":10962,"ĠkÊĬÊĥÉĻn":10963,"ĠvÉĶdwÉĳ":10964,"ÊĴÊĮÅĭkÊĥÉĻn":10965,"ĠklÉªkÉªÅĭ":10966,"ĠÉ¡É¹Ã¦djuËĲeÉªtÉªÅĭ":10967,"feÉªsd":10968,"ĠpÃ¦nÎ¸ÉĶÉªbaÉª":10969,"ĠvÉªnsÉĻnt":10970,"iËĲdiÉĻns":10971,"ĠkÉ¹ÉªstÉªÃ¦nÉªti":10972,"ĠsÉªmptÉĻmz":10973,"ĠfiÉĳnseÉª":10974,"bÃ¦skÉªt":10975,"ĠbÉľËĲmÉªÅĭÃ¦m":10976,"hi":10977,"ÉªoÊĬkÉĻ":10978,"É¹ÉªmÉªn":10979,"ĠkÊĮk":10980,"ĠheÉªts":10981,"ĠsÉªp":10982,"ĠmÊĮk":10983,"ĠfÉĽmÉªn":10984,"ĠnÃ¦Êĥ":10985,"ÉªÅĭÎ¸":10986,"ÊĴÉľËĲn":10987,"ĠÉĶtÉĻ":10988,"ÊĮmps":10989,"ĠÊĥÉ¹Éªm":10990,"ĠduËĲpl":10991,"ĠwiËĲzÉĻl":10992,"ĠvÉĶ":10993,"ĠvaÊĬ":10994,"ĠveÉªl":10995,"ĠsoÊĬk":10996,"ĠsoÊĬÉªÅĭ":10997,"ĠplÃ¦stÉĻÉ¹":10998,"ĠhuËĲd":10999,"ÉĽndÉĻn":11000,"ĠsliËĲv":11001,"ĠkwÉªvÉĻÉ¹":11002,"ĠÉĽnÉªweÉªz":11003,"ÉľËĲsÉĻn":11004,"ĠlÉĶÅĭÉªÅĭ":11005,"jÊĬleÉªtÉªÅĭ":11006,"ĠjuËĲniÉĻnz":11007,"ĠÃ¦lt":11008,"ĠÃ¦lÉĻk":11009,"ĠÉĽkoÊĬd":11010,"ĠÉ¹ÉªspÉĽktÉªd":11011,"ÉĳÉ¹É¹ÉĻz":11012,"ĠÉĽkspÉªkt":11013,"ĠdÉĶÉ¹bÉĽl":11014,"ĠluËĲkÉĻ":11015,"ĠpÉľËĲf":11016,"ĠpÉĳpt":11017,"ĠmÉĳÉ¹É¹ÉªoÊĬ":11018,"ĠÃ¦msdÉĻn":11019,"ĠsÃ¦tÉĻl":11020,"ĠÉĳnÉĻ":11021,"ĠÉ¹ÉªzÉĻn":11022,"ĠpleÉªdoÊĬ":11023,"ĠsÉĽnsÉªz":11024,"ĠÉĽkstÉªÅĭkt":11025,"ĠhÉĳÉ¹mÉĻn":11026,"ĠhjuËĲmÉĻÉ¹":11027,"ĠpÉ¹ÉªtÉĽndÉªd":11028,"ĠpÉĽnÉĻli":11029,"ĠÉ¹ÊĮÊĥÉĻnz":11030,"ĠfÉĻÉ¹É¡ÉĽtÉªÅĭ":11031,"Ã¦zm":11032,"ĠdÉªsÊĮpÉĶÉªnt":11033,"ĠwÉĽlkÊĮmd":11034,"ĠÊĮwoÊĬk":11035,"ÊĥÃ¦tÊĮh":11036,"ĠbÊĮÅĭÉ¡":11037,"ĠÉ¹ÊĮbd":11038,"ĠÉĶÎ¸ÉĻÉ¹z":11039,"ĠpÉ¹ÉĻvaÉªdz":11040,"ĠtÃ¦sks":11041,"ĠÊĥeÉªkspÉªÉ¹":11042,"ĠÉĶtÉĻmÃ¦tÉªk":11043,"ĠsÉªvÉªÉ¹li":11044,"ĠskÊĮlpt":11045,"ĠÃ¦plÉªkeÉªÊĥÉĻnz":11046,"ĠÉªstÃ¦blÉªÊĥmÉĻnt":11047,"ĠÉĽÅĭkwaÉª":11048,"ĠlÃ¦bÉ¹ÉĻtÉĶÉ¹i":11049,"ĠÊĮmbÃ¦sÉĻdÉĻÉ¹":11050,"ÉľËĲkÉĻmflÉĽks":11051,"ÊĴjÊĬÉ¹É¹ÉĻnÉĶÉ¹d":11052,"ĠÊĴÉĳn":11053,"É¹Ã¦ft":11054,"É¹ÉªÊĥÉĻn":11055,"ĠÊĮstÉ¹":11056,"ĠkÉªks":11057,"ĠÉªÉ¡":11058,"ĠdÊĮv":11059,"ĠdÉĳts":11060,"ĠbÊĮb":11061,"ÊĥiËĲtÉªÅĭ":11062,"ĠmÊĮnt":11063,"ĠlÉªsts":11064,"ÉĶÉ¹oÊĬ":11065,"ÊĴÉĶÉªz":11066,"ksÉĽs":11067,"ÉĽnÊĥÉĻnÉĻl":11068,"ĠÊĥw":11069,"ĠÊĥaÉªni":11070,"ÉĻÉ¹É¹ÉĻÉ¹":11071,"ĠwÉªpt":11072,"ĠnoÊĬd":11073,"ÉªnÉĳm":11074,"ĠhÉľËĲmÉĻn":11075,"ÉªÉ¹eÉªniÉĻn":11076,"ĠkÃ¦nsÉĻl":11077,"ĠtÉ¹ÉĽt":11078,"ĠkÉ¹ÉĶ":11079,"ĠbloÊĬk":11080,"ĠbleÉªzÉªÅĭ":11081,"ĠfluËĲt":11082,"iËĲtÉĻÉ¹":11083,"ĠpleÉªÉ¡É¹aÊĬnd":11084,"ĠtÉĶnt":11085,"ĠtÉ¹aÉªbÉĻl":11086,"ĠÃ¦lÉªb":11087,"ĠÉ¡lÃ¦nsÉªz":11088,"ĠÉªnveÉªd":11089,"ĠliËĲÊĴÉĻÉ¹":11090,"ÉĽvÉªt":11091,"jÊĬÉ¹É¹i":11092,"wÉĽÉ¹toÊĬ":11093,"ĠwiËĲknÉĻs":11094,"ĠÉĳÉ¹miz":11095,"ĠÉĽksploÊĬs":11096,"ÊĥiËĲaÉª":11097,"ĠÎ¸ÉľËĲtiËĲnÎ¸":11098,"ĠpÉ¹ÉĻdÊĮkÊĥÉĻnz":11099,"ĠpÉĶlz":11100,"ĠpÃ¦kÉªÅĭ":11101,"ĠhÊĮntÉªd":11102,"ĠÉªfÉĽktÉªvli":11103,"ĠsÉªÉ¡nÉĻlz":11104,"ĠdÉĽkl":11105,"ĠmÃ¦kÊĮÉ¹oÊĬni":11106,"ĠskÉĳti":11107,"ÊĴÉĻlÉĻ":11108,"ĠpÉ¹ÉĻduËĲsÉªÅĭ":11109,"ĠpÉ¹ÉĻduËĲsÉªz":11110,"ĠpÃ¦dlÉªÅĭ":11111,"ĠdÉ¹Ã¦É¡ÉĻnz":11112,"ĠÉªnvÉĽstÉªÉ¡eÉªtÉĻÉ¹":11113,"ĠdÊĮmpt":11114,"ĠtÃ¦pÉªoÊĬkÉĻ":11115,"ĠsÉĻplaÉªd":11116,"ĠpÉ¹ÉªsÉªp":11117,"ĠÉ¹Ã¦sbÉĽÉ¹iz":11118,"ĠmÊĮstÉĻÉ¹d":11119,"ĠhÊĮnz":11120,"ĠÃ¦Î¸lÉĽtÉªk":11121,"ĠÉ¹Ã¦Åĭkt":11122,"ÊĥmÉĻnd":11123,"É¡ÉĻsl":11124,"ĠÉ¹ÉĳtÉĻn":11125,"ĠtÉĻÉ¹É¹Éĳnt":11126,"ĠpÊĮtÉ¹oÊĬl":11127,"ĠvÃ¦lÉĻntaÉªnz":11128,"ĠÊĥÉĽltÉĻÉ¹É¹":11129,"ĠdaÉªÉĻÉ¡noÊĬzd":11130,"ĠhÊĮmpti":11131,"ĠhÉĳÉ¹vÉªst":11132,"ĠÉ¡Ã¦nÉªt":11133,"ĠÉ¹oÊĬnoÊĬk":11134,"ĠsÉªndÉªÉ¹ÉĽlÉĻ":11135,"ĠÉľËĲÎ¸kweÉªk":11136,"fÉĻk":11137,"mÊĮn":11138,"tÉĻÉ¹z":11139,"weÉªn":11140,"staÉªl":11141,"É¹ÉªÉ¹":11142,"Ã¦É¹ÉªoÊĬ":11143,"ĠsÉĻm":11144,"ĠsweÉª":11145,"ĠmÉĳl":11146,"ĠfoÊĬm":11147,"ĠnÉĻbÉ¹":11148,"ĠlÉªl":11149,"ĠkaÉªl":11150,"ÊĴÉªts":11151,"ÉĳtÉªd":11152,"ĠstÊĮ":11153,"ÉªnÉĻns":11154,"ÉªloÊĬ":11155,"ĠvaÉªv":11156,"ĠsiËĲÉĽÉ¹ÉĻ":11157,"ĠsiËĲsÉĶ":11158,"ĠpÉ¹ÉĻl":11159,"ĠhaÊĬnd":11160,"ĠwÉĽlz":11161,"ĠbÉ¹ÉĳvoÊĬ":11162,"ÉĳpoÊĬ":11163,"ĠspÉĶÉªld":11164,"keÉªks":11165,"ĠnuËĲli":11166,"ÉľËĲnÉªti":11167,"ĠpÉ¹Éªv":11168,"ĠbÃ¦É¹ÉĻn":11169,"ĠdiËĲlz":11170,"ĠwÉľËĲkÉĻÉ¹":11171,"ĠsÉĽkÊĥÉĻnz":11172,"É¹ÉĻhÃ¦m":11173,"ĠdÉªfÉĽnsÉªv":11174,"ĠÎ¸ÉĶtfÉĻli":11175,"ĠnÉĶÉ¹wiËĲd":11176,"ĠsÉĽntÉªm":11177,"ĠbÉľËĲti":11178,"ĠtÉĳmz":11179,"ÉĽbÉ¹Éªti":11180,"ĠbeÉªsmÉĻnt":11181,"ĠpÉĻluËĲluËĲ":11182,"ĠÊĮndÉĻÉ¹stÃ¦ndz":11183,"ĠsaÊĬÎ¸wÉĽstÉĻÉ¹n":11184,"ĠbÉªznÉĻsÉªz":11185,"ĠÊĮdvaÉªzd":11186,"ÊĴÉªmÉĻnt":11187,"ĠdÉĳnÉĻ":11188,"ĠbÉľËĲnÉªs":11189,"ĠfÉ¹ÉĳÉ¡i":11190,"ĠkÉĻnveÉª":11191,"ĠdÉªspÃ¦t":11192,"ĠpÉªlÉ¡":11193,"ĠÉ¡É¹oÊĬv":11194,"ĠÉ¡É¹Ã¦spt":11195,"ÊĴÃ¦É¹ÉĻd":11196,"ĠtÉªkÉĻlz":11197,"ĠsaÉªkÉĻl":11198,"ĠdÉĽli":11199,"ĠdÉĳkjuËĲm":11200,"ÊĥÃ¦tÉĻÉ¹":11201,"sÉĻksÉĽs":11202,"ĠkÊĮltÉªv":11203,"ÊĴÉĽÉ¹ÉĻmi":11204,"ĠkÊĮnÉªÅĭ":11205,"ĠÊĮdÉ¹ÉĽsÉªÅĭ":11206,"ĠsÉĻbmÉªÊĥÉĻn":11207,"ĠstÉ¹ÊĮÉ¡ÉĻld":11208,"ĠÊĮkwaÉªÉĻÉ¹d":11209,"ĠfeÉªntli":11210,"ÊĴÉĽfÉĻÉ¹sÉĻn":11211,"ĠeÉªbÉ¹ÉĻhÃ¦m":11212,"ĠsÉĽlÉĻbÉ¹eÉªÊĥÉĻn":11213,"ĠfÊĮÅĭkÊĥÉĻnz":11214,"ĠdÉªsÉ¡aÉªz":11215,"ĠÊĮdÉĳpt":11216,"ĠkÃ¦nsÉĻld":11217,"ĠkÉĻndÊĮktÉªd":11218,"ĠÉ¹ÊĮÉ¡bi":11219,"ĠvÉªÊĴuËĲÉĻl":11220,"ĠdÉªtÉľËĲmÉªneÉªÊĥÉĻn":11221,"ĠpÃ¦ÅĭkeÉªks":11222,"ĠeÉªaÉªaÉª":11223,"ĠskÉ¹Ã¦mbÉĻld":11224,"ĠmoÊĬnÉªÅĭ":11225,"ĠÉĽksheÉªlz":11226,"ĠkÉľËĲnÉĻlz":11227,"ĠÉ¹Ã¦skÉĻl":11228,"ĠlÃ¦ndskeÉªp":11229,"ĠpÉ¹ÉĽzÉªdÉĻnsi":11230,"ĠtÉĻÉ¹É¹ÉĳntoÊĬ":11231,"biËĲt":11232,"loÊĬd":11233,"loÊĬzd":11234,"sbÉªn":11235,"aÉªst":11236,"aÉªÉĻt":11237,"uËĲsÉĻl":11238,"Éĳi":11239,"ĠmeÉªs":11240,"ĠmÉĳb":11241,"ĠfaÊĬnt":11242,"ĠnÉĳÉ¹":11243,"ĠpÉĶÉ¹Éªd":11244,"ĠpwÉĽÉ¹toÊĬ":11245,"ĠlÉªnt":11246,"ĠjuËĲÉ¡ÉĻsl":11247,"ÊĴÉĳl":11248,"Ã¦tÉĻs":11249,"ĠhÉªldÉĻ":11250,"ĠwÉªst":11251,"juËĲlz":11252,"ĠÉ¹ÉªfÉĶÉ¹md":11253,"ĠÃ¦zÉªz":11254,"aÉªdÉªÅĭ":11255,"ĠkÃ¦w":11256,"ĠtÉ¹ÉĽd":11257,"ÉĶlz":11258,"Éĳpi":11259,"ĠspaÉªs":11260,"ÉĻtÉªk":11261,"ĠskÉĶÉ¹z":11262,"ĠlÊĬkaÊĬt":11263,"viËĲÉĳÉ¹":11264,"ĠslaÉªm":11265,"ĠbleÉªd":11266,"ĠbleÉªz":11267,"Ã¦lÉ¡i":11268,"Ã¦siÉĻm":11269,"ĠÉĽlÉĽs":11270,"ÊĴuËĲld":11271,"ÊĥuËĲeÉªtÉªd":11272,"ĠhaÉªpÉªt":11273,"ĠÉ¹uËĲbi":11274,"ÊĥaÉªldÉªÊĥ":11275,"ĠbÉªliËĲ":11276,"jÊĬlÉĻz":11277,"ĠnÉĶÉ¹mÉĻn":11278,"ĠnÉĶÉ¹fÉĻk":11279,"ĠpÉĳÉ¹s":11280,"É¡É¹eÉªd":11281,"ĠÉĽdÉªtÉĻÉ¹":11282,"ÊĴÉªnÉªÉ¹z":11283,"ĠdÉªzÉľËĲvd":11284,"ĠÃ¦mÉĻt":11285,"ĠwÉĶkÉĻÉ¹":11286,"ĠloÊĬf":11287,"ĠkÉľËĲÉ¹i":11288,"ÊĴÉĻÉ¹É¹uËĲsÉĻl":11289,"ĠkÉªlz":11290,"ĠÉªÉ¹eÉªniÉĻn":11291,"ĠÃ°ÊĮtsbÉªn":11292,"ĠhaÉªdÉ¹ÉĻd":11293,"ĠkÉĻnfÉĽÊĥÉĻn":11294,"ĠdÃ¦nsÉªz":11295,"ĠkoÊĬts":11296,"ĠpÉĽnz":11297,"ÊĴÉĶÉªnz":11298,"ĠhÃ¦mbÉľËĲÉ¡":11299,"flaÊĬÉĻÉ¹":11300,"ĠlÉªÉ¹Éªks":11301,"ĠpÉĻtÉªÊĥÉĻn":11302,"ĠpÉ¹ÉªzÉľËĲvd":11303,"ĠnÉªkneÉªm":11304,"ÊĴÊĮmps":11305,"oÊĬvÉªt":11306,"ĠvaÉªÉĻlÉªt":11307,"ĠtÉªmÉªd":11308,"ĠpÉ¹ÉªntÉªÅĭ":11309,"ĠÉ¹ÉªstÉĶÉ¹d":11310,"ĠÉĶÉ¹É¡ÉĻnaÉªz":11311,"ĠnÉľËĲvz":11312,"ĠÉĳkjÊĬpeÉªÊĥÉĻn":11313,"ĠhaÉªts":11314,"ĠskÉĳlÉĻÉ¹":11315,"ĠÉĽmplÉĶÉªiËĲ":11316,"ĠpÉ¹ÉĳfÉªts":11317,"ĠÃ¦ÅĭkÉĻl":11318,"ĠÉªndÊĮstÉ¹iz":11319,"ĠsÉĻlÉĽbÉ¹Éªti":11320,"ĠÉ¹ÉĽndÉĻÉ¹d":11321,"ĠkÉĻmpÃ¦É¹ÉĻtÉªvli":11322,"ĠÉĳbzÉĻÉ¹veÉªÊĥÉĻn":11323,"ĠdaÊĬntaÊĬn":11324,"ÊĥÃ¦tÊĮhÊĮt":11325,"ÊĴÉĻÉ¹É¹uËĲsÉĻlÉĻm":11326,"bÉªs":11327,"bÉ¹i":11328,"koÊĬt":11329,"woÊĬ":11330,"ÉªeÉªt":11331,"ĠhÉĽÉ¹i":11332,"ĠsaÊĬ":11333,"Êĥd":11334,"ÊĥÉľËĲ":11335,"ÊĥÊĮp":11336,"ÊĥeÉªst":11337,"ÊĥeÉªpt":11338,"ĠnÃ¦nd":11339,"ĠnÉĳdi":11340,"ĠaÉªsÉĻl":11341,"ĠÉ¡eÉªnz":11342,"ÊĴÉªÊĥÉĻn":11343,"ĠÉ¹Éĳn":11344,"ĠÉ¹ÉĶÉ¹ÉªÅĭ":11345,"ĠÎ¸aÉª":11346,"ÉĽlÉĽldiËĲ":11347,"ĠduËĲm":11348,"ĠÊĥiËĲlÉĻ":11349,"ĠsoÊĬlÉĻÉ¹":11350,"ĠÊĮnÉĶÉªd":11351,"ĠbaÉªÉĳlÉĻd":11352,"ĠbÉ¹ÊĮÊĥt":11353,"ĠwÉĽnz":11354,"iËĲnÉĻz":11355,"ĠdÉ¹ÉĶÉ¹z":11356,"ĠÉĽlÉĳÉ¹":11357,"ĠÊĮlÉĳÉ¹md":11358,"ĠlÉĶÅĭÉ¡ÉĻÉ¹É¹":11359,"ĠÃ¦lfÉĻ":11360,"ÉĶÉ¹iÉĻs":11361,"aÊĬdi":11362,"ĠsÉĽtlÉĻÉ¹z":11363,"ĠbÉĳksÉĻÉ¹":11364,"ĠpÉ¹ÉĽzÉªdÉĻnts":11365,"ĠpÉľËĲÉ¹":11366,"ĠdaÉªs":11367,"ĠfÉªlz":11368,"ĠkÉĻmpoÊĬn":11369,"ĠkÉĻmpÃ¦kt":11370,"ĠziÉĻÉ¹oÊĬÎ¸É¹iËĲ":11371,"uËĲsÉĻ":11372,"ĠfaÉªÉĻÉ¹wÉľËĲks":11373,"ĠÎ¸É¹ÉĶÅĭ":11374,"ĠhÉĳÉ¹vÉĻÉ¹d":11375,"ĠvoÊĬkÉĻlaÉªz":11376,"ĠlÊĮkÊĥÉĻÉ¹É¹i":11377,"ĠÉĶÉ¹É¡Ã¦nÉªk":11378,"ĠloÊĬki":11379,"ĠbÉĶÉªl":11380,"ĠsuËĲpÉĻÉ¹É¹":11381,"ĠpÉĻtÃ¦siÉĻm":11382,"ĠnÉªki":11383,"ĠpiÉĻÉ¹ÉªÉĻdz":11384,"ĠteÉªstÉªd":11385,"ĠtÉĽkniËĲk":11386,"ĠkÉ¹Ã¦ÊĥÉªÅĭ":11387,"ĠÉ¹ÉĽslÉĻÉ¹z":11388,"ĠbaÊĬndÉĻÉ¹É¹i":11389,"ĠÊĮmaÊĬnts":11390,"ĠpÃ¦dÉĻl":11391,"ĠÉ¹ÉĳsÊĮmÊĮndz":11392,"fiËĲldz":11393,"ĠsÃ¦tÉªsfÃ¦kt":11394,"ĠmÃ¦kswÉĽl":11395,"ĠkÉĶfÉªn":11396,"ÊĥÉĽsÉĽlÉĽldiËĲ":11397,"ĠkÉ¹uËĲÉĻlti":11398,"ĠdÉªsmeÉª":11399,"ĠskÉĳÉ¹f":11400,"ĠaÉªÉĻwÉĻ":11401,"ĠfaÊĬl":11402,"ĠkÉĳÉ¹pÉĻnt":11403,"ĠnÃ¦É¹ÉĻtÉªv":11404,"ĠÉ¹ÉĽvÉĻÉ¹É¹ÉĽnd":11405,"ĠdiËĲkÉ¹iËĲ":11406,"ĠpeÉªmÉĻnt":11407,"ĠhÉĽÉ¹oÊĬÉªn":11408,"ĠÊĮnbÉªliËĲvÉĻbÉĻl":11409,"ĠseÉªsÉĳÉ¹":11410,"ĠdÉªkÊĥÉĻnÉĽÉ¹i":11411,"bÉ¹ÉĻns":11412,"faÉªl":11413,"kÊĮl":11414,"liËĲ":11415,"mÉĻl":11416,"sbi":11417,"Éªi":11418,"Éªw":11419,"ÉªÉªd":11420,"ÉĶÉ¹Éªn":11421,"skÉĻ":11422,"ĠtÉªps":11423,"ĠsÉªb":11424,"ĠsÃ¦É¹":11425,"ĠdÉªÅĭÉ¡":11426,"Êĥk":11427,"ĠmÉĻs":11428,"ĠmeÉªtÉĻÉ¹":11429,"ĠpÊĮÅĭkt":11430,"ĠÉ¡aÊĬt":11431,"ĠÉ¹aÊĬ":11432,"ĠÉ¹Ã¦Åĭks":11433,"ÉªtaÉªm":11434,"ÉªtÉĻÉ¹É¹ÉĻ":11435,"ĠhÃ¦É¡":11436,"ĠhÉªn":11437,"ÉĻÉ¹É¹eÉªtÉªÅĭ":11438,"ĠwÉªki":11439,"ÉĽmÉĽm":11440,"ĠlaÉªm":11441,"ĠvÉªv":11442,"ĠsoÊĬbÉĻÉ¹":11443,"ĠsÊĮmÉĻÉ¹z":11444,"ĠwÉĽld":11445,"ĠskaÊĬt":11446,"ĠdÉ¹eÉªn":11447,"ĠpÉĻÉ¹mÉªt":11448,"ĠtÉĽlÉªn":11449,"ĠÃ¦ntiËĲ":11450,"ÉĻzÉĽl":11451,"ÊĮbÉªk":11452,"ĠdiËĲsiËĲ":11453,"ĠÃ¦lfi":11454,"ÉĳÉ¹É¹ÉĳÉ¹É¹":11455,"ĠfjuËĲÉĻÉ¹":11456,"ÉĶÉ¹iÉĻnz":11457,"ĠsnÉĳÉ¹":11458,"ĠmoÊĬÊĥÉĻnz":11459,"ÊĴÉĽnÉªf":11460,"ĠmjuËĲzÉªÊĥÉĻnz":11461,"ĠmÉĳÉ¹s":11462,"ĠleÉªks":11463,"ĠÉ¹ÉªzÉľËĲvd":11464,"ĠsÊĮbweÉª":11465,"ĠhjuËĲmÃ¦n":11466,"biËĲnoÊĬ":11467,"ĠdÉªpÉĳÉ¹tÉªd":11468,"ĠdÉªpÉĳÉ¹tmÉĻnts":11469,"ĠdÉªmÉªt":11470,"ĠkÉĶÉ¹tÉĳnÉĻ":11471,"ĠnÉĽtwÉľËĲks":11472,"ĠfÉĳloÊĬÉĻÉ¹z":11473,"ÊĴÊĮmpÉĻÉ¹":11474,"ĠÉĽldÉªst":11475,"ĠweÉªstÉªÅĭ":11476,"ĠÉ¹ÉĽzÉªÉ¡neÉªÊĥÉĻn":11477,"ĠÉĳksÉĻn":11478,"ĠjoÊĬjoÊĬ":11479,"ÊĥÉªÉ¹fÉĻli":11480,"ĠpÊĮpÉªz":11481,"ĠslaÉªdz":11482,"ĠmÊĮltÉªp":11483,"ĠsÉĻÉ¹É¹aÊĬndÉªÅĭz":11484,"ĠÉĽmplÉĶÉªiËĲz":11485,"ĠÉĽtsÉªtÉĻÉ¹É¹ÉĻ":11486,"ĠfÉĽstÉªv":11487,"ĠÉ¡lÃ¦nsÉªÅĭ":11488,"ĠmeÉªnteÉªnd":11489,"ĠÉĽlmoÊĬ":11490,"ĠdÉªvaÉªsÉªz":11491,"ĠwÉªzdÉĻm":11492,"ĠÃ¦stÉĻÉ¹É¹ÉªskÊĮstÉĻÉ¹É¹ÉªskÊĮstÉĻÉ¹É¹Éªsk":11493,"ĠkÉªdnÃ¦pt":11494,"ĠnÉĽlsÉĻn":11495,"ĠkÉĻnviËĲnÉªÉĻnt":11496,"ĠhÉĻwaÉªiËĲ":11497,"ĠjuËĲÉĽfoÊĬ":11498,"ĠstÊĮbÉĻÉ¹n":11499,"bÉĻs":11500,"bÉ¹uËĲ":11501,"hÉĳÉ¹":11502,"pÃ¦É¹ÉĻ":11503,"sÉªks":11504,"É¹eÉªn":11505,"ÉĻÊĥ":11506,"ĠwÉĶÉ¹s":11507,"ĠtÉĽns":11508,"ĠtÉĽÉ¹ÉªÅĭ":11509,"ĠsÉĶÉª":11510,"ĠsÉľËĲn":11511,"ĠsÊĮks":11512,"ĠbeÉªn":11513,"ĠmeÉªsÉĻn":11514,"ĠfÊĮm":11515,"ĠaÉªvÉĻn":11516,"ÊĴeÉªs":11517,"ĠÉªnsÉĻl":11518,"ĠÉ¹Ã¦Êĥ":11519,"ĠoÊĬki":11520,"ĠÊĥÃ¦k":11521,"ĠÊĥÉĽÉ¹z":11522,"ĠhiËĲhiËĲ":11523,"ĠsteÉªsi":11524,"aÉªti":11525,"ĠnÉĳtwÉªÃ°":11526,"ĠpÉ¹ÉĽf":11527,"ĠkÃ¦nvÉĻs":11528,"ĠÊĮnsÉĻksÉĽs":11529,"aÉªdÉĻn":11530,"ĠkÃ¦lÉĻnd":11531,"ĠÉĽnl":11532,"ĠpiËĲÉĽl":11533,"ĠÉĶÉ¹aÉªt":11534,"ĠÉĶÉ¹liÉĻnz":11535,"oÊĬzi":11536,"ĠspÉªÉ¹z":11537,"biÉĻÉ¹":11538,"ĠseÉªÉªn":11539,"ÉĽktÉĻÉ¹":11540,"ĠkÉ¹ÊĮm":11541,"ĠkwÉĳd":11542,"É¹uËĲs":11543,"ĠdÉªsÉĽnd":11544,"ĠlÉĽbÉĻn":11545,"ĠmÊĮmz":11546,"ĠdaÉªÃ¦ndÉ¹ÉĻ":11547,"ĠsÉªÉ¹iÉĻl":11548,"bÉĶlz":11549,"ĠÃ¦ntoÊĬn":11550,"ĠÉĳnÉĻÉ¹É¹ÉĻbÉĻl":11551,"ĠÉ¡ÊĮvÉĻÉ¹nÉĻÉ¹z":11552,"ĠdÉªnÉĻÉ¹z":11553,"ĠÉ¡Ã¦É¹ÉĻ":11554,"ÊĴÃ¦nÉªt":11555,"ĠeÉªmd":11556,"ĠtÉ¹ÉªÉ¡ÉĻÉ¹":11557,"ĠpoÊĬsts":11558,"ĠÃ¦kjuËĲz":11559,"ĠpÉĳpjÊĬlÃ¦É¹Éªti":11560,"ĠÉ¹aÉªÉĻt":11561,"ĠpÃ¦khÃ¦Åĭ":11562,"ĠdÉªspÉĻzÉªÊĥÉĻn":11563,"ĠpÉĳlÉªtÉªÊĥÉĻnz":11564,"ĠpÉĽnsÉĻlz":11565,"ĠhÉľËĲÉ¹iÉªÅĭ":11566,"ÉĳzÉĻ":11567,"ĠbÊĮsÉªz":11568,"ĠskwÉĽÉ¹z":11569,"ĠtÊĬÉ¹É¹Éªst":11570,"ĠÉĽstoÊĬniÉĻ":11571,"ĠtÉªmbÉĻÉ¹":11572,"ĠdÉĶbÊĮs":11573,"ĠpÉ¹Éªnts":11574,"ĠmÃ¦njuËĲÉĻl":11575,"ĠkÉ¹ÉĶlz":11576,"ĠdÉĽspÉĻÉ¹É¹ÉĻtli":11577,"ĠsÉĻluËĲt":11578,"ĠtaÉªdiÉªÅĭ":11579,"ĠkÃ¦ndÉªdeÉªts":11580,"ĠpÃ¦tÉĻÉ¹nz":11581,"ĠdoÊĬnÊĮts":11582,"ĠsÉªÉ¡ÉĻÉ¹É¹ÉĽts":11583,"ĠsaÉªklÉªst":11584,"ĠÊĮbÊĮndÉĻnt":11585,"ĠmÉĽkÉĻn":11586,"ĠÎ¸ÉĽÉ¹ÉĻpi":11587,"ĠkÉĳntÉ¹ÉªbjuËĲÊĥÉĻn":11588,"ĠnÉĳtwÉªÃ°stÃ¦ndÉªÅĭ":11589,"jÉľËĲ":11590,"oÊĬÉĽm":11591,"ĠdÉĽvÉĻn":11592,"ĠdoÊĬm":11593,"ĠnÉªÅĭÎ¸":11594,"ĠpÉªÅĭÉ¡":11595,"ĠlÉªÅĭÉ¡w":11596,"ĠaÉªÉĻl":11597,"ĠÉ¹ÊĬk":11598,"ĠÉ¹ÉĳnÉĻld":11599,"ĠoÊĬÉĽs":11600,"ĠÊĥÉĽli":11601,"ĠstÉĶÉ¹Éªd":11602,"ĠfÉĶÉ¹bz":11603,"ĠjÊĬÉ¹É¹uËĲ":11604,"ĠÉ¹ÉªÃ°ÉĻm":11605,"ĠvoÊĬ":11606,"ĠsiËĲlz":11607,"ÉªfÉĻl":11608,"ĠtÉ¹ÉĽÊĴÉĻÉ¹É¹":11609,"ĠÉ¹aÉªtli":11610,"ĠÉªntÉĽÉ¹ÉĻ":11611,"ĠskuËĲt":11612,"Ã¦ndÉĻÉ¹z":11613,"ĠkÉ¹ÊĮt":11614,"ĠslÉªÅĭ":11615,"ĠblÊĮnt":11616,"ĠkwÉªz":11617,"ĠeÉªbÉ¹":11618,"ĠfloÊĬÉªÅĭ":11619,"plÉªÅĭ":11620,"ĠkÉĻmÉĽns":11621,"ĠbeÉªkt":11622,"ĠÉ¹iËĲÉªl":11623,"ĠÉ¹iËĲkÉĻn":11624,"ĠmÊĮstÉĻv":11625,"ĠÉĽÉ¹z":11626,"ĠkÉĶÉ¹sÉĽÉ¹z":11627,"ĠdaÉªÉĳksaÉªd":11628,"ĠdÉªvÉªÊĴÉĻnz":11629,"ĠsÉªnsÉªÉ¹":11630,"ĠkÉĳlÉĻÉ¹":11631,"ĠfÉªÊĥÉªz":11632,"ĠÉĳÉ¹tÉªf":11633,"ÊĴÉªtÉªv":11634,"ĠvaÉªbÉ¹":11635,"ĠkÉĻndÉĽm":11636,"ĠpÉ¹Ã¦ktÉªst":11637,"ĠÉ¹ÉªkwaÉªÉĻÉ¹z":11638,"ĠdÉĽkÉĻÉ¹É¹eÉªÊĥÉĻn":11639,"ĠÉ¡ÉªlbÉĻÉ¹t":11640,"É¹ÉªpÊĥÉĻnz":11641,"ĠsÃ¦lv":11642,"ĠtÉĶlÉĻÉ¹":11643,"ĠkÉĳÉ¹loÊĬz":11644,"ĠÃ¦ÅĭÉ¡É¹ili":11645,"ĠdiËĲdz":11646,"ĠbÉĳni":11647,"ĠfÊĮsÉªÅĭ":11648,"ĠpiËĲnÊĮts":11649,"ĠsÉĻfÉªÊĥÉĻntli":11650,"ĠpÊĮblÉªÊĥÉªÅĭ":11651,"ĠÃ¦Êĥli":11652,"ĠspÉĽkteÉªtÉĻÉ¹z":11653,"ĠÊĮkÉĳmplÉªÊĥ":11654,"ĠsmÃ¦Êĥt":11655,"ĠpÉ¹ÉĻh":11656,"ĠpÉĳÉ¹tnÉĻÉ¹É¹":11657,"ĠkwÉĶntÉªti":11658,"ĠhÉĳnÊĥuËĲ":11659,"ĠdÉªsÊĮÉ¡É¹iËĲÉĻbÉĻl":11660,"ĠpliËĲb":11661,"ĠÉĳlÉªviÉĻ":11662,"ĠbÃ¦ktÉªÉ¹iÉĻ":11663,"ĠdÉĽnsÉªti":11664,"ĠÊĮltÉªmÉĻt":11665,"ĠpÃ¦É¹ÉĻdaÉªs":11666,"ĠmÃ¦Î¸ÉªmÃ¦tÉªks":11667,"ĠkÉĳnsÉĻlt":11668,"ĠaÉªbÉ¹aÊĬz":11669,"ĠdÉĽklÉĻÉ¹É¹eÉªÊĥÉĻn":11670,"naÉªn":11671,"sÉĶl":11672,"sÉĽvÉĻn":11673,"vÉľËĲt":11674,"É¹ÉĻÉ¹":11675,"É¹eÉªz":11676,"eÉªÉĻn":11677,"ĠhoÊĬz":11678,"ĠÉªli":11679,"ĠsÃ¦h":11680,"ĠpÉĽnt":11681,"ĠpÊĮnd":11682,"ĠÉªnsk":11683,"ĠÉ¹Ã¦nt":11684,"ĠÉ¹aÉªmz":11685,"ĠÎ¸ÉĶÉ¹n":11686,"Ã¦nÉªm":11687,"ĠvÉªÉ¡":11688,"ĠpÉ¹uËĲd":11689,"ĠkÃ¦É¹ÉĻ":11690,"ĠpiËĲsiËĲaÉª":11691,"Ã¦dz":11692,"ĠskoÊĬ":11693,"Î¸ÉªÅĭk":11694,"É¹oÊĬk":11695,"ĠflÉªk":11696,"iËĲtoÊĬz":11697,"ĠnaÉªvz":11698,"ĠmÃ¦h":11699,"ÊĮbÉªlÉĻti":11700,"ĠzaÉª":11701,"ĠdiËĲm":11702,"ĠdÉĳnt":11703,"ĠtÉ¹aÉªfÉĻl":11704,"ĠdÉªfÉĽndÉªd":11705,"ĠÊĮtÉĽndÉªÅĭ":11706,"ĠslÃ¦ÊĥslÃ¦Êĥ":11707,"ĠsÉĽntÉĻnst":11708,"É¡É¹Ã¦d":11709,"ĠlÉĶfti":11710,"ĠkÉĻnsp":11711,"ĠdaÉªÃ¦n":11712,"ĠÊĮfl":11713,"ĠpÃ¦É¹ÉĻn":11714,"ĠspiËĲkÉĻÉ¹É¹":11715,"ĠkÉ¹iËĲpÉªÅĭ":11716,"ĠfÊĬlfÉªl":11717,"ĠplÃ¦nÉªts":11718,"ĠÉĽkstÉĽnÊĥÉĻn":11719,"ÊĴÉĶÉªmÉĻnt":11720,"ĠwÉĶlÉªt":11721,"ĠÉ¹eÉªzÉªz":11722,"ĠdeÉªtaÉªm":11723,"ĠhÉĶk":11724,"ĠÃ¦lbÉľËĲt":11725,"ĠÉ¹ÉĳbÉªnz":11726,"ĠstiËĲvz":11727,"ĠkjÊĬÉ¹É¹i":11728,"ĠÉ¹ÉĽÉ¡jÊĬlÉĻÉ¹É¹":11729,"ĠÉ¹ÉĽsÉĻl":11730,"ĠmÃ¦dÉĻmÉĻzÉĽl":11731,"ĠfÉªzÉªÊĥÉĻn":11732,"ĠÉĶÉ¹É¡ÊĮnÉĻzeÉªÊĥÉĻn":11733,"ĠpiËĲtÉĻÉ¹É¹":11734,"ĠslaÉªdÉªÅĭ":11735,"ĠdÉĽmÉĻkÉ¹Ã¦ts":11736,"ĠÉĳpÉĻÉ¹tuËĲnÉªtiz":11737,"ĠdiËĲteÉªld":11738,"ĠfÉľËĲnÉªÊĥt":11739,"ĠÊĮdmÉªnÉªstÉĻÉ¹":11740,"ĠÉªndÉªkeÉªts":11741,"ĠtÉ¹eÉªsi":11742,"ĠkÊĮneÉªdiÉĻnz":11743,"ĠÎ¸iÉĻtÉĻÉ¹É¹":11744,"ĠoÊĬvÉĻÉ¹lÃ¦p":11745,"ĠdÉªzÉľËĲvz":11746,"ĠÃ¦nÎ¸ÉĻm":11747,"ĠÉ¹ÉªpleÉªsmÉĻnt":11748,"ĠdoÊĬnÊĮt":11749,"ĠkÉĻmÉªÊĥÉĻnÉĻÉ¹":11750,"ĠÉ¡É¹iËĲtÉªd":11751,"ĠÉªmpÉ¹uËĲvmÉĻnt":11752,"Ã¦É¹ÉĻst":11753,"poÊĬlz":11754,"ĠkÉ¹ÉªtÉªsÉªzÉĻm":11755,"ĠÉĽkspÃ¦ndÉªd":11756,"ĠÉªnfÉĻntÉ¹i":11757,"ĠsnuËĲpi":11758,"ĠÉĶkÊĥÉĻn":11759,"ĠÉªndÉªstÉªÅĭkt":11760,"ÊĥÃ¦kswÉĽÉ¹i":11761,"ĠduËĲploÊĬ":11762,"ĠnÉĻbÉ¹Ã¦skÉĻ":11763,"hÉĳp":11764,"kÉĶÉ¹s":11765,"wÉªÅĭ":11766,"wÉĳl":11767,"É¹aÊĬ":11768,"ĠsaÊĬÉĻÉ¹":11769,"ĠbÉĳÉ¡":11770,"ÊĥtiËĲ":11771,"ĠfÉĶnt":11772,"ÊĴÉľËĲd":11773,"Ã¦ti":11774,"ĠÎ¸ÉĽft":11775,"juËĲÊĥÉĻnz":11776,"ĠvoÊĬl":11777,"ĠpÉ¹aÊĬ":11778,"ĠlaÉªkÉªÅĭ":11779,"ĠkÃ¦bÉªd":11780,"ĠtÉ¹Éĳli":11781,"ĠaÊĬtÉ¹eÉªd":11782,"ÉªstÉĻ":11783,"ĠÉ¡É¹eÉªn":11784,"ÉĽndÉĻl":11785,"ĠkÉ¹Ã¦Åĭk":11786,"ĠkÉ¹Éĳps":11787,"ĠÉĳz":11788,"ĠÊĮmiËĲliÉĻ":11789,"ĠbÃ¦kstÉĻÉ¹":11790,"ĠhÃ¦ndfÉĻl":11791,"ĠÉĻÉ¹É¹aÊĬzd":11792,"ĠÉªndÉĽks":11793,"ĠpÉĻÉ¹sÉĽntÉªd":11794,"ĠdÉªÉ¹aÉªvd":11795,"ĠaÉªvi":11796,"ĠÃ¦lÉªk":11797,"ĠkÉĻntÉ¹Ã¦kt":11798,"ĠbÉĶlt":11799,"ĠdÉªskaÊĬnt":11800,"ĠsÉªÉ¹iÉĻ":11801,"ĠÃ¦nsÉĽstÉĻÉ¹z":11802,"ĠdÉªzaÉªnz":11803,"ÉĶsi":11804,"ĠÉĻbsk":11805,"ĠfÃ¦ktÉĻÉ¹":11806,"ÊĴoÊĬks":11807,"ĠtÉ¹Ã¦nsÉªÊĥÉĻn":11808,"ĠviËĲÉĽs":11809,"ĠÃ¦ksÉªdÉĻnts":11810,"ĠhÉĶks":11811,"ĠdaÊĬtfÉĻl":11812,"ĠÉ¡É¹iËĲdi":11813,"ĠÊĮtÃ¦kÉªÅĭ":11814,"ĠfeÉªvÉĻÉ¹É¹Éªts":11815,"ĠÉ¹ÉªmÉĽmbÉ¹ÉĻns":11816,"ĠsÊĮbdÉªv":11817,"ĠvÉĳljuËĲmz":11818,"ĠÊĮtÉĽmptÉªÅĭ":11819,"ĠweÉªstbÃ¦skÉªt":11820,"ĠÉ¹ÉĽzÉªdÉĻnts":11821,"ĠsaÉªkoÊĬ":11822,"ĠmuËĲnlaÉªt":11823,"ĠkÉĻntÉªnjuËĲÉĻs":11824,"ĠkÉ¹Éªm":11825,"ĠspÉ¹ÉĽdÉªÅĭ":11826,"ĠÉĽksaÉªtÉªdli":11827,"ĠÉªÉ¡nÉĶÉ¹d":11828,"ĠsÉĽpÉĻÉ¹É¹eÉªÊĥÉĻn":11829,"ĠstÉľËĲÉ¹ÉªÅĭ":11830,"ĠkÉĳÅĭkÉĻÉ¹d":11831,"ĠkÉĻntÉ¹oÊĬlz":11832,"ĠhÃ¦bÉªtÃ¦t":11833,"ÉªtuËĲÊĥÉĻnz":11834,"ÊĴÉªslÉĻt":11835,"ĠÉĶÎ¸ÉĻÉ¹É¹aÉªzd":11836,"ĠÉ¹oÊĬbÉĳt":11837,"ĠÉĽmfÉĻsÉªs":11838,"ĠÊĥÊĮvÉĻl":11839,"ĠÉ¡Ã¦stÉĻn":11840,"ĠÉĽÅĭkaÊĬntÉĻÉ¹":11841,"ĠfÊĮtiËĲ":11842,"ĠklÉĶÉ¹aÉªd":11843,"ĠÉªndoÊĬniËĲÊĴÉĻ":11844,"ĠÉ¡Ã¦lÊĮksi":11845,"jÉĳÅĭ":11846,"ĠÉĻÉ¹É¹Éª":11847,"É¹Ã¦f":11848,"ĠÃ¦ÊĥÉĻÉ¹":11849,"stÉĽp":11850,"ĠÃ°Ã¦nÉĻn":11851,"ĠmÃ¦Êĥ":11852,"ĠfiËĲz":11853,"ĠlÉĳl":11854,"ĠkaÉªÊĮÅĭ":11855,"ÊĴÉªsts":11856,"ÉĳÉ¹mz":11857,"ĠÉ¹eÉªk":11858,"ĠÎ¸iËĲvz":11859,"ĠoÊĬÉªÅĭ":11860,"ĠoÊĬÎ¸":11861,"ĠÊĥÃ¦m":11862,"ĠhÉªÉªuËĲ":11863,"ĠfÉĶÉ¹kÃ¦st":11864,"ÉĽmpÉĻÉ¹É¹":11865,"ĠsÉĽktÉĻÉ¹":11866,"ĠfÉ¹eÉªt":11867,"ĠfÉ¹Éĳk":11868,"ĠvÉªÊĥÉĻl":11869,"ĠsiËĲÉ¡":11870,"ĠÃ¦tÉĻÉ¹":11871,"ÉĻmpl":11872,"ĠÉªntÉ¹uËĲd":11873,"ĠkÉ¹Ã¦m":11874,"ĠkÉ¹ÊĮÊĥt":11875,"eÉªzÉĻl":11876,"ĠtiËĲÉĽf":11877,"ĠÊĮÉ¡É¹ÉĽsÉªv":11878,"ĠflÊĮÊĥ":11879,"ĠpleÉªÉĶfs":11880,"ĠkÃ¦ntÉĳnz":11881,"ĠdÉªsÉĽmbÉĻÉ¹É¹":11882,"ĠmÊĮtÉĻÉ¹É¹ÉªÅĭ":11883,"ĠdÉªÉ¹li":11884,"ĠÃ¦laÉªn":11885,"ĠÊĮdÉĶÉ¹":11886,"ĠfaÊĬndÉªÅĭ":11887,"ĠÉĽÉ¡zÉªb":11888,"stÉ¹ÊĮkt":11889,"ĠbÉľËĲm":11890,"ĠdÉªvoÊĬÊĥÉĻn":11891,"ÊĴÉĽktÉªvz":11892,"ĠbeÉªsÉªz":11893,"aÉªÉĻÉ¹n":11894,"ĠhÉĶÉ¹smÉĻn":11895,"ĠsÉĽlÉĻÉ¹É¹i":11896,"ĠbÉªldÉĻÉ¹z":11897,"ĠÉ¡Ã¦spÉªÅĭ":11898,"ĠpÃ¦tÉĻn":11899,"ĠstÉ¹ÉĶÅĭÉ¡Éªst":11900,"ĠpÉĻliËĲsmÉĽn":11901,"ĠkÉĻlÃ¦b":11902,"Ã¦vtÉĻ":11903,"ĠÉ¹Éĳz":11904,"ĠkÉĻnsÉªdÉĻÉ¹É¹ÉĻbli":11905,"ĠpÉĳstÉĻ":11906,"ĠkÉĶÉ¹pÉĻÉ¹É¹":11907,"ĠÉ¹oÊĬzÉĻv":11908,"ÊĴÉªtÉĻbÉĻl":11909,"ĠiËĲvnÉªÅĭz":11910,"ĠdaÊĬts":11911,"ĠÉªlÉĻstÉ¹eÉªÊĥÉĻnz":11912,"ĠaÉªdÉĽntÉªkÉĻl":11913,"ĠkÉĻnstÉ¹ÊĮkt":11914,"ĠkÉĻnstÉ¹ÊĮktÉªd":11915,"ĠÉ¡Ã¦bÉĻÉ¹É¹":11916,"ĠÉ¡Ã¦bÉ¹iËĲÉĻl":11917,"ĠÉĽmbÃ¦É¹ÉĻst":11918,"ĠkÃ¦pÊĬÉ¹":11919,"ĠÉªkÉªnÉĳm":11920,"ĠÉ¹ÉªstÉĶÉ¹":11921,"ĠÉ¹ÉªneÉª":11922,"ĠdÉĽpÎ¸":11923,"ĠbÊĮmpt":11924,"ĠbÊĮzÉªÅĭ":11925,"ĠpÊĮblÉªÊĥÉĻÉ¹z":11926,"ĠpÃ¦ndÉĽmÉªk":11927,"ĠmaÊĬÃ°z":11928,"ĠkÃ¦tÉªÉ¡ÉĻÉ¹É¹iz":11929,"ĠtÉĳtÉĳ":11930,"piËĲdiÉĻ":11931,"ĠkÉĽntÊĮki":11932,"ĠpÉªtsbÉľËĲÉ¡":11933,"ĠbÉ¹ÉªÉ¡eÉªd":11934,"ĠÉ¹ÉĽsÉªpiËĲ":11935,"ĠkoÊĬÉªnsÉªdÉĻns":11936,"ĠÉ¹ÉĽkÉĻmÉĽndÉªd":11937,"ĠkjÊĬÉ¹É¹iÉĻsli":11938,"hÉĽÉ¹d":11939,"kiËĲpÉĻÉ¹":11940,"ÊĮstÉĻÉ¹É¹i":11941,"ĠÃ¦biËĲnoÊĬ":11942,"ĠhÉĽÉ¹d":11943,"ĠdeÉªdÉĻÉ¹":11944,"ÊĥtiËĲtiËĲ":11945,"É¡Ã¦n":11946,"É¡ÊĮn":11947,"ĠfÊĮkt":11948,"ĠfeÉªdÉªd":11949,"ĠfÉªliz":11950,"ĠnÉªm":11951,"ĠlÉĽks":11952,"ĠaÉªÉĻÉ¹z":11953,"ĠaÉªÉĻd":11954,"ĠÉ¡Éªld":11955,"ĠiËĲmeÉªl":11956,"ÉĻÉ¹É¹ÉĽkt":11957,"ÉªzÉªbÉĻl":11958,"ÊĮneÉªt":11959,"ĠsiËĲbiËĲÉĽs":11960,"É¹iËĲÉ¡":11961,"ĠÊĮpwÉĻÉ¹d":11962,"ĠÊĮpÉªÉ¹ÉªÅĭ":11963,"ĠplÊĬÉ¹É¹ÉĻl":11964,"ÉĻmb":11965,"ĠpÉ¹ÊĮÊĥÉĻ":11966,"ĠÊĮniÉĻnz":11967,"ĠÉĽnbiËĲsiËĲ":11968,"ĠpiËĲeÉªt":11969,"ÉĶlÉªÅĭ":11970,"ĠÉĶÉ¹iÉĻnt":11971,"ĠlÃ¦s":11972,"ĠmÉĳtoÊĬ":11973,"ftÉĻbli":11974,"ĠklÉªps":11975,"ĠÉªntÉªÉ¹iÉĻÉ¹":11976,"ĠblÉĳkt":11977,"ĠflÉĶ":11978,"ÊĮkÉĻl":11979,"oÊĬkoÊĬ":11980,"ĠmÉªsÉĻlz":11981,"ĠÉ¹uËĲstÉĻÉ¹":11982,"ĠdÃ¦dÉĶ":11983,"ĠsÉªÅĭÉĻÉ¹z":11984,"ĠhÃ¦pÉªÉĻÉ¹":11985,"ĠpÉĳÉ¹kt":11986,"ÊĴÉĽnoÊĬÉĻ":11987,"ĠÉĽlsÉªz":11988,"ĠpÉĳpi":11989,"ĠhÊĮdsÉĻn":11990,"ĠbÉªliËĲvÉªÅĭ":11991,"ĠÉ¹ÉªmÉĽmbÉĻÉ¹É¹ÉªÅĭ":11992,"ĠmaÉªkÉĻlz":11993,"ĠmÃ¦dÉªsÉĻn":11994,"ĠstÉĳÉ¹vÉªÅĭ":11995,"ĠkÊĮpÉĻlz":11996,"ĠneÉªoÊĬmi":11997,"ĠpÉ¹ÉĻfaÊĬnd":11998,"ĠpÉ¹ÉĻtÉĽstÉªd":11999,"ĠmÃ¦sÉªz":12000,"ĠbÊĬlz":12001,"ĠsuËĲpÉĻÉ¹v":12002,"ĠÊĥeÉªkÉĻn":12003,"ĠdÉĽfÉªnÉĻt":12004,"ĠpÉĻÉ¹fÉĶÉ¹mÉĻnsÉªz":12005,"ĠÉ¡ÉªÉ¡lÉªÅĭ":12006,"ĠstÉ¹ÊĮÉ¡ÉĻlz":12007,"ĠÉªnfluËĲÉĻnst":12008,"ĠsÉĳbz":12009,"ĠdÉªzaÉªnÉĻÉ¹":12010,"ĠpÊĮnÉªÊĥt":12011,"ĠeÉªkÉĻÉ¹z":12012,"ĠsÉĽpÉ¹ÉĻtli":12013,"ĠspÉªnÉªÅĭ":12014,"ĠÎ¸iËĲoÊĬ":12015,"ĠeÉªsÉľËĲkÉĻmflÉĽks":12016,"ĠsÉªÉ¡nÉªfÉªkÉĻntli":12017,"ĠbÃ¦kwÉĻÉ¹d":12018,"ĠfÉ¹iËĲzÉªÅĭ":12019,"ĠÉ¡ÉĳsÉªp":12020,"ĠmjuËĲhÊĮm":12021,"ĠdaÉªnÉªÅĭÉ¹uËĲm":12022,"ĠbÊĮstÉªd":12023,"ĠÉĽmbÉ¹eÉªs":12024,"ĠkoÊĬÉĶÉ¹dÉªn":12025,"ĠkÉĻmpÃ¦É¹ÉªsÉĻn":12026,"ĠtÃ¦blÉĻts":12027,"ĠiËĲsÉĻnd":12028,"ĠhÉªÉ¹oÊĬÉªk":12029,"ĠÉĶÉ¹Î¸ÉĻd":12030,"ĠvÉĳlkeÉªnoÊĬ":12031,"ĠkliËĲvlÉĻnd":12032,"ĠÉªkÉªnÉĳmÉªjÉĻ":12033,"bÉĻnt":12034,"Ã¦É¹ÉĻn":12035,"ÉĶÉ¹Éª":12036,"ĠsÃ¦É¡":12037,"ĠdaÉªm":12038,"ÊĥÉĻz":12039,"ÊĥeÉªnz":12040,"ĠmÉĶÅĭ":12041,"ĠfÉ¹Éªts":12042,"ĠlÉªnzi":12043,"ĠÉ¡É¹Éªd":12044,"ÊĴÉĽndÉĻ":12045,"ĠÉªnÉªÊĥÉĻl":12046,"ĠÉªnÉĽvÉªt":12047,"ĠÎ¸ÊĮnd":12048,"ĠÊĥÉĶl":12049,"ÉĻÉ¹É¹ÉĻÉ¹z":12050,"ĠstÉªÅĭ":12051,"ĠstÉĽl":12052,"ĠfÉĶÉ¹ÉĽst":12053,"Éªkts":12054,"ĠÉĳÉ¹É¹ÉĽs":12055,"ĠÊĮpt":12056,"ĠÊĮpÉĶÉªnt":12057,"ĠnÉĳtÉªÅĭÃ¦m":12058,"ÉĽsÉĻnt":12059,"ĠÉĽnbiËĲ":12060,"ĠÉ¡É¹ÊĮndi":12061,"ĠspÉĳns":12062,"ĠskaÉªz":12063,"ĠskÃ¦ndÉĻl":12064,"ĠÉĳÉ¡":12065,"ĠeÉªpÉ¹ÉĻn":12066,"ĠsÉľËĲbiÉĻ":12067,"ĠweÉªlÉªÅĭ":12068,"ĠwÊĮtsoÊĬ":12069,"ĠkÉĻmÉªtiz":12070,"ĠswÉĶÉ¹n":12071,"ĠsÉªtÉªn":12072,"ĠnaÉªttaÉªm":12073,"ĠsÉªÅĭÉĻÉ¹s":12074,"ĠÉĽkoÊĬ":12075,"ĠuËĲm":12076,"ĠfÉĽlÉĻ":12077,"ĠÉĽkspÉľËĲts":12078,"ĠfÉĶÉ¹mÉĻli":12079,"ĠdÉªpÉ¹":12080,"ĠdÉªplÉĻm":12081,"ĠkÉªÅĭstÉĻn":12082,"ĠÉ¡ÉĳÉ¹dÉªd":12083,"É¹ÉªzeÉªÊĥÉĻn":12084,"ĠneÉªÎ¸ÉĻn":12085,"ĠsÃ¦ndÉĻÉ¹z":12086,"ĠÊĥÉªpÉªÅĭ":12087,"ĠmÉĻhÃ¦mÉªd":12088,"ĠÉ¹ÉªvoÊĬlt":12089,"ĠkwÉªkÉĻÉ¹":12090,"ĠsplÉªnt":12091,"ĠkÉĳmÉĻnwÉĽl":12092,"ĠtÉ¹ÊĮstÉªÅĭ":12093,"ĠlÉĽmjuËĲl":12094,"ĠkjuËĲbÉĻ":12095,"ĠÊĥoÊĬldÉĻÉ¹É¹":12096,"ĠfÉªlmÉªÅĭ":12097,"ĠÉ¹ÉªbÉĻnz":12098,"ĠÃ¦É¹ÊĮbÉªk":12099,"ĠhÉªstÉĶÉ¹iÉĻnz":12100,"ĠÉĳdz":12101,"ÊĥÊĬnz":12102,"ĠdÉ¹ÉĽdfÉĻli":12103,"ĠsÉĳÉ¹diËĲnz":12104,"ĠÉĶltÉĻÉ¹d":12105,"ĠdÉªstÉ¹ÉĶÉªÉªÅĭ":12106,"ĠpiËĲnÉªs":12107,"ĠÊĮnsÉľËĲtÉĻn":12108,"ĠdÉªziËĲzÉªz":12109,"ĠoÊĬbeÉªd":12110,"ÉĻÉ¹veÉªÊĥÉĻnz":12111,"ĠÊĮdvÃ¦nsÉªÅĭ":12112,"ĠÉ¡É¹aÊĬlÉªÅĭ":12113,"ĠmÉĽmbÉĻÉ¹ÊĥÉªp":12114,"ĠÃ¦Î¸liËĲt":12115,"ĠÉªmplÉªmÉĻnt":12116,"ĠÉĳÉ¹É¡juËĲmÉĻnts":12117,"ĠbÉ¹ÉĶdkÃ¦stÉªÅĭ":12118,"ĠÊĮfÉĽkÊĥÉĻnÉĻt":12119,"ĠkoÊĬÉĳpÉĻÉ¹É¹eÉªÊĥÉĻn":12120,"ĠdÉªstÉªÅĭÉ¡wÉªÊĥ":12121,"ĠhÊĮÅĭÉ¡ÉĻÉ¹É¹i":12122,"ĠÉĽmbÃ¦É¹ÉĻsÉªÅĭ":12123,"ĠÉĻpoÊĬnÉĻnt":12124,"ĠnÃ¦vÉªÉ¡":12125,"ĠskÉĽlÉªtÉĻn":12126,"ĠÃ¦bÉĻÉ¹É¹Éªd":12127,"ĠÃ¦ltÉªtuËĲd":12128,"ĠÃ¦ntoÊĬnÉªoÊĬ":12129,"ĠÉĻbskjÊĬÉ¹":12130,"ĠfÊĮtiËĲÉ¡":12131,"ÊĥtiËĲtiËĲpiËĲ":12132,"ĠsÉªÅĭÉĻÉ¹sÉĶÅĭ":12133,"hÉĻÉ¹":12134,"jÉĻÉ¹z":12135,"lÃ¦d":12136,"ÉĻÅĭk":12137,"ÉĽÃ°":12138,"ĠÃ¦li":12139,"oÊĬÊĴÉĻÉ¹":12140,"É¹Éªft":12141,"ĠwÉĶÉ¹t":12142,"Ã¦vÉĻl":12143,"ĠkÉĶÉª":12144,"ĠtÊĮsk":12145,"ĠsÉĳf":12146,"ÊĥÃ¦nd":12147,"ĠjÃ¦k":12148,"ĠfÉªÉ¹ÉªÅĭ":12149,"ĠnÊĬÉ¹":12150,"ĠnÉªks":12151,"ĠpÉªnz":12152,"Ã°ÉĽm":12153,"ÊĴÉĽts":12154,"ĠÉ¹ÉĶÉ¹d":12155,"kwaÉªz":12156,"ĠsÉĽkt":12157,"ĠbiËĲps":12158,"ĠnÉĳts":12159,"ĠsoÊĬni":12160,"ĠsÊĮmÉĻs":12161,"Ã¦kiÉĻ":12162,"ĠÉĽnfÉĶÉ¹s":12163,"ĠÉĽnÉªtaÉªm":12164,"ĠÉªfÉªÊĥÉĻnt":12165,"iËĲzÉĻ":12166,"ĠbÉ¹ÊĮÊĥÉªÅĭ":12167,"ĠspeÉªd":12168,"ĠklÉľËĲk":12169,"ÉĳloÊĬ":12170,"ĠskÃ¦t":12171,"ĠblÊĮf":12172,"ĠbÃ¦kjÉĳÉ¹d":12173,"ĠflaÊĬÉĻÉ¹É¹":12174,"ĠoÊĬvÉĻÉ¹taÉªm":12175,"É¹uËĲf":12176,"ÉĻzbÉľËĲÉ¡":12177,"ĠÉ¹oÊĬÉ¡":12178,"ĠdÉªslaÉªk":12179,"É¹ÉªkÉĻn":12180,"ÉĽfÉĽf":12181,"ĠÃ¦ls":12182,"ĠmÊĮmblÉªÅĭ":12183,"aÉªvz":12184,"ĠÉªnvÃ¦l":12185,"ĠkÉĳnsoÊĬ":12186,"ĠlaÉªtÉªÅĭ":12187,"ĠÉ¹Ã¦li":12188,"ĠdÉªpl":12189,"ĠwuËĲÉĻzbÉľËĲÉ¡":12190,"ĠkÉªlÉĻm":12191,"ĠÉĽkspleÉªnÉªÅĭ":12192,"ĠÉĽksploÊĬdÉªd":12193,"ĠhjuËĲstÉĻn":12194,"ĠkÉ¹Éªsps":12195,"ĠkÉ¹ÉªstoÊĬ":12196,"ĠwÉĶlsÉĶl":12197,"ĠmÃ¦miz":12198,
[...]
